FC
42
A4
FE
E2
56
D8
66
D3
A1
73
BD
52
2D
9D
77
B6
AE
B3
4B
B9
57
11
F9
07
4E
AE
3A
CE
F0
AC
F1
72
C8
60
5E
26
2A
9C
A4
C1
98
EC
D7
00
9D
13
2C
2B
DA
73
B2
A8
A3
26
08
C6
54
AE
24
C1
D8
29
61
47
B8
0D
E6
EC
59
12
AE
11
3F
46
E7
FD
E8
E9
6B
5D
E4
18
50
B3
EE
4B
70
24
A3
02
CC
20
9E
12
1E
D7
F8
EB
A6
4E
FF
5D
60
BC
6C
4E
B9
4E
65
C9
E5
B9
E5
B7
7B
FC
E2
38
03
E7
1C
F9
00
DE
F3
57
50
AF
6C
3E
46
4C
24
2A
35
3A
D8
57
A4
0B
49
EF
F8
42
39
58
32
FC
FD
EC
21
47
43
D4
A5
02
CF
BD
FC
1D
36
30
C2
37
5A
D1
C7
FD
01
33
38
A9
DF
FC
01
F5
E9
DB
2D
B7
E4
10
E7
9D
0B
B0
C8
C4
B9
30
11
13
E6
14
0D
51
E7
6F
26
1F
5D
47
EB
AF
AC
25
6F
4D
2C
BA
C0
A7
59
55
FA
95
F5
CE
A7
21
FC
67
FC
4B
06
DC
3D
4C
09
31
D5
A5
14
2D
E7
EF
03
A7
A4
2B
C9
06
3E
FA
6A
B4
0D
43
F0
11
EC
48
D2
71
15
9E
F0
08
B8
D0
DD
0C
CF
65
C3
D0
D5
9F
1C
32
74
58
AD
70
C7
45
E3
22
21
C9
BF
61
26
D1
72
F8
D8
61
A1
9F
72
3A
5A
A6
2B
F7
AA
DA
2E
71
A2
6D
4F
4E
5C
37
13
02
BB
18
22
FA
D5
1B
42
1C
F7
08
F4
42
52
AD
C1
D3
2E
CE
48
CC
9D
35
D4
F0
77
B3
F1
66
3F
03
5B
AF
06
FD
B9
04
DD
0A
26
3C
19
63
B5
AF
45
2D
03
A2
6C
18
B6
AD
41
3C
F8
B4
DB
C9
DA
67
5A
25
47
B4
66
03
37
06
3C
22
AB
79
79
C8
98
D7
2C
B4
19
E9
5D
6D
C7
65
C4
F5
38
A1
C8
AA
CE
4E
2A
06
EB
B8
21
F4
37
D8
C6
D4
FA
71
62
5F
48
5E
DF
27
D3
CD
CF
00
DA
5A
0E
55
EB
41
BE
0E
9F
BB
EF
47
66
76
6F
D2
51
C3
32
62
17
65
04
CA
CA
E7
E6
DA
29
DF
EF
6F
FF
C2
B6
B3
F3
5F
46
1A
AE
1F
B8
70
2B
31
CF
45
57
7F
CF
3E
DF
41
4C
A8
28
E9
C0
2E
AB
33
FC
AA
B5
DC
20
F7
76
CC
1E
E1
EE
43
BD
AA
C0
C7
9F
6F
FC
B6
A8
DF
B7
9D
00
B8
B9
B0
31
A8
E3
44
E6
E7
09
A8
E4
B3
10
9B
FF
1B
CA
DD
54
19
FF
78
BE
14
D2
43
42
2B
B4
AB
1C
B7
42
7F
2D
4D
EF
66
71
F7
08
68
28
F6
5E
50
50
F7
F7
47
F2
46
FA
E1
36
18
05
0A
11
98
98
F1
0D
41
3E
5A
61
BE
F9
60
B0
AD
22
F0
43
0F
61
09
CB
1E
E3
6E
E4
12
D0
60
7C
A2
C4
AD
3F
B2
00
FF
3F
73
F6
15
6F
BA
63
2E
14
BE
25
D6
4A
C7
6D
A6
31
15
AC
2C
4B
E8
AF
EE
CD
9A
78
CE
54
E8
1B
6F
49
33
D8
B5
FE
C8
DF
6A
C9
EA
FD
DE
B8
B4
FF
01
D6
64
1A
FD
28
FD
F9
2E
FB
AB
68
B2
03
4E
D3
F4
C5
23
70
B9
D1
63
6D
F9
59
01
3C
16
59
A7
1B
76
F7
4B
0B
71
71
1E
18
30
04
AD
D6
DA
A6
F1
A7
F6
ED
B9
4D
29
EF
61
22
5A
4D
06
F9
FF
19
1A
E0
EB
08
0F
25
AF
4D
45
60
5B
3B
AF
A7
25
A4
30
7B
05
6C
CA
2E
A4
5E
50
46
D1
19
39
73
6C
F2
2C
9F
B0
E2
BE
BD
EA
ED
B5
71
BC
C7
B4
BB
1A
4D
E5
24
CB
6B
B5
E6
12
40
3C
64
BE
46
5B
A8
25
C6
01
59
07
70
51
F4
A4
50
D5
4B
1C
75
B8
4D
04
A0
4D
60
D7
2E
BC
6B
BC
EA
0D
42
37
00
CA
07
3B
FA
FF
5A
F2
45
6D
D7
25
23
96
61
54
49
C4
F7
FD
6E
E1
DF
F7
41
27
ED
0E
B5
6B
E1
C3
56
05
F6
DD
99
D1
13
20
9D
C6
DC
A0
FC
0F
95
C2
F5
E5
F5
06
08
59
A4
B4
C8
EF
6E
F1
20
68
AA
B4
13
A8
CD
70
B9
E8
A2
E5
21
02
E1
08
2C
40
11
B7
48
11
EB
56
9E
9D
E8
FD
D7
E7
53
9A
39
CC
19
D6
B6
04
08
ED
C5
BF
3A
CB
13
CD
93
BE
AB
73
AE
1F
7A
F0
A0
49
66
59
65
A8
6A
2F
FE
A7
38
BA
BB
F5
7B
45
44
D0
4B
B9
A6
EE
EE
C4
1B
EB
B5
27
15
50
EC
30
F8
62
53
2C
FA
64
BD
E5
A3
2D
BF
76
52
39
3A
ED
3D
BC
D9
9D
E2
67
56
03
50
58
B3
09
1A
0C
43
52
3A
23
3F
2F
38
5C
D6
04
EB
45
DD
42
28
61
70
D4
77
E8
DD
22
6C
03
48
04
07
EE
47
FF
B4
DB
55
32
09
BC
2E
AF
17
26
ED
01
78
71
6F
00
03
9F
07
5D
79
65
6B
D1
E7
B8
70
61
A5
50
CB
D4
F2
FD
D6
49
68
64
78
FA
C4
F5
48
60
5D
4D
72
4B
C5
F3
C0
FA
1E
01
55
17
B9
6D
9E
14
49
B2
61
15
2F
72
3A
37
FB
20
9F
2E
4E
57
DA
3C
0C
C1
E3
FF
37
A4
3C
E9
BA
49
58
23
39
20
F6
B5
36
E1
C3
C6
6B
E8
39
76
29
1C
C6
D4
73
EE
B1
EC
3C
08
E6
12
C3
C9
D6
A7
B6
05
43
52
B9
40
10
FA
48
B3
C9
A0
35
E8
55
1E
35
68
B5
3B
B6
D2
DD
15
3F
FE
06
04
D7
0E
99
21
03
DC
FA
28
14
53
49
F8
45
12
EB
77
66
D3
9A
B3
58
BF
67
5B
FF
C4
AF
9C
63
5F
26
41
D8
FB
BE
C9
B2
40
4B
07
AA
38
D8
AF
DE
16
9A
17
4F
0D
B3
C5
F3
30
A2
13
16
A6
ED
02
E5
D3
BB
4E
4E
B1
61
34
D3
3E
73
C4
98
A3
B8
D2
47
C8
1B
2E
52
04
15
27
FE
34
BF
59
21
6E
24
C8
C9
A0
2E
46
0B
EC
D4
CC
2D
BA
BC
A8
5B
B5
1F
13
1A
43
39
2F
B6
49
37
BE
0F
A6
B2
F1
B8
6A
EC
70
45
BA
FE
D8
0D
97
06
D5
46
40
DD
EF
DA
E4
E9
DC
F8
96
E7
6D
8C
DB
3C
49
EC
3A
F5
53
C1
64
18
46
2B
3A
3E
FE
2B
C5
4D
0A
92
C2
F2
AF
BC
2A
B5
2C
EB
46
10
66
C7
64
15
15
52
3B
33
C3
D8
5D
4E
08
C6
16
2C
E3
DD
A6
52
EB
8E
D5
3F
B9
0A
37
02
11
3D
13
99
09
23
8C
0C
E4
57
C0
C9
3D
5B
F3
01
47
3F
B1
EC
65
CF
F7
38
96
C8
53
C5
AF
C5
33
09
54
A1
AB
4D
44
D4
51
10
C4
0B
5B
3C
01
DC
2E
9A
93
D0
10
58
A8
BE
5E
5D
F2
6A
A2
AD
3B
CE
AC
FA
E4
ED
EC
12
19
3C
2B
3C
61
24
15
16
27
62
B5
FF
93
BB
AA
B5
13
B8
28
2B
01
52
B0
6A
92
5C
C0
48
47
A2
9C
72
EB
BF
C0
E1
2B
16
02
1F
49
D5
F1
B9
F2
D4
19
B8
AF
9A
1B
5A
96
2C
67
0E
E9
26
8D
39
C8
D7
A7
A4
DE
5B
E3
D6
4E
62
D6
D5
DE
47
90
04
E0
B1
11
4D
99
25
8E
3C
FD
C2
0F
B9
37
B0
96
47
45
C4
DF
F2
F8
B9
12
4F
9B
B1
30
1B
05
27
29
FC
E6
D3
3E
48
E4
6C
4D
C9
FB
C8
A4
40
5C
E3
1A
F7
94
EE
9B
27
33
E7
2C
D7
6D
53
0A
91
9C
F2
CF
9F
DD
5A
E8
6A
F7
37
94
2E
40
A3
15
50
9F
5B
FA
EA
B6
55
59
5B
21
0B
6C
26
2E
09
F5
0A
38
05
3B
3F
56
F9
AB
DD
57
22
41
22
A5
E2
CB
EA
09
B5
DA
61
C8
DC
48
61
54
96
9C
C4
BF
01
AD
32
6C
01
E3
9A
B3
BD
B7
69
08
06
1A
E4
B3
B6
BD
BB
71
C3
9C
00
E0
4D
02
AD
F8
E6
E0
27
BA
A3
9A
DE
EF
AA
00
4E
02
E1
E6
65
D0
A2
18
87
DF
54
4A
27
51
E2
24
FF
45
3D
A0
19
2E
E9
CA
CF
2C
B0
F4
CE
55
A0
F0
F6
2A
5A
51
60
00
2C
3D
E3
EC
A0
BB
AA
16
6E
93
48
99
9F
22
90
D5
C3
E4
26
FE
FC
67
02
F6
99
AD
D4
47
3A
65
6C
B8
5F
1E
36
A5
E8
D0
05
F6
DA
4D
BD
19
61
56
59
10
68
19
0A
3E
60
09
D4
F6
8D
C0
98
D4
26
53
1B
B5
70
DC
C3
E4
BE
DB
A0
C1
E9
E4
F7
11
CC
1A
D5
45
2E
D9
10
05
5F
91
F0
9C
36
64
07
D0
B8
BD
2E
3D
E5
A9
AF
0D
1E
E2
D1
F9
55
60
09
6C
B9
04
64
D4
54
66
1C
F6
12
E8
23
60
D7
19
58
A3
54
C1
FE
AA
40
E6
33
A7
C6
88
2F
90
45
2F
02
30
8A
CA
ED
14
36
E5
D3
DB
2A
DF
59
04
C7
10
5D
CF
C4
3C
19
37
3C
43
42
3A
E6
49
E0
92
64
1C
F4
94
A7
1A
98
1D
C0
9D
99
55
17
0B
4D
9C
1F
18
08
C1
2F
63
D4
3D
BE
F4
39
2D
38
A2
17
06
46
B9
94
69
19
20
D0
65
D7
27
FF
AB
AD
29
BE
D3
15
40
DA
48
BE
25
B0
04
C5
D6
A3
13
CE
2D
4E
BB
C5
07
D7
FD
A3
FB
9C
3B
52
58
4F
B7
96
55
D1
E7
67
5B
17
D2
10
04
A6
64
6C
ED
FB
D8
98
CB
99
8F
A0
99
27
21
AE
CF
E1
17
BB
A0
C5
42
BE
E2
6B
59
0F
D3
44
C9
A4
D3
66
04
DB
09
43
1A
FB
5E
FC
03
27
A4
2B
9E
60
13
DE
32
63
B7
0F
E3
21
25
A7
65
09
C5
26
F9
CC
2D
93
CD
02
1B
45
12
EA
60
0D
94
F9
B2
24
2E
D9
C7
A3
4B
BE
48
01
26
CA
1B
55
A3
D9
A9
13
4A
26
9D
17
A7
51
14
2C
0D
5F
5A
60
40
91
FE
A7
B5
01
10
0A
1F
CA
CF
EB
1D
31
19
B5
DA
5F
D0
E0
A0
F4
FB
BD
9F
A3
44
3C
1C
5E
5C
2F
A0
2E
57
89
16
62
20
58
4D
01
5C
50
5F
4D
CB
2E
A9
3F
66
DD
B7
2B
90
49
A7
04
E0
DA
DC
F6
A1
C4
56
4E
A8
38
40
A0
EA
E1
BB
FC
A6
A9
10
E6
91
94
F5
6F
4B
B8
B1
27
C8
24
9B
DB
66
EC
BE
FB
50
08
6D
09
56
DB
F0
CD
AD
13
29
64
4F
30
A0
B7
32
E2
1E
05
A0
A3
5F
C5
5F
43
40
56
1A
4E
24
A4
07
D9
E5
44
1F
56
6E
C5
A2
CB
1D
EA
A6
CA
39
B7
06
54
4F
FB
C7
9A
9C
B0
F6
D1
2D
C0
F2
16
AE
D9
69
E2
2B
2D
BA
12
20
56
EF
FD
FD
23
4C
D2
BB
57
69
D8
8D
93
9B
43
3A
A4
54
B1
9F
A5
37
1F
48
27
0C
9A
BC
D1
FA
0D
C4
99
B7
03
34
0A
64
F5
36
35
5B
C0
32
A0
4E
1D
E4
4B
52
90
33
69
25
C7
6B
F4
20
65
E3
4E
BD
E0
4C
B0
F4
1E
1A
0F
9D
68
21
C3
A1
EB
65
04
09
2F
8D
98
AD
5C
17
C1
2A
B9
C9
F4
90
B3
20
15
51
A4
B2
F9
15
44
B4
1E
43
BA
2F
56
AE
45
28
1E
55
3E
2B
01
FC
C6
EE
A1
21
E2
D2
38
0B
40
E2
E4
C3
AB
D4
F1
1C
07
5C
56
13
22
B4
9D
57
E6
61
D5
CE
B3
28
E2
E0
29
A1
2C
DD
5E
DB
8B
DB
92
F0
E1
2E
DE
22
11
B1
EB
35
2D
12
DE
17
CC
B9
47
28
63
B2
13
2E
D0
FD
E1
3C
BC
54
72
1E
E2
FB
0C
87
C5
A6
41
2A
4C
5E
D9
DB
CA
93
6A
C3
48
8F
A1
B0
E5
CE
47
5E
4B
A4
03
8C
C5
0C
D8
CB
0E
33
4F
31
15
17
BF
BC
42
34
36
D9
44
CA
2A
59
5A
DE
36
67
1C
3E
62
B6
E3
C5
DF
DC
05
D6
68
E6
0B
B9
D1
98
BF
8C
24
1F
36
90
2B
AA
55
4E
42
22
B3
45
46
F8
44
EA
0B
BE
B3
04
09
51
61
1B
2C
09
54
08
26
5F
F2
06
AB
62
38
12
F4
08
A2
FB
53
57
A1
0E
39
5F
40
3E
AF
93
11
B4
61
E7
B5
14
BB
F5
A5
2E
01
71
EE
F6
47
6A
D5
9D
1B
8E
26
0C
17
E4
0D
04
D5
06
31
D6
2A
3C
A1
24
58
DF
51
64
F7
26
D4
E1
AE
1D
DB
AA
E9
95
15
47
F9
60
B3
61
9C
99
D1
B0
EC
30
15
BE
FB
5D
A9
39
90
4F
93
4F
AC
22
D5
1F
19
FC
1E
F9
95
18
A8
32
E0
4C
D5
61
DE
F3
40
EB
66
38
FA
33
3B
5D
52
DA
25
8D
F1
39
9D
D0
E8
43
FA
D4
B1
05
8F
A8
D1
E1
18
32
A7
46
8C
DD
00
26
AC
59
E4
05
A6
62
09
06
0C
A3
C7
60
3E
A7
32
BF
3B
8D
2B
40
5F
96
38
53
4C
D0
CF
20
22
33
65
3F
F0
C1
E8
5E
12
2E
C6
3D
43
65
92
F3
C4
F9
EF
AF
D2
8B
E3
D7
3D
E0
24
95
BC
DA
23
8E
25
66
DE
52
4A
5B
D5
62
46
CB
AB
B0
BE
0C
DD
8A
ED
B1
3E
35
C4
D1
8C
35
04
3A
2F
29
D9
2F
35
3C
06
93
F1
6C
8A
D0
BD
C8
0F
9D
A3
29
C2
CE
3D
9E
B2
F4
8B
AA
07
CC
36
DC
06
91
4A
0C
0D
EF
A8
85
C7
5E
AF
BF
BF
23
44
61
A2
4E
B9
DF
DA
9D
01
BA
F2
52
E3
B6
96
F4
30
51
91
AF
51
9E
F6
C4
22
5B
92
B8
D9
A5
98
F6
F5
26
FA
30
52
A1
2C
EB
85
34
09
1C
3B
E1
BA
FB
0D
40
61
1B
42
A4
01
4C
A2
D1
C5
93
CB
B0
D2
34
02
A1
19
45
55
2C
0C
93
FE
46
A2
54
A2
84
94
98
12
8D
A6
14
D3
4E
21
B3
AF
93
B6
3F
0D
C2
28
B5
43
89
CC
3C
EE
2B
BE
D7
98
4D
90
8E
1C
87
46
2F
B3
11
AF
F4
4C
AA
5F
89
B1
94
4D
E4
39
38
48
91
C9
9A
F3
49
BB
AD
9B
26
E6
0F
13
24
FC
FF
9B
40
50
8F
94
88
51
99
D6
C6
1E
AA
B8
51
DE
0F
9E
08
C4
EC
27
C3
C9
3E
D8
CD
41
A2
29
4B
45
1A
DC
39
5B
16
51
C9
0D
B6
24
FD
92
9C
EE
F3
3D
BC
DE
89
40
F9
C3
AE
9F
11
56
2A
D7
13
37
88
E0
C4
E4
F1
57
9B
9E
8E
F2
05
B9
56
5F
1B
57
24
5F
54
54
23
F3
AD
EA
DF
BC
CE
A9
64
49
C6
55
4A
A4
22
09
8C
33
0F
CC
02
C9
E7
29
3E
C7
B0
63
5B
15
15
4B
CE
A9
15
52
CE
5D
15
9B
1A
F5
AC
3D
8F
27
F2
32
07
51
57
A6
ED
C7
69
D7
92
ED
D9
1A
2D
9F
F8
CB
0B
C5
62
1A
B0
5E
EC
4B
57
67
11
1C
04
50
A8
BF
F5
96
3D
C2
C4
37
F9
2C
C3
F0
94
08
EA
EF
57
14
C5
19
B3
BC
65
96
D5
1B
DE
F4
31
D7
32
52
0C
4F
3D
9D
9C
15
F6
46
C6
B5
0C
B9
A4
B4
5B
B4
23
96
91
E4
4F
D0
55
26
CA
21
DE
19
63
B4
EF
C1
F6
3D
AC
FF
38
C5
F5
41
E9
41
FA
DB
04
61
03
3A
63
AA
65
E7
A8
3D
EE
39
FC
97
AF
01
3A
2C
1E
BB
0D
2E
FA
EC
58
15
BE
01
9B
24
04
3A
23
17
9E
C7
92
F7
36
D3
37
B8
3F
0A
0D
BB
3D
91
5B
20
13
EE
AB
DE
AE
9F
13
CC
3E
43
C1
3B
85
F6
43
3F
FF
89
A4
D4
92
0B
23
C6
20
82
4F
D8
CA
92
D1
13
13
E2
55
94
3E
35
62
DA
F0
02
A4
2F
EA
DA
60
EB
2A
D6
4F
D1
E0
DB
F2
9D
8E
5E
E4
90
49
90
E1
14
13
89
0A
BD
8C
4A
E2
0C
32
0D
8D
3B
F0
C7
29
C2
24
FB
60
1D
37
AD
F2
08
2B
B7
1B
09
E5
0F
B8
2B
B8
D8
44
B8
E0
B3
42
57
5F
D7
63
C4
92
D8
A7
06
EC
10
24
6B
2E
26
47
48
AC
36
9E
C4
36
44
35
DB
BF
E7
EA
97
C6
40
49
9C
A2
17
06
AE
23
E6
D3
1B
A0
26
D4
F1
5C
A9
B8
26
38
8C
EF
A0
B7
31
41
5A
0B
EF
AC
18
21
F0
CB
17
04
98
97
A4
5B
E9
E8
C9
52
1C
FD
AA
56
1F
E9
5F
5E
39
0C
A3
1A
A8
C1
05
17
91
F3
C5
D4
3A
8B
2A
E8
A6
5E
E8
13
44
D5
09
1E
31
F9
EA
34
11
4E
94
18
8C
AB
21
D4
BB
88
26
95
0C
05
61
06
B3
49
46
AE
0E
48
D2
AF
04
C4
89
02
26
24
0F
14
E6
C3
5F
B3
96
32
8D
52
2C
B0
5D
96
5B
54
9F
0F
32
34
40
5B
3B
DE
24
2D
23
A4
4F
F8
E2
98
C2
4D
C6
5A
13
B0
56
E2
AD
44
BD
41
BF
23
A9
D4
C1
A3
38
E2
2F
55
16
E0
AF
D1
DD
B8
13
25
63
26
AB
4A
AD
D3
AE
C7
5E
0E
10
F1
32
E2
45
4B
A0
B7
DA
D6
BE
B2
DB
48
E7
27
27
4B
D2
B4
E4
F5
5B
BB
DF
04
61
46
FF
31
ED
63
24
E4
EE
36
C8
AC
29
61
1D
E9
AE
FA
F0
9B
AF
42
62
00
A9
B4
A4
C9
04
D0
5C
56
C5
9A
6F
65
61
09
E5
AF
97
AD
93
52
33
A0
23
8D
3C
97
C6
39
4C
C5
B4
D6
FD
CD
FE
CA
33
9B
0C
34
10
F4
06
C4
50
90
BB
86
2D
C1
3E
C4
BD
2A
14
15
02
30
F5
D5
E9
5C
B3
A6
42
5F
91
D8
3D
03
35
08
4E
19
BF
65
F5
13
CF
99
33
40
A7
BF
A8
9E
21
36
51
9A
95
4C
E9
93
1D
B5
3D
F3
60
0B
63
55
41
16
5A
1D
E0
63
66
3E
03
1A
4A
95
14
9B
95
8D
0C
5B
66
D1
64
AC
32
5F
38
41
1F
0E
E7
2C
5F
2C
4A
A4
59
EC
BB
DC
A7
09
54
55
C8
5D
3C
91
A2
2A
3E
C8
EA
F0
E7
4F
32
37
AD
27
37
0C
CC
E9
ED
E2
F2
BD
A1
23
99
1D
0C
C1
A4
ED
15
BB
37
FA
2A
CA
E6
A7
3D
21
8B
EB
92
C3
D9
49
C7
30
D9
02
E3
25
18
19
DB
94
8B
C0
CA
AB
02
CA
D4
45
30
AC
E5
FA
2A
E9
10
F5
CA
05
61
C5
EB
A8
59
EF
43
59
50
E9
1D
C7
4B
1D
1B
26
DE
00
06
8F
29
D8
64
AE
D3
B2
9C
D0
5F
5E
E6
29
4B
28
B6
5F
0A
65
A5
B3
F4
B7
4F
AB
38
C2
A6
AC
E9
