21
0C
12
F0
1E
1A
17
16
28
E3
D3
FD
0C
11
EE
0A
D8
11
03
05
1B
CD
0D
0E
0E
0F
E7
05
25
F8
EF
0B
11
02
EA
0A
0F
15
00
08
F3
19
DD
FC
09
F5
E8
11
F0
F9
1E
04
10
32
FE
DB
D5
06
1A
F3
15
E3
04
0C
16
DE
FF
ED
F1
01
0C
13
1E
1C
17
F0
F1
24
06
0E
0E
F2
CF
F0
04
F4
05
E4
F8
0D
01
F2
F8
F1
1D
0A
00
32
04
D8
F5
04
ED
13
16
F8
DA
F3
01
EC
0C
ED
0E
DA
EB
F6
04
FA
F2
FF
17
F5
F6
07
FE
EE
F0
E7
0F
09
06
2F
F7
DA
05
14
20
07
F3
F5
21
F9
FA
06
DB
00
0F
1F
E2
FD
E8
19
18
12
17
F9
20
DB
ED
04
E8
F3
F9
44
10
F2
E4
1B
1C
ED
F5
1E
1D
C2
2D
F5
E2
1C
FC
1A
21
C2
25
FA
15
E6
E8
0C
E0
EA
D8
08
1C
DC
FC
29
1B
E0
00
07
FD
00
F8
1E
FF
02
EE
04
EF
F9
F9
FE
00
01
14
1C
F1
DA
08
FC
0A
DD
1F
FC
FA
37
11
D0
FC
00
0E
EA
D7
F2
00
04
F2
06
F9
E2
05
EC
F5
2D
EE
FC
F3
EA
F1
0C
09
1D
06
1C
0E
ED
17
E3
08
1B
D7
1A
03
FE
F9
DF
FF
0F
EA
18
E2
0B
F0
06
E6
17
E6
23
F7
01
16
0C
12
DB
05
09
0D
1D
DC
E6
12
E4
F0
FD
0E
FF
FC
03
3B
FB
00
26
EE
FA
11
01
FA
15
26
04
CF
C9
16
DD
1D
0C
14
E8
2C
CC
0E
2F
F7
E3
14
EA
DC
14
08
F7
ED
2D
F9
24
17
FA
EC
D9
ED
D6
31
1B
FE
22
DD
FB
FA
DF
09
E1
1A
02
09
FB
26
F0
14
EA
E5
DF
05
19
F5
11
F7
0D
F4
1C
DC
0D
04
FB
02
EA
05
FC
11
04
EB
F5
02
E6
F4
0E
E6
02
2C
F0
D8
15
FF
01
FA
02
16
19
D8
E1
1A
32
E6
21
E2
F4
07
F3
04
12
F4
DA
FE
1B
F5
EE
1A
ED
FC
0E
0D
2D
00
07
1A
3A
16
FC
16
F5
18
F6
1F
03
DF
26
E2
20
F4
1A
11
08
EF
E7
E0
10
EC
00
06
EF
07
F4
DC
10
0E
F3
12
14
F2
1D
10
EB
2B
23
01
0E
15
0D
FE
F1
39
10
D2
16
FA
E3
F3
E4
EB
02
18
D9
F3
FE
00
11
2B
10
F9
D8
0B
FF
06
11
07
1D
03
F9
E5
1B
11
04
F8
0B
9D
E3
E1
E6
F1
11
F3
0A
F8
08
1E
E9
0D
F2
09
E8
EA
EA
F7
FA
BF
EB
05
31
FC
18
0B
19
F3
F3
06
FA
E3
D5
F5
FB
E9
EE
10
F9
10
F4
FC
01
13
C1
EA
DE
1B
12
0D
04
0C
EF
18
F7
01
E3
05
EF
FA
04
0A
F0
F8
EF
E2
28
2F
0E
EA
13
E9
0B
F4
18
0C
1B
FE
DD
FD
EC
14
FB
05
12
18
04
01
11
EA
12
01
14
F5
F1
07
13
FB
10
2B
F8
F7
F1
E6
11
FC
E1
05
21
00
E9
F8
10
F8
E1
F6
F7
10
2C
1C
0F
E3
3C
F1
00
E1
F3
01
FD
E2
01
09
F7
25
13
E3
0A
FB
E6
0B
12
DE
E0
FA
F3
D6
3C
F6
27
03
D9
F4
E3
03
1D
2F
D3
FE
08
1F
0C
08
FA
E4
D4
0F
1B
DE
F1
17
0F
ED
F5
E4
0A
FF
FC
10
F8
FE
02
E4
31
1A
F8
09
08
04
1F
06
0E
0D
0B
F4
F9
FC
FB
FB
D4
FA
0A
32
11
01
06
FA
F3
FA
0A
F6
05
1F
05
00
04
E1
1A
EE
10
DD
01
0C
05
F0
ED
16
E8
DE
15
17
E2
D5
26
01
E7
09
EF
FF
19
FA
00
FC
04
E8
E3
E3
D9
0B
03
F1
FD
09
01
16
16
14
F9
F2
F7
F6
F1
06
05
19
29
FE
F6
F2
FF
0E
EB
F8
02
16
F5
F4
F8
0A
0A
E0
32
FF
E5
F3
18
06
09
07
F3
06
FA
18
EE
02
EF
00
DF
15
FE
FE
F7
27
09
07
C0
00
FF
FC
F3
E9
FC
15
FA
EF
F3
FE
00
FC
17
1A
F4
20
0B
11
10
F0
0B
F5
20
15
06
E2
E0
00
0C
F8
12
FA
FF
FF
05
E5
01
EE
16
F0
1F
0C
FE
FB
ED
2A
EB
19
F4
D7
EA
ED
10
FC
DD
E9
2E
F9
E9
00
FC
E7
04
0A
EA
02
20
0E
E8
F1
E2
FC
28
D6
FC
06
09
EA
FA
15
F0
F5
B5
E7
FA
0F
12
19
18
00
FA
E4
1B
0B
12
FC
0D
FD
0A
04
FC
F7
1F
26
05
0F
16
F1
04
FD
F4
11
F5
FB
03
F1
1E
31
DC
05
FE
0B
00
EA
FD
09
03
25
F6
0D
15
D7
F5
D6
CE
1C
17
B4
EF
1B
0A
04
FF
18
12
E5
FC
D6
03
FE
1C
1A
14
F7
F0
DC
11
1F
FE
2E
FB
D7
18
F4
02
02
FE
D9
2B
0E
E6
06
02
EE
0C
F1
11
0C
05
07
06
F3
F3
18
09
F6
05
08
FC
01
F1
2E
24
EE
1F
04
ED
08
F1
26
00
1A
F1
D6
0D
06
04
13
DF
0F
F4
FA
FB
05
10
1F
FE
ED
18
1E
ED
CE
FA
11
09
DE
1D
16
DB
0B
02
07
38
10
08
E9
FD
E3
DA
04
FB
EA
E5
0F
ED
F1
1D
E2
11
FD
F5
DF
F2
1E
03
30
F4
F6
F4
EA
E3
FA
F1
E8
2B
F6
02
05
FC
02
C8
0E
14
1D
E5
F7
09
DF
1D
F9
2E
F6
CF
E3
11
D0
13
0A
F6
1B
F8
04
10
0A
26
2C
49
11
0F
F2
0C
1A
22
0D
0F
E6
18
19
18
E8
11
DE
E8
E3
E2
E0
D8
15
FB
0A
0D
F6
FD
08
FA
1E
D6
14
E2
05
0F
0B
F4
FB
EC
06
19
02
0B
D1
D6
02
12
EE
F3
17
F2
20
25
F7
E9
26
F1
DB
00
F8
1E
FA
14
E7
1F
15
01
F8
F6
0A
E4
FF
10
F4
EB
FE
F4
F1
DA
05
2B
EB
18
14
03
F0
D7
FC
06
0D
0A
20
0F
ED
F0
DB
FF
15
FB
EE
D9
F9
09
F3
22
18
D2
ED
EF
04
EC
12
11
02
FC
0E
F3
06
F0
ED
DF
E7
F4
03
EF
F6
E8
02
13
EC
E5
FC
06
FF
11
15
E9
14
FD
08
17
DB
D9
FB
E7
04
0D
07
07
F1
06
F9
EF
03
0B
FC
EE
DF
03
F7
1E
08
F6
07
2D
08
00
FE
13
00
0C
EE
03
2F
12
E6
F5
F5
FB
F9
DF
E5
ED
E3
DF
DE
EA
36
24
FA
0E
19
06
F3
16
D1
BF
01
F2
07
08
EF
38
03
E9
20
0E
F1
0A
07
2E
F8
13
EC
F3
14
FC
02
13
FF
F1
05
ED
03
1B
19
F8
FB
F7
07
22
04
BB
0D
11
F5
06
01
15
05
F3
08
FF
FE
24
0D
03
F0
0D
18
E5
E4
2F
1E
DC
E0
1B
F2
1E
D9
17
EB
21
F8
16
08
E9
F6
19
11
F6
DA
FB
E9
FC
38
16
F9
20
15
0F
0B
0D
E5
16
14
E9
11
D9
07
ED
0A
1D
07
F7
F2
14
29
EF
E9
E6
1E
12
12
22
EF
0F
1B
0E
EF
0C
E6
19
F8
DC
D4
FE
D4
E9
FB
11
ED
0A
03
22
C9
E9
0A
D9
D5
04
26
E4
FF
14
00
EB
01
E7
01
02
FB
F5
26
F4
08
DD
F1
ED
F2
F7
EA
E5
F8
E8
FA
1D
0B
02
F1
FD
E9
E2
FF
0D
2C
37
DF
0B
10
F8
09
F3
05
05
0C
01
E8
09
FB
EF
EB
FA
E2
1A
EA
F5
06
FA
13
03
E4
0D
09
09
20
F0
19
05
F3
04
01
2A
FF
E3
FB
14
23
0F
00
E3
F8
E7
18
02
DF
22
02
0F
1A
04
1A
1C
09
FA
FA
F6
10
F0
EB
E6
16
06
EE
E9
FE
FA
15
F5
DF
EB
F8
11
E5
F1
00
DC
0F
23
FF
2B
18
0F
FC
F5
13
04
EB
07
00
FB
DC
F7
F3
FB
F1
F8
02
0F
29
F9
07
EF
16
F4
E1
FC
CB
D4
ED
19
17
24
FF
21
23
F8
F3
0B
F0
DC
F8
F6
0F
2C
FC
38
14
1B
EE
F1
26
ED
E8
DE
4A
0E
00
E2
9F
F5
C8
4B
DE
B1
D1
09
D1
E7
15
E0
19
22
1D
F3
0C
0F
FA
D8
05
E0
F1
FE
D0
D6
F8
03
2E
11
00
0B
07
FA
E0
E7
FB
E5
09
FD
EB
FE
04
FE
FB
ED
CC
10
2A
35
0C
1B
02
E4
05
0E
09
EF
EF
05
E8
0B
E4
FF
08
12
05
2B
EC
07
19
1C
EF
F1
16
F2
F5
F2
F7
F7
DE
FA
13
04
FC
19
04
F6
00
0F
E4
F3
00
FA
DD
F2
F7
F9
24
F2
02
09
FD
EA
F3
1C
0E
EB
04
06
EE
F4
10
06
EE
F2
01
14
DD
FF
0A
10
04
1C
D0
0D
17
1B
E8
20
F3
1B
FC
E7
E3
1A
DF
F6
E1
1F
D9
FD
17
E4
08
01
DB
D1
01
0E
09
E0
0A
36
F9
0E
0B
0D
F8
E5
E3
DB
17
2B
D7
E9
15
F7
F8
1A
16
14
F7
D0
F4
03
E5
1E
05
FC
2E
03
0C
05
C8
FE
2C
FC
1F
E4
F8
14
FB
22
DF
D7
E9
F9
11
F7
FF
03
E9
0E
06
11
0C
EA
16
F8
06
1A
ED
02
FB
FC
01
E9
FC
06
D0
0D
F2
E3
05
02
06
E2
F7
01
E7
F8
F5
05
F9
F5
03
F7
F9
FE
01
1E
DF
EE
28
F4
1B
15
DD
19
F5
19
04
FC
0E
FB
00
15
F0
F3
DA
13
F0
14
07
F1
00
F1
DF
F6
F5
0A
EB
0B
EA
0D
DF
DA
32
06
FA
00
07
03
E7
01
E9
EC
DB
01
E5
F6
E0
D9
22
DC
10
04
ED
F0
E8
06
02
EB
0A
13
05
F6
0F
0A
0F
F8
18
05
FC
11
E5
F5
E7
F1
06
18
FF
18
04
09
0A
FD
E8
EC
F6
02
04
16
FC
FB
07
FA
13
EC
01
24
08
00
1D
11
EE
FC
0D
FD
12
02
F3
00
E4
0F
08
13
0B
FA
06
0E
EF
F7
FF
F7
F9
11
04
FC
E1
FB
F8
09
DD
F1
FA
1E
31
F1
09
F3
D6
1C
F1
C1
DC
15
F8
FC
06
02
F9
DE
EB
F1
E3
08
1B
01
01
02
02
20
09
D8
F5
01
F8
E1
2D
E5
00
DB
08
FA
EF
F1
ED
D6
1E
02
F9
0B
F2
1D
0D
08
02
E2
F7
F8
12
EE
E4
E3
F0
FD
12
09
FD
18
05
F5
FE
3F
2A
F0
EB
08
00
06
EA
14
1D
F6
18
05
F4
EA
F9
FA
0D
E0
F9
02
44
06
EE
0B
F2
13
E2
CF
17
E0
ED
FF
F2
1F
FD
EC
F3
CC
1C
F1
F1
10
F8
E3
F8
E6
E3
EC
FB
06
00
05
D9
F0
0A
0F
F8
0C
FE
FF
E5
0C
E7
DE
F5
02
09
15
F6
02
0D
F8
08
E9
E6
E4
04
F7
09
0A
0D
23
EC
0C
00
00
ED
18
EC
1A
F3
E7
13
EE
DD
16
E7
FE
04
E5
FD
F6
FB
EE
F8
F7
16
1C
FD
F4
24
F0
0A
18
F4
F0
F4
D2
F3
FD
14
F2
0A
1D
09
F2
10
06
FD
18
15
36
E2
FD
E4
FA
0D
FB
02
D3
FC
F6
F4
F5
25
18
FF
05
F9
F5
08
3D
F3
0F
EE
F3
28
1F
FC
13
F6
FA
10
FB
DF
03
05
22
0C
EB
16
FB
07
EE
19
09
E7
32
FF
FF
1E
0E
0C
E7
E8
EC
F4
FF
30
03
22
F6
16
0B
0D
F7
E5
DD
D4
09
F6
12
1E
E7
01
19
E7
0F
D0
EA
12
04
D7
15
F0
F3
08
F9
E8
08
ED
14
FA
E6
18
CB
1D
1B
EB
DC
23
C2
E8
0D
E8
05
01
CD
F8
F0
0B
25
FD
EB
11
0B
2D
FA
E6
CE
F7
F6
1E
D7
1D
00
0E
E8
E5
02
19
F5
D2
2C
3F
05
F9
F5
1B
F8
04
CE
0F
ED
FF
DC
FB
07
EC
E9
07
FC
00
C9
13
E4
0C
F0
02
EC
D7
13
18
0F
F6
FD
06
32
2C
F8
29
0C
19
FA
D7
05
CE
18
17
1E
07
21
02
10
F2
FD
D9
F3
07
E2
FB
05
FB
15
F2
FF
F7
FA
FD
EE
F5
03
11
E7
D1
0C
25
FB
F2
F6
14
F5
15
FC
13
03
DE
0F
EE
EE
07
FC
EF
00
0C
13
F8
0A
D9
ED
3C
1F
F8
FB
DF
09
00
21
18
09
10
06
F1
0D
DC
05
02
D5
FD
F1
C6
0B
0C
E6
F9
0C
00
27
F6
ED
2A
FF
DD
E9
09
2C
E3
13
EC
25
06
EE
F7
DC
20
E9
E2
0A
DC
FA
FD
0B
2D
F3
C0
DA
F7
FF
F5
EC
EE
EF
FB
DE
08
EA
F2
F9
0F
08
3F
EE
C8
03
07
12
EA
E3
F0
04
08
02
0A
01
E6
F9
18
E5
E1
F3
E1
15
03
FD
F3
F3
01
C7
03
0D
FA
F0
E2
2B
09
E1
F4
E8
0D
F3
D4
2E
F7
F1
D6
15
2D
0F
0F
12
10
EB
F9
D9
2D
35
F9
FB
20
DB
29
2D
23
F2
FF
2A
EC
1A
04
FB
00
FF
ED
11
CA
EE
20
23
F2
F0
10
F2
1E
0A
E6
DE
CC
0D
E1
3F
0B
1E
FC
0B
18
0B
01
DF
2C
E1
1A
E7
05
E4
E9
0A
FC
E0
05
F8
E3
E1
05
0C
F5
D3
F9
D7
E6
13
07
1B
13
08
1A
D0
1A
CA
FD
08
E6
D4
F3
DB
02
06
03
12
01
22
F6
01
F5
15
FA
15
0A
01
05
F4
0B
E8
EC
23
25
1E
C8
F8
D6
FF
EE
1B
04
FF
F3
17
12
EF
05
06
09
08
03
F1
1C
15
F8
C9
FC
E9
ED
0D
16
FA
10
12
07
02
1F
EE
DB
07
F6
1A
13
09
0C
19
F5
06
F0
05
05
F1
11
08
1A
E1
08
09
0E
09
08
E7
1C
F2
28
12
0B
FC
07
F5
01
0C
E8
10
FF
FA
0B
29
EA
08
F1
FC
FF
FC
03
0F
19
32
06
03
FA
F7
01
F6
C7
FC
12
0C
0E
FC
0A
FB
EB
18
1F
DE
F4
01
FB
17
06
03
FE
10
FF
F2
FD
23
F5
DF
02
F0
FC
04
EC
02
09
13
EB
14
03
FA
15
02
ED
05
00
04
EC
E3
ED
EA
05
0C
1B
24
D3
20
F2
ED
FE
D8
0D
16
08
15
0D
D0
F1
F4
EB
F5
01
0C
EA
FC
D8
FD
10
EC
F9
1C
EC
FE
04
04
EE
E7
0F
09
05
D4
03
DA
F6
25
24
07
F2
E9
F2
FC
DB
12
D3
2F
16
F0
F1
1A
E3
0D
1B
09
F8
00
10
0A
1A
F7
E6
F0
04
0D
F8
EF
E3
0C
F4
19
0E
0F
FD
CA
BD
F4
F1
00
45
02
FD
03
1C
0B
F9
DF
EA
EB
D7
ED
1B
F2
2E
03
EC
26
FF
E6
00
0C
FD
00
0B
04
09
FF
02
0E
01
03
F9
11
E9
EF
12
E4
FC
BF
FF
1D
00
F5
FA
D1
F6
08
E0
FD
EA
0C
12
08
0B
14
28
D0
09
EC
02
ED
E8
1C
EE
0C
D4
ED
18
03
2C
08
16
01
F8
E1
09
D8
DF
15
F4
0F
0F
EE
05
0F
F0
04
06
0F
07
0B
F4
24
F2
FB
CE
FC
31
E6
FE
26
FE
02
ED
0A
2C
0F
FB
F4
12
0D
10
F4
F9
F9
F3
EB
E4
25
FE
F0
EF
E7
EE
16
EE
03
ED
D8
0E
EB
26
FA
F6
11
1E
E1
EB
FB
08
11
F6
DC
F9
02
FD
F8
13
12
13
10
F5
0B
0F
FF
F0
FE
F0
F2
23
0D
EF
06
FA
FA
ED
20
1D
02
1D
E9
00
01
E9
1B
E3
F4
14
F2
ED
06
07
05
17
03
06
0E
DE
22
21
F1
E4
0B
21
08
12
00
D9
38
DE
F2
F5
04
FF
37
F3
0B
D5
F9
E3
01
13
FA
08
11
1A
0F
0C
F3
F7
11
F3
21
E7
05
E2
E8
F7
01
0F
EF
21
1D
01
D9
07
F0
FA
EF
FB
03
10
EE
11
D0
E6
04
F1
FA
01
D2
0C
11
04
EB
0E
1B
EF
14
0A
34
FB
09
F4
04
03
40
F0
EF
F0
0E
D4
14
FB
F2
00
12
11
D7
1C
0A
03
26
E7
F2
E6
2D
18
01
F1
0E
DB
0E
ED
EF
0B
03
E2
F6
EA
06
10
ED
F1
08
06
13
DA
FD
F9
D4
F1
E7
FB
18
12
F6
F9
14
F8
03
1F
F0
DD
F1
F9
0D
F7
25
0D
E5
FA
16
D9
04
08
07
08
17
F7
30
02
F9
DA
F0
E0
3B
E5
1B
F5
EA
E3
07
13
0D
F6
D0
F9
E7
E8
07
F3
0A
F7
29
04
E8
14
34
10
E6
0B
E6
FE
ED
0F
02
14
F2
12
15
00
EA
02
FB
08
E8
0D
F6
E8
DA
04
15
FB
02
E2
F3
06
EA
00
08
EC
12
06
F1
02
14
F6
17
EB
F4
06
24
06
1A
17
08
E6
E1
F6
11
0C
CF
02
0C
F1
1E
02
DE
EC
26
0A
01
F6
0B
EF
F8
F4
D7
02
DE
05
CC
16
0C
E7
07
F0
07
E6
FA
2E
EF
ED
DA
2F
FA
30
01
12
12
DF
E2
0D
FA
FE
EA
00
00
FE
F1
EE
01
0B
05
E5
DF
13
03
07
F0
0F
07
09
1C
1A
F2
12
10
0C
F4
00
06
F2
23
04
F7
1A
2D
FD
0F
2D
FA
06
F8
FC
FE
0A
0A
F7
2C
FE
FD
04
07
11
03
E8
01
11
25
D9
09
F4
ED
07
2A
FC
1C
1B
F9
3B
D4
FD
03
05
44
12
E2
EF
E2
D8
15
04
0E
EA
10
03
FD
0D
EE
0E
F4
0F
1E
07
11
FF
16
DB
FB
FD
D3
E6
0A
FB
E3
1C
D7
08
D0
00
28
04
11
EB
FB
19
D5
EF
FF
16
F0
FB
0E
F0
17
D0
FC
29
16
1E
1A
1F
D5
1A
F6
EE
F3
EE
FA
FD
01
F1
07
02
16
19
1E
E0
11
08
E3
37
17
14
FA
1A
EA
F6
ED
12
D4
F6
17
E9
02
17
DB
04
F5
11
F3
11
0C
1A
F2
15
FC
F1
EF
FA
26
00
FB
F3
0B
F5
FE
14
FF
F2
EC
1D
0D
EE
DC
09
F8
06
1A
34
17
F3
EA
F3
DB
EB
04
DC
F2
04
17
2C
10
F2
F9
F5
09
05
03
0B
00
11
F3
07
F9
FF
D5
0B
04
FE
0E
15
08
FC
ED
2C
F4
F9
FA
FF
DB
1D
F8
02
1C
FB
0F
2F
D0
13
1A
12
01
05
EC
0B
11
F5
F8
05
10
F3
0E
EE
F2
01
F6
E6
00
F3
0F
FA
FC
DA
02
F3
FA
E7
E7
FD
E9
E1
02
27
FD
FB
E4
1C
01
05
E2
03
F1
01
0B
D1
EC
1C
14
0A
DE
02
04
01
EB
FD
0A
1A
FD
18
FC
F0
E3
0F
EC
16
E1
EC
F7
F6
EA
CE
14
07
C5
F5
D9
CA
F0
FF
F2
DD
EF
E0
0D
CF
F8
30
D6
1E
FE
FF
12
E3
FE
1C
2A
4B
F6
FA
EC
FF
F8
F4
08
EC
18
2A
D8
D4
09
06
F5
1D
56
21
E8
E5
F3
0F
FF
13
18
10
08
0D
E7
FF
29
E6
E7
07
FD
2C
DC
14
19
1E
16
07
0D
F7
03
E6
00
11
F2
F2
F0
11
04
D6
25
FC
14
01
FE
EB
FF
F4
43
F0
FD
EB
04
E1
F9
23
0F
F8
37
F5
DF
E8
05
FA
F5
FF
CD
49
F6
FD
F2
1F
E3
FC
FA
17
FA
00
F9
FB
0D
1A
14
FB
F9
26
FD
D0
E3
1A
0F
E5
EC
17
FD
13
19
0D
F7
1F
06
FA
FF
E7
E7
0F
F1
00
33
F9
F4
F8
0E
E8
10
E9
1B
F3
EC
08
05
03
13
30
FC
FF
F2
F5
02
ED
FF
EA
00
FD
16
F9
E7
FB
1D
1B
00
F0
13
06
04
F2
E7
DE
F7
E0
19
EA
F5
10
E9
1E
03
03
1A
20
07
F0
E2
F3
DE
D5
FF
F9
FB
0E
26
00
F4
0B
14
FC
03
3D
EA
F0
03
F1
0E
17
F9
02
DD
F0
FF
F9
01
FF
DA
D3
E2
17
23
23
07
03
EE
E3
C4
F6
E6
EE
00
E3
18
02
0F
E1
D4
0D
16
F1
02
18
FD
E9
F6
25
EA
28
FA
18
29
EC
0A
F6
13
FD
E9
EA
2B
F6
17
F0
FB
04
06
16
FB
DD
15
06
1B
EE
F0
08
15
0A
FB
F5
09
F1
12
F5
DF
20
F3
1E
23
F3
11
F0
04
F2
F7
EE
F7
FF
16
EA
E1
05
14
F0
0A
D2
F2
ED
D6
12
0E
FD
FC
FE
0D
02
15
0A
E6
E9
04
05
E5
2A
DE
F0
EF
40
E5
ED
25
16
1E
E2
0B
F6
09
11
20
EF
16
F4
06
1E
F1
FC
E8
18
34
23
FD
0B
EA
22
FE
10
FB
EF
31
F1
04
F4
E5
E6
09
FD
23
1B
08
ED
F8
EA
19
05
1E
09
17
0F
00
03
10
EA
F9
29
F8
01
2E
42
31
0E
00
0B
23
ED
FA
0B
15
FF
E2
07
0A
F5
02
1E
1C
3A
FC
F9
CD
DC
F1
E2
F2
00
06
FC
F1
DB
F8
31
08
FF
0D
1A
23
03
FF
FD
F2
E9
03
20
16
E2
15
D8
D2
00
06
F3
F4
50
E1
07
10
EF
00
F5
03
D6
22
1C
E8
03
1C
11
D2
12
0B
EC
10
FE
C0
1D
0E
2D
DE
2E
05
EE
0F
25
F5
13
2A
FF
0A
05
E7
01
02
0D
E2
1D
FC
01
DF
EE
D5
FF
FC
12
D7
FC
F8
02
1F
DC
06
14
11
F5
FB
1A
15
10
FD
14
FB
F9
05
06
09
FD
15
EE
F8
1E
02
F2
1D
FA
E1
0A
1D
09
E5
E1
E4
FC
1C
0D
EB
F6
04
FC
E1
F7
FF
EF
21
01
F9
03
F8
0B
1A
02
03
0A
F7
F2
F7
30
EB
0B
2C
FD
FC
FA
1E
23
F2
DF
F6
13
15
00
1B
EB
28
0A
E0
3B
18
F5
F1
0C
10
07
F5
F0
F6
F3
32
12
FA
0A
F6
1E
F9
FA
F6
09
05
E2
D3
1E
21
D1
17
F7
0F
F5
33
00
FC
F0
FD
19
FE
24
0D
F7
1B
F1
25
E8
15
03
1C
00
F0
02
E9
E3
11
DE
14
08
06
07
F2
14
1D
02
F4
FD
07
E3
0B
09
07
EE
FC
04
19
0D
0A
E4
F0
FE
07
F1
D1
EC
03
F4
2B
F8
06
1F
0E
0B
FA
38
E0
01
04
E1
ED
F8
01
DD
FB
16
D9
09
05
F6
12
16
F8
10
E2
3A
10
15
FD
E7
06
18
FC
2A
D9
EC
05
F4
F3
ED
DA
F4
FE
32
DC
E0
EE
EB
0A
04
F7
1E
ED
11
DA
FD
2A
14
F2
EF
F6
FF
0A
FB
F1
F6
1F
E3
DB
11
FB
FE
F2
EB
F1
D8
F2
FF
D7
EA
E5
34
FD
EA
11
F6
F9
2D
0D
0A
E9
16
D4
21
12
ED
14
06
F8
28
C0
2A
DB
2A
D9
0F
F2
FA
F6
F4
E1
17
1B
0D
07
10
F1
FC
D6
16
2D
0F
0B
11
F5
EB
3E
00
E4
FE
06
EC
20
06
01
EF
E6
F9
16
FF
FE
04
E8
09
12
01
12
F8
BF
11
E0
E8
DF
1C
FE
22
F2
D1
0A
E9
0A
21
F6
1C
DE
0A
18
1A
EF
D8
20
FD
13
15
FE
13
F1
FD
F8
ED
F5
05
04
E6
0A
F3
1C
03
F9
0A
FD
EA
20
F1
F0
F6
1A
EE
F6
E3
FB
E2
05
0A
F5
0B
F2
0B
EA
EA
E6
EB
E0
07
08
1C
DD
FE
FA
E6
25
F4
FB
33
0B
E1
04
FF
36
1A
2B
F2
26
F6
FF
00
EE
F0
2F
E9
11
35
E6
FC
1A
E4
EB
2A
23
15
10
DB
E0
F1
ED
21
E0
FE
F5
DA
D7
01
02
40
20
12
F3
DD
F9
18
11
EC
D3
F8
FF
E8
FD
2B
DE
02
44
12
EC
FB
D4
E9
DA
DB
14
14
0E
EB
1B
24
0A
FF
F5
04
F6
07
EE
FD
10
FB
0E
07
ED
FA
3D
0B
CA
F4
E3
05
06
FD
E7
F4
12
20
F6
C5
E5
1A
F3
16
10
F2
11
F8
FC
11
ED
E3
1E
EE
E4
18
F5
F5
0C
E5
3D
F1
15
F9
27
E8
2E
F0
E2
E1
EA
FB
27
07
0F
E3
13
ED
05
0B
00
FD
F3
1A
21
F4
F6
1F
1A
10
07
EF
0A
0D
F7
21
0D
0A
18
23
EE
F5
F0
F6
08
E6
29
DF
F8
FE
29
08
4C
13
EE
0B
00
0F
19
0F
12
FB
FD
03
0F
13
FD
DE
22
23
05
F1
02
FE
00
E2
FF
37
32
E9
DE
F3
DA
FB
0A
DD
01
0B
DB
ED
FC
1E
00
FB
E7
19
F3
F5
EF
F9
18
FE
F1
C1
FA
02
FC
F2
18
FE
00
04
06
12
F2
00
EF
0C
FE
0F
EE
1E
F1
07
FA
21
EB
E2
20
0E
08
1F
E1
0A
11
1A
F9
FC
0A
D4
12
F0
0A
2A
DA
F8
1F
FD
29
14
02
F0
EC
0E
09
04
1D
0D
F5
EC
FB
06
F8
ED
FC
F4
0E
14
EF
0B
0C
10
EE
DF
0D
ED
E5
EA
1C
F3
DC
01
F1
17
D8
09
0E
0D
FF
02
FC
28
0A
16
EF
14
CE
1F
0F
F0
07
E6
FD
EC
05
12
F5
FC
27
0A
00
03
03
10
D6
17
06
F3
0F
F4
EE
F6
F9
E7
23
16
11
D4
07
09
12
F2
0E
EE
28
01
17
E4
C9
0C
FD
EC
03
E1
DA
38
F3
07
C4
E4
E2
13
F6
10
F1
0A
02
1F
1D
27
F2
DE
0F
01
FE
D4
FC
18
1B
0E
08
1C
D9
DE
00
EE
15
27
22
11
DE
12
0C
0D
F2
F8
FF
17
E8
F7
EC
02
B8
F2
03
17
2B
E4
01
F9
00
EC
DA
03
DA
09
08
09
FE
00
0A
01
19
E0
F3
0D
DE
E6
BF
E6
16
E7
03
EB
FC
11
1D
DC
24
02
DF
F9
DF
FB
01
F8
F7
EC
0B
FA
08
F6
14
00
F2
DF
11
D6
F9
F6
FF
DD
30
F7
FA
0A
FC
D5
FD
E8
EF
FD
02
25
1F
E4
FC
F2
DE
1E
F5
21
35
01
1A
DE
EF
F8
E6
E8
EE
F9
17
31
ED
FA
EA
21
FC
D8
15
E4
06
0E
05
DA
29
FA
10
07
37
E8
22
D3
09
ED
08
12
FB
F1
FD
E4
E5
0E
F0
DC
26
FB
E8
ED
CF
EA
FF
1A
E7
1B
2F
0E
FF
FC
0C
0D
07
00
EA
04
1B
FD
EE
02
13
03
F1
FB
F7
EC
06
20
10
19
01
17
FA
10
02
C4
08
0F
17
0E
04
F6
EC
FC
19
30
0A
09
C6
AB
0A
27
13
E8
23
D5
4B
06
EC
14
F6
03
0B
00
14
E9
10
01
F4
23
F4
F7
F8
F0
00
E1
F3
0E
1C
0D
F6
02
FC
F3
D1
0C
11
08
F9
F1
19
02
F4
CA
41
FF
EE
10
05
18
0D
0C
04
C8
08
DB
E1
F3
F1
EB
C6
F6
15
DA
E9
1D
09
27
FD
D6
F8
F0
E7
00
E6
D7
E2
FD
F8
FC
15
36
2F
1A
0F
0D
49
F0
1B
F8
F2
1D
EE
29
0C
FD
18
E5
E1
01
F5
25
39
F3
12
BC
06
19
FE
03
D2
03
F8
1A
FC
E7
01
01
08
ED
FF
CF
11
F3
21
E0
E4
F8
FC
09
EB
F5
FD
01
FC
F2
EE
05
29
F2
15
D8
E2
06
10
EC
F3
02
29
F8
1A
02
D0
FA
DE
DE
02
DD
E6
02
FC
FE
D5
F7
E4
0D
DA
04
FA
16
3E
F6
15
D9
F7
E6
F5
14
2E
FA
27
29
20
E6
03
F4
EB
19
F3
FD
13
F6
1F
E0
02
FE
FA
F1
1B
F8
07
0D
FF
F6
EB
11
DA
D4
03
FF
08
40
EB
F0
FB
D2
F2
FE
E1
21
0A
F3
F1
F9
10
0B
07
19
DA
DF
08
FA
1D
FE
27
16
FC
F5
28
0D
1D
F2
FD
03
12
06
EB
FA
DE
FF
37
02
F2
E2
04
E9
17
21
03
FC
ED
0D
F7
00
F1
F6
0B
0E
1C
F5
0B
F9
14
1E
E1
2D
0D
06
D7
10
06
07
10
FF
CF
07
FF
08
FE
E3
F7
10
E8
4A
0E
E2
0A
2A
FD
08
02
09
F2
EE
F9
D7
09
F9
F5
26
0B
20
0F
D2
15
F8
30
DF
1F
E9
F7
0A
FD
EC
0B
FB
1A
1B
C9
F4
FF
0B
FD
ED
28
14
F5
04
29
45
E7
E3
FD
F6
D9
EC
09
EB
F9
20
F0
E1
EC
05
EF
0D
11
14
EE
F7
FB
CE
FC
DF
29
12
10
FB
D9
E5
23
04
EF
CF
16
EF
E8
11
10
F7
14
2F
F3
16
1B
03
ED
19
15
0A
1A
0D
3C
F9
FC
CC
02
F0
04
AE
16
F6
DB
C8
FB
02
06
F1
D4
25
F0
11
09
EE
15
1D
F8
00
13
EA
FE
06
18
D3
C7
F0
08
11
E9
09
0B
EA
FF
DA
F8
08
15
F0
03
1B
23
03
F8
D9
24
ED
13
DC
0F
00
10
F0
21
FA
E2
FD
08
0E
0F
E6
F3
FC
E0
40
E6
0C
F8
F5
22
08
0C
FA
30
FB
F6
06
F2
1B
1B
FC
2A
0D
E8
10
17
F6
06
F6
FF
1E
0C
D7
08
EB
13
D6
38
DC
D4
E0
F2
F3
02
01
0B
F3
2F
F9
05
F9
FA
0A
03
00
1D
F9
CC
32
F2
26
FA
1D
06
26
21
0A
D3
34
FC
0B
0D
09
F7
F4
11
F1
EB
C4
E1
FA
EC
16
49
04
E1
12
F6
F6
14
33
30
1A
CE
F7
2C
FD
EC
F3
11
ED
E7
F4
17
E7
1F
13
31
D8
24
C9
F9
DE
14
F2
FA
FB
F4
18
23
0C
E4
00
02
09
25
08
DE
25
0F
2C
ED
0F
1F
FD
F8
15
17
C2
03
D7
0A
FA
DD
07
EF
1F
10
12
D8
18
17
E1
E6
E2
F0
0E
E1
F4
DB
EA
24
0A
F7
E2
F7
02
DB
20
E3
0D
04
EC
EF
F7
EA
F7
1C
10
DE
E9
0D
DD
D9
FB
E8
0A
0D
0A
F2
0C
DA
03
E6
0C
F6
D6
FF
EB
F6
34
0A
24
1A
FF
0A
FA
DE
F0
DA
2A
EC
F1
D6
F6
14
11
09
FA
06
D9
0C
12
03
19
11
3B
EC
08
D8
CB
F8
F1
1A
08
DC
13
0C
27
E5
E3
0C
FC
FC
D0
FF
EE
F5
D7
37
E4
EB
04
1F
27
FE
23
F5
00
DF
1E
0F
45
DB
0B
04
D8
1D
0A
05
E1
D2
E8
25
21
0C
F1
0C
08
EF
F5
13
F1
0C
22
0A
1C
01
E6
22
25
FD
BD
E3
D1
F4
FF
F6
D9
FB
15
3E
FC
13
E6
F3
E1
0F
DE
21
F0
FC
E2
2F
F6
03
0C
10
2C
0E
E5
FD
0E
17
EB
EE
EE
07
10
15
F5
E9
F0
F2
F3
FF
C8
0A
16
0E
17
09
E8
BC
15
E7
0B
E4
0C
DF
09
F8
04
E0
13
FA
E9
F8
0A
31
E2
22
F4
01
D6
E1
3E
1C
FD
0D
E8
FA
17
14
0B
DE
08
07
12
15
15
EF
F6
01
2E
18
F5
17
14
F6
0A
F5
13
0D
29
0A
D7
DF
F3
01
ED
0D
35
F0
21
F0
D7
01
17
15
09
E6
02
10
FF
1A
06
04
F5
05
F6
0E
C4
F8
D2
F9
20
E2
F2
1D
34
19
05
F6
2B
51
06
01
1F
F2
E4
12
D8
DC
14
ED
F5
DE
F3
12
FE
FD
1F
07
DF
E1
F4
EA
29
C5
E5
FD
F5
FE
20
0E
D0
10
01
D8
0F
FE
EA
E0
EE
E5
09
05
D5
C8
D3
FC
07
19
2E
26
EC
E5
E2
28
DB
F8
F3
09
0B
D0
FE
F3
4C
F9
12
0F
FD
D1
13
F9
0A
05
DA
DE
FB
F1
12
F1
46
E5
E1
1B
DC
0E
DB
24
DA
E2
1D
C9
06
CF
2C
26
F0
0E
4A
16
E9
F2
1D
F8
FA
1F
DA
FD
1D
15
F3
26
0F
FE
0D
01
07
EF
FF
E8
15
F7
0B
CC
E5
F8
D8
19
DC
D8
E7
FE
E6
DC
FB
FF
F9
14
05
F5
F1
07
FE
FF
F5
08
F5
02
E9
FC
03
29
1C
0D
0A
04
FA
04
EA
D7
14
FC
00
E9
E2
F2
FF
F7
F2
E2
E1
FB
14
08
2F
F2
08
1A
0D
F6
F9
F6
E7
FF
EA
13
DD
13
F3
E7
06
DD
D9
0A
17
0D
08
05
0F
00
FE
07
1C
F3
25
15
E5
17
FC
D9
FE
15
1B
E6
05
15
E9
F2
12
EB
F2
0C
F1
0C
05
25
F4
F4
E1
0A
E4
F2
EF
F3
D5
FF
12
12
02
E2
FA
0A
F2
F5
08
02
1F
14
20
0E
CC
E6
F7
26
15
39
CA
13
F6
00
27
06
F0
2D
E4
09
30
FC
F8
0A
F9
00
F2
D9
16
F1
30
FE
EC
12
03
F7
1D
E2
F9
E0
16
F1
15
0D
01
FA
06
F1
03
1C
EB
0F
EB
1A
3B
F2
FF
E6
31
F3
D8
F8
B7
30
EC
F2
0D
F2
1C
40
D8
E0
C3
27
F4
21
1F
07
F3
D9
02
30
FF
F1
00
FE
0C
1D
01
DF
FF
20
26
FB
07
EC
FB
12
FD
37
F0
10
DA
01
0A
EF
15
10
F1
15
1B
FE
15
08
06
27
D9
EF
0B
E7
21
0F
FC
FF
0E
12
EE
E3
FF
E5
DF
F1
0F
FF
FE
F2
09
1A
D6
19
15
0E
E3
ED
F8
05
0B
D6
F8
D9
EA
14
F7
DB
DD
25
E5
F7
28
E8
20
F8
28
0A
FC
09
E3
12
F4
0C
E6
16
02
2E
06
F4
14
16
F5
E9
F5
09
E6
26
FB
29
0F
05
0B
E7
0B
F2
F6
07
1F
F2
F2
EF
E4
0A
D7
11
ED
DE
EF
00
E3
DE
0D
EB
FE
18
17
E5
03
17
02
F0
0D
E4
04
0A
F1
F1
FC
00
04
FC
02
16
0D
F5
FE
D7
F9
F0
0D
FB
ED
EF
FD
03
F4
0C
FE
FB
FB
20
FC
1B
16
02
03
F7
E1
E4
11
E7
1D
03
F4
FE
E0
1D
01
F8
0F
0A
10
F4
FB
0C
ED
F5
02
CD
16
EA
02
FF
EE
1D
FD
FA
DA
E6
06
11
FA
EF
14
0E
E1
E9
F9
09
07
09
FA
E2
04
0E
EC
F7
06
EE
17
0D
DD
29
EC
EE
1C
30
FF
0A
0B
EB
03
0E
D8
FD
20
EC
09
EF
F0
FA
FB
23
EE
CE
EE
E9
DE
F4
0A
F5
FC
18
16
06
01
3C
0A
FE
04
E2
FB
08
D8
1D
03
05
0C
0E
FB
EF
08
05
F2
E2
ED
09
22
1F
01
F9
E9
03
0F
08
ED
FF
19
10
0D
24
E5
E2
27
06
F2
0F
E9
FC
03
1F
E2
03
06
E7
26
0C
F9
E7
07
E5
03
27
F0
0A
F5
25
FC
E2
F4
0A
EE
24
36
1F
29
0B
F4
FF
E9
F8
03
F4
E6
25
14
F7
09
F7
09
E5
FD
F6
03
2C
18
28
21
16
EC
FC
12
F4
E9
FB
0E
02
04
AF
25
FD
FA
DA
B6
08
F4
F1
2D
FE
20
02
F3
D2
E2
0F
FD
FE
F4
E6
E8
D8
E4
0B
E5
F9
F8
0A
12
1F
48
11
DF
02
0B
F0
23
E3
19
C4
F7
F4
0A
C2
FF
0C
F2
0D
27
D3
F6
1B
16
1F
DE
F9
F6
11
22
17
F8
1E
D1
F4
EB
19
02
00
F8
18
17
17
0E
01
1F
E5
F2
0D
E9
C2
F9
0A
FE
FF
05
02
EF
E0
EA
F0
EB
F5
FF
0C
EE
07
EA
DE
EC
02
2C
0E
16
E5
FC
01
F2
FE
19
F4
FE
E1
E7
F7
FA
DD
F8
14
F6
D5
FE
2F
1C
35
13
E1
ED
F7
C8
0E
28
2E
D7
05
03
0F
A3
11
EE
0D
F3
FD
0E
F8
0D
0A
E2
ED
1A
1E
E0
2E
DB
E7
2D
D0
D4
09
04
11
03
3A
F9
E4
2F
B2
13
22
F2
BA
D3
E6
D5
16
DA
F6
ED
E9
F4
EC
E5
25
03
16
EC
E8
07
11
06
1E
F2
ED
18
F5
18
09
D8
D9
17
0E
13
01
C0
C4
D4
FA
0B
13
EB
19
FB
DE
E5
F9
11
34
06
E8
2F
05
03
FC
12
23
10
E5
D0
2B
05
0E
E6
0D
FE
D5
F4
0D
17
0C
20
DC
3D
07
0B
DD
F1
CF
E8
51
01
F5
00
03
01
40
01
EE
FA
0B
07
10
F1
06
DD
1B
19
1E
15
03
F6
E5
24
E9
01
D4
E7
E1
13
08
E9
0A
0F
05
FC
FD
D5
16
1B
E5
FB
F9
F7
FE
1C
07
F7
17
F7
EB
0D
08
2D
F5
21
08
F3
F5
11
EC
03
F6
14
E3
0B
0F
15
FC
0C
1B
0E
F2
FB
EE
07
14
E8
21
1F
CF
FF
0B
F8
14
E5
18
1E
24
01
E1
EB
F4
0B
CB
10
F1
FC
03
F8
EB
E6
D6
06
F7
14
08
03
FB
14
F7
11
F9
F8
06
16
0B
EE
02
01
29
EB
01
1E
14
FD
00
ED
05
E8
2D
F3
EF
F6
0A
D9
03
FD
FA
19
FF
0C
09
0A
18
01
E4
13
0C
04
FE
07
F6
F0
1F
0F
F0
12
1E
F9
21
37
DF
1C
15
08
28
0A
19
F0
F8
F8
F2
E9
0F
F7
0B
F8
11
D9
EC
DD
EA
27
0C
FA
EB
08
F0
05
02
E7
28
C5
E4
F0
2C
06
FD
0C
D7
2B
D6
FF
FC
36
F0
FB
DE
D0
DD
DF
39
FE
9C
DA
05
CC
C9
12
E5
2D
17
13
F3
1B
0A
1B
03
0E
E9
FF
EA
D4
D8
F6
01
1D
12
18
28
13
F1
CA
D2
01
01
E6
F3
E9
01
21
1F
E6
F8
F1
00
2C
27
11
F4
0F
01
ED
1F
EF
FD
09
FA
CE
EE
08
12
0A
0F
05
0A
DE
F6
0E
11
27
FE
F1
0E
DB
F9
02
E8
0F
0F
FB
FE
F0
EF
E1
16
07
E3
04
09
25
EE
0B
10
DD
F0
E3
F2
0F
0F
09
04
0E
E9
F3
1A
ED
E9
FB
10
0D
07
10
B3
F7
04
FB
19
DD
1D
07
DA
FF
F8
26
12
F0
04
27
1B
D6
D2
EA
27
00
40
DF
CD
25
02
E1
3C
EA
DA
01
ED
09
F5
B8
DF
F3
1F
F4
CF
F4
14
F5
C1
0C
F2
D6
3B
0F
F0
08
20
FB
29
22
FB
19
F9
D1
03
75
0D
0B
BE
00
F9
04
17
E0
13
11
F8
EA
05
13
19
25
05
22
DA
00
20
11
0D
11
1F
EC
F9
07
ED
E8
16
F0
E1
FB
0B
00
FB
E6
F4
0E
29
FF
DD
E8
02
F5
DC
FE
F8
EE
25
1B
FD
FB
FE
0A
1B
0C
0A
0D
0B
02
F1
17
E6
D4
1F
F0
E5
D0
3F
23
16
1B
E3
1E
F0
1B
E2
38
E3
09
0C
C2
11
FB
1B
23
16
F1
10
F2
FE
01
F5
DE
34
27
E9
CF
3D
23
28
D7
D2
05
E9
07
01
EC
FF
E8
EE
C3
FC
23
1B
F8
13
2D
E7
22
DE
E1
FE
FC
EF
05
FE
3E
F3
D8
02
0D
03
EC
FF
F1
14
FF
09
1D
FA
01
FE
0E
D6
F5
F4
D1
22
0E
13
FF
16
FB
0E
26
D4
F3
F1
03
03
F1
11
21
F0
E3
0C
07
F4
06
2C
DC
13
11
EC
F0
FB
F5
06
EC
07
08
F0
13
FC
F4
03
D0
0E
FB
03
F9
ED
F8
02
EA
D9
0C
14
12
F6
1C
0D
06
12
27
FD
07
01
F1
E7
01
FC
21
07
18
E0
06
ED
F7
13
2B
2A
E9
F8
EE
DC
00
EA
F3
F8
09
F6
DC
FB
20
EB
1F
14
10
F9
D7
FB
EA
0D
FB
10
10
F3
F3
F2
FB
FE
DD
FB
ED
F3
0B
0B
3B
13
DE
F6
F6
02
07
DF
FA
E5
0D
0D
10
E7
F6
00
EE
FF
F5
EC
0B
F8
D8
F2
FF
0B
F2
DA
F2
03
0B
1C
0A
00
FA
F8
ED
07
10
F7
01
06
F4
04
F5
FC
01
FF
20
F0
FF
F7
ED
07
F7
05
02
0E
0E
E5
0C
F7
E0
D0
26
23
FE
08
EC
16
CF
FA
DE
F7
EA
01
02
08
08
23
FB
09
15
06
07
F4
F4
D6
F2
02
02
FC
F5
1A
F0
04
FE
02
22
02
13
00
FF
11
0C
FC
DF
E0
0A
27
08
FA
DC
0A
FF
F3
12
EA
FB
B2
DB
E5
08
1A
2B
28
ED
F9
0C
18
1F
1C
17
DE
14
E7
18
EE
FB
0F
14
EB
E8
08
FC
14
E8
FC
08
F0
04
09
F4
1E
31
C7
FE
EF
35
E4
25
FA
15
F2
C9
04
29
1E
15
FD
F1
E9
06
1E
08
ED
10
0F
22
ED
FB
18
E3
07
14
27
E1
CC
14
1E
1D
F4
08
FE
FC
DA
FE
CA
EE
2F
FD
EA
0F
C8
F4
1A
F6
30
31
18
FB
07
1C
06
06
02
F7
F2
EC
05
F0
CB
E6
25
09
08
16
E0
F6
E3
09
F8
FD
0F
DE
20
FD
35
03
EF
00
15
F9
E2
33
0D
F1
F3
07
11
F8
1C
13
F1
08
01
F1
10
F1
13
FD
0D
F7
E5
F8
0C
03
0B
F0
06
B8
E5
09
02
F7
13
06
EC
1A
FA
2B
DF
1E
12
06
26
F7
0A
ED
06
01
04
04
E5
DC
E5
08
E9
C7
E1
20
CF
00
19
F1
F6
FE
00
DF
F8
F2
D8
DF
D8
EB
03
19
EB
F6
DA
07
FC
E5
F6
1D
14
DE
34
10
11
20
18
24
07
EA
EC
E6
F8
04
03
15
EB
10
23
2A
ED
1A
0D
DC
0D
CD
F7
0C
2A
DD
E2
14
FC
FA
F9
E3
08
1F
16
04
F0
EA
10
F7
FF
F1
1E
24
17
11
01
F6
FF
F3
F6
0F
08
11
06
F7
00
EF
FE
11
E6
19
0B
F4
0C
12
13
ED
0E
04
08
FF
FE
14
F9
2E
E7
F8
F6
1A
D7
09
E2
EE
19
01
0D
04
FF
F5
0B
16
E6
FE
DD
04
04
F4
F3
E4
F2
18
F4
02
EE
01
13
F7
15
06
0B
0A
DE
F8
F7
05
00
1B
F8
E7
F6
15
E6
FA
E1
E3
0A
05
03
0D
D1
F8
20
19
0C
25
FB
0D
16
07
F7
FA
E6
F6
F2
F5
10
F5
E6
DD
17
FA
0E
0E
F3
0E
25
0E
F3
F7
F8
E1
F4
E8
08
16
D3
2C
EC
1A
FE
FD
00
F5
0C
EB
F2
EC
07
16
FB
16
FE
14
DF
05
F3
E1
E8
05
FA
15
E9
F7
F5
04
0F
E6
D8
F6
09
DE
12
05
E2
20
01
06
0E
E9
12
0B
E6
0B
0D
07
04
E3
10
01
00
0F
F4
F2
F1
EB
07
EB
09
0D
E7
25
0D
17
F0
E9
04
00
16
F0
F9
3A
0E
18
0B
04
ED
0B
05
EC
21
FB
F6
12
09
ED
F5
EC
2C
03
20
07
12
EE
01
25
F2
27
E4
DD
DC
00
09
14
D8
F1
1B
08
EE
FC
FF
EE
01
01
E3
F3
1A
EF
FD
EF
D4
EF
14
CA
07
16
07
F1
F4
14
F2
F1
CB
FE
E4
17
0E
1E
06
E4
18
15
FC
F9
FE
FA
00
D9
E8
15
FF
EB
03
ED
CC
FE
ED
F3
02
04
E1
02
1A
05
EF
FD
22
EE
0C
FF
FE
F1
16
F4
02
C0
E8
08
1D
D7
F9
DA
1F
E7
D1
09
04
04
FA
12
F4
02
25
13
F7
13
04
01
48
FA
0D
F5
F2
E8
04
05
FA
E1
0C
27
01
FD
FD
06
F6
F8
EF
DF
03
EB
F6
16
EF
EB
06
E3
10
17
FD
02
1B
FC
27
FF
EA
E8
18
14
10
FD
DF
FF
DC
04
FF
04
1F
FC
16
F6
E4
21
F7
DC
F0
13
E3
DF
3C
29
EB
1E
07
F3
E0
05
F3
CF
F5
1A
D6
E9
0B
F6
D4
44
FB
DE
F9
09
EC
FC
05
F6
FC
0D
D1
21
0B
F5
2F
E3
F4
00
22
FE
EB
3C
0C
F3
24
FD
EA
10
03
22
03
E1
F0
07
2A
FF
E9
D6
E4
0D
ED
09
00
0C
FD
EB
F4
12
24
C6
32
0E
02
0D
09
08
DC
DD
0C
E0
17
F7
E6
CC
05
FA
15
EB
F2
24
14
D5
05
12
25
0C
F8
F3
04
02
05
31
F1
FA
17
DD
18
00
CA
FF
03
0B
ED
F5
07
31
14
DA
01
1E
F4
F4
FC
1C
0A
03
FA
E4
E8
04
F2
DD
F8
F7
E5
F4
F1
E9
F2
0B
15
1A
13
07
E9
E6
FD
06
FF
27
04
01
EA
14
11
EC
F5
F8
12
DF
02
FE
03
0B
0B
0D
05
05
F2
08
FB
00
14
EF
F0
F9
FD
F0
15
13
E4
DF
0D
D8
FD
E4
E6
F5
11
FF
CD
F6
17
EB
1D
EA
23
0C
11
14
15
F9
F5
0B
0D
DA
E2
03
EB
01
E5
FD
0F
16
FB
19
0B
0E
1F
FA
00
EA
FB
29
0C
DF
04
DE
17
05
EC
ED
00
E3
EE
E9
1B
D0
F2
F3
2A
EC
19
11
10
DE
FF
FA
D3
09
16
FE
1C
FA
08
F1
FF
DC
12
07
F5
F2
15
0C
18
05
E7
F1
F8
05
1E
E7
0D
F7
FF
C7
F9
0C
06
25
14
15
BF
FE
39
24
F3
24
25
EE
12
E2
F2
F9
04
DD
F7
01
0F
F8
22
02
08
29
2F
FB
13
EC
06
E3
F2
EF
11
23
1B
FC
09
0D
0D
FF
EA
F2
E4
07
09
17
00
E3
E4
1C
FB
0B
02
0F
F6
15
EF
10
E8
F6
04
0B
0F
FF
08
2C
F5
EB
13
01
FC
31
E7
FC
FF
E8
13
12
04
08
0F
1E
EA
F5
F6
F6
F7
0A
D9
F9
07
FF
0C
F9
FA
F0
F2
FC
EB
FF
E2
07
E6
17
09
19
EF
FD
FD
F7
E5
FC
FB
0B
DF
0A
04
12
F7
F8
14
DE
FC
02
DA
EE
2E
F9
F6
EA
F6
05
18
FE
26
07
15
1C
F0
F0
FC
14
06
03
23
E8
E6
09
42
ED
0F
E6
F8
0F
15
11
2B
17
1C
01
E9
F0
04
F6
24
F2
FF
02
05
F8
C5
10
0B
ED
06
27
FC
09
F8
01
27
EC
E2
DA
26
E9
F3
F5
04
09
12
F8
00
DC
E2
F4
36
B0
E9
09
FA
16
21
00
21
00
01
FA
13
24
EC
E9
0B
EA
04
F7
D3
1A
01
CE
0C
08
EB
FB
FA
F1
EB
13
13
D8
E8
25
D1
FA
0F
11
F6
E8
F7
26
F4
17
31
22
0D
21
E6
2A
05
24
F0
06
1C
E9
06
10
05
F2
F0
EB
41
13
04
28
07
03
07
1A
FF
FE
E2
F1
1B
2C
25
FF
18
27
F6
16
EF
EC
FB
EB
DE
EF
DD
F8
E4
D0
D6
0A
04
E3
F4
F4
1B
F9
EE
F4
0C
EB
CF
2C
13
F4
DA
F2
1F
F9
D4
14
03
00
02
EB
0F
FD
01
E8
F4
F5
E9
0B
E7
0B
F8
0F
11
08
CB
F7
FC
11
F4
0F
E6
F6
1E
1F
07
13
DF
FC
EC
EF
EC
0F
FB
F8
E8
0D
04
00
FD
E9
F9
D8
FE
1B
D2
F7
EC
12
11
F3
02
FA
06
02
2B
F1
EE
0C
F3
CF
05
13
DC
F0
DF
05
2E
DB
1B
DD
EE
F4
05
FD
05
FE
F5
EE
F5
06
24
F0
12
F7
FD
F6
ED
F1
24
FF
F5
01
2C
14
00
15
E3
08
09
06
F5
E1
08
E0
03
DC
F1
F6
DE
09
DD
FF
1A
F8
18
08
01
04
D9
26
26
C1
01
F3
0E
0C
0A
05
10
1B
F4
E9
B5
E5
EE
D8
09
00
00
22
EC
E5
08
DE
F3
27
0A
0F
3E
1A
48
03
26
E8
17
0A
31
FA
05
F7
FC
F6
0E
EC
EC
E2
EF
04
FE
DA
04
E1
EC
FA
E6
F5
E2
F4
04
13
F5
41
14
FC
08
0E
EB
D5
FD
F2
F2
FA
E6
0D
C0
17
E1
26
02
EC
F6
C6
FD
E9
F3
E5
19
F0
FD
00
19
03
22
00
17
08
11
F5
31
09
5B
33
1B
16
08
02
17
E5
02
F9
DF
12
FF
17
F2
D7
11
F2
FE
1B
DD
E8
04
10
CB
03
F3
FC
DB
01
0C
F6
E8
19
FC
FB
17
EE
0D
08
FF
00
07
FF
1A
FB
07
20
E3
0F
0E
FE
ED
E8
E9
E3
D6
EE
0E
07
16
FA
0A
14
F9
06
0F
F9
FF
05
F3
F1
DF
FF
03
39
19
CD
D1
01
0E
17
F7
FB
D6
E2
F9
ED
EF
F3
14
0D
38
FC
F8
F1
ED
05
14
F2
F9
E0
23
04
31
1F
F0
E7
E6
1E
16
F6
D8
F8
E2
09
01
F3
15
09
0B
13
EE
D5
ED
19
23
0A
01
08
09
F6
F8
0D
1C
2D
E9
F2
2E
03
E7
EF
0A
F4
DA
09
F8
EB
03
F2
E6
19
CF
F9
FD
09
0E
FA
15
14
1D
FE
DE
D4
FD
4F
FF
E8
EC
10
53
F9
2D
E1
E3
F0
E0
EF
CE
FD
F6
FF
E3
EA
04
1F
07
0B
E1
2B
F2
06
F7
F9
2D
BA
EF
EC
EA
E8
D7
ED
E6
10
ED
EB
12
08
10
21
DE
DB
0E
F7
F6
BC
E3
14
19
E8
E7
E3
F8
1F
2C
0C
FB
F2
05
E7
03
E7
F7
0F
E7
F6
06
1B
1A
06
05
01
12
F0
20
10
F9
F6
C9
FF
03
09
FC
DE
00
13
00
25
FB
DC
14
EE
FA
02
E7
1D
0D
0C
0A
D9
28
01
F7
26
E2
05
11
F7
FE
19
15
FC
32
F5
F4
EF
FD
E7
08
26
E0
0E
F9
1F
ED
F9
19
07
E7
F5
18
11
0F
04
FF
15
1B
00
2C
17
0A
EA
FF
EE
0A
FF
70
E8
FE
E6
F7
13
FB
14
FC
E5
FE
F6
07
ED
F1
F3
F3
EF
12
FC
E7
10
FF
12
EB
D3
14
0C
0A
F8
17
38
C3
FE
0A
FF
16
0B
15
27
31
CD
F3
28
16
03
10
E2
D3
34
0E
FF
05
F2
EE
DB
DB
1C
ED
F2
07
3C
F6
21
0B
EE
07
4D
F3
F0
15
2E
E8
FB
F6
FC
03
C9
02
F8
04
E3
01
0B
FF
F2
F5
15
00
E2
DA
11
E4
11
17
DF
14
0D
F5
E9
0E
FF
E5
FD
E9
09
F7
F2
F8
F1
D2
15
F8
F7
CD
06
0D
F4
F8
03
06
FE
24
D7
0A
FC
DB
FC
D3
DE
08
F0
01
EE
02
F7
E5
05
04
E8
E2
25
F2
FB
0B
E0
EF
F0
F5
04
03
FC
0D
EC
10
18
FA
0A
F8
24
17
E9
15
1D
00
09
19
FF
18
FA
1C
16
F3
20
F1
FA
00
13
D3
05
13
08
FE
0A
17
04
DD
FD
0D
EF
EE
09
E7
0B
00
26
F7
25
0A
17
05
17
F7
01
FA
CF
EB
DB
06
FF
1D
36
F6
10
01
F1
E6
D4
D3
04
E4
E3
0F
10
E4
1B
00
F8
19
EE
19
D8
E5
01
12
F8
18
FF
18
26
05
E4
2C
E1
FA
EF
FE
F4
13
0F
1E
27
F1
E3
FD
F5
EA
E5
0E
F1
F0
E6
1E
F5
02
07
E9
E3
F9
12
F8
05
05
0F
14
F4
06
F7
05
16
06
03
FD
06
F4
FE
0D
0B
F8
11
10
F2
E4
08
E9
01
F8
28
FB
E3
E5
F2
EF
03
17
E0
1D
03
29
31
29
F5
16
05
2A
E4
19
01
DB
1C
E7
FE
1F
F9
F5
16
06
EA
FF
0F
D1
17
D7
26
0B
DC
F0
EE
E4
FD
FC
F8
31
E4
FD
FC
F1
EF
F7
36
FE
00
1D
FA
0C
E1
F5
E2
EA
1A
E8
06
02
F9
0C
ED
30
16
00
0A
FB
FA
ED
F5
FA
E5
FF
0C
06
EA
10
13
0F
FA
FB
2D
0A
D0
E5
ED
FC
1A
E3
08
E7
0C
1A
E5
11
CF
F5
2C
07
05
0A
EC
0B
00
DD
08
F8
1F
FB
F3
03
17
1B
12
FC
E6
FB
C4
EF
45
F6
09
EF
E1
F7
0B
14
F2
09
E9
19
E7
DF
0B
F8
E3
01
03
FA
FF
01
E7
FC
F5
FB
16
F4
DF
DB
E9
EB
29
D5
E1
0F
02
09
DD
EA
DF
FB
20
CC
0D
10
04
FF
D5
FA
E6
FC
18
01
0A
0C
F2
08
06
12
00
FB
FA
01
E9
06
16
DC
13
E9
12
0D
03
EA
F4
0A
EE
F2
0C
10
F6
15
F1
1B
F0
F9
EF
E6
F9
37
03
F3
0E
00
0C
18
10
F6
07
1C
F6
0D
13
16
04
F0
1D
08
07
FB
01
12
03
F0
0E
06
04
F6
0F
08
F5
06
1B
59
DC
12
1E
3D
27
F2
22
FB
FB
FE
F6
01
F7
26
07
E4
DB
E6
02
28
0A
33
23
F4
23
1C
26
38
E0
F7
B3
DD
27
19
FF
2C
DC
18
06
3A
2F
F3
E3
18
FF
EA
18
DC
D5
36
E6
00
FD
E6
11
E6
08
F1
12
0E
02
01
07
38
F4
1C
F0
F8
00
1B
FF
0F
F5
02
00
1C
EC
1B
07
F4
F3
01
04
ED
06
DB
EE
EE
EA
09
01
FE
06
CD
23
F9
14
FD
EA
26
0A
F1
01
03
04
ED
27
EC
F9
F5
E0
0E
F1
2F
06
15
08
10
E2
F5
07
0D
F3
05
18
FD
08
1B
FD
EC
EA
D7
FE
F3
0B
FD
18
D7
11
16
0C
1F
25
EA
E7
F0
01
DA
EE
D7
F7
02
EF
FF
0F
25
0C
DE
D9
D6
21
10
E4
2B
FE
ED
1B
0C
FB
F2
EC
0D
08
1D
E7
1A
F8
E6
F0
E9
DB
11
03
EB
01
30
11
F9
10
FD
F6
07
0D
F5
0C
FD
F7
FD
F0
19
F6
35
E5
E4
09
E3
FF
03
EC
FE
F7
04
03
06
0D
F1
01
F4
14
23
1C
F6
ED
09
F4
01
1B
FE
F9
10
1F
0B
2E
F1
1D
F4
1D
E3
EE
FA
F5
10
01
EE
12
0F
0E
12
F6
F6
12
04
00
F0
F4
17
10
F5
09
F0
E3
F9
E4
09
F2
05
10
F7
E8
1F
E2
0B
05
0D
E5
02
01
E9
FB
F8
27
1C
E4
F1
14
A8
03
EA
1C
D1
E1
0F
2E
F4
FB
03
EC
F8
0A
FC
06
28
0F
22
D8
E4
10
FC
E7
02
1E
F9
40
D5
D6
FB
E4
FE
27
E7
F6
12
E8
F3
F9
F5
F3
EC
F6
F2
04
FC
F2
13
F2
0B
CA
11
D2
02
1B
17
FA
04
E9
16
FF
07
FC
27
E6
0D
02
F4
EB
0E
02
0E
E6
FB
16
F3
13
FF
16
10
F8
F2
03
E9
04
E4
1C
FF
EC
26
E5
F7
05
40
F1
E8
0F
0D
31
03
F7
03
FE
E1
02
F7
E2
16
25
FF
F9
22
F5
16
FD
15
1C
EF
32
F1
1B
05
04
C2
D1
05
FF
EA
FA
F9
E2
F9
E4
12
21
D4
15
D7
29
FD
F7
0D
1F
F9
20
10
F6
3C
DD
D5
25
04
0A
E3
C9
FB
E4
E7
07
05
2D
FB
08
F7
0C
0D
F2
FD
0A
F7
F0
F2
14
F9
FD
EF
14
FB
D6
0A
EB
1D
19
07
03
F3
D4
24
0B
07
FF
25
FD
10
12
FA
F3
33
FA
DB
F0
04
F5
FF
EA
E6
35
20
10
EC
1F
E6
E4
02
15
0D
F4
EE
01
0B
01
2D
06
08
01
06
F7
EC
F9
1E
0A
F2
04
F0
FB
0E
E2
2A
F8
F2
E5
EA
ED
EF
0B
F9
10
EA
06
F4
0C
30
12
02
03
F5
0A
FC
EB
EE
17
EE
27
F9
F7
19
F3
13
02
E6
F7
F8
15
DB
09
F2
F1
FC
F2
E7
E8
09
0A
E9
06
05
0E
32
14
14
F9
04
00
E5
FB
09
A3
20
1F
06
07
11
D7
13
F7
03
19
CD
E9
F3
0A
0D
E7
F6
07
0C
36
19
EA
1F
F3
D8
00
12
F6
23
05
FC
EA
13
EA
FC
E0
EF
0D
E7
04
2C
3A
EB
1D
07
14
EC
FA
F3
FC
FE
F5
0C
FE
F5
08
FB
16
EA
F2
F0
1C
0C
14
DE
C4
EE
02
11
F3
C3
F1
17
DA
03
02
D8
33
13
FA
12
05
F4
0A
F2
0D
02
ED
EF
FC
FF
F4
06
04
27
01
08
F9
F9
E6
10
16
04
F2
05
FD
F6
19
01
F7
F7
E0
05
33
1E
1E
20
F9
E5
13
13
E0
0A
0B
50
EF
DF
14
F4
2A
21
FF
11
DD
EE
D0
F1
E8
F1
08
05
19
DD
0A
0D
1C
38
25
2F
15
ED
EB
E5
D0
35
2F
F0
1B
17
1A
12
DC
EF
24
EF
14
EB
00
F3
09
F9
C6
E8
06
FA
E4
08
11
B1
F9
03
00
E1
FB
F2
F2
F4
EE
DD
06
22
EE
0F
F8
E2
02
11
F3
14
28
FB
DC
0E
04
01
11
D9
15
F9
08
DD
01
FE
F8
D1
24
FC
FD
19
04
E7
E9
FD
FF
FD
04
05
F5
0D
12
F0
FF
0A
1F
05
F9
F9
D5
E4
FF
DB
C5
31
17
2C
0A
06
15
2B
DE
FE
ED
F9
CE
11
FF
F0
17
06
FA
17
FB
17
BC
1D
09
2E
DD
F7
05
10
E1
F1
0C
27
03
E4
F0
EE
08
33
1F
FE
F1
E5
03
F1
06
0E
0E
F8
E3
F3
1B
00
FC
0C
EF
0E
FD
FF
13
CC
00
16
F5
FE
FE
ED
FC
0D
01
21
D9
34
0D
1D
0B
1B
FD
09
0A
03
B9
17
F3
CF
09
03
22
CF
D5
09
2B
D2
0C
18
00
EB
ED
09
04
27
10
25
13
28
17
20
01
E0
E5
22
19
F1
E6
E4
01
EC
F9
15
3E
E9
0C
2B
FB
0A
F8
FE
FD
1D
04
23
2D
10
D2
02
E4
05
FC
17
E9
F7
F6
FF
10
11
F2
E7
F6
39
E5
E2
F2
F3
10
06
2A
06
F3
F6
EC
0C
FA
23
DB
06
15
08
F4
FD
F5
04
04
F9
D9
ED
1A
C9
00
D6
25
E3
F1
27
32
F7
0D
2F
FA
E8
F5
FC
19
0F
0A
19
FD
F6
F5
EB
EA
19
E8
F2
04
1B
F6
EC
11
F7
F2
15
E5
02
E3
FE
08
22
00
F4
0D
13
FD
19
EF
EF
01
EC
FA
E2
F2
F0
F8
F0
04
DE
05
10
E2
2C
13
04
36
1E
F4
FE
F8
F1
E6
F0
F0
DE
09
FB
04
1C
0D
D8
06
ED
00
0E
0A
0A
F0
1E
1A
0F
18
07
04
0A
02
F3
EB
EB
06
F7
02
FF
F7
FC
0A
1C
FE
27
1B
F2
F2
12
11
47
00
05
D4
0F
16
05
00
1B
E0
0D
E5
21
0E
E3
DE
06
04
F8
18
E0
F6
18
EE
F1
F0
F2
F7
DA
02
EC
0E
0A
03
FE
FE
00
FB
F5
F6
F9
E8
F9
00
FC
12
04
0B
ED
11
F4
E4
09
00
15
D8
04
16
08
13
FA
28
19
02
0C
DB
D4
0B
06
EE
09
0D
12
0A
09
09
00
E6
F7
E5
EF
FE
FC
27
F1
E9
02
00
03
38
3E
F3
EF
1D
DC
FE
F5
F6
18
D4
FA
0F
0B
F6
09
EE
DB
2C
F7
ED
FE
DD
08
01
FF
E5
EF
13
E0
F7
02
FD
CD
31
15
02
03
F5
D2
FF
37
EA
ED
0D
F9
38
0D
EF
01
07
D7
0D
06
D7
01
E9
DE
04
EB
0D
FB
20
E6
06
F3
0D
DE
E5
FF
07
F7
09
FE
F8
F8
0E
F3
D4
F0
0F
15
0D
FF
12
EF
1E
F7
FD
FE
FB
F5
16
08
0B
E8
13
03
03
F4
13
FA
F5
CF
FD
1D
F9
13
E7
05
F0
F9
06
FD
1F
0E
F8
D3
07
22
EF
30
1B
1B
F6
08
1C
20
18
1A
FA
33
F2
FC
ED
F5
DA
13
E4
EF
15
EB
40
E2
19
14
0B
09
31
02
0A
18
F6
33
EB
EF
22
0C
EE
FA
1A
0D
05
D6
C9
16
E2
DC
02
E7
F8
F9
E0
09
22
1D
28
10
F4
EA
EC
F3
D4
40
E1
0E
FF
0B
F6
EF
E9
01
21
FD
00
16
17
14
FF
E8
17
F9
F4
07
F0
E8
2B
04
D7
F5
F2
0F
34
E4
02
F1
F6
FE
F0
16
05
D1
ED
03
EA
F8
1A
D4
E8
DF
09
F4
F7
10
E7
FE
FE
F1
37
0F
0D
E9
EF
FB
FA
DD
DB
E7
28
CE
F7
CB
08
18
E7
F9
FC
28
FD
FF
06
FE
F8
2F
07
FF
E2
D4
F2
ED
16
06
19
DF
ED
1D
D9
FB
16
FA
F0
FB
E9
EB
1B
21
04
08
FD
1E
25
F9
06
02
F0
1C
0C
4C
0A
FA
20
03
FB
07
03
E4
DC
CE
31
F0
F4
26
11
EB
06
F1
10
0B
13
2E
03
E7
F7
D9
E8
FD
2B
22
EE
FF
E8
FE
17
E7
ED
FE
08
F7
FD
08
02
04
F3
19
22
EC
13
F3
E6
FA
E8
1F
FE
21
20
FC
EC
17
14
1B
FF
FC
10
11
DA
F4
09
21
1E
EF
06
EE
10
F6
18
FC
EB
04
EF
0F
08
E2
FC
F6
0D
FB
05
0A
07
00
F2
16
0A
22
F9
06
D6
08
05
08
EB
FE
FA
08
CE
04
05
17
EE
EB
01
03
01
2D
EB
0C
10
05
ED
1D
F2
E0
13
EF
E3
EA
F9
29
FB
28
06
02
2F
D5
20
2A
FF
D9
E2
02
E1
FF
E5
0D
00
E4
FF
E9
F8
1A
FB
F6
ED
ED
2C
27
1B
04
0F
DB
1E
10
EB
00
29
F7
29
F1
DA
08
F1
2C
EC
B5
05
E6
CE
F3
12
ED
FF
2B
14
FF
F9
33
23
F2
0A
F1
00
FD
D5
FF
F1
FF
E9
F8
F4
EC
1B
14
CE
E7
E9
F1
2F
2D
10
E6
EF
12
F8
0C
0F
FE
36
33
1D
EE
EF
EA
1D
EB
05
05
DC
F6
E5
2B
F7
08
07
BD
0D
17
00
03
D9
F8
EA
DE
20
E8
FF
0E
FC
1E
01
DD
EE
FC
FD
20
EF
FF
1F
F8
EC
0A
1B
02
10
02
06
EC
06
2E
F1
B0
17
12
FC
F8
EC
04
E5
04
0C
3F
E2
DF
00
1D
0F
F4
EB
22
03
0B
EC
E1
B1
11
E9
E5
E7
EB
12
02
D2
0B
1F
14
E8
FA
0A
20
C4
ED
EC
F9
0A
0A
1A
F1
DA
40
1B
0E
23
E3
10
DF
FA
0C
0A
02
1E
F8
0B
F6
14
0D
01
ED
15
F6
31
11
FF
06
F7
F9
04
1B
1C
1D
EA
EB
35
06
F9
0E
C4
12
ED
04
FA
F9
FC
EB
0B
04
18
1A
FE
0B
F9
F5
06
FB
F5
F3
13
02
E1
18
FB
F7
FC
07
DE
0C
F4
15
02
F2
FD
F6
F5
18
F1
E1
FB
08
14
EB
D0
03
10
FC
06
FB
02
D9
F1
FB
19
16
0A
D4
13
F4
E4
EF
DB
0D
F2
E1
05
FE
E3
02
F6
18
EC
14
F9
0F
0E
F5
DB
EB
11
5F
04
E5
ED
F6
FB
F9
FD
AF
E7
E1
02
FD
F4
FD
1E
01
DA
F8
0E
08
D7
EE
07
DC
0E
06
1D
F2
08
F3
03
06
2A
05
E8
E5
09
0C
1C
EC
F8
0E
FB
FB
F6
F3
2E
EB
FE
EC
FB
0D
12
F8
D9
23
EC
03
DF
08
18
0B
DC
EF
EA
02
DB
F5
F8
04
E0
0C
F8
94
01
22
0C
EC
14
1C
F1
FF
DF
D2
07
DF
E9
ED
FC
10
05
F7
FA
02
01
CF
02
15
FF
FF
F0
0C
ED
09
10
EE
FC
00
FE
00
0E
17
05
02
42
29
F0
EE
F4
16
FF
F3
2B
F2
E8
0A
DB
0B
EF
CB
25
11
F7
F9
ED
F0
1F
10
17
FE
1B
03
16
1A
E9
EF
F2
FC
07
EB
DE
E8
10
EB
FC
05
F9
DC
08
16
EA
DD
F5
05
EA
06
34
F0
EA
EF
EA
FB
FE
F9
16
F3
08
FA
01
FF
FD
D1
FE
05
FF
03
2B
ED
35
F7
1A
FA
09
F0
EF
0B
07
2C
20
E7
D9
00
08
04
27
C1
D6
E6
03
F8
D2
0E
E5
CF
02
C9
F3
F5
ED
01
EA
0E
07
00
0A
33
EC
EB
11
06
EA
EC
EB
E4
F0
FE
FD
14
EB
D8
E5
E7
00
AA
17
13
C8
ED
E7
0D
0F
D3
FA
0A
2C
2F
16
E3
F5
F5
20
15
16
08
0E
DD
09
FE
03
FF
20
13
FD
B3
C2
E5
19
DE
EE
2C
05
FB
D4
FD
E4
05
02
3D
D6
00
01
1C
2B
0D
E8
E8
01
07
13
F2
06
18
FF
E2
FA
ED
FF
EB
F5
02
C9
FE
05
17
FC
0E
19
E7
1C
F4
FA
0C
F9
09
03
FC
0E
FE
E7
02
D2
0B
F7
E4
19
0A
11
E4
F4
DC
02
F0
1B
23
F5
11
0C
F6
06
F2
08
FC
18
1E
00
D0
10
14
FE
EC
EE
21
F3
28
10
F8
02
00
E0
02
F5
0B
F6
17
DB
21
F0
FD
07
F0
18
27
E3
E8
EB
FC
E8
DA
F4
3A
1B
D8
F6
10
FE
07
10
10
F9
FE
0F
FA
ED
12
FD
12
30
C5
E2
FC
FD
F1
E0
23
26
17
F7
02
CF
F9
21
FD
E7
FF
01
FB
04
09
0B
01
DD
0E
08
25
E9
F5
17
12
D4
06
FB
E0
2C
D7
16
DD
CE
06
07
E6
1A
04
00
EC
DB
08
ED
FF
E7
E3
09
21
0A
0A
0D
EF
00
00
FE
FE
E5
F0
18
0E
0E
24
2B
07
0C
EC
F8
09
FF
12
17
F0
07
1C
FC
E0
E9
E7
F2
18
F4
E6
06
26
FB
F5
04
E5
21
24
EB
2D
16
F7
FA
15
0F
1F
FC
24
F2
F9
04
01
F7
1A
EB
09
FF
ED
F2
0C
43
05
10
09
F2
0D
FA
0C
DB
DB
0A
01
FA
02
F1
E1
F2
34
07
F9
FC
AC
11
E4
10
E2
28
F7
D6
05
F5
11
07
0C
09
F5
17
17
F7
16
06
07
F3
FE
D4
FF
03
FC
F5
2A
F9
F5
05
F6
F8
07
F0
D6
10
F7
40
EC
18
FD
03
35
27
0A
FD
1B
F7
03
0A
02
03
F2
E7
32
02
FD
07
21
05
FC
EE
DE
18
E9
35
F4
E5
F6
FA
F4
EF
01
29
DD
EA
FB
0F
FC
F8
1C
FD
FB
D0
2F
09
19
11
0C
01
F9
18
F5
0B
FE
1F
19
F5
EE
1D
D1
26
F5
FF
F6
DB
F9
37
17
FD
29
0E
18
F8
E7
15
17
E5
02
04
E4
01
FF
E7
06
FF
FA
0C
F9
21
05
2B
09
F6
04
01
13
ED
15
DF
DD
E4
DA
17
CB
17
1D
F0
FE
2B
F9
04
07
F6
22
EA
1C
12
0C
20
EB
CD
E6
17
0B
0A
D7
CE
F9
00
F5
DA
F0
06
29
FC
F3
E6
26
F8
E6
E9
CB
1B
A8
14
00
50
09
FF
08
1A
04
01
D5
F6
DE
EF
28
F0
09
EC
E5
EB
F0
F7
F8
13
FA
10
ED
DA
D6
19
03
FC
C9
06
1D
1E
11
0E
F2
EC
ED
00
CB
13
C0
E2
FC
E6
1E
EA
F7
0C
F4
F6
FB
1B
0E
10
F6
F9
19
01
FD
E9
11
E3
D6
10
E6
E4
04
D1
19
11
E8
FE
FC
EA
EA
08
2D
03
1F
F6
EF
FD
11
03
11
EC
2F
FA
08
0A
25
E9
1C
F6
07
F7
04
F9
E6
13
EC
E8
08
FB
2F
22
0E
FE
0B
00
EE
25
14
FF
06
F2
F9
D7
12
05
FD
16
F5
E0
18
02
DE
0A
0F
EB
04
E2
22
EE
FB
20
F0
14
FC
ED
1D
11
09
11
05
E7
09
04
06
EF
13
EF
0F
1B
12
F8
DD
11
02
EA
04
EF
EC
02
13
FB
22
EC
F4
03
F3
F6
0C
0B
F1
E1
F6
05
E5
1D
EE
03
D7
15
EF
E9
0A
FD
FA
08
DE
F3
EA
11
F2
1C
F0
11
16
F3
F8
1B
F7
09
08
FE
06
F5
23
32
0A
0E
FA
D5
EC
03
01
1A
0C
08
06
F7
E1
E5
0C
FB
C3
E7
0C
0F
17
00
F0
FA
19
F6
ED
13
18
F8
F1
F6
DD
E8
FD
E7
FF
1C
08
EB
FE
02
00
06
F0
0E
0E
D3
01
0B
F3
F7
E5
08
F3
00
E0
0E
FF
FC
07
FD
F9
F5
25
EB
1F
E1
F0
00
F2
0D
08
11
12
04
DB
09
E9
16
F1
02
E4
0C
03
14
E3
17
F1
01
DF
F6
EE
FE
EA
F8
D8
FC
FE
1B
D9
03
F3
DF
0D
19
DF
FD
F4
EE
0B
EE
F6
EA
07
FB
A7
06
02
0A
1C
CC
13
01
E2
F9
0D
03
F4
E8
FC
30
D7
E6
16
03
13
2C
1D
E9
EA
F0
F4
E7
31
11
C4
E9
E8
CD
00
FF
0E
2F
1E
F3
11
E6
2C
01
DB
13
E9
C4
0F
02
09
03
F7
F0
39
15
11
1A
FD
FC
F3
17
FD
D2
0B
06
21
F1
04
F2
16
F1
CF
06
1E
17
FA
1E
15
04
16
FA
17
F4
E6
DB
17
F9
DD
E1
0F
F7
F9
ED
FA
F3
0F
19
FF
FA
E6
ED
0D
16
0A
F7
24
00
03
11
ED
11
11
F5
ED
EE
08
0E
02
03
02
03
D8
F7
00
F1
18
E6
1D
F2
FF
0F
03
05
E7
DF
FE
ED
10
E0
E7
0B
E3
09
ED
0E
2B
F3
06
05
FF
08
0C
03
F4
FF
F1
0F
D7
E5
E9
FE
20
1B
12
14
F2
0A
1B
28
0D
01
1B
D0
EE
24
08
0F
0D
F0
F5
06
E6
F9
00
F6
06
F1
06
C5
F9
03
F7
FF
F3
29
FA
05
EE
02
0E
0F
F1
E6
02
0D
09
1B
E8
19
DA
F7
FA
F8
F3
11
09
F1
22
FD
11
DF
E8
05
29
03
25
EC
2B
F7
25
0B
10
F0
EA
14
0E
FC
F0
02
FD
DE
01
09
E4
F7
11
FA
F9
1B
21
F9
1D
17
12
FF
F6
24
F9
CB
FA
0A
08
F0
FD
CE
06
24
11
F2
0C
27
D1
DF
DE
EB
F4
ED
06
F9
1F
EB
15
FF
EC
EB
20
2C
D9
17
FA
31
E2
19
C5
FA
16
0B
08
E1
1C
DD
FD
E8
F0
EB
EF
D4
12
FD
2C
05
E9
1E
D5
FB
EE
F9
E7
DF
E0
2C
28
F1
31
0A
FF
06
D1
2C
DC
FA
05
F3
19
03
D9
DC
C0
E9
E8
E7
FF
E6
27
FC
EF
1C
1D
F9
DA
EC
11
FF
04
E7
07
07
0A
EF
02
0B
0D
03
F0
F3
E8
20
08
F2
FA
FE
12
EF
0C
EB
D3
EF
19
03
1A
D9
FE
D8
D3
00
F7
EE
25
DC
11
C5
00
D8
ED
2E
EF
ED
04
EF
13
00
DA
F8
F2
0C
E3
EC
FC
E3
2C
0B
13
F5
06
FB
FF
F1
03
EB
FD
E3
E6
35
1F
F4
FA
DE
15
F3
E9
06
FD
19
E5
F6
1F
17
03
09
FF
1E
F1
E9
29
D9
EF
CC
ED
D0
F8
EB
02
F5
19
08
33
E4
EC
1D
11
EE
06
05
02
06
09
1C
07
0D
0A
1F
DE
D5
FC
05
FD
26
E2
1C
EA
F1
0E
FE
A4
FA
96
ED
11
19
12
0E
F7
2B
D7
E3
19
EE
17
EA
28
50
CC
F3
06
06
1C
E5
04
05
21
03
02
FC
05
10
F4
F4
F3
D5
0B
13
15
06
EF
16
E2
1D
0B
F3
35
07
13
DB
04
F3
09
08
0D
08
F8
F3
0E
F6
FB
FC
18
08
04
00
EB
FC
17
1B
C8
ED
1B
E0
07
0D
1D
F3
03
14
DC
26
F6
F0
F8
EC
1C
F2
00
05
0D
DB
E9
52
E1
FA
13
1B
ED
FD
11
02
11
02
DD
18
29
E4
31
EC
18
14
33
15
F0
0A
08
F6
1C
22
13
F8
F6
21
20
06
0E
11
FD
2D
13
2A
03
06
FB
F3
F5
24
07
F6
FD
01
06
FF
08
20
01
F1
1D
0C
F9
F0
11
01
FD
05
1F
FB
15
EF
FD
F2
F3
0D
FE
02
EE
F9
0D
D4
DA
0F
01
FE
06
EF
ED
0D
12
F3
FF
07
ED
06
18
FB
15
ED
F2
FB
15
E8
EA
D8
02
F8
F5
FE
10
E7
F3
07
ED
3E
0F
FC
00
1D
00
03
09
1F
25
EB
FC
0B
0A
E2
F3
FD
04
1D
09
F2
15
EE
12
18
F8
30
0F
FD
03
D9
F9
E1
F6
05
2D
1B
31
FB
22
18
03
1C
E9
FE
F0
27
DC
0C
EC
F7
00
FC
0D
EA
D9
EA
E6
E5
14
F7
1A
EB
0B
20
1C
F1
DF
05
23
FD
00
2B
E2
E3
FE
19
F5
EF
05
13
19
1E
20
00
1D
F3
5A
01
FE
0C
04
EC
0E
23
11
36
00
0F
F8
F8
E8
11
ED
04
D7
1F
FC
24
F7
E2
E9
20
0D
ED
04
19
FA
24
F7
0C
05
30
05
F9
13
E6
F7
00
E4
21
FD
0A
E1
E4
DB
16
FB
FC
E9
FE
32
27
20
EF
27
17
04
0E
15
DF
10
1E
ED
FA
04
13
F3
0C
D6
F2
FE
D5
0A
F4
05
EC
07
F1
18
DF
F6
FC
DE
F0
ED
07
13
F6
F8
EF
15
01
E1
E4
FE
08
F5
FE
F2
07
08
19
05
20
F3
ED
0A
24
E7
F0
FB
FB
DD
01
FC
15
11
04
FF
03
F9
F2
11
FE
E2
F5
0C
11
13
FC
14
E2
FB
F0
ED
05
19
12
0F
EE
F7
F7
F4
04
04
0A
00
0E
C7
1A
F5
07
06
03
ED
11
C3
F6
0C
08
FF
0F
EB
00
01
01
1C
F3
FF
FC
07
0D
F2
F8
05
F7
00
FF
0B
FC
0E
00
05
01
F3
F2
00
04
15
F8
F8
FA
14
1D
0C
25
D7
F9
29
DA
14
18
18
0D
17
13
0A
FA
26
14
EF
D5
02
E3
BF
EB
21
E4
03
F8
CD
1B
1C
00
EC
11
32
D9
F9
F9
46
F8
FC
0F
0A
12
DE
05
11
07
D6
F1
04
02
08
17
13
04
1C
0F
25
DC
0A
F0
1D
F4
3E
E5
CB
3D
3B
EA
F4
05
FD
F1
FA
F4
F6
00
0F
0D
10
00
EB
05
ED
FC
FB
03
FD
05
E4
12
CE
F5
0D
B5
05
02
EE
EE
E6
D6
D3
0A
FD
F4
03
1E
F7
05
F1
10
00
F3
23
29
F8
10
1C
EA
F2
0A
02
D4
30
25
E0
F2
36
F3
13
F1
06
11
E4
E0
B7
20
15
0C
04
F2
12
EE
E9
0D
DF
06
20
21
CC
3B
1D
FB
00
08
E7
03
1D
F8
E9
15
F8
E7
F2
BF
0E
DE
EC
F7
D9
F0
0D
FB
EA
06
04
E3
EA
D3
FB
16
BD
0E
33
F6
CB
1A
0D
EE
22
E0
1B
FA
0B
D2
D1
E4
06
F7
08
F0
F3
11
08
09
C1
FF
EB
24
F7
16
EB
00
33
20
F9
06
E7
25
DC
EB
0A
0E
F7
DF
09
06
E8
DE
12
F4
EA
CC
02
20
CA
DE
1D
2D
EF
F5
17
EF
E5
0C
F4
02
10
1A
FE
08
0F
1B
EC
01
E0
23
1B
EF
F3
0A
FD
FD
D1
26
1C
38
EF
02
E9
FB
03
0D
F3
02
0F
14
FA
E9
1B
1D
07
14
F1
36
0E
21
00
DF
0E
18
EF
06
29
13
0F
0C
DD
E8
E4
F3
F7
FD
F8
FE
F4
06
02
CD
D3
0D
17
FC
EA
EB
17
12
05
0C
06
EE
19
E0
04
F4
D5
E4
17
F6
12
1F
0B
01
D4
EA
F1
F6
F3
FD
FC
E1
ED
FD
D7
18
04
1F
06
06
DA
E6
F8
F1
ED
00
06
DE
EC
F9
F7
10
E0
FD
12
01
01
F4
09
F1
FA
FF
11
E5
06
FC
F2
16
FB
0B
DB
F0
EC
01
0D
EE
05
FC
F6
FA
2B
FF
ED
00
25
12
09
E8
0A
DF
0F
15
00
11
F5
02
03
02
FB
EE
E6
18
26
F7
F1
ED
27
05
13
F0
1C
0E
FD
CF
16
09
0E
41
1E
0B
CE
0D
01
F3
1D
06
E4
F2
CD
0C
FD
CE
C1
03
23
04
E0
1D
04
E4
3D
E3
01
DD
F7
ED
13
1E
F0
06
F0
08
F8
08
F6
FF
E0
F7
16
15
16
FF
FB
FE
01
E2
22
18
E5
F1
15
E9
DA
FA
EC
0D
BF
03
09
EA
F5
07
01
FB
F9
FA
FE
EE
DA
F8
E1
07
F3
F1
E6
ED
FA
06
0F
FF
00
02
0D
0B
05
F5
17
D8
0B
0B
DB
F0
F4
15
11
FB
06
FD
06
E3
11
02
F8
03
14
EA
FE
0C
FB
F6
FC
EE
19
F5
20
04
DB
03
E9
17
07
F3
D6
F6
0A
FC
F3
0D
DF
10
C0
FB
06
F9
FF
04
EC
21
07
D2
F9
DA
F7
06
14
CE
F2
0F
12
ED
D4
E4
05
0B
F5
0F
36
0A
FE
07
04
07
F6
14
C8
F6
1F
03
08
05
3D
F5
3D
E5
F8
EA
F9
FF
27
BB
EA
01
FA
E7
FB
03
E3
04
F9
12
02
16
DD
0C
F3
D6
FC
D5
F2
00
D6
02
0E
BE
0F
10
F7
F8
FD
F5
1C
FB
1D
F1
FC
E1
07
ED
03
1C
16
FD
1C
1A
12
FB
E5
07
ED
EC
02
F8
C8
EF
0E
EE
EE
E2
2E
F8
FF
26
F9
F3
0E
0E
0E
FF
EC
F6
F5
11
02
FC
FB
05
F4
21
CD
D5
E0
DC
0E
0E
1E
F2
1C
EC
FE
07
FD
10
21
1F
04
2E
11
F2
EB
CA
23
F6
30
13
1D
35
20
F9
F1
10
D0
FE
E1
00
06
E6
24
E3
16
11
1F
F7
1B
F0
13
0D
FC
E7
F8
05
05
10
FB
13
E1
E1
24
24
1E
02
2A
FB
06
C5
E5
02
2C
F9
FB
08
21
DF
0B
FA
2F
E9
F9
D9
13
EE
D7
26
25
E7
DF
E1
F7
19
B5
FC
CA
E7
EE
3F
F5
F2
08
0D
09
11
FB
F8
F9
13
FE
10
E8
26
FF
ED
D4
E3
0E
14
E0
D4
08
09
F7
FE
0D
D5
EC
10
09
F4
F2
0B
2D
15
E8
E8
FC
2A
F0
0E
D8
0F
18
F2
0A
11
FD
FE
0B
00
0F
F8
EA
0D
29
FD
F0
F6
D1
1E
0A
11
E7
29
38
03
DF
11
D1
E9
0E
F4
EE
F2
E1
E5
16
05
EB
38
ED
0C
0B
10
27
0A
09
ED
1B
13
0C
ED
F6
2D
1D
E8
F9
0C
0B
FE
09
25
24
00
F5
04
0D
14
1B
FA
39
05
D3
F9
2E
23
14
0E
11
F0
0B
FD
10
09
33
E0
24
23
F1
F2
D3
0E
F7
06
DF
16
1A
FB
FF
F0
EC
E6
F0
FB
E9
07
E2
21
0C
1B
E4
07
FC
02
04
EC
05
16
DD
B5
E2
01
0F
FA
EE
F3
E3
17
13
0D
0C
21
05
0B
18
F5
2D
EE
DE
E8
F3
F7
FE
F1
E3
E9
F9
F8
F4
E9
0D
2C
43
11
11
FA
F4
CC
DF
00
0C
01
F1
07
16
EA
CD
FB
EA
D9
11
00
02
0A
28
F7
FD
02
EF
27
0F
F0
09
E7
F8
02
E9
22
02
02
FB
E8
FA
FD
EB
FB
31
F4
FA
08
10
1A
FF
FA
00
0E
FB
06
FA
0B
F6
FC
EA
02
FC
FD
03
FA
07
07
02
F2
ED
0A
F5
FA
0B
0A
F1
EE
F9
F9
FC
F1
0C
E4
1B
04
0B
F4
FB
FE
15
FA
17
E4
F8
03
D7
C2
34
F6
D9
04
01
FD
D7
F0
0E
EE
E3
21
0E
E8
FC
E8
FC
07
D8
06
F8
FC
18
15
03
EA
D9
D8
08
FF
FA
FE
DF
EC
F4
F0
E7
13
20
00
0B
EF
17
FD
19
00
D1
33
CE
E1
E9
F8
11
E7
FF
F3
FE
12
FA
20
04
1D
0C
FD
16
10
10
C0
11
ED
03
E3
3C
E7
D4
09
EB
B6
07
FA
E7
17
16
F2
00
AF
15
27
E2
DA
E0
FE
1B
FA
EA
1B
DB
37
F7
FB
E2
CB
F3
E9
39
D6
00
2B
05
E4
08
EF
2B
26
34
EE
FD
0D
06
12
E5
28
F1
27
07
E5
F2
E8
0D
FE
F6
1A
ED
F7
AE
0E
2B
2C
18
FD
F1
F6
0B
29
F7
F8
FA
FD
D5
03
F9
EB
D9
0B
13
CC
DF
CF
0D
EE
19
FD
37
E9
E5
16
F0
D3
04
09
DF
E5
EF
10
D9
26
FE
13
CF
F7
04
F6
EE
1D
01
15
03
0A
08
F8
FF
E8
EC
41
DB
FA
0B
E5
04
DE
E9
E2
C9
28
01
22
12
0A
0E
18
2A
21
E1
FF
28
E3
20
D2
F6
1A
F5
F5
24
F8
DD
0B
09
03
07
F9
F3
CB
DD
F6
ED
2D
CF
07
C5
0F
FA
0E
21
F3
F8
FF
00
25
1D
0E
E4
FB
E2
EF
14
44
ED
1C
E8
01
08
F7
09
04
FB
FE
F6
D7
1E
F2
26
FB
BE
CB
C5
DC
FE
03
EF
DC
0A
25
F1
19
ED
FB
E8
04
0D
32
FB
F6
30
05
FC
06
16
EE
F9
1E
EC
E7
FF
0A
EB
E0
F8
F4
F2
11
DB
EF
E9
E2
F2
12
DB
FD
E5
F7
EE
DE
F0
F6
E9
13
DA
CA
10
02
EC
FE
08
FE
23
F9
2A
E8
04
FE
D9
F8
FC
00
F8
E7
0A
ED
FF
1F
F7
12
F8
1F
FE
D3
E1
F6
ED
0D
FD
25
0A
E6
04
00
CC
FC
DF
0E
DC
19
03
05
03
07
F7
F1
03
D1
04
E5
F7
F4
09
FC
33
15
F2
0B
05
13
25
CB
EF
EF
16
09
F8
03
CE
F3
FF
F5
08
13
E8
E4
FF
12
08
FB
FD
01
16
02
FF
23
EE
FD
46
07
0E
ED
0B
FE
C7
09
05
E9
F4
EE
13
0B
09
26
F1
EB
00
19
F7
FD
0A
F6
F1
E6
F7
F4
D8
FB
0C
F3
1D
CA
FD
F5
F0
F6
F1
EB
09
00
F3
07
20
1C
EC
FC
F6
21
FE
0C
CA
13
F4
1D
E4
05
E5
FA
F6
FC
FB
E6
F2
16
14
1E
FC
18
1A
DD
F4
E7
0B
03
FB
FC
FF
14
DF
06
F2
00
DC
E9
03
08
F9
EC
FF
46
F0
10
09
E5
0D
0E
33
FE
02
CC
0B
CA
FD
F2
0C
E3
06
E2
14
F0
F8
04
08
DF
09
06
F4
D9
F6
07
06
07
12
F2
EA
F8
08
FF
ED
28
00
01
CF
06
E1
F9
FD
16
08
15
FE
16
19
F8
E1
0A
00
26
12
FC
E5
ED
03
F8
11
FC
FD
14
D6
22
04
F8
1F
F6
F7
FD
F3
1E
26
F8
E1
F5
2C
F6
05
ED
4D
FD
0E
05
02
E4
00
F7
0E
1B
F9
46
15
F7
F1
1A
F9
09
F8
1B
0C
FB
03
E6
0F
FE
14
0A
14
FD
FA
E4
FB
F1
FE
E9
09
1E
FA
F5
F4
D4
30
29
07
03
05
E8
FB
F7
F2
F8
F2
EF
0F
17
E5
FB
EE
FE
FC
F3
24
1B
FC
F8
F6
17
0D
FE
0B
1B
EC
0C
F3
13
03
05
0A
E5
01
2F
E5
E6
0C
E3
E7
FC
23
F3
2B
DE
20
FE
FB
EB
FE
F8
07
23
09
F5
F6
F6
EE
F2
1B
ED
EE
00
E3
0B
F5
12
0A
EE
DC
05
33
FB
0D
2A
DF
0A
01
F4
0E
E6
01
04
FE
01
0E
F0
DF
22
CA
0F
1F
F9
28
23
14
07
F1
FB
B4
26
08
DC
26
DE
E0
06
23
0E
F3
26
DC
11
F3
FC
03
F3
1F
29
EE
07
F2
23
01
DF
0F
04
ED
01
08
EF
06
11
D9
FA
F3
09
F5
3A
F8
ED
0B
FE
01
06
FF
05
33
FD
F2
FB
13
05
0A
0F
FC
00
09
E4
DE
09
ED
EB
F1
02
22
2B
0A
0A
09
2B
0D
0B
FE
E3
AC
11
0A
F2
F2
33
DD
FB
30
F7
E1
13
DA
0E
FB
1D
FB
12
13
FC
13
F5
FA
FD
0F
B3
F4
FE
0F
00
F7
F6
FF
00
21
12
F0
E8
07
09
02
F4
E4
FC
FB
27
02
FD
DE
F2
DA
0D
FD
01
1A
F1
F1
10
12
FA
19
DD
F7
F3
13
07
1E
20
FC
12
0D
10
01
F0
0C
F7
EE
F9
F7
17
23
04
0D
E8
02
21
F2
F3
DA
FD
0D
19
1F
05
FE
EF
1E
EB
02
1C
F3
20
DE
CD
D9
1D
EF
03
E2
F2
F1
06
F6
00
FD
ED
EC
0F
E3
09
EA
FB
2E
EF
FF
D9
EE
06
F6
13
F1
FE
12
F6
20
FE
F8
0A
F7
FE
EA
F7
FB
CF
D3
15
E1
FA
F1
FC
F5
01
0B
11
17
1B
24
16
DF
FF
EC
AB
FF
ED
03
F8
1E
FF
E4
16
EE
F2
F3
44
F6
CB
21
F8
0C
3B
D7
11
E8
26
F1
01
FF
0A
F4
E4
EB
10
08
33
37
F9
FA
F4
02
CD
F0
E0
06
F9
0B
0C
08
DC
2A
14
03
13
26
EF
DB
2A
13
11
34
25
0B
2F
FB
E5
07
03
0D
EF
E4
04
E0
00
F6
EC
F6
F2
FB
00
28
F7
01
04
02
F5
D7
F5
01
E9
18
EE
10
FD
FA
2C
FC
07
EB
EB
F6
B0
DB
EA
0D
1C
07
F5
F5
0C
10
18
07
EF
FF
F0
22
05
F8
1C
0D
D0
01
11
EF
F9
07
E1
24
FB
0B
FA
03
FF
1E
FB
FC
EE
E0
E9
D2
0A
24
06
09
08
E2
06
DC
17
00
EE
F2
17
F9
F2
FE
FB
16
01
E0
F8
06
06
F5
F0
FA
15
E8
EC
14
E7
D2
19
F7
00
01
FE
0F
0F
FE
03
1B
EC
0B
15
02
E6
FC
E4
F6
02
1A
06
F3
F2
16
1A
0F
FC
F7
08
FF
07
0E
14
D8
21
18
20
FA
0F
19
F1
0F
FF
F4
18
14
01
F9
F1
26
0E
24
0A
22
FD
F0
0E
0A
E3
F1
26
1B
F0
FB
EC
03
01
D7
FC
13
0D
04
E6
06
1D
EB
CB
2E
D9
FF
02
0C
22
DF
F0
17
01
1B
20
02
25
07
0B
1A
05
07
08
13
07
16
0B
EC
E2
2A
CA
E1
EB
0E
41
F7
ED
3B
16
CC
0B
F2
EB
06
31
0F
FA
EF
0A
C1
1A
04
BA
28
2E
1D
1A
00
E7
04
25
07
D9
10
00
09
D5
12
01
00
F2
E0
EF
27
F7
0E
F4
25
27
04
FF
E8
0A
08
36
FF
0A
1D
EC
26
EB
29
F8
24
F5
EE
1A
16
D7
EC
FA
0E
16
FC
EC
E7
24
F8
19
DA
03
CB
14
0B
E6
18
EE
12
14
E8
23
0B
02
0D
22
F9
12
F2
11
ED
0D
02
05
D1
11
D6
06
F6
F3
05
E2
11
00
26
F7
FC
F7
ED
0F
F8
04
FD
07
34
FF
02
F7
2C
FA
1F
0D
D9
FE
E0
D7
10
06
E7
E2
00
0B
FC
0B
FB
EB
DD
10
CF
18
E5
04
F5
F7
04
EE
E9
D5
D0
0D
05
E9
01
FB
21
DC
11
E0
05
F1
F4
09
F7
EE
20
0E
1E
FC
01
D1
0C
10
E8
D7
06
EF
06
FD
20
E1
F9
06
FE
10
FA
03
0E
03
09
01
C6
08
EA
1F
09
03
F6
D9
F5
02
F2
09
D3
14
D9
FE
0A
00
03
1A
1C
F7
F7
01
EB
EC
F7
DC
11
F4
EC
07
D7
F7
FD
14
15
F1
E2
EF
18
EE
ED
14
D6
01
F7
FA
0A
FB
19
09
FE
06
DE
07
08
DB
0F
16
10
2A
14
0C
DF
F4
F4
EE
EF
00
F4
0E
0F
08
FD
EC
00
0F
FC
E2
06
31
0D
D8
0C
E4
E7
01
EB
F6
CC
10
F7
06
FA
4B
12
E8
F1
0F
1E
E0
06
18
D9
33
FA
FD
FB
D4
14
15
0F
31
14
04
09
2D
F8
0B
FF
21
19
04
F1
3A
E4
EE
0E
F8
ED
1D
FE
0B
01
00
0F
12
17
19
C1
21
EF
07
EE
27
10
FA
04
01
16
18
E1
E7
0F
12
02
E2
24
2D
DF
DF
09
0B
2D
F5
F5
02
D6
FF
DB
EF
29
E8
F7
1E
D2
00
11
29
D8
F7
17
08
F2
05
E6
E1
ED
F3
F4
F9
E7
DE
DD
FA
27
14
03
DC
F0
EF
0D
08
F5
0A
2C
00
FC
03
DC
F0
FF
09
13
2A
ED
18
0D
F5
F6
D1
0E
01
EC
02
26
E9
E2
EC
02
FF
ED
08
DE
C7
20
07
23
06
E2
26
17
F5
05
05
32
00
F9
F4
F4
3C
F4
FD
EB
CD
E5
FB
E2
D8
0F
01
FA
FB
0F
19
12
12
0F
11
DF
F2
F3
03
F5
04
E0
F2
1A
10
2D
1F
0E
0E
09
F2
04
10
FC
08
F0
F4
E3
F4
E7
B6
FC
EB
FE
FE
E7
EC
0D
04
1A
EF
06
F0
F9
24
39
EB
0E
35
00
E7
33
5F
F7
13
32
13
0A
1C
2B
D8
EA
27
03
EE
FD
12
0B
31
F5
F6
4C
22
DB
FD
00
00
F9
13
FC
E5
FD
F9
E8
CF
F3
05
F6
0F
1F
F1
0A
FA
08
04
FF
0D
F3
2C
12
E2
00
2B
F1
F9
F4
07
08
05
ED
DD
1D
E1
FF
1C
F1
14
09
E9
0C
04
E8
EC
F3
F7
EC
EA
06
F3
12
02
0D
F7
00
17
FE
26
F3
FA
FE
1F
FE
08
FC
F1
0A
1A
09
00
FC
F1
08
13
FF
CF
FB
EF
F3
F6
03
EF
1D
F5
D9
EC
CA
FC
F5
E2
19
25
11
DA
12
F5
FD
EB
EC
0E
1A
03
0C
DD
0B
04
D6
20
E1
E1
05
F1
FB
08
03
02
09
17
04
EE
FB
2B
E6
F2
E1
36
1C
06
E5
19
F4
EE
E9
DF
CB
09
14
1A
EF
E9
F6
10
3E
F2
EF
DC
16
0A
F9
FE
1E
00
1D
FA
03
24
0A
DE
D9
19
0A
FD
F5
04
0B
EA
1B
F5
12
FF
DC
08
F5
FF
12
FE
02
1A
0C
11
E0
FB
F7
E6
F1
0B
15
EE
F3
20
FC
F0
EA
FC
12
D7
FB
F5
FB
E5
FA
F8
FF
F4
F3
FD
0C
F7
26
1A
0D
F1
0D
09
EC
05
0D
F9
21
14
19
FB
DA
F6
01
12
E7
F1
FB
F9
F1
47
00
07
E9
F4
E0
FC
C0
07
F7
F4
0C
09
E4
0F
25
02
01
06
0E
1A
22
FF
EF
15
CA
FA
F9
F7
E9
C2
F8
FC
BF
3D
E7
28
01
FE
F0
EA
0E
F7
E9
02
E6
F9
D0
F4
27
06
30
06
0C
0B
12
2F
1D
D1
44
1A
F7
23
0B
14
EA
EE
F8
0D
D0
03
0A
FD
13
EB
F7
F3
05
00
F7
03
FC
0A
F8
E2
F9
08
2F
F1
F8
DE
0A
1A
0F
10
F3
FA
02
21
E9
F0
DF
E3
14
EB
20
ED
F2
03
EA
C1
1D
17
F1
EB
F9
EB
DD
FD
FD
F8
F2
FB
FD
1B
F6
05
DC
DF
FF
15
0A
F6
E4
13
E2
00
F8
05
28
EC
F8
E3
0F
EF
0F
FA
0F
FC
DB
FC
12
F8
F8
F5
0E
E0
F0
FE
F9
EA
18
E2
F0
F5
DC
E4
DC
04
00
13
11
0A
FA
02
11
14
07
25
EF
F2
1C
FA
0A
FC
05
F4
1E
0C
00
04
EF
1A
C7
F2
DD
10
CB
F0
0B
F6
10
F2
11
09
13
F9
06
DF
F7
E3
F1
E6
07
EF
FC
E8
30
0B
03
1E
07
F3
1E
1A
03
2B
1E
F8
E7
EF
F9
E4
24
01
F5
11
13
00
F2
13
FF
F0
1A
3F
DE
F3
12
12
11
F9
D6
F8
00
F7
07
FF
02
FD
FD
E1
FC
1A
23
0E
08
16
F0
05
D6
DC
F2
F5
F9
11
10
F6
1B
22
FD
D8
1B
E4
FD
FE
E5
E5
34
E4
EE
0A
F0
04
F8
EC
0F
F3
F7
FA
E9
E7
22
0E
F5
1A
10
E9
07
18
F5
07
E8
E7
F5
04
FF
F0
0C
DC
0B
E6
F1
03
F7
E9
CA
FF
FF
0F
07
21
D2
07
1E
F4
DF
E8
17
09
D0
0B
04
FD
1F
3E
F5
F1
F3
F2
E1
06
0F
17
10
12
F9
E6
F0
D7
EB
26
DC
3C
E2
04
FD
02
12
E1
02
17
0C
0E
F5
E9
E1
1C
D3
0C
02
2D
05
36
E9
E5
11
01
D3
26
0C
21
06
FD
12
05
07
11
D3
0E
F9
07
D1
2B
10
01
E6
E7
F7
28
08
E2
17
FF
ED
F3
0A
03
FE
0D
08
08
04
0E
DB
EE
CF
15
F4
D7
FA
E7
22
1F
06
F0
FC
05
05
F9
1B
EA
E5
E5
E2
16
19
E1
13
F7
0D
06
FB
03
F7
F8
1D
FD
DE
F8
E3
0C
F9
E2
39
FB
30
15
01
FE
EB
14
FE
2A
E9
08
F6
09
01
0B
ED
15
FF
45
E1
1B
F3
FA
FD
06
EB
1F
F5
F8
09
27
13
19
EF
01
ED
FD
02
02
06
E5
1D
F8
F6
0E
2D
FA
F4
11
0C
C6
E3
E1
08
F0
05
0B
FD
FC
F7
D1
24
07
09
EF
F0
10
EF
0E
D5
E4
09
F1
14
02
F6
FC
09
1F
FE
1F
F9
01
E7
E3
0C
E9
0D
EB
CA
EE
12
D4
05
EF
F2
1B
E3
01
FB
40
C9
DC
F3
40
EA
08
1B
17
F7
C8
00
FA
0C
E3
F9
F0
F8
0D
D9
DF
F0
03
C7
14
28
07
F2
E5
3C
FD
E2
F7
2E
0A
09
FE
EB
20
ED
EF
F4
37
07
00
EF
CC
EF
E1
24
FC
C5
E1
FE
D9
D7
08
EE
18
1A
15
EF
11
18
06
FC
06
DA
F4
FE
DC
E6
FF
04
19
07
03
12
0F
F3
D6
E0
04
F7
F9
F4
F6
F8
12
10
FA
FD
E9
0C
17
22
FA
12
31
FD
EA
03
F3
00
13
04
01
24
DB
F8
16
14
02
28
F4
0B
F7
03
F2
11
04
E8
05
25
EA
F1
0D
FF
0B
25
09
19
1E
0C
29
EC
EA
0B
F8
FB
ED
09
F8
03
DC
FD
F4
0E
F6
19
0A
16
F9
EE
14
07
0D
EE
05
ED
EF
E8
05
05
06
E7
D2
F7
20
F4
0E
03
23
2B
E3
3E
E6
CC
01
01
E7
0B
ED
ED
F4
F6
1A
F6
0C
BE
F3
02
2A
2A
F1
F4
E8
FB
35
EF
0B
00
1A
FA
F9
D9
F4
F8
E5
D4
F7
2B
FC
2D
F4
F5
F0
13
19
EC
E1
FC
E6
0B
F0
F3
F6
10
F0
03
D8
0B
FE
F0
19
1B
05
F9
DB
0D
E6
D0
1F
01
00
01
EF
F3
F2
EA
DC
08
F7
12
06
03
1E
20
F7
C7
1C
0B
F7
41
06
0A
24
3B
D1
C3
1B
EC
DB
D4
18
09
F1
DE
06
15
EB
04
2F
F4
FF
F3
ED
EE
28
D1
DF
02
0A
D1
1A
2A
F1
D6
F6
2C
23
1B
E0
FE
E4
0A
E0
0C
D7
FD
E7
F0
1B
E7
ED
FB
FC
F3
EC
F8
FF
16
FE
E1
E7
0A
41
F2
06
0A
42
FF
08
1C
07
E3
14
0B
13
F2
28
08
0F
0A
F8
17
D5
FB
F9
2D
DE
AE
CD
1F
08
17
01
E1
CC
F6
D9
E5
07
2B
F7
06
21
F4
D2
E9
F9
F0
0D
0F
F0
2F
FB
F3
10
0E
36
F6
E4
09
03
21
D9
DE
FE
FA
DC
0E
DD
06
09
03
08
0C
EF
D3
1E
30
F8
19
EC
1D
EE
0D
0E
10
18
FD
05
E9
19
FE
D9
60
E0
19
FD
03
05
00
D1
0E
05
F0
BF
F1
05
12
D2
F6
1B
2D
D9
E8
2E
EC
0C
1B
BC
09
1E
C6
1B
09
DC
F2
F9
FB
0C
20
07
E3
0D
33
3F
FA
F4
2B
F8
E8
49
E1
D4
13
05
01
E1
C8
F2
D8
0C
05
E9
20
8E
00
EF
25
03
D5
F8
EC
26
01
18
0F
F7
0D
0F
1F
F9
F6
E0
28
DE
FA
FA
F9
FF
0C
09
E4
35
0B
08
EE
CC
0E
01
E6
08
E1
E6
F2
F9
EF
04
D4
EC
0A
E2
F6
DE
FC
F3
34
12
F0
FA
16
13
DE
0E
F4
0B
0C
DC
02
14
1A
02
02
12
31
DF
F4
0C
EF
F0
20
26
FC
02
F4
1B
D5
C5
D9
F8
F3
E3
09
12
17
F9
2A
E6
E5
00
F8
10
0B
31
E8
D6
2D
FD
FC
12
F5
12
DE
DF
E6
F6
E4
DB
00
D8
03
08
FA
DB
07
FD
E0
F3
DE
4F
E9
EA
F4
1C
0C
0D
09
F3
0D
DD
EC
02
0B
10
0F
FA
1D
05
E8
E2
D9
09
19
F5
22
09
04
14
F8
0E
15
0E
E9
18
12
09
FD
F9
CC
E7
23
19
06
DA
04
17
0F
E7
08
F6
EC
D5
CB
F4
23
FE
F5
1C
0F
1A
15
F9
F9
E2
EC
E5
EF
F8
F9
EA
0B
0A
05
36
21
08
03
02
F7
F0
FE
FE
F3
E1
08
F2
FB
13
07
F5
FA
D5
0F
0F
11
E8
0B
F1
05
DC
F0
01
F4
11
1D
1A
E5
F2
F1
F5
0A
0F
F4
F0
0A
23
0F
15
E6
0E
E7
10
04
DD
0A
01
D3
19
1F
06
0B
29
E8
FC
E8
BA
FA
F0
E2
C3
10
0D
12
07
0B
3A
03
16
0C
D3
18
E9
F1
04
D4
0A
F3
FF
09
EC
0E
01
FA
2F
EF
E8
01
1B
18
F7
4E
14
03
05
E8
2C
06
EF
06
FF
08
03
FF
0B
ED
FA
F1
15
F9
15
E2
16
03
F7
F8
22
2A
FC
F0
11
F5
F7
E5
CE
09
0C
F6
C6
FC
F9
FC
CB
FF
2C
19
D1
0B
12
F4
20
06
E6
09
0C
06
0E
F1
F7
0D
0F
1E
1B
FC
FA
E9
EA
CC
12
0E
13
0A
EC
18
2F
14
FF
E4
07
E9
FE
F3
FE
EC
E7
01
EB
0C
E9
0E
F0
F9
06
F8
D3
F7
04
06
CD
F6
0D
C3
25
03
F3
F9
2C
05
EF
FE
F9
EA
EA
F7
FA
0C
F7
12
F2
F5
08
3E
16
0A
1C
F4
04
E2
0B
EF
15
E8
FA
DB
E5
02
EC
36
EE
EC
F1
F1
08
17
FC
0B
EE
CD
09
DE
0E
06
01
1D
00
07
D5
FF
F6
03
FB
DE
DF
0E
0F
F9
07
E0
F6
FB
FF
00
DF
12
E2
EF
17
01
03
12
FC
07
01
07
1C
EE
C3
0D
13
F6
0B
15
02
FB
08
E8
DF
FD
F5
E6
FC
03
18
EE
0E
C9
35
F7
13
EB
FB
FD
FC
F8
27
E1
23
02
09
D8
1F
11
1E
1F
E9
F9
E7
1D
0F
14
FF
DB
39
0B
0A
E2
23
EC
01
1E
E3
DE
F5
0C
15
03
10
08
12
18
D9
06
1C
DA
06
02
17
42
0A
D0
F8
FB
0E
17
07
D1
FD
EA
1E
ED
1D
D7
F6
B8
DE
FB
01
FA
0F
F2
F5
E1
F2
3D
18
23
F5
36
07
0D
E4
EB
05
EE
E3
02
08
18
F9
FC
10
EB
06
09
F5
E5
12
F0
01
F1
F6
18
2F
F9
D1
F3
04
F3
04
0E
05
0A
F7
F3
04
F9
FE
0D
13
16
F5
FB
F2
E6
01
E5
04
F4
14
06
06
0C
01
FE
02
E5
1A
05
2D
F1
00
F4
FC
E5
20
00
E5
0D
FF
02
0F
F9
FD
05
15
F9
EF
DE
11
F3
FA
21
F6
05
12
13
05
00
0E
23
13
07
F8
1D
F9
19
FC
14
FB
40
E9
06
1D
ED
0C
EA
23
02
DC
EA
10
2B
05
E4
EF
E4
0D
0E
06
05
FD
18
02
21
E4
F9
03
2B
E4
FC
F3
EF
16
19
0E
11
F2
ED
05
FF
F6
15
FA
05
0E
19
09
07
0E
E5
10
0B
E7
F2
02
0B
F8
03
EB
FB
FA
F6
F8
11
0E
07
04
FE
08
07
0F
EF
F6
08
F4
FD
E1
D5
FA
2F
F9
15
F3
E7
02
13
08
EE
E5
F8
07
18
D2
04
E5
D8
2A
14
ED
DC
20
02
11
03
FF
C4
E6
FC
0A
E9
FC
00
D4
F9
18
2A
F2
00
0F
CB
FF
D1
E9
07
1E
FD
F3
F2
EC
F5
FD
1A
E4
E8
15
1F
06
10
F5
02
DF
ED
F7
C5
34
04
D6
42
01
E6
F2
FC
02
20
ED
F7
F6
1A
FC
F7
35
1E
E5
0F
D8
10
F4
E7
E8
0A
FA
09
0A
13
08
03
FB
E5
FD
F1
0B
FB
08
1D
20
E4
10
F7
F5
EF
01
06
F5
17
FF
F1
10
E3
0E
FF
0C
00
F7
0E
00
14
F8
F5
F4
E9
0B
EF
FA
02
1A
FD
FD
F6
0D
FA
F0
E6
F5
26
FC
F2
E9
02
09
01
13
0F
20
04
15
FD
F3
13
1B
EE
04
02
FA
E0
FC
D8
F6
15
1C
10
1B
F1
EE
21
FC
07
E0
09
ED
F8
17
E6
08
FE
EB
F6
0E
05
05
1D
12
F0
E1
0F
D7
E9
E5
38
29
02
41
21
01
1C
23
1C
09
F3
F9
0A
C7
FC
0E
1C
FA
DE
02
0B
F5
3B
0C
F1
02
EE
1F
0B
08
10
E2
18
23
02
DD
FC
27
98
E6
FE
1D
30
DD
EF
F4
FA
06
E3
EB
22
19
13
18
FE
C2
D5
00
2E
DF
F5
ED
17
E1
E8
EB
FD
0F
00
05
E6
F8
EA
0C
CF
D7
DB
12
17
05
FB
0A
1D
FC
7F
03
E7
DF
01
09
F6
17
0E
05
20
0D
07
23
1F
FA
F2
09
F4
FB
E7
27
F0
D6
1C
03
0D
1F
F4
03
D9
08
1B
21
F0
0F
DB
0C
FC
E7
EE
EF
04
0D
38
FC
00
07
E3
FA
03
F6
FE
FA
F6
18
19
E5
FF
06
12
13
19
F6
1C
F4
21
01
0C
FC
D5
F0
08
1A
F2
F6
0B
09
2C
1A
03
EE
F3
09
23
F4
18
08
FA
F8
16
0E
07
01
F2
00
01
FD
0D
EC
E2
02
FF
10
04
DF
0D
10
F8
10
08
19
E1
F3
F0
EF
05
0D
0F
E3
1B
15
E6
08
D0
F9
08
E2
21
1A
1D
E6
FC
08
FA
ED
05
07
F7
12
F7
ED
03
BA
F3
18
DF
FE
FD
0E
0C
08
E1
28
10
04
FE
F9
02
E3
9E
11
04
ED
F9
29
E2
18
08
0B
00
0D
00
0F
21
FC
F8
EF
E4
28
00
06
08
15
0E
F0
EA
C7
F7
F0
F2
E4
D4
F6
04
D3
0F
F8
ED
21
23
0C
01
04
0C
0D
E3
17
DE
DE
0A
03
1F
19
17
EE
3A
E8
F2
1B
F1
13
F9
18
FA
ED
37
F3
E5
08
DD
14
28
11
0B
1C
30
F2
FE
12
16
11
00
08
05
13
04
F6
DF
0B
03
F9
0E
F1
03
F2
F8
08
0A
D2
18
FB
20
0A
F4
1B
EE
CF
F9
15
1B
13
1A
24
0A
1A
EE
04
13
0A
F1
03
FE
00
04
EC
EB
22
00
0C
E2
21
F1
F8
0E
22
0A
05
DE
F7
02
09
E1
E7
04
05
FD
02
D8
E6
17
05
15
EC
EE
0B
28
F1
EF
D2
11
18
03
ED
DE
CE
EF
F0
1E
F8
2A
E0
12
FF
2E
07
07
0C
0F
FE
DC
FF
00
05
13
00
06
FA
D6
FB
22
17
ED
FF
0D
D1
E7
0C
0E
03
25
F3
BB
EC
0A
14
CA
0E
21
FD
0A
EA
F0
07
D8
EF
F0
10
F1
1E
E6
FF
0B
00
DA
DD
EE
1A
EB
0F
04
D0
12
0E
F9
EF
1F
17
05
DF
2A
C6
0F
FF
DD
10
F0
ED
17
E8
EC
FC
E1
ED
06
0B
0C
08
DF
09
CC
FF
BC
0A
2A
C8
43
EC
F1
18
EE
F8
1E
24
EB
E9
03
FF
EF
0D
FC
E2
1D
0C
04
1D
28
E6
00
DF
19
32
CE
FF
FE
00
0D
0E
06
09
03
2C
DD
00
05
04
FD
FB
19
DF
05
18
0D
F3
FE
07
02
15
17
23
DC
F6
0A
1B
F6
2C
F1
0C
02
F8
E7
D1
1B
0F
FB
FA
D4
27
1C
EE
04
15
02
0E
33
FA
1B
0F
04
21
04
03
FD
E1
E0
E8
F7
12
BE
FA
F8
45
16
1E
F9
F5
E7
DC
FA
0C
16
C8
18
DB
05
0F
F0
CE
1A
1E
F9
24
20
07
21
ED
1B
E5
F2
3A
F7
00
07
EE
08
00
DB
E8
F6
0B
0A
34
1E
F0
FC
EF
E3
F0
E9
F7
E9
2F
09
D7
18
11
EC
14
1B
F5
FD
FD
04
16
01
17
01
F9
11
03
59
F6
09
0C
10
2F
0F
FD
DC
F9
F5
FD
F8
14
DF
E5
E0
02
F7
EA
0E
02
EA
F0
F5
0C
24
E8
12
06
0A
1B
23
FF
23
E2
FE
04
01
E5
EA
27
15
E3
E6
CE
01
EF
04
13
F9
04
F6
F9
EB
F9
10
D1
21
25
EC
3A
FF
0F
E0
DA
F7
11
2F
0C
E2
11
43
17
0A
04
FF
3B
E5
02
C6
E0
14
FF
01
F5
01
FC
01
08
01
14
14
D6
18
F6
25
F7
00
07
00
05
08
F2
10
F0
FD
E5
05
17
08
F4
DF
19
32
05
E5
1C
F5
06
22
D5
FA
10
DC
08
0E
F3
0A
F8
FD
15
1A
11
01
07
16
0C
F8
F6
13
FC
FE
21
ED
F1
10
03
00
FA
E0
EE
F5
07
0A
11
05
B5
F2
0E
F9
E2
EF
F8
06
DE
01
E9
1D
C7
F4
F7
E4
23
FD
2E
E3
FD
23
00
1F
10
ED
09
EE
DE
EC
F4
06
07
00
F8
0A
FF
F5
06
16
08
1B
2C
1C
22
0A
19
F2
E1
EB
17
F0
0D
08
F3
FF
0E
FF
E8
FC
19
F9
F1
0A
F5
EE
23
2A
D0
0E
FF
F0
F1
EC
E8
FE
EA
18
1C
F2
07
EE
11
21
07
FC
FD
F1
F0
E1
3A
0A
F4
14
DB
16
0B
0D
FF
FD
04
35
00
EB
34
0B
FF
F5
E3
FF
04
09
E6
15
E2
1F
22
51
14
0B
17
01
DC
3B
FE
E8
FD
F0
EB
00
20
0E
38
24
4D
12
0F
E8
03
FA
12
FE
05
1A
02
EC
00
F6
F1
F0
15
28
36
09
ED
F1
02
1A
0B
31
D7
3C
0D
ED
FD
10
27
A3
1E
DA
59
04
06
17
FC
08
17
BB
10
E8
FE
14
20
08
FA
FF
0D
06
04
DD
05
F3
DB
E0
0D
FA
D5
E9
0B
24
22
28
F4
F1
EF
29
1C
0C
3E
FE
AB
F7
EF
21
31
14
F5
D5
FA
0D
F1
E1
FB
01
F6
03
0B
CE
F2
AD
D8
F1
10
14
D5
FF
20
EE
05
05
D5
D7
E6
CC
FF
00
F7
F5
FF
D6
08
E7
08
06
F5
1A
3A
07
04
08
02
F8
08
F8
D6
12
F8
F1
E7
12
06
07
21
14
F9
23
E3
F3
E6
EF
05
F7
EE
01
EE
1D
03
E5
D2
11
05
0B
F8
DF
F5
06
09
05
17
1C
0D
EF
F8
F5
13
F2
F6
EE
27
2A
10
DC
07
E9
00
F3
1D
04
DD
FA
15
FB
10
10
14
EE
F0
EA
EA
FB
35
10
03
1C
F9
09
E2
31
F8
0E
1B
22
01
02
E8
E4
06
E9
00
DE
EC
EF
E7
FF
0E
2B
0D
DD
12
01
04
0F
2B
DD
04
04
CD
FD
02
DE
DD
FA
F0
02
F9
FE
1C
F1
0F
F7
22
02
0F
F4
FB
08
20
1C
F8
E8
03
00
E9
F8
F6
27
00
10
18
FD
CB
1A
03
F3
03
F9
E7
21
39
07
0B
DB
08
0D
F2
1F
F1
D0
02
0A
12
FB
EA
17
E9
10
23
1E
FE
CA
F8
13
FA
1A
FF
E3
03
FD
E9
02
FC
E9
00
F1
00
01
02
02
FB
FB
12
0D
1E
10
0F
F1
E1
EF
02
11
DE
FF
04
F7
0E
D0
E1
12
E8
1E
11
0F
1A
0C
E8
FC
DF
EC
FC
E9
04
25
0B
09
CC
D2
F7
15
0E
BC
F7
23
14
1B
E4
F0
00
F4
14
19
1D
0E
F8
1C
0B
01
0F
0F
E7
F9
DC
00
30
08
2C
04
D1
03
E3
F9
DB
E3
D7
FC
07
00
02
E5
3D
DA
2D
0E
19
31
09
1F
FC
F1
D4
11
FE
00
09
06
04
0F
F4
0D
EC
1A
16
0F
F0
ED
1A
2B
3D
D5
21
EA
ED
FD
1F
06
D9
0A
F7
E7
08
10
F4
ED
F3
DD
EA
14
FC
D6
09
F9
E3
11
07
FA
F0
FC
1A
F6
F1
0C
02
DA
0C
F9
E9
25
D2
3A
23
E4
F9
FB
FA
CB
FA
C1
05
06
1F
25
36
DD
FA
EB
F7
00
E6
16
24
1F
08
17
20
EA
EE
02
F5
F0
08
16
0F
E7
FF
0E
EC
E7
12
DB
DA
04
06
F6
FF
EC
CB
F5
FA
06
25
FD
E0
E5
0F
FF
F4
F4
1F
E9
04
FC
F4
0C
FE
F7
0F
F8
04
FA
F5
F5
24
E7
13
19
EF
17
1C
19
05
FA
09
D0
04
06
ED
29
D2
E5
F9
1D
14
FB
31
F9
1F
F9
09
0F
00
0C
1B
F3
EA
05
19
F0
FA
1D
F9
FA
13
F5
03
0B
06
FB
CF
FA
09
CD
EB
D4
12
05
C6
E4
E4
F6
0E
05
2B
E1
FE
07
01
09
F4
08
EE
DF
ED
FB
EA
FC
12
45
12
10
FC
46
11
FE
E9
05
DA
04
10
FE
13
25
DB
07
FB
0F
14
12
E7
00
2C
11
EC
E0
04
30
13
F9
15
15
36
ED
E6
FF
0F
F4
F4
1A
FC
EE
0D
E5
F4
F0
F7
16
EC
15
F8
0A
0A
06
EE
05
F0
F9
17
11
F4
16
E4
FA
F9
2A
0C
E2
17
32
18
06
FF
00
02
F2
23
E3
08
0B
06
10
12
03
F4
05
F7
F6
DF
0E
F3
FE
EF
48
09
15
FD
2B
00
08
FF
0B
D7
0A
FC
0E
EA
26
0F
08
17
2F
02
FF
F5
18
FC
E5
14
FB
0C
F5
FE
FE
F5
EF
E5
CE
FC
FF
EC
F9
FC
13
1D
D2
E3
1C
05
F2
0A
F6
0D
10
0B
F1
21
F9
FB
0B
11
08
18
15
E3
2B
1C
1C
E4
25
0F
FF
EC
0D
24
0E
F8
CE
01
C7
F0
F6
EC
E0
0A
05
0A
1C
1E
EE
F7
FC
D8
0C
01
DC
FB
D8
FB
14
E6
CF
27
FF
FF
01
FE
EA
0C
D3
13
E6
01
E7
E7
D5
1C
D9
00
2E
F5
DE
14
E5
FC
1D
F9
0A
13
F5
0C
29
E2
FD
1D
E7
17
0C
01
18
E2
07
CC
FC
F2
0E
25
04
02
08
FD
F4
FC
14
15
EA
F4
ED
0E
01
E2
14
F5
F7
24
C3
F0
EE
F6
EB
E6
0A
17
DF
05
0C
02
F4
03
D9
0E
D8
1E
FC
0B
18
20
2F
FC
01
E6
FB
FE
22
EB
1E
F1
E9
FA
EB
FA
FE
FB
FC
F5
14
06
0A
00
EE
EE
F9
16
42
E9
ED
17
E4
23
00
FC
2E
07
10
CA
EC
0A
FF
FC
D9
13
14
26
EF
FA
16
F0
09
FE
EE
16
0B
09
00
E9
03
FB
18
4E
47
F8
DC
0A
E2
ED
D2
09
09
0E
E9
F6
2D
08
18
13
E4
28
DE
36
15
E1
05
E5
E7
4E
B5
16
FB
1D
04
0A
1E
E8
24
11
17
01
FE
0B
07
31
0F
29
CB
3B
F5
48
BE
F9
EC
18
D0
04
23
44
F9
FB
F6
A0
F8
0B
03
EE
F8
11
F1
0F
3B
F0
0E
F9
03
09
F4
DD
1C
1A
00
0A
1F
EE
DB
DD
FF
F6
11
F1
15
FA
17
D3
E9
FC
FD
0A
CF
E5
EE
E6
C7
23
08
22
F9
17
ED
EB
03
04
E7
00
0E
E5
1D
05
E5
0F
0E
E0
0E
0E
25
08
ED
01
01
1D
E0
2B
05
F7
F9
12
F9
FC
E3
F3
E2
0B
05
F2
18
0D
15
14
00
DB
0D
00
F2
EC
F8
06
08
F6
05
F3
0C
1A
16
E5
FE
05
3E
F7
1E
ED
E5
EE
07
12
FE
13
10
E8
F7
DD
DD
FD
F7
FF
0B
FD
F2
19
F4
21
DC
04
E3
FC
07
E1
04
F6
1E
12
11
E6
06
ED
49
01
2F
10
D4
16
CE
01
E0
12
FC
22
0C
E1
D4
EA
F5
06
F3
0F
18
F1
14
03
25
06
E5
C6
2F
22
E6
DB
00
F7
F8
DE
13
1E
0E
E2
F8
0F
C6
F1
1C
23
15
0B
FE
2E
EB
E9
D4
F6
15
04
2C
DE
F9
15
05
10
DE
FB
E7
02
13
FB
21
0B
F3
D6
0C
0D
05
14
FB
F2
F7
FE
06
0D
E1
21
0C
ED
11
0C
FF
DD
09
1A
2D
00
D5
08
14
0D
FC
00
05
F7
FE
E4
DB
08
DF
FB
F7
07
17
DF
F7
14
0F
04
E7
14
06
DD
F8
19
04
05
0C
0B
F3
00
14
D3
16
F0
E6
FF
1B
0D
25
27
F5
E3
15
0A
EA
10
0E
03
E4
F8
04
17
DC
03
18
F0
19
E6
12
0E
EC
F5
2B
15
F4
E8
15
FA
25
E0
0C
F4
09
16
E5
FC
02
F2
0C
00
0E
04
14
EB
18
EA
09
07
12
F3
D3
12
09
F7
EB
1C
01
03
F1
27
FC
DB
36
BB
2D
E9
EA
01
FD
F8
F2
1A
1B
F6
E7
02
FB
0A
EB
FD
CC
F9
20
1C
C6
FF
06
13
ED
F7
ED
DB
DD
D7
DE
18
F2
0E
F6
F4
FD
DF
F6
FD
FE
06
E1
F9
0B
0F
F2
E3
1A
24
06
F2
15
EB
FA
00
0E
F6
F6
F6
FE
F4
FC
F8
F1
0A
04
FB
F5
0B
06
1D
F7
13
F5
F2
00
F8
F6
25
E7
E4
17
F0
DF
E9
00
25
FB
23
FE
01
F6
EF
E2
D7
F6
01
13
D8
1E
05
19
14
FD
1C
F4
D8
E8
DE
F0
F3
31
0A
26
15
0E
06
26
06
EC
0C
FE
24
27
F5
06
28
DF
36
F9
E6
0A
02
E6
F8
1A
0A
00
E8
D5
EF
26
E5
F9
2D
0D
10
D2
F0
0C
22
E4
CA
12
F7
EC
0B
02
E9
D6
14
B3
FF
D3
DD
F9
DE
DC
C5
3A
01
EC
0A
E6
2A
1E
19
E2
23
0B
17
E4
E3
F6
17
23
DE
FA
EF
F6
FF
14
EB
1A
ED
1C
E4
F8
01
F9
17
03
1B
37
08
FE
FA
FC
24
E0
CF
26
1E
17
FE
05
13
F0
0D
F6
F3
14
0E
E0
D7
F8
E8
1A
E3
FF
19
14
08
CF
23
01
01
F1
08
FD
0B
DB
0A
BD
25
F8
F5
F2
0D
DA
08
DD
0F
DF
F8
F1
CE
DD
EA
05
01
0F
34
FC
1A
1B
0B
07
2E
22
0A
3A
1A
F1
25
FF
1C
FB
1D
FA
3A
0E
0E
E6
EC
08
18
E5
00
13
E6
02
E6
01
1C
1D
11
1D
03
03
FB
03
05
FE
F3
EA
DF
F6
02
0C
E4
09
03
06
E4
00
F9
FC
3A
E6
2F
EA
0D
27
F1
07
0C
FD
E9
13
FF
EB
F2
14
FD
E7
F3
1A
0C
15
FA
FF
01
2D
1B
07
12
06
0F
FB
EA
E9
11
FA
15
14
E2
E8
FA
1B
FD
FC
1A
F8
E7
FC
E7
C2
08
00
07
08
09
05
FB
17
1A
0B
1D
07
ED
FB
05
FD
05
25
0B
0F
FC
13
19
FC
06
16
0C
F9
09
E8
08
11
FA
F8
FF
E1
17
EA
F8
FC
06
EC
D2
0C
03
B7
F7
05
01
EE
E5
ED
CB
0E
ED
F7
FE
D7
EE
04
EF
DC
FF
04
E8
18
0C
EA
1E
11
EE
08
FF
1E
F2
E3
19
E3
25
E9
17
E9
F7
15
F1
00
FA
EC
14
01
FC
FE
EF
16
EF
0F
F3
FC
07
02
F1
FB
03
1B
00
EB
00
02
F4
23
D7
0E
E4
11
14
F5
28
FA
07
05
03
1B
FE
11
F2
01
0C
EA
20
F2
05
FB
D4
0B
F1
F0
E8
F4
EE
FC
11
F8
16
D8
E9
FC
E0
0E
F3
03
09
FE
0A
03
F5
E9
FC
EC
F2
08
FA
00
03
F4
0D
0C
02
09
E1
1D
03
0C
ED
11
FB
EF
0D
FE
12
11
FB
03
FE
08
03
CB
F9
03
EB
08
22
12
11
0E
F2
26
F5
F9
FF
08
F6
0E
EC
19
0D
31
18
FE
15
07
E1
03
03
D6
07
C5
C9
04
01
25
15
06
F8
0C
EF
F1
E8
12
FD
09
21
EE
0C
F8
03
18
F3
01
ED
DB
EC
D5
17
FA
1A
EA
0D
EC
13
DF
0D
F1
03
F8
21
FA
21
E7
E8
E5
1B
EF
D4
FA
26
04
F8
20
E6
ED
10
F8
1E
F6
E5
E0
2B
EE
FA
24
F4
0C
E3
20
1E
D8
0A
03
28
03
E4
ED
10
1A
F1
EC
09
D0
EC
17
DB
0C
04
D9
EA
F0
13
FF
0A
EB
16
F5
F0
0C
F7
DF
BC
34
DF
01
F6
18
D2
FC
13
15
D4
0F
F0
39
E7
F8
17
F0
18
E7
00
0B
03
07
18
E6
E2
F2
06
00
F3
1C
09
00
2E
18
2C
0D
E1
FD
FA
CB
FB
1E
0C
22
03
26
16
EF
16
EC
E9
F4
06
11
04
FA
01
2D
D9
17
0B
ED
D9
F3
0A
FC
13
0B
FC
F1
05
10
11
FE
07
EC
05
18
07
FF
07
E2
08
15
EA
1F
1C
F6
FC
02
11
0A
11
FA
F8
E4
F2
FA
FB
F5
FE
17
03
F8
15
EC
05
07
F1
F3
0D
32
04
11
F4
24
FA
07
0A
00
05
05
0B
F2
F7
11
08
04
19
08
0C
0E
EE
F6
22
F6
F3
05
DA
0D
EB
2C
F2
F8
09
F4
F7
49
0C
21
ED
14
1E
24
1B
FB
EF
17
E5
FC
00
0F
0E
E6
F6
0C
09
1A
F6
DD
29
F6
ED
F6
05
1F
F2
F4
0C
0E
18
F9
15
F8
FE
F5
16
EF
FA
07
F8
F1
2D
F8
16
25
02
44
01
FD
EC
18
21
00
07
15
EC
34
13
E0
2B
0C
E4
03
E2
EB
31
B3
B4
D5
1E
35
FE
0B
07
02
1C
F5
DD
15
0F
D5
32
FF
E5
E3
18
1A
F8
1F
FA
04
32
ED
0B
F8
36
F7
2F
E7
20
D9
32
DB
F3
C9
FA
2D
18
C1
FD
05
F5
16
DF
16
0D
EE
E8
07
1C
11
1C
FD
2A
F1
F6
18
12
1E
FA
28
DF
00
03
F8
ED
1C
EB
E0
00
0B
02
16
EF
F7
02
26
07
E9
E8
F2
F6
D1
04
FF
02
22
15
F8
FC
13
11
21
FC
F9
0A
07
05
F5
2C
E9
22
10
EF
1A
06
FA
E8
2F
D7
05
F8
E9
08
0A
FC
1D
0E
E7
E9
1F
28
09
E8
18
18
E6
D0
18
23
FC
03
43
15
D5
03
E1
0E
0D
F4
25
03
02
F0
FD
EC
D0
05
0A
0B
01
E1
E0
36
50
23
EF
D6
EE
FF
1E
12
02
1D
30
FE
FC
0C
13
FF
12
04
E4
F3
10
FD
3A
FC
D8
1F
31
FC
D5
02
03
1D
C6
09
F9
08
E9
04
07
06
15
ED
F9
EC
08
F0
19
FA
E9
EE
E4
0F
0A
EC
F3
02
0A
0F
D9
F4
D2
14
FF
04
05
11
08
F7
ED
F8
FF
F0
18
27
FB
F9
12
25
F3
F7
40
F8
0D
06
08
DD
EE
14
FF
FE
2D
FA
02
EB
E4
E7
00
E4
09
F5
FE
DA
F3
E4
FB
02
1A
1C
0C
F3
04
FE
EB
0F
FB
0F
E8
0F
FC
F0
FF
0C
06
15
D8
13
ED
EE
D7
09
F6
0D
EE
05
03
03
FD
06
04
E8
0D
FA
FB
1C
E9
DA
1A
0F
10
0B
F9
F7
F6
08
E8
E3
F9
F9
EB
0A
04
DE
F3
02
12
E1
05
0F
F8
BA
FB
03
25
F1
F4
02
FB
F9
03
FA
06
F3
E6
FF
EC
22
04
10
EF
13
FD
F7
FC
FB
0B
14
E2
14
F6
F5
FC
0B
FA
D2
F4
E3
D9
0A
FF
F2
E1
01
ED
F1
00
E7
F7
05
EF
05
0E
12
0F
E9
27
0A
E2
04
F4
1E
E5
EF
FE
25
D1
F6
0E
FE
02
00
E4
F8
EC
05
10
3E
32
30
0A
E7
C6
00
FF
20
F5
C2
D5
F4
13
20
FE
F6
CD
BB
F0
FD
F0
15
F7
19
02
1A
F3
C8
09
EF
02
DC
09
D4
F6
FA
E9
EE
19
FF
EA
05
EC
FF
12
E4
FC
C9
02
08
18
0A
01
EF
F6
0B
BB
F6
DF
10
F9
E8
FE
05
03
E0
FE
0B
EE
09
09
13
0E
CE
DB
F3
C0
E3
F7
1D
FC
F9
13
29
FC
07
1D
F3
1C
CC
00
E8
F9
FD
F1
F2
15
0A
E7
F2
EE
F5
E8
0E
2F
DD
DF
F8
0C
11
07
1F
F1
08
F9
F3
06
E7
01
0C
03
F2
09
E0
00
DC
FC
F6
FE
EA
E5
0E
02
05
03
07
DB
FB
09
05
F7
19
08
EC
08
F7
E6
FA
ED
0A
14
06
34
FA
19
F9
EB
01
0D
E6
28
F7
D1
18
13
F8
CA
EB
1A
1A
C3
0F
CB
F9
F5
38
DE
22
17
EF
17
E8
E2
05
17
F4
FF
04
DA
EE
02
DD
EC
F0
E5
12
C3
EB
C3
0C
CD
0C
13
2B
08
2A
0B
06
E6
FB
15
08
E7
07
E9
FF
1B
0C
F3
F7
03
0F
0B
F0
08
EA
1F
F6
E9
D0
0E
0E
04
11
F9
0D
12
FF
E0
0C
EE
13
0B
23
04
11
0F
12
C8
05
F9
07
F3
DB
F2
DC
0D
DA
F9
15
02
07
F2
F8
FC
E4
E2
06
F0
F7
D8
F7
04
FF
F4
07
FE
15
0C
E7
04
01
DA
E7
03
14
F7
03
02
0D
E6
0B
E4
0D
07
ED
38
16
FC
D6
FE
EF
F5
12
CD
0A
FF
2B
15
2C
0A
0A
DA
09
03
D4
4B
0F
05
16
1F
17
08
F5
00
EE
E8
F8
14
15
01
E5
01
01
FD
09
EC
F1
E7
04
EC
04
EF
D6
FD
E5
24
DC
1A
F5
FC
02
22
DB
F4
F3
F9
0B
46
F4
0A
03
F8
2A
E4
15
02
02
F1
F5
F2
FF
13
EE
F5
FA
D9
07
F6
E4
06
43
03
CA
08
D0
CC
0B
EC
F1
F6
FB
02
E4
F9
FB
05
00
BB
08
EC
DE
D6
F8
2D
FE
34
FA
06
0A
07
02
F3
FD
25
1C
F2
EE
F7
F1
0A
E1
00
0B
0A
F5
E6
F8
E8
09
03
F6
15
18
DC
1E
16
00
08
05
E0
F5
04
F8
01
08
1B
12
09
F6
1B
03
FD
19
EB
E5
02
04
FB
F1
E3
F2
EF
FF
FD
FB
03
DA
FE
14
19
0B
0F
02
F1
E1
19
EB
0F
FD
0B
E9
F3
08
06
FA
2C
F2
27
F4
FB
E9
02
0D
FA
08
12
E5
E7
DE
F9
FF
F4
02
EF
F8
0B
23
FB
14
E3
F1
F6
01
06
07
D1
EC
1A
01
29
E2
1A
25
E4
09
0D
FB
D2
FA
EC
F5
10
ED
ED
1F
F9
DD
F0
07
00
27
FF
02
D3
FC
0D
01
F1
17
37
07
F7
04
0F
E3
0A
03
02
DF
0D
DB
0A
F4
0B
0C
ED
03
0F
15
FE
0D
EC
15
20
D1
0C
FC
1A
E1
EC
F9
FB
E1
0A
00
0A
0F
09
EE
12
06
E8
FB
18
E9
07
1E
0D
DD
0B
0B
18
C8
FB
17
09
36
1B
FC
1F
04
EA
C5
EF
ED
D9
00
37
19
F0
0C
07
02
C1
F1
09
14
FA
EC
FF
FB
1E
F0
FD
E9
1F
FE
0D
08
F5
12
06
05
F3
09
0E
14
FD
28
F1
04
C0
EF
1C
15
17
06
18
04
0C
03
01
09
FF
1B
FD
F6
FD
0F
F4
E7
F7
FB
01
09
F3
F5
11
FF
FC
14
00
EC
E5
09
15
F3
03
11
E5
C9
F3
06
1E
FC
19
FE
18
0C
EC
0A
0F
F5
E7
FD
FD
F1
F4
E6
E8
1C
1A
11
EC
06
FD
E2
11
15
F2
FA
F0
10
06
EA
DE
0A
CB
F9
F8
F2
0B
FE
E8
FA
F9
F7
C4
FC
19
E0
0D
FA
FE
F5
25
FE
0E
0F
1A
EF
15
17
F3
12
FF
14
0C
12
EE
EB
01
11
04
0E
0C
E8
E6
F8
F7
01
0F
F4
17
EF
FF
FB
FD
14
02
FA
10
16
F6
EC
23
F2
EE
16
1D
E0
12
FF
E8
D9
1D
0A
F1
D3
01
E0
06
21
1D
F6
E0
F9
F4
18
E5
BB
10
F2
FD
0F
B1
0E
F6
EE
1B
F9
2F
E9
FB
F8
F7
1F
D2
0A
19
06
2D
F1
3B
FE
E4
CD
EF
CE
EB
FA
F8
2F
1A
37
EB
F7
11
F5
DE
1D
24
0D
00
0D
DC
ED
FC
B6
F3
F9
06
F7
0D
C1
1C
2E
BB
05
0A
EA
E2
FB
F9
FF
F0
09
31
13
EB
25
37
0E
18
F7
E6
EE
E8
23
03
18
D6
DA
E3
F0
0E
E4
02
1E
F1
DD
16
19
09
F8
05
07
E8
CA
F0
2C
04
D5
32
F6
16
0A
AD
EF
21
FA
E7
0A
01
FE
E8
F4
E8
EE
FF
17
1E
08
19
08
17
EA
05
08
05
1A
03
FC
27
12
FF
10
03
F9
20
0D
01
11
FB
24
FB
01
26
DF
19
E6
04
F9
F4
04
E0
DF
F5
01
0C
FC
22
01
0A
11
E3
CB
03
F3
42
05
08
F1
0E
E6
0C
0D
25
0E
D9
D5
F7
1C
F9
02
E2
E8
41
CD
2F
35
FE
04
19
EC
F7
E2
3E
02
D4
E8
12
F2
14
01
03
0F
13
E5
17
F9
0E
F7
05
E3
06
F4
FB
EC
FD
20
05
F8
CD
28
E9
1F
0C
E7
F0
E9
01
FE
F9
14
1A
02
1A
F1
12
FA
1A
FE
06
FD
F9
08
F7
07
F7
E1
11
D0
07
D3
EB
1C
11
EF
E9
F1
D3
E0
14
0A
07
17
02
03
E9
E7
05
0B
CE
0F
57
06
E7
E5
0A
F7
1B
F9
01
FF
14
E6
0F
0B
13
15
15
09
04
02
D0
1B
F5
F0
35
15
FC
19
E5
00
0A
E8
EB
EA
E8
F4
21
03
F1
DB
14
CF
07
03
DA
F0
11
AF
E0
FD
C9
10
09
13
E7
1D
E2
02
17
E8
0A
F8
03
20
1D
F6
F4
E6
E5
0D
FD
EB
30
00
08
0E
F3
04
17
12
08
F4
ED
02
FF
CD
0A
F4
F5
17
07
19
06
21
21
1E
00
EC
FE
FD
36
DE
11
06
F0
16
FB
F9
E6
F8
F8
ED
40
E6
FC
0F
14
E1
2D
F9
40
F3
F7
F5
0D
F4
FE
11
15
18
DC
F7
EE
06
F6
D7
D4
3C
E3
0A
D7
19
0B
F3
03
20
1C
D7
0A
0A
FA
06
06
FB
F6
1B
12
F6
EC
E7
FF
EE
18
EC
DF
EE
03
F9
F5
FE
01
F3
07
D5
F7
ED
FE
06
F1
09
14
F0
E9
15
19
11
0E
10
FD
0E
0B
11
0C
10
0F
FB
11
FF
00
0F
03
31
0F
F3
E2
FF
E9
FE
09
16
03
0E
08
0C
E3
27
0F
FB
F5
F7
0D
FF
DF
F0
12
DE
F6
15
FE
EE
0E
FC
0B
CF
13
E9
0C
EC
ED
FD
F1
FB
03
03
07
06
F7
F1
F2
EC
F9
1F
E2
47
DA
1A
22
EF
E9
E8
F4
F9
0B
0C
FC
09
15
0C
F2
00
F1
0C
2E
18
E6
FC
FC
0D
F9
00
1F
11
01
F7
DA
2D
05
15
E6
FC
20
0D
0B
EA
ED
10
E3
F1
31
0B
16
1A
0F
0E
F8
15
08
F8
F1
FC
F7
20
4D
1D
1E
23
04
ED
00
EE
F0
F7
EF
E4
17
0E
09
F9
E2
02
E8
FD
0F
FB
11
08
FF
D6
EF
06
D7
FE
14
07
FE
E3
1E
04
DE
00
15
22
EC
00
0F
01
0F
08
03
E3
00
E9
F8
13
14
04
11
FA
DA
08
DC
12
DC
0F
0D
05
01
15
FE
EB
13
20
00
F5
04
1F
04
0A
F7
04
05
E0
08
D3
23
F9
05
FA
FB
18
F6
FF
08
FD
D9
F6
00
03
15
ED
12
FC
FC
FB
13
FB
0F
26
20
EE
DB
EA
E6
09
FC
12
05
FF
1B
D3
FB
F9
00
05
15
F9
0A
19
F4
10
FC
17
FC
00
F9
0B
FE
24
1E
0A
12
E4
EE
00
F8
15
F1
FA
03
01
0E
04
FD
0E
E3
EE
02
F8
10
F7
16
14
01
19
08
F9
10
F6
01
D8
EB
0B
14
11
F5
FA
F4
0D
12
0C
F0
F3
18
B9
01
DE
F8
FD
FC
EE
0B
FF
14
1D
F0
F7
01
F1
FF
EA
F1
09
E8
2C
F7
EE
E3
33
F9
EC
E7
11
03
04
E3
18
09
08
09
08
0C
FF
16
39
0E
C5
27
11
00
1E
F8
08
09
12
28
12
E7
D9
07
DD
28
C0
FA
CB
FF
D2
D1
11
05
24
F0
05
06
25
EB
E7
0A
E6
01
0B
D7
00
F6
FD
ED
05
FE
F8
16
CB
1A
D5
02
1E
01
EA
E4
10
05
F6
E7
D6
D3
F2
16
E5
00
E7
15
08
16
F8
FB
14
DE
09
25
0B
D7
FC
13
FE
D3
F2
36
FA
13
FD
06
0F
18
EE
21
EA
07
06
24
29
1B
09
F4
C1
13
BC
DE
E5
0B
12
E8
FC
ED
07
03
07
05
DC
1D
FC
E0
15
F8
DF
F1
09
23
CF
FB
03
F5
1E
D5
F2
E3
0D
0A
F3
EF
FB
ED
FA
EA
03
F7
CE
F8
F0
FB
40
F6
F3
F4
14
1D
06
FC
16
FE
04
09
04
EF
09
F7
E8
E1
00
11
0D
28
12
0D
06
07
16
17
12
F3
10
08
D5
F5
28
04
11
01
F2
F8
08
F7
E7
F7
04
09
FB
F8
E2
DE
