0D
15
EF
D5
F9
07
17
19
FD
E6
03
31
DC
07
EC
03
E7
1D
FF
F0
F5
E5
1C
FC
22
E6
0C
07
0E
F6
01
06
02
F5
FF
0B
00
F0
07
01
ED
0D
F5
FF
01
FC
DC
00
00
EA
EA
07
FF
E1
0B
06
F9
06
EE
1E
FB
13
F7
07
FB
20
18
1B
EB
FF
12
D0
F8
ED
0B
21
E6
0C
1E
24
00
00
FC
15
F5
DD
0F
1D
EF
FF
EC
FF
F1
13
FD
F7
FB
22
04
E5
0B
0A
1F
20
19
EE
DE
00
13
13
FC
E8
16
2E
FA
1F
F6
05
FD
05
06
F4
F7
04
FA
17
FD
06
04
ED
FE
0F
F3
F8
F4
0A
F6
10
E3
C3
0B
06
07
25
06
DE
06
02
C3
08
00
F8
03
A1
F9
00
EB
EF
1A
DF
FF
E7
15
F1
0D
03
FC
EF
F8
01
FC
0A
ED
18
C8
F9
12
F1
07
F3
01
12
F8
FF
FC
15
EF
0F
05
15
0A
0B
19
0B
1C
08
01
1F
1D
F0
E6
FE
07
F1
05
08
16
F1
FF
D1
F0
33
21
0E
FD
2A
11
21
2A
F0
DA
00
15
DA
44
02
F8
CB
F9
2C
F4
00
06
0B
25
E7
0C
E3
EE
E6
04
FA
0B
18
21
F4
21
0D
EB
D3
43
01
03
F5
02
F2
10
23
32
1C
0E
D2
DA
F5
17
F8
F0
0D
C4
F1
0F
CE
24
DC
21
3E
0B
10
EC
0E
4F
C5
44
10
FE
2D
1D
03
FC
38
0B
D1
ED
FE
1B
07
22
DD
1F
0D
C4
D5
FF
F7
F9
05
DC
09
F7
09
2C
0F
19
0B
0E
E9
39
1C
08
C7
2A
14
02
19
10
F6
D9
1D
06
09
1E
2A
FA
D3
1E
FB
10
E8
14
0F
D1
F5
F4
FC
1E
14
E9
20
F2
0A
11
23
F8
55
FE
FC
14
0A
01
E1
E0
08
19
FD
EF
FE
ED
11
1F
F9
07
DF
EA
F1
DF
06
13
EC
12
E0
F4
0A
01
EA
D0
05
1B
F9
07
F1
EE
29
F8
0C
00
F6
18
F5
1C
EE
FB
D5
FF
1A
00
FF
21
FD
33
02
0A
20
1F
0A
10
F9
22
10
DA
08
09
E7
F7
FA
07
CA
0D
06
20
E1
F4
E4
F8
F4
11
FD
E0
E6
0F
E9
D6
41
F4
E8
FC
E2
FC
0B
DE
0B
07
0F
1A
03
01
FC
E8
F9
20
0E
14
01
27
35
1B
0F
0A
FF
F9
E6
F8
02
09
28
26
0D
F5
24
0B
04
15
FA
02
0A
E6
FB
E7
DA
E2
FB
D1
E5
ED
17
04
04
FE
0E
0E
0C
DB
06
0F
14
02
06
D4
16
02
0E
20
0D
E7
FA
FF
FA
DF
E9
17
FA
E4
FE
03
06
EA
F5
08
09
F8
10
08
19
0F
1B
04
F8
21
09
01
0F
08
10
20
01
0C
ED
E3
14
1D
0E
FA
FC
F9
F8
F3
FD
FD
22
F3
14
0B
FF
E4
21
27
EE
12
0B
07
F9
1B
FC
EE
05
EC
FF
16
FD
E8
1F
F6
1A
13
FD
F4
FD
F7
DC
1B
FD
FB
08
0E
09
03
10
EC
1C
EF
F6
0C
0C
F9
ED
EF
E2
F7
E8
E4
DF
F3
1B
E1
DD
D2
F6
31
F9
14
E1
EB
1A
FD
13
FD
15
1E
34
16
15
FE
DE
F5
F9
15
12
FC
16
E2
0B
FD
22
0A
2F
FD
E2
31
EF
01
EE
0A
FB
22
E6
F9
19
1F
06
EC
03
0B
D9
0F
FD
13
FA
16
1D
FE
F6
FF
FA
F3
17
2B
0A
F8
13
05
E0
E0
1B
F7
F9
16
14
ED
F4
42
08
EE
0F
39
3C
E7
19
25
19
11
FA
F0
F1
35
1B
25
FF
11
D7
26
BC
07
F5
1F
E9
2E
F9
04
F7
E6
D2
4B
0B
DE
09
F4
F3
4B
E2
EF
CC
F0
26
DA
34
F4
0B
0D
1A
F4
07
F7
FB
3D
E7
F3
44
19
06
2E
E5
07
DD
EE
07
D1
2F
F5
15
DE
1C
1A
14
0A
DF
E7
F7
EE
18
03
0F
FB
F5
08
06
12
22
1C
E2
CD
E0
07
D9
EB
F5
F1
14
0C
03
07
09
F3
E7
F4
E2
EC
ED
BD
10
0B
EF
F6
19
F1
0C
F7
06
04
08
FC
E3
1B
FA
CC
F3
F8
F9
FD
01
E7
FF
C6
F3
F6
01
0B
F9
14
E4
EB
FA
06
18
57
0C
33
04
FC
F5
1C
EA
24
01
24
FA
16
F7
23
01
20
E0
F0
F7
05
F8
FF
0B
1A
0C
F0
06
ED
FA
16
0F
F8
31
01
01
DB
16
0E
FA
16
FE
FE
E8
24
E8
EC
DD
23
1B
F2
2A
E8
F0
00
14
F9
12
D7
CA
F5
19
02
F9
F4
10
F0
02
23
EE
12
32
02
F0
20
F2
08
E9
D2
11
F4
EB
05
08
BD
22
ED
0D
16
BB
FC
17
11
02
2F
09
43
09
0B
07
04
0C
FF
FA
EF
EF
F1
CC
1E
EA
E7
F3
29
06
EA
0F
E4
15
F6
0A
0A
19
FE
1D
F6
01
19
FE
FF
12
0E
08
05
02
F6
0F
E2
15
F7
EB
10
04
C8
D7
F0
D8
D4
04
09
1F
02
EB
10
FB
1F
04
E2
01
E6
DE
F9
0A
FB
D7
EC
1A
F0
F5
DC
D6
0D
C9
0E
E4
F0
F9
0E
01
F7
F9
06
15
0A
EF
D7
E1
14
FD
16
F4
E1
31
0F
EE
19
27
14
D9
23
D9
02
DB
E4
F0
C7
0A
EA
1A
EB
E4
08
07
12
17
04
0E
02
DB
D4
0E
21
F9
22
FF
30
00
02
DD
FB
10
0B
DA
25
F9
EB
FC
0B
21
01
FA
07
F3
EA
FD
15
FE
DC
11
F0
14
E8
F4
03
09
FA
1D
00
DF
DD
E9
2F
02
F3
10
00
FB
23
EF
F8
EE
15
FC
F2
0D
F1
25
FE
16
F8
E6
06
26
00
F2
13
07
18
15
FA
08
1B
F4
F8
E9
FD
01
1A
01
FA
F0
F8
27
18
FE
09
FB
ED
09
05
0B
0E
F0
13
EF
01
0E
F8
E8
0E
29
F7
0D
F7
11
10
1B
11
06
06
10
F1
CB
FE
1D
FD
E3
0D
05
FD
2B
0F
0C
F5
0B
20
16
FF
22
F1
16
15
DD
04
E1
DA
0C
1D
03
F1
FE
06
02
EE
F0
0A
E8
EB
D7
0E
09
0F
02
28
F7
EE
D8
06
FC
F5
07
FA
EC
0F
1A
CC
E6
15
1E
20
02
27
04
04
25
16
10
D1
0A
24
FE
3B
09
D2
F6
0A
DA
C3
08
0E
17
DC
D4
FB
F7
0B
F2
F7
05
06
E4
2D
E1
12
FA
FB
FB
FD
EE
D1
D6
F7
17
0B
FA
05
EA
04
0D
EB
E3
F8
22
F6
21
0E
24
F6
FC
17
E1
09
19
08
0A
EB
0F
2B
06
00
13
E3
D1
0F
FB
10
E6
DD
0B
F1
05
18
EB
1A
E4
F8
E4
F1
F8
04
FB
2B
0F
F1
F7
0B
15
CE
DE
23
FD
FE
11
FE
14
0B
26
05
07
05
FD
07
0C
EA
03
E7
04
0A
F8
08
F5
E7
03
D8
2D
1A
FD
FD
F3
F1
EF
07
E4
17
FA
05
16
24
ED
FB
27
02
07
FC
F5
31
F4
11
FE
0B
E7
11
08
F3
EE
E2
14
2B
17
FF
EE
E6
09
E7
FD
13
DE
31
0C
F5
0B
15
DD
12
1B
CD
35
0E
DE
FF
C0
11
06
E9
E8
1B
0F
EE
DC
04
FC
33
14
09
1E
09
17
FC
01
04
FC
BA
C2
15
F0
EF
E9
08
0E
FA
0B
13
2D
03
D6
FA
F7
06
01
10
F7
12
DB
E8
19
DE
06
22
08
28
36
03
1A
FB
1B
03
12
EF
19
FB
01
F6
F5
1B
F1
FA
E1
02
FB
EA
F7
22
11
FE
FB
09
FF
BC
1A
13
BC
12
14
34
F2
09
08
15
DE
FC
0B
F3
22
06
FE
FE
09
17
02
1C
EE
FC
11
07
D8
D4
02
07
09
20
EA
F1
09
2A
E9
00
DD
F8
1F
D9
03
22
03
FB
F9
D4
02
0B
F1
FE
3F
D9
F5
18
F3
02
21
DF
0F
FF
00
1C
F6
FD
F6
F3
37
F0
12
EE
05
ED
FB
F7
15
ED
FE
E6
0B
0F
F4
0C
08
F4
EE
0D
1F
01
FA
0A
DF
31
1A
16
F3
D6
FF
F7
F4
EC
FE
05
02
EC
04
F6
0A
F2
04
19
F9
F3
1B
09
F7
28
FB
E5
F3
DE
E6
F6
0D
D1
13
F0
F3
0A
21
0D
0D
EC
07
0B
03
06
FC
10
DF
EF
01
EF
F7
ED
0E
16
F4
0A
11
FC
E8
E5
38
EF
E9
0E
11
F9
E2
0B
F1
FD
0E
0A
0E
F2
17
F9
02
00
FD
F8
F5
0A
06
0A
26
11
08
13
FF
06
EC
29
29
02
E7
23
D7
EB
17
E8
03
02
FE
12
FB
EC
19
FB
F2
13
FB
0D
1B
41
10
01
01
11
12
F8
1B
12
D7
0C
FE
06
D9
D4
F1
F7
DC
06
00
0A
E9
06
CE
07
DA
EE
F6
F9
EC
12
09
FD
F9
EF
DD
F6
13
04
0A
F1
18
FF
02
0A
20
EA
2A
DF
E2
08
D7
EE
02
F5
0C
08
1A
F1
00
E6
0C
F5
E8
EC
FE
F7
0D
E1
F0
04
F1
F4
E4
12
E2
33
FE
19
FA
FD
14
0F
04
0B
E9
CC
FF
E1
07
FF
DF
08
D9
F9
1F
F2
00
03
10
06
23
00
01
ED
2E
11
C1
0A
0F
D0
FE
1E
EB
11
FB
1C
E1
1E
0A
F5
03
FD
11
F0
27
01
EA
06
E7
03
0B
01
20
D9
DA
18
EE
D2
0B
02
05
0A
11
08
F2
5D
E3
CE
D1
00
3D
11
FB
F6
E0
13
12
F0
01
CC
F5
24
EA
F1
F3
F1
E1
00
D9
F5
E5
09
09
F4
EA
07
1C
24
F5
0C
14
DA
D0
21
EC
0F
E9
FD
03
CF
0F
0F
03
E5
19
E4
ED
FD
E1
F3
03
10
EE
EA
15
E5
EF
16
F3
E0
0E
F7
F9
E0
EB
F3
15
EB
EE
EC
0E
FD
F6
EE
EC
11
2C
F2
22
FE
EC
F4
EC
FC
09
E1
FB
E5
08
F5
02
E8
F3
DB
D7
16
26
F0
17
F9
E7
FD
31
E6
0B
16
1D
0D
F1
36
08
18
05
EA
03
21
FD
F5
F7
10
EC
FF
EB
E9
FE
04
E2
E3
E8
E4
EF
FE
F1
07
0A
1F
18
09
EC
12
DD
1F
FC
F7
EC
18
FA
F7
EC
13
30
08
EB
29
13
01
0B
E1
F5
E6
FF
EF
16
EB
E8
06
E8
13
FA
01
FF
0B
F5
F9
19
F2
02
13
F5
FD
1C
CF
13
02
18
17
09
15
F9
26
F9
F9
24
F3
02
16
EE
10
43
F9
E7
F3
1B
D1
13
1A
2C
D4
ED
E6
C9
FE
13
27
DE
00
CA
F5
D6
07
F7
07
D8
01
E7
1E
03
1C
EC
E5
16
12
F9
0A
14
1C
FD
17
22
E5
1B
03
27
1A
F7
09
FB
1B
FA
02
DE
0B
08
E0
11
F4
F5
34
D6
0B
1D
F1
E0
06
1B
07
FF
22
26
ED
F3
F4
FA
24
F0
0B
0D
21
DA
08
10
1A
01
E8
F6
0B
FB
15
ED
0B
EF
00
21
08
FA
04
FC
FE
F0
FE
FD
F7
08
F8
1E
F6
28
0C
15
F3
FD
04
06
06
06
14
16
02
D3
03
08
0E
09
13
01
2A
14
FE
23
F8
02
17
BD
0D
20
ED
DC
27
0D
04
EF
01
01
35
FF
00
06
FF
09
E9
D6
0C
F0
DC
C4
27
EF
0A
F2
07
14
F6
1B
FA
F7
F1
18
0F
FB
11
0B
22
D5
12
00
D4
14
2E
F4
FA
08
16
EF
0B
01
05
DA
22
1A
11
0A
39
FD
00
10
06
00
EA
FE
D4
0E
FC
D0
EC
F9
0D
23
E9
06
02
FB
F1
19
34
10
D3
E3
F5
15
F2
F3
EF
F7
21
17
31
D4
0F
ED
18
1D
FF
FD
05
22
D7
F2
06
21
2E
10
0E
EB
E9
1A
D0
F2
E8
E2
21
E7
08
F3
F6
F6
C4
FD
EE
F0
1F
22
00
E7
D3
08
0C
D4
2F
FE
06
FE
0E
EC
12
13
D5
F9
E5
F6
29
10
07
1A
29
FA
07
FA
01
F6
FD
FB
15
11
CC
FC
23
D9
0D
FA
F7
06
F6
FB
1A
07
0D
1A
0D
F2
E4
F1
1C
DC
F0
E3
EF
FC
F4
E8
12
12
32
FB
14
10
0A
23
F7
FC
FA
EF
F2
21
E8
E8
18
0B
EE
E2
E7
0A
0F
F4
17
FB
03
F5
D2
EA
19
1A
F4
2E
00
06
FE
1B
01
C8
04
0F
F3
06
FA
0B
ED
E2
31
0D
EA
FA
F7
17
32
17
F0
FC
FF
20
0D
03
F5
F8
06
02
F0
08
05
28
14
C6
08
09
1F
E4
FB
07
18
F1
F4
21
09
F3
FF
E1
10
15
EE
08
FB
F7
14
D5
F1
FD
FC
0F
0B
FD
E4
0A
0A
29
00
EB
F8
10
21
CE
00
15
E9
DF
0F
04
EB
F8
F0
EA
E0
FD
01
11
17
F5
EE
E7
E8
28
00
FA
C6
F8
39
04
0E
00
EF
16
13
F7
01
08
30
25
F9
FB
EC
F8
F7
DF
F5
00
FC
F6
0C
04
17
02
BE
03
F8
07
07
0D
E9
EA
F8
EA
19
F4
F7
07
F4
08
04
17
2C
15
D8
FA
23
D4
E1
06
FB
20
F5
08
02
F8
EA
1A
05
F8
FC
FB
1C
15
F8
FC
19
0D
F5
D7
0F
FA
F1
04
31
F9
35
1E
27
17
EB
F9
1D
F2
0F
F3
0F
FE
0E
2A
F5
D1
FF
D5
0C
01
DF
EF
F6
F3
E0
E9
27
01
EF
F6
F1
06
03
08
1A
01
EB
06
08
0B
F7
0A
15
3A
04
01
3D
06
E6
23
06
0E
0C
F9
26
06
06
02
F1
EB
FD
03
FE
24
07
DB
0E
CF
E2
08
18
F6
0B
00
18
03
ED
10
19
03
EF
0D
1F
EB
F9
DC
DB
0C
02
08
10
11
02
19
EA
F5
FB
EF
C7
F9
01
1E
2F
F0
13
F7
0D
F1
DF
19
15
16
E4
0C
FE
E3
0D
EE
ED
F0
09
F0
ED
28
1F
15
17
F4
E7
E6
EF
CF
0A
E3
ED
04
03
04
FC
F3
00
00
11
FA
00
13
FF
FB
FE
02
22
CD
1C
EE
0D
C9
20
05
08
0B
F3
FB
04
F1
F4
EA
E3
E9
05
03
16
E9
CF
F6
02
EF
FB
EB
06
CC
D5
E4
12
F2
D0
F7
FD
06
28
18
2D
FE
E0
22
E5
0A
EE
10
35
01
0B
0F
F9
11
F6
F4
0A
12
F9
12
08
5A
02
FA
08
E6
F4
F6
25
27
FE
20
EF
F7
15
EB
02
F2
EF
F9
03
F8
16
2A
CC
16
D7
02
DE
F3
0D
F2
D7
F0
EE
CA
DF
15
1B
17
27
D2
2D
0A
19
1E
F5
0D
09
17
D9
20
E7
EC
1D
FE
10
EF
E0
F4
31
F0
D1
0E
E2
F7
02
ED
33
21
FC
DC
EA
F6
05
03
12
15
10
F6
FA
D7
EE
E1
0D
02
02
F4
0F
03
06
09
02
DE
3D
F7
E6
1D
13
CF
0F
0D
0B
FE
0F
F7
FC
F9
13
02
FF
F6
01
0E
E8
FD
FC
F5
10
3C
FB
17
05
00
25
FA
2D
11
01
EC
19
E7
0E
13
1E
07
12
C8
10
ED
03
16
E5
05
F8
11
F3
D7
0F
19
0A
DF
ED
01
F4
DB
15
D9
0A
04
19
F1
04
DB
1E
1A
16
01
04
11
16
EF
16
05
04
E9
02
1E
DC
BA
17
FF
2A
FD
0C
FA
DD
F7
03
10
F5
0F
FE
15
FC
03
06
03
2B
10
FD
F0
E2
08
13
F4
EF
FE
12
0F
E7
02
19
FF
10
00
14
F5
13
F3
00
EF
F8
28
FB
F3
02
01
F1
F1
EE
F6
01
0B
FF
F5
15
FB
FF
F6
FC
F1
EA
E7
00
F8
2E
FA
FD
EF
EC
FD
01
ED
19
FE
08
01
16
0B
12
11
E8
09
E9
1E
19
D5
F7
20
28
19
EB
07
09
E6
11
F7
10
0D
FA
12
FF
1A
EA
ED
FE
12
E3
ED
07
12
14
11
13
1B
D3
52
23
16
22
1A
F7
12
F6
05
11
F6
0D
E7
F7
0D
EC
30
FC
EF
3A
13
01
1B
E2
F7
FC
04
07
EB
F1
26
E1
F9
1E
06
F1
FF
04
F6
05
0E
02
0D
E8
FD
02
EA
05
06
DD
E5
FC
F0
F3
D0
0F
21
20
FD
F4
F9
0C
19
E8
1A
1A
F4
01
01
11
08
DA
11
F5
00
38
15
0B
CC
F2
07
FA
E5
0C
EE
E2
E5
08
1F
07
FA
1E
0E
0B
3B
11
0D
EE
F7
11
08
CF
0B
10
07
16
15
08
C8
0D
FC
F2
EC
EB
EE
E2
21
2A
0C
FE
00
0E
F4
02
C5
18
EA
11
D8
E9
F5
F2
26
16
04
EF
E4
D7
E2
ED
FA
15
03
F4
10
01
DB
01
FB
13
F6
3C
17
FA
E2
F3
11
F8
01
19
CA
E3
0C
EE
26
E5
FF
07
E1
03
F6
36
F6
EB
AA
ED
20
3A
F9
F1
C7
FF
19
F7
FC
F1
F7
0D
F8
F2
F0
FD
24
CD
02
20
F8
FA
EE
E6
EC
E5
EF
F7
F8
11
12
E5
19
F4
FD
33
11
0B
0F
F9
E6
20
F3
F9
E1
1F
56
35
E6
FF
E0
14
20
EE
EC
12
EC
C0
09
1C
0A
2A
10
00
46
AD
F3
F1
E3
02
2A
14
E3
05
FA
20
16
FD
35
0B
F3
CF
12
EA
F5
19
0B
0A
D9
0D
07
B9
E7
0D
FE
12
0E
DF
F1
D5
EB
18
00
24
F2
EE
FB
0F
E0
FF
0D
FB
F3
FF
01
FB
F2
EE
F3
22
06
EE
09
0B
01
18
E7
F7
00
FC
01
1E
F9
00
1D
FC
ED
F1
FD
04
EF
F7
12
21
0B
13
02
07
16
F4
F0
2C
1A
07
FB
24
F9
15
1E
0C
0E
E8
42
12
F8
02
0F
0C
2D
08
0A
1A
29
31
2D
EC
06
0E
01
F1
0B
05
0C
E7
16
EE
F7
FA
FF
0E
14
F2
FA
25
10
DB
1E
15
FC
FD
0A
04
14
01
02
EB
EF
EB
01
01
FC
DF
1F
FC
1F
F7
E7
E8
FA
F2
06
F2
F6
F5
0A
F4
FF
DE
F3
15
ED
06
EE
18
0A
0F
F3
1B
F0
EA
07
F9
FA
00
F3
BC
D5
20
F0
10
0D
E0
F4
00
D7
1E
16
D5
07
14
F0
1B
0F
02
06
E6
0F
1C
02
0C
E9
F3
E6
D8
0E
14
F6
FA
12
F8
D7
FD
DA
25
20
01
F9
0C
F0
08
FC
E3
08
EB
E3
F8
16
03
F4
F7
28
E7
FF
1B
BF
18
FF
1C
FE
10
F0
22
FA
EC
F6
19
EA
E8
13
FD
27
ED
FA
1C
E8
F6
1F
14
FD
F8
DA
00
FA
05
E6
F5
C9
FC
F7
0C
FD
E7
EC
12
CB
BE
E8
15
F9
FA
02
0A
2A
EE
24
FF
DC
24
33
FB
D2
EC
06
15
E7
F5
2C
EE
18
02
0E
FE
05
1D
F5
EB
02
EE
F3
0F
E4
F7
0B
D7
FA
18
1B
EA
F0
09
07
05
FC
D7
EE
ED
FF
27
FC
E1
32
04
14
FE
03
E5
FB
FD
EC
16
1B
01
0D
10
0D
03
1F
02
07
BD
10
0A
06
F8
13
BC
17
F1
F8
18
E4
F1
F9
05
02
E6
E5
29
F6
0A
DD
09
EA
EB
FC
14
06
14
FF
0B
0C
02
F9
FC
E0
1A
24
FF
06
F4
0E
F3
E1
1E
F3
19
DC
F6
FC
23
0C
D4
F8
04
22
48
DC
12
01
0D
11
FC
FA
F6
E5
2F
05
02
FF
11
10
01
FD
FD
2D
E2
48
0C
14
02
0C
2A
EC
0E
EE
04
E8
F2
F4
FE
2F
10
2F
07
00
16
F1
07
FB
22
C7
00
00
DB
F1
F1
06
11
19
1B
F3
DF
FC
E6
E9
09
EC
2A
FF
06
FB
01
FD
ED
F7
E7
F0
FF
17
F3
E7
02
06
1D
00
13
F6
FC
05
03
0E
FA
0B
FC
E9
E1
ED
10
02
EF
F9
F0
F9
06
E0
E8
F0
F8
F4
FC
FD
10
FB
DA
D3
0A
14
07
1D
0B
0B
10
F0
01
08
F8
0A
FC
05
10
1B
E0
19
11
00
1B
0E
09
0E
02
05
EE
12
E8
F1
20
FE
FD
07
11
EB
C9
00
F0
FA
02
13
12
04
4C
EA
01
18
F4
FF
36
F8
FE
F0
EE
10
07
F1
09
04
FD
CD
37
FA
01
F4
FC
F8
D4
F3
02
E8
F2
1D
F9
F0
0B
1D
E6
E8
ED
F0
03
2C
06
15
0C
02
0B
13
08
28
ED
FA
DC
FE
17
DC
E1
F6
29
E2
F0
03
D2
16
EF
0F
F7
07
D8
EF
EC
F1
0F
F7
ED
1E
CC
F6
E1
F4
13
EC
F2
FE
EE
EB
0E
FB
FF
1B
17
DE
02
0B
F0
06
D3
DD
F0
D5
29
FC
EE
FB
E4
E2
15
D4
0E
FF
04
05
33
0E
EE
DC
F1
06
DC
FC
E9
FB
15
17
0B
0B
F9
08
2D
F1
39
FA
F3
E0
FD
17
EC
F5
E6
0D
F0
10
02
07
02
ED
11
04
DE
11
ED
D9
09
01
01
10
07
01
11
0B
1A
E4
18
D9
FD
ED
01
3A
F9
FC
11
D6
FA
FB
FB
0E
F8
22
10
08
EA
0F
12
F8
F1
01
0C
06
0C
E2
15
F4
04
EC
21
E9
EE
FA
C3
13
D6
0D
07
E1
F4
2E
25
1C
07
12
2A
01
14
FD
D8
16
DE
EB
D4
FF
E2
04
15
F3
F6
E1
FB
F1
E5
0A
F6
01
E1
2F
EF
00
E6
0E
06
F9
E2
EC
DB
05
13
1F
F2
07
E7
F3
F0
18
18
A0
0E
18
28
D6
18
F7
0A
DF
CD
19
EB
07
FD
FF
11
20
02
0D
23
FA
05
13
EE
02
38
15
12
D4
19
1F
09
01
3E
01
02
1B
08
E1
19
0D
FC
13
D4
E2
F5
03
EA
0A
F7
24
05
E7
F7
F9
08
F8
EC
05
1B
14
BA
00
E0
ED
F8
FE
0B
07
CE
21
F7
EA
FA
05
F4
0A
F0
F1
F3
FE
F3
F7
FF
EE
07
E0
16
0B
09
16
1A
F1
FF
07
D9
F8
0F
FB
FE
1F
18
F1
BC
1F
12
FE
0F
23
F6
1A
EB
1F
EC
FA
DD
17
2D
FA
06
17
0D
0D
04
10
FC
F7
ED
E3
12
08
FB
EA
F1
0E
F3
F1
FF
E9
EF
FA
DE
E8
17
F9
01
F0
17
FA
E8
F9
E9
06
06
F6
FF
DE
F1
F4
0B
07
F6
08
06
F5
EB
15
1B
FB
DD
2F
09
26
01
03
F7
05
0B
EC
F9
FE
F4
E7
F9
02
07
18
F5
01
D4
0F
25
09
01
EE
00
E3
03
04
DF
FF
07
1C
22
F7
DC
EC
EE
10
FF
FC
C7
F5
10
FC
FD
F6
CE
F0
0C
F1
08
CC
0D
DE
03
DD
FB
F6
03
FE
FE
04
E6
F9
FD
17
F4
19
04
2B
0E
26
08
E5
F6
18
14
02
DC
CC
C2
21
D0
FA
00
25
2E
EB
01
F0
0A
ED
0F
EE
F3
01
D6
05
FE
FE
EB
F1
02
F0
2E
F6
28
EF
FF
0B
F5
18
F8
EE
11
0E
EF
17
D6
2F
E3
09
0A
00
06
11
F8
12
21
FA
00
01
EC
39
11
F4
E5
DE
F3
11
D8
20
0F
19
E7
03
25
FE
10
00
D7
1C
16
0E
0F
DF
0C
1E
E0
0D
01
DF
E7
10
13
03
F1
00
31
07
31
F5
32
2E
FF
12
16
1E
0E
24
08
00
0D
05
0C
FD
14
0D
E9
12
E2
F9
F6
F1
08
FD
F7
05
1A
FB
01
F9
03
3B
DE
02
F8
E8
38
DB
0C
F7
EE
1B
19
F5
02
DD
08
27
DA
23
FD
0F
FD
29
FA
04
04
EE
FC
F6
18
ED
F1
04
FB
FC
DA
F8
FC
EA
CD
FA
0F
E7
02
00
04
20
F0
FD
0F
0E
E0
DE
CF
FE
01
FA
EE
0E
19
17
0A
F9
04
15
0E
11
FB
FD
17
FC
0B
0E
FA
00
06
F8
F8
FA
1B
05
E6
ED
F9
10
D4
C0
13
FA
F3
FA
0B
09
0D
02
02
F7
E8
09
0A
0A
0E
2A
1D
08
F3
18
06
FC
FE
E2
05
08
00
04
EE
E7
30
02
10
14
16
FA
FB
EB
14
0D
0D
16
EE
10
F1
20
E7
D1
05
15
10
FD
E5
E0
FA
0A
F7
07
F2
F9
EB
22
13
01
FC
06
FD
03
E9
20
21
FE
05
FA
F7
F9
ED
FB
15
C6
17
00
E4
22
EB
02
22
BD
02
17
F8
E7
F4
20
01
FF
F6
F8
E0
FC
F4
F2
C0
0E
02
D0
07
0A
FF
01
31
E0
E2
04
0E
EE
0E
EA
EB
FE
E5
03
E8
C6
02
0E
E2
E9
14
11
0B
05
EE
E8
1B
F7
DF
F1
F8
02
E8
FF
E4
05
05
FB
09
C9
FD
04
DB
13
D6
E2
1C
EA
F0
05
06
EA
33
01
FB
E4
02
05
D6
F3
11
27
24
06
E6
CE
E9
44
E2
0A
1A
21
1D
0A
23
DB
ED
F3
00
06
F4
15
D4
E4
09
F6
FB
FD
08
E9
F1
EF
0F
07
E7
EE
00
EB
26
ED
EB
13
EF
07
09
09
EA
08
1B
FB
E6
C2
11
01
F9
EF
CF
CC
01
18
D2
0B
00
F6
19
23
16
02
0E
00
E3
F0
17
D4
E2
E8
0D
D8
DC
0C
01
11
10
E1
13
0F
05
37
20
1D
00
0C
E4
EE
1C
15
2E
F9
15
04
F9
03
E0
FF
11
01
12
04
E0
F1
FA
D4
17
02
F7
D8
19
14
0E
EC
EC
F4
EF
17
F6
13
FA
EB
1F
CF
FC
FF
1D
F5
EE
1C
E3
DF
DC
F7
E7
03
ED
15
11
D4
F4
F3
FF
0A
FB
BF
B6
FC
02
FC
C8
07
0B
DA
E8
F9
0E
F8
EA
48
B5
B5
0B
D7
06
05
0B
0B
E5
0F
FF
12
15
04
E2
12
16
30
03
D3
25
00
0C
06
09
F6
26
0A
21
10
F8
0B
33
36
05
00
29
F9
04
0B
F0
10
00
19
B6
E2
F2
F1
1F
06
23
FA
E8
EE
15
D0
DF
01
25
EF
13
2D
F8
0B
0D
01
FB
E7
ED
02
31
F9
2D
F9
EC
08
CB
01
F6
D2
DF
05
11
1C
F7
05
03
FD
F8
FF
05
FB
E4
E5
F1
ED
ED
FC
03
E7
F2
07
2F
09
E4
1E
0F
15
FD
F0
F8
1A
F6
F0
1E
09
FC
15
04
0B
2A
F9
03
F2
F7
04
03
F4
04
17
10
FB
29
ED
E5
0E
0F
FD
F8
14
EB
EF
E9
FB
06
05
12
ED
F8
04
F5
EC
F5
08
FC
D7
DB
25
13
E4
13
DA
09
1D
EC
46
FA
F5
00
10
EA
F4
EF
0D
0C
E6
0C
E6
0D
04
F7
02
0C
EE
0F
08
F6
15
F3
FC
E3
15
FB
04
08
21
F0
0A
DA
F3
F3
F0
F6
10
12
FA
19
0C
FF
27
0B
F0
E4
1F
F1
0F
03
E6
04
DB
1E
25
DD
F5
18
E7
0A
10
13
F7
0D
0E
FB
DF
1B
FA
FB
16
32
F7
DB
F3
1B
FE
0E
E9
08
06
EB
06
04
FC
F8
EA
06
21
04
25
30
F5
FE
00
04
0D
12
11
00
17
E3
D3
F2
14
EE
FB
EE
E1
F6
0A
FB
C9
0D
E4
02
33
FE
F7
EA
EA
06
FD
E3
F2
07
0A
37
FA
FA
FD
FE
D7
FE
05
DB
E4
29
18
04
16
FC
FB
F1
EB
1B
E4
15
EC
FD
19
D5
EC
01
33
0B
13
FD
21
14
F1
F4
07
FA
14
ED
2F
FF
F9
F7
DB
04
1A
E7
0C
F3
FC
E5
F6
26
FF
0A
1E
00
04
40
12
00
DA
F0
0E
F0
09
28
06
1A
E3
DA
F1
17
03
0E
FF
05
D3
0E
23
00
09
1F
FF
F2
0C
27
EC
E2
D9
DC
16
44
DC
0C
C8
01
F6
2D
DE
1F
DC
F9
2B
F0
19
F1
F8
2E
EB
03
DF
ED
FA
FA
F0
E6
F5
DF
1D
EB
F5
0E
15
19
1E
14
F0
13
00
0D
CA
FF
16
13
D7
00
03
FB
1B
09
F5
1A
D3
1D
DA
EC
1D
19
D0
E8
19
F5
C7
FF
00
E6
09
FC
B5
32
03
31
F4
0E
21
09
02
FE
03
F3
F1
03
0A
F4
13
11
12
05
E0
04
05
F4
1A
E1
F9
02
07
10
F7
02
00
41
09
E5
16
1E
FA
0A
2B
EE
FF
F4
10
FD
E8
0A
F6
05
D9
0C
CD
0D
F6
01
E9
C6
05
0A
E8
16
E4
F0
F1
19
FF
0C
FF
02
28
02
FF
F1
FD
F2
2B
F8
E3
FF
F9
27
FE
16
F0
FD
01
01
FD
1D
14
19
D1
03
26
0C
40
F2
03
E7
0F
E7
1C
1E
0C
22
EB
07
F8
FE
0F
1B
0A
DD
FD
ED
12
23
0C
F4
0B
19
F9
01
01
10
F7
DA
FC
25
E1
01
FF
01
04
06
DA
09
39
FE
2B
00
F6
FA
E6
01
0D
21
C9
0D
EB
0E
19
17
F7
07
E2
E3
23
0E
F5
13
06
F3
C9
FE
F1
E2
08
0A
0D
11
0B
1B
06
0F
15
F4
01
E1
02
EF
FD
FF
19
08
11
FC
22
EE
13
36
0F
F3
0D
FB
EC
FB
EB
FE
1D
D0
26
05
DC
0A
FA
E5
0A
F1
DB
62
05
1F
16
17
0D
0D
E3
0D
2A
27
07
E9
FC
27
02
F7
F9
01
E3
05
04
DC
FC
E6
FF
12
FD
F4
09
2B
F9
0C
F8
FA
2F
19
0B
C4
EA
14
0C
17
0E
F9
F0
FE
1E
F5
01
F3
13
E2
D8
14
FE
00
FA
06
DE
F4
E6
F3
FE
06
13
EB
10
0B
13
DC
F2
03
1A
08
E1
EF
D1
03
12
0D
21
F5
0C
ED
09
30
D6
22
F1
01
05
00
2A
0A
12
1E
F4
26
0E
F8
15
0D
1F
03
F3
12
F1
E1
FB
16
F0
E6
D9
06
D8
0C
0E
1F
0C
DE
FB
FE
07
10
F2
EC
0C
30
E3
2F
D6
01
FE
EB
EC
EB
0F
D6
33
11
05
01
FF
F6
F2
19
09
E0
EB
EF
DF
E2
14
15
D5
07
12
F3
FA
09
00
0C
F1
02
23
F3
FF
1C
0D
C4
18
F0
F0
19
E4
1E
F5
0E
F1
DF
F4
DD
E0
13
E7
F0
FA
17
EA
F9
EE
11
18
19
F7
15
E8
F1
F0
FA
E9
1C
E1
24
FA
E9
00
ED
EA
FD
F6
02
15
F8
EA
C2
13
12
09
FC
D7
13
FC
DD
14
D3
08
10
F3
F8
EE
20
2C
08
16
17
EA
E0
F9
32
EC
FA
FA
FA
D7
01
10
01
20
24
E6
D8
DF
11
2A
E9
FD
09
F8
E9
0B
DF
E6
1C
E3
F1
23
08
75
03
F7
F4
11
04
05
05
EC
02
2D
04
FC
14
FF
10
1F
FF
15
CE
FA
11
0C
E6
EF
D2
04
ED
1E
0F
F7
04
0B
05
00
EF
EE
3B
1D
17
10
EC
DD
FA
F4
1A
F5
F2
F8
47
F4
08
01
F8
ED
01
F6
EE
03
EA
04
E8
DC
09
E9
1B
E9
09
FF
F7
FB
DF
F1
0B
1A
5B
0E
05
F5
FD
03
01
DE
E9
EF
E8
16
10
22
03
00
08
11
F4
2D
09
2A
0F
F6
17
F3
1A
27
F7
EB
FA
E1
FC
EE
D9
0F
E4
09
C7
F0
F7
12
FF
13
06
3B
EF
E7
07
EF
03
EC
F5
E7
F7
E3
E4
DC
EA
EB
D5
F4
F3
D5
07
10
F8
29
F4
E8
14
FC
12
02
F2
17
0F
0E
06
FC
FC
F7
F5
EA
E2
02
01
0B
12
F9
18
02
EA
1C
0F
E0
1E
F8
10
F0
C5
03
1D
2E
ED
00
0A
0D
16
FF
FA
05
02
DC
E6
24
11
09
E6
07
11
08
03
E7
03
F1
E5
02
EC
F5
FA
FA
0B
08
0E
17
1B
19
EB
09
E4
FC
1A
27
01
17
F2
E9
F1
E7
FB
D1
10
F8
F5
08
EF
06
FD
F0
04
10
00
E5
2C
08
26
34
0F
ED
06
10
F3
E4
E1
07
FC
FB
0D
EB
02
0E
FB
E5
F2
F1
05
10
04
F7
16
FF
F3
E7
F3
C7
DF
18
F5
F0
0B
FE
EE
0A
22
04
E9
E8
F1
08
EA
15
17
0A
FC
0A
04
F2
0B
07
E3
13
EC
02
06
11
04
1D
28
0D
F5
E4
F4
0B
03
07
FE
0D
F5
05
03
02
F9
12
E8
F6
FA
0D
1E
F5
0A
0E
FC
DB
F0
0A
F4
EF
F2
FF
D9
E7
20
11
FD
F3
F4
0A
E7
F6
19
E7
18
23
F2
03
FB
09
F9
12
F2
0B
01
2E
0B
1E
EA
E1
F4
00
DB
14
F0
08
09
E7
FA
1C
0B
EB
F2
0C
ED
D3
E5
F1
0C
04
DD
02
EA
F0
02
F3
F7
11
16
DB
F4
DB
E7
07
11
F5
FF
11
E8
F5
24
E7
F1
F2
00
0C
1B
FA
0E
E1
FB
05
19
E4
1C
03
F7
D6
F7
C7
28
26
FE
21
E2
F9
1D
07
E2
F4
16
E0
15
0A
FB
FE
0E
09
21
F3
EE
1E
FE
1C
F9
0E
16
14
01
01
FB
F7
01
0A
FB
FD
1F
3C
16
EF
F1
DF
F9
E6
05
F2
0B
D3
00
FD
24
EA
0B
F7
07
F2
FA
C7
EA
0D
04
1B
4C
03
D6
DC
E7
1A
F7
F9
20
F3
07
13
FB
F2
04
E7
05
FE
F1
02
35
FF
26
F3
FA
FA
0B
F0
06
01
F8
E8
F2
C0
08
D5
E5
EF
15
0F
0E
1E
00
2C
07
0D
F4
E2
26
08
12
E5
F7
F0
18
07
FE
10
15
1D
07
DA
FE
00
F9
15
FA
EE
08
F4
01
17
32
F6
F6
FF
26
E2
0B
E6
12
FC
FE
21
F4
09
0C
FE
EB
10
09
B5
00
F7
FA
E8
1F
05
03
EB
F2
FD
EB
05
FF
04
0D
09
02
00
1E
FC
F7
F8
F8
FA
41
F4
E8
08
0A
D6
F0
D7
12
ED
DE
0C
C8
FC
F6
FF
E9
27
FD
ED
FF
FB
ED
05
CD
0E
28
FB
FA
02
1F
ED
FF
F2
0E
F8
F7
EE
FB
0C
E4
12
F4
EF
05
F7
F6
EE
F9
0C
DC
17
01
E9
14
11
07
00
F1
FF
01
F2
0B
F8
2F
02
FB
F6
15
25
FB
15
F2
FC
1A
F4
0D
E1
19
03
04
1B
26
EC
05
26
0F
FF
F7
00
FF
06
0A
26
F8
CB
E4
12
E5
0C
0A
09
FE
F7
17
D8
FE
04
F2
F2
00
07
F4
E1
0D
07
FD
F8
F3
22
02
FC
FB
F7
0C
F6
01
FF
0C
12
C5
F6
FD
2E
F1
02
1E
EC
FC
EF
20
0D
EB
F9
F6
DA
10
00
09
F0
CA
F1
00
06
F9
FC
02
E9
DB
00
09
13
0B
0B
FB
FD
FC
18
0A
E4
DF
12
EC
08
F2
E1
FE
01
0F
F7
E6
08
F2
FB
D1
E9
FE
1E
E7
0F
FC
F8
29
0C
26
06
E2
F2
16
01
19
E1
EA
FA
04
10
0F
06
FF
E8
0E
EF
1A
28
12
F1
0E
12
06
EF
1D
FD
16
01
0F
03
09
2E
4F
0C
23
22
0E
F7
12
11
2C
07
00
1D
E8
FE
01
FC
23
F2
03
E7
20
F6
0B
04
12
F7
F9
00
ED
D1
16
E9
17
FC
E6
33
2A
F0
13
F4
15
DF
10
10
F8
E6
0B
0A
05
02
FF
10
04
13
13
0A
2C
01
15
F1
FB
EA
F4
E8
EB
1D
10
0C
DD
E6
29
E8
0D
E4
18
E0
E9
F9
1D
E3
EE
CF
03
1C
EE
EF
0B
F1
03
F5
F0
F9
04
10
01
04
F7
11
F9
D8
EA
23
02
E9
0D
EE
E9
D5
D4
0D
0A
06
14
EC
09
04
E1
FA
F0
E7
F1
00
12
1A
E4
F3
FE
26
04
16
E7
D8
E9
1D
16
05
D3
EC
02
0C
08
FB
01
0F
03
0D
03
02
1A
08
E4
04
1F
E0
EC
ED
E3
EE
26
19
38
E3
FD
F6
F5
F4
0C
F4
17
10
1E
E8
ED
DA
12
10
F0
08
26
08
1A
0A
0E
ED
0F
00
12
F7
E4
03
E9
06
02
E4
01
F4
40
E1
0C
D8
01
07
E8
E0
E5
F9
0C
C4
09
E8
18
1A
20
F2
FA
08
FD
D6
08
46
FE
06
06
08
EB
0F
01
FF
1B
13
1A
1B
11
11
D8
DF
09
DB
14
F3
19
FC
F6
38
E1
0A
18
FD
26
0D
09
FA
CB
DF
F5
21
08
EC
11
FF
E5
DF
F9
E6
E2
FD
03
E4
11
0F
02
EE
18
E6
11
0C
14
07
48
E3
23
39
EF
06
16
F6
08
F3
E7
2F
09
F1
EC
04
09
0E
E3
EF
FE
15
D2
F1
EF
07
16
FB
EA
FC
FC
0C
F8
1C
00
CD
17
08
FE
05
1A
08
F9
FE
02
1B
F0
16
FD
DC
08
F4
FE
F8
F6
F6
EC
FA
15
0B
E2
F8
F0
0D
F9
FA
EA
18
E8
11
10
E4
18
16
F0
FE
F6
06
EC
03
EB
F0
FE
F5
06
DC
FA
0F
0F
21
1C
E9
DE
03
19
1D
18
F8
FF
EE
07
07
F7
F5
F1
14
08
05
FD
EA
F9
26
F6
05
17
DE
03
12
F4
1D
F1
3A
24
0E
11
00
0E
F6
FB
D4
05
28
EF
F1
D3
E8
01
03
10
1A
FA
CC
E2
12
F5
18
F8
F3
24
FC
1F
EA
E8
F2
11
2E
FF
1E
2D
FC
2C
F2
21
F1
E9
0B
20
EC
07
14
1F
0E
FB
06
28
0B
D8
EF
FE
E2
05
E7
13
FB
FF
18
FD
EF
1F
FE
F8
F8
0A
F4
F5
DE
01
E6
28
08
1B
26
E4
E1
1A
17
24
FF
10
F0
FE
0D
0A
D5
11
05
12
FD
11
00
04
F0
25
CF
F0
F3
13
DD
00
19
1B
F9
FE
FD
F3
00
00
14
08
FF
EA
DC
FD
FB
1C
EF
F5
E3
14
C5
1F
16
EB
F6
E1
E3
06
D2
04
20
EA
E3
E5
D6
DD
06
FB
13
2A
10
FC
08
0F
24
EF
05
31
14
E5
27
F0
0C
1A
FD
D2
0E
03
14
20
FB
E5
0E
F2
2F
EA
00
1C
0A
15
E2
CB
DD
E6
F4
07
E9
37
F3
FF
F4
F4
11
E8
0C
1D
F5
13
01
16
D9
FE
07
11
16
F1
E9
DF
EC
18
C4
D9
0C
E8
EB
1B
ED
0D
F3
24
04
0D
E6
03
2C
F2
0B
1B
FC
F9
FC
E3
04
0B
EA
FF
22
0C
FF
1A
BC
EC
CE
F3
02
FC
FB
12
F7
F5
F6
DE
F9
05
D8
26
17
06
E6
1E
E4
3D
04
11
05
EE
FD
EF
10
20
45
11
D9
F3
0B
01
EC
E4
F8
F4
07
15
02
26
25
FB
E8
ED
16
1B
08
01
F1
F8
C8
08
FD
09
E9
10
FC
FE
F2
D9
FE
02
02
F6
31
E6
4A
00
04
1E
1B
F4
FC
0B
11
02
D9
F9
FA
FF
31
E4
1B
03
05
EC
11
1E
1D
12
D6
AF
04
0A
02
FD
0F
E5
08
FB
F9
17
15
13
16
08
EC
08
02
0F
19
FA
E6
13
F7
14
FF
FD
F3
E2
0E
ED
F9
EC
F3
FB
DC
53
FD
F3
07
F6
14
00
E4
EF
01
E9
F5
FA
07
26
F9
FE
F6
F9
0B
FB
06
F5
05
E4
F5
FA
23
F0
F3
07
F2
ED
EF
EA
0E
02
EE
16
F2
18
ED
09
EA
F7
F2
12
FF
0D
FF
11
03
00
F2
17
FD
1A
09
FD
09
FF
0E
F2
09
F3
15
1E
EA
0B
0C
EE
13
07
F0
06
EC
EE
08
E0
10
F2
FA
03
0A
FA
19
22
E1
09
FA
03
03
F7
FE
E4
FE
0E
10
10
F3
13
DD
11
08
00
0D
07
E0
02
E3
2A
F3
FD
16
F5
FF
22
08
FE
0A
12
11
00
01
EF
06
0C
02
E9
07
F8
E7
06
13
F7
FF
FD
E1
16
00
C4
FA
E5
04
E5
F3
F8
10
F2
03
EC
EA
F7
18
DF
EF
EE
FF
FE
EB
F2
FA
F5
E9
0C
F3
1D
2B
E6
E6
06
09
03
2A
FF
CC
FB
05
FE
EA
01
03
07
08
DF
E7
0A
12
ED
F5
FA
EA
F7
05
F0
EF
00
00
0D
F6
EB
DD
0B
1C
03
FF
02
07
32
0D
FF
E3
0B
06
1E
13
E8
E4
10
E2
08
13
1F
EE
0D
1A
0D
0D
04
F0
FA
25
DF
15
0E
0F
D1
E0
08
02
EE
EA
F6
22
E2
FF
F2
FD
05
0B
2E
F9
1C
F4
F0
F0
2A
FF
D1
E0
EC
D0
D6
15
05
E9
05
DA
FB
04
FB
F0
18
ED
EB
10
11
E5
26
24
04
F3
ED
0C
04
FB
1F
F0
24
D0
EC
E5
EB
11
24
FB
0D
16
1A
E0
13
02
05
EF
E7
F0
C3
D7
04
FA
F5
ED
1A
2D
16
11
06
07
F9
F3
02
E5
16
F7
FF
03
FA
F4
F2
07
C0
F9
F5
F5
FD
F8
22
FC
F5
E6
04
FC
02
F7
12
0E
0F
05
F6
09
07
0F
12
F7
02
13
00
0E
25
00
E3
E8
FD
23
E5
09
FE
FD
ED
FA
05
B9
D6
20
06
12
FF
F1
1F
FC
FA
D6
17
FB
C2
FE
F4
F7
F1
F5
F5
F7
06
F7
05
D5
17
F5
0B
E9
0A
17
12
E4
FD
EC
EB
10
E4
08
FC
ED
02
10
EC
FB
F4
13
EF
C2
EA
ED
0E
E4
F1
F1
16
ED
06
EC
FD
FF
13
29
09
0B
C8
11
2E
F8
0B
F6
E2
FE
17
E6
E1
08
1F
F9
22
DD
FF
F8
10
1F
08
F6
0A
F9
0E
21
CF
FF
FD
0B
F9
DB
E0
01
27
01
E1
35
EA
E1
00
E9
49
EB
02
F7
F9
ED
F3
0E
E2
E6
F3
0F
EE
00
D5
FC
06
03
0C
EF
F2
DF
24
01
EF
2E
16
02
04
F5
FD
F7
00
D4
E7
F1
05
EA
EA
0F
22
01
F6
F0
0D
14
FA
0C
EA
25
2A
0F
02
09
12
0F
10
EF
2B
1E
FE
EB
25
26
05
03
29
ED
03
F9
15
F3
F7
DD
FE
03
10
EB
07
D4
13
E1
DA
08
28
10
0F
00
FD
C1
F7
F4
EE
EE
06
2D
05
FC
FE
FC
05
12
F4
1D
09
EF
1A
F7
D9
F2
BE
08
EA
23
13
D5
0B
24
F2
1B
EA
15
1B
0C
1E
27
EE
02
14
2C
09
05
04
51
05
11
F9
05
D3
F7
F5
E9
ED
0F
11
0C
13
F1
11
18
F7
DE
14
E7
FD
08
02
F7
02
08
FA
CE
FD
08
1B
11
1B
EB
06
08
F7
EA
0C
F1
FC
E9
14
05
33
EE
04
F6
DA
03
16
BF
12
E5
ED
F4
FD
14
FD
F0
0F
F6
FD
1A
00
DE
FC
0B
2C
FC
FA
16
E0
F1
12
07
F9
ED
DD
F8
19
F9
F6
E6
17
F9
05
FC
EC
F9
EF
07
F8
18
E6
D1
04
0F
03
19
D2
07
EF
FB
04
B4
0C
0B
F0
35
01
19
2B
EE
F6
E1
F8
01
E3
15
EA
F6
1D
FB
10
0E
D6
ED
F2
FD
F4
D3
F9
0C
07
0E
D6
07
FA
18
15
F9
DD
FB
E0
0E
FA
E4
F5
FA
FE
EE
ED
F0
0C
F6
19
07
FF
F8
24
00
0E
04
09
DF
2F
F8
EC
03
3F
05
F6
00
F3
02
F9
FD
02
FD
0B
E6
FD
28
0B
2C
EF
F0
DA
0A
1A
06
09
08
ED
0F
2E
F5
EE
0B
E8
F3
F4
10
07
D3
C5
1F
EB
E7
F3
03
07
08
00
E4
F3
E7
00
FA
12
14
F5
07
FD
F3
05
F5
15
0E
FA
CE
E8
07
EF
1D
26
1A
0F
14
0A
12
E7
02
F5
F8
EB
0C
F5
F3
FF
03
E1
09
F8
13
04
F5
F2
F3
E0
09
32
FE
04
FD
E5
F2
06
EC
FF
D2
00
C9
25
E8
02
0A
F4
E8
E1
17
01
E7
0B
ED
F6
EA
F9
29
FA
F7
FB
02
0A
EB
FE
00
02
E3
F0
0D
E2
23
07
FD
24
1B
13
F9
0B
1D
DD
DE
F5
F8
15
ED
01
03
05
19
BF
21
F1
0A
19
C1
F7
04
DD
E0
11
DB
EE
FE
FD
01
2D
F5
B7
03
13
EF
E1
0E
06
15
F0
0A
FA
EB
C8
0E
26
ED
E5
FE
02
F3
0D
DC
EE
F7
FD
F8
FD
EF
F3
CA
08
2A
1D
E0
1D
F8
ED
EC
10
EE
05
11
ED
0F
D7
11
F3
0D
38
0B
D8
F4
0C
EB
E9
EE
EB
16
E6
24
E6
21
2A
E3
F6
0A
2A
1E
FC
14
E8
01
0D
F8
0F
09
06
D8
F3
03
2D
13
FA
14
FE
07
C5
1E
05
0C
20
F1
13
ED
0B
E6
FA
11
FD
08
CE
F9
F3
00
15
34
35
1B
E7
09
FA
FA
0C
FB
E6
F4
F6
0A
1F
EA
F4
D8
ED
0B
07
06
EA
17
06
DE
0E
0C
F2
FC
FF
F4
DE
08
EF
18
E4
F5
08
15
2F
F5
00
09
FB
24
F8
25
1E
17
E8
23
FD
FC
D9
0F
27
1B
03
17
24
FC
11
0A
ED
E0
E7
F4
E8
F3
14
18
FC
DA
0D
E3
FD
0C
34
1D
2E
04
CF
E6
26
F0
ED
DD
F6
2D
0F
0E
E0
DE
36
05
EC
10
1F
FE
F7
1E
07
F6
F9
24
0E
EE
23
0E
0C
01
E4
E2
04
0D
17
EF
E0
F8
10
12
FD
0A
EF
F7
0C
F7
0D
00
F6
E2
06
F1
EC
D8
1A
0E
19
E9
0B
F3
20
EA
0F
09
FE
F1
09
EF
14
FB
F4
17
E8
09
F7
20
F6
05
17
09
08
1F
D6
F2
FA
EB
E0
10
0B
D7
06
E4
F8
FE
15
F5
EC
D9
0F
0C
1F
F7
FD
20
EC
D7
14
F6
1B
F4
E0
27
FA
03
D7
EB
0A
EE
ED
1B
04
F2
27
D5
36
27
1D
F5
10
05
0A
F0
EB
E7
DF
D6
F7
14
EF
F0
19
F3
06
1A
F2
06
FF
0B
F2
E7
C0
E4
3D
08
EE
FD
F2
F5
F4
24
FF
0C
16
F9
FB
07
11
F3
0B
03
FD
02
E8
1D
03
26
FD
13
17
EB
17
EB
10
07
12
DF
09
17
EB
0D
F3
FB
0C
FA
2D
13
18
F7
02
29
09
0E
02
EC
0B
1C
D4
F0
F4
F8
1E
0B
13
E2
23
05
E7
BB
19
15
08
AC
18
F5
06
F5
0B
06
E0
14
FB
CC
F2
19
1B
E7
0A
06
1E
37
E5
99
FB
12
11
16
24
0D
FA
D7
15
E6
DB
E2
2D
ED
02
0A
F8
F9
0C
06
0F
F1
D1
FE
32
18
0E
E1
00
18
00
FB
18
05
EC
17
CE
E9
17
E7
FE
F9
1E
01
09
FC
EC
F8
E7
EB
FC
03
F2
CD
0E
01
0E
FA
15
FD
25
32
24
FA
18
D7
0E
DF
05
0C
F3
22
09
F7
0D
22
20
E4
EE
13
16
F3
FF
02
EC
DB
0F
30
F9
07
06
E6
F9
20
D6
F9
08
0B
F6
F4
CE
ED
FD
EF
D7
0B
03
E5
E9
08
04
04
17
FF
10
F7
17
EE
1C
F3
F9
DE
14
FF
05
1F
0D
1F
F3
F1
11
F1
F9
0E
09
12
1E
EB
04
09
1D
E6
26
F1
12
0A
11
06
06
38
09
09
E4
DD
CC
18
E5
EE
F2
03
24
F7
26
F3
04
08
02
EB
DE
F4
10
9A
05
FB
03
15
1F
F8
FE
09
00
DB
EF
39
01
F3
FF
F9
F5
0F
F7
E2
06
18
1D
F2
1B
FB
1F
01
F2
FE
0B
0E
E3
E7
EA
10
F8
F8
16
00
F7
12
19
1D
00
0F
1A
D1
DD
E1
DE
18
00
06
E6
E9
25
EB
0C
01
19
16
F8
0A
FF
F4
05
02
19
03
14
09
DD
FC
EF
2F
FD
ED
F7
08
10
0F
03
14
10
19
0B
FA
D0
FA
0B
FE
E8
07
0E
06
1C
E5
E2
E1
04
17
F7
26
D5
FF
20
F4
19
FA
00
EF
EE
03
DE
FA
15
FE
DA
DA
E4
0A
E1
D4
ED
FF
1B
FA
F7
16
FA
1E
19
F7
2F
EC
12
E8
01
FC
13
E2
F8
04
F8
22
0E
36
00
E9
FF
D5
F1
F9
20
19
FB
E3
18
E6
FB
05
FB
F6
E1
E7
00
EE
F4
13
EB
12
0D
EB
D7
19
DA
FE
FD
F0
36
F3
00
E9
FE
1C
F6
D1
E5
F7
4A
D4
F3
CE
D2
20
11
CC
10
02
F0
EA
EB
2B
FF
0B
F7
F3
09
F7
E0
37
09
00
18
01
0C
DD
D7
1E
18
EC
E8
F4
03
13
F5
00
ED
FE
25
F1
01
0C
E3
0E
F6
14
16
0F
DE
04
F1
24
20
06
1B
F8
F1
00
06
1A
F9
FD
F2
EC
1A
FF
EB
0B
1E
ED
0D
00
17
D6
08
F2
08
05
10
E8
FF
FC
E2
EB
00
2B
24
07
FE
0E
F3
01
F7
05
10
17
EE
09
02
02
05
F8
F9
01
D7
14
FF
F3
05
D9
0F
12
24
1A
07
0E
FD
FA
F5
DA
FD
05
DB
31
35
01
10
E9
00
F7
0B
E2
D1
0C
FD
F3
E8
04
15
39
03
F9
FB
22
DD
06
03
FB
08
20
FA
00
0C
EE
02
E5
DF
EA
0D
18
F2
00
DD
ED
DD
0E
FC
EF
12
0B
EC
03
FA
EB
17
F9
D9
DD
F4
0C
E6
15
17
FA
18
05
10
F8
17
0F
ED
00
1C
02
FA
0E
F0
CB
EB
0F
F1
02
F8
EB
07
E5
FD
ED
01
00
0B
CB
11
09
02
EE
11
F7
F5
F1
1F
FE
02
F1
F9
1A
EE
21
09
0D
17
0A
FB
1A
EB
FF
4D
14
F9
0F
27
00
1B
ED
11
EE
DC
F2
F7
0F
06
CA
17
E1
1E
15
F1
F6
18
09
D7
03
EE
EE
00
E4
F5
F2
FF
02
DE
2A
FA
FF
06
DF
02
EE
F9
DA
21
0D
D6
22
F3
06
F6
20
F0
EC
FC
EF
1C
14
FF
CC
28
30
00
ED
EE
DE
F5
F8
12
0C
F8
F5
33
1D
FF
0F
05
03
DA
1A
F9
FD
1F
01
F4
12
F2
EA
FE
15
FC
1D
F5
0E
D0
04
02
E1
D1
E4
2D
0B
10
0C
F6
E0
2C
F8
DD
E9
26
F8
12
FA
06
0C
F7
02
EA
F5
2D
F2
F7
EB
FE
EA
12
F4
F8
12
E7
FC
FB
FE
02
21
EC
FD
EA
21
DC
FC
17
F4
0A
1D
09
F7
00
F3
13
EF
FF
03
E8
38
0D
20
FB
15
1E
EB
E5
FF
E7
0A
0F
EF
F1
2C
E0
D0
0E
17
23
EA
AD
CA
F7
F0
00
F3
ED
14
FD
FA
53
07
EC
02
10
F7
FC
09
16
DA
33
F8
DB
E9
FB
F1
EB
29
F8
F4
1F
02
FD
16
ED
08
0D
FC
D5
0C
D4
2F
21
D0
E5
2F
E9
27
F2
EB
E3
48
43
F4
FC
00
19
19
F6
F4
19
04
E1
05
FB
CC
12
00
FF
EB
01
DB
E1
0D
D8
08
07
0A
06
E4
34
ED
01
E9
E8
2C
EF
FD
FB
FC
E4
C6
DF
F4
3F
F3
0C
D2
D3
1C
FB
08
F3
0B
04
F2
F4
FD
09
DF
EF
E5
EB
0C
E1
FB
1D
E3
08
EA
4B
F8
0E
EF
0E
D4
2B
0C
CB
E5
F9
02
E8
FE
D8
E2
24
03
1A
21
37
43
08
01
25
F5
1D
FF
47
1B
F7
06
E2
ED
0A
E5
F7
00
12
FE
F8
1F
47
F1
FE
EB
E9
1C
F0
F5
EF
10
FF
C7
EC
05
0D
F0
0E
ED
E7
0F
00
9C
0B
08
FC
F8
49
F7
FD
E7
DD
10
08
D4
F6
D2
F1
14
06
0B
D1
00
16
0C
FF
25
DA
E0
0B
F9
0F
17
F9
14
05
EC
F1
E7
28
F1
0A
08
CB
E3
00
07
E6
0B
DD
1A
FC
E7
29
E8
18
0E
EA
E8
EA
05
20
01
3E
02
0C
0C
D7
F8
F7
D7
04
00
FE
DA
FA
E0
DE
08
FD
15
FD
FD
08
EE
FB
11
E5
2A
17
E4
F4
02
10
FD
02
1B
18
EC
0E
FE
0D
03
F4
0D
0D
ED
01
DA
0E
B4
2A
F0
01
E9
BF
E9
20
08
F7
F7
E5
DF
2D
F9
FB
F0
13
F3
BF
D5
D6
E0
FE
F6
EA
05
38
00
F5
18
F1
1F
F9
F9
07
03
EC
07
37
F4
1A
19
CC
21
02
F7
FB
16
00
F5
F0
F3
D6
B8
5C
EE
EA
21
03
21
DD
2B
D9
0B
E2
EF
0B
CF
EF
07
F0
1F
02
D6
0A
F7
FA
F1
48
FD
EC
14
F9
E5
1E
F6
0A
16
D3
02
FA
F5
1A
BD
F3
07
DF
23
0C
14
13
F1
F6
E3
F9
06
E6
29
DA
0D
1E
F0
12
01
E1
FC
09
FD
F0
D7
1C
E8
1A
FD
D7
05
EF
32
2A
F0
ED
03
CA
09
05
CB
16
D8
0C
E6
E1
E3
28
D2
1E
14
F0
16
1C
FB
FC
06
00
03
1E
22
11
08
F7
3D
DA
FC
01
09
04
FB
19
04
0A
D9
0B
23
0C
24
FB
C6
DA
17
FA
D4
FA
FB
D1
AF
17
05
FF
04
F0
10
11
E0
EB
03
CB
1E
E6
F9
18
13
16
FD
FA
FE
1C
D8
F1
F2
FA
EA
36
E9
20
F0
F1
1B
F1
D5
1C
FD
F4
13
D2
26
F7
0D
D2
E9
E4
19
11
F3
09
20
F7
23
FF
FD
40
12
0F
09
E2
03
EF
E0
22
F6
04
F3
DE
16
FC
E2
CF
02
02
F8
F7
0E
F4
FB
FA
05
FE
06
07
10
F0
E8
1A
CD
F9
0F
F2
C0
F5
0E
1B
FC
F3
FD
F1
D1
10
01
E5
05
11
03
12
28
E5
14
EE
D5
22
03
14
EB
FF
FC
13
1C
0C
FD
02
E3
F5
FD
16
F4
F1
DA
11
FB
EB
F0
E7
17
F9
D6
CC
C6
38
0D
FB
EC
17
00
03
CF
1D
F1
EF
1D
01
DC
1E
32
FC
03
FF
E4
F5
E3
0E
DA
FB
00
E8
4B
09
F6
E3
08
18
EF
1B
F5
E6
0F
1D
10
EE
DF
16
FA
EE
06
F1
C5
EE
FB
E9
04
39
EC
04
08
E5
18
E4
00
F0
E0
D2
F1
E1
EA
E7
1C
0F
E4
E4
EF
F7
DF
15
0B
11
F6
FD
E0
0A
07
0C
21
FA
E4
12
F8
F2
E4
0E
F9
EF
F2
FF
FE
14
1B
24
0E
16
37
E5
EC
31
03
FB
17
2E
1C
03
0C
E8
E2
1E
EA
03
EE
E5
05
00
02
08
E7
E6
E9
EA
10
1E
11
E5
F1
F3
02
10
F3
DA
D8
E8
F1
E3
1C
F3
B8
05
18
FC
D5
19
EB
03
00
D7
F5
02
F7
06
1B
EB
0A
F8
ED
1D
F4
0D
E0
0E
09
04
0D
F5
1C
04
08
0B
0C
24
F1
FC
0A
E6
E3
04
16
FC
27
01
12
F1
EB
08
13
0F
28
20
F8
0D
E1
DD
06
DD
EF
2B
0B
EF
E2
FD
F0
FE
2A
F0
F1
F6
15
07
CA
FD
FB
A2
C6
17
E9
13
E3
33
FE
E9
FE
09
1A
03
D4
23
0F
2D
04
E2
1C
0B
1E
FF
0B
22
EE
D5
FD
DB
E1
13
24
E1
F2
0E
F7
1B
1E
04
ED
18
02
EC
09
08
0C
E3
FF
08
EF
1C
0E
FA
D7
17
0A
D5
F8
08
FF
F2
12
12
09
05
F9
14
1C
FD
F0
30
EF
2B
02
08
07
1D
C7
DA
01
EB
21
01
E3
08
0E
FD
F8
16
E8
05
E8
06
DE
11
0B
DF
E6
36
F3
00
FB
F3
EE
E8
F6
2C
18
D3
FB
E8
EC
13
11
03
F4
FD
F9
09
13
E5
F5
0A
E1
28
EF
1D
07
0D
B6
FB
08
DA
08
FA
02
F3
F9
F7
02
E5
18
0F
12
08
2D
20
10
F6
F2
04
01
FB
25
EF
C8
F1
EF
FB
DC
EE
0C
0D
DE
FE
22
22
19
2B
25
F2
DD
0C
F6
0E
FE
03
FF
09
24
20
D6
07
FB
22
F7
FE
F6
DC
23
DC
FA
16
F7
0C
DA
10
05
F6
05
19
0E
09
D9
22
0F
EF
C9
01
ED
06
2F
CD
23
08
02
F3
01
E7
F1
42
DE
07
18
EC
F5
00
D6
FA
17
32
06
19
FC
0C
2F
FC
D5
36
E6
0F
BC
16
13
1D
14
00
F5
FF
11
F1
EF
0B
05
10
F9
ED
F5
00
0E
15
24
E6
2B
17
DD
F9
14
11
31
D2
DD
FB
10
F5
F3
F6
FC
03
FA
01
11
3C
15
E0
E3
F7
FF
05
D9
23
0D
F5
05
E7
F9
DD
09
18
E3
F8
0F
1B
02
04
F5
CC
EA
05
0B
14
21
FF
FB
F8
F2
28
19
F2
C8
FE
03
08
04
D8
19
C2
E8
1F
EF
1B
10
39
0F
F2
FF
ED
D7
2E
2C
1A
00
0B
19
0E
09
F2
0C
15
08
10
04
E5
09
19
EB
D7
D3
E0
09
29
ED
FD
F8
06
19
F4
F3
41
16
01
E4
00
F9
F1
16
1F
F6
19
FF
0F
DA
D8
05
E4
36
50
0E
04
F9
C5
FF
03
1B
36
40
16
EB
F2
06
FE
EE
F1
04
0B
19
0C
EB
EE
10
E7
16
02
18
EC
E9
10
00
F6
1D
F3
F0
F7
F2
F2
DD
0B
09
00
03
DE
05
FA
0A
03
FC
00
10
E7
F4
09
D5
FD
07
02
0C
EB
08
09
1A
19
F2
E5
DB
0C
FC
36
E6
2C
2C
07
E6
F1
F9
02
07
08
19
0A
E1
F4
15
F3
0B
0C
F2
F2
FA
F3
0C
29
FF
E2
F3
FD
17
F9
F2
EF
03
EA
D3
FD
F5
EF
14
F4
03
F3
F1
E3
F1
E1
0F
FE
EB
E7
F3
E8
05
EF
1F
EB
F9
00
20
1F
03
04
26
EF
F8
F1
1D
05
04
0A
19
F9
EC
DE
EC
0D
E2
FD
EC
0D
1C
1F
F9
21
08
03
F9
F6
0F
0E
F2
F3
15
F8
EA
19
E4
15
17
0E
18
E6
E5
0E
ED
FA
DC
1E
0B
0C
03
13
C2
FB
04
EB
04
FA
13
14
FE
E4
DF
FC
02
E7
ED
FB
2E
18
13
1F
CD
07
15
E7
0F
EF
11
D9
F6
DF
DF
03
05
FB
06
F1
07
F0
16
F6
04
08
FE
D6
0A
E7
15
F5
1B
FF
21
14
07
00
1A
EE
FC
FD
10
07
C6
F2
D6
F0
F0
00
F9
E1
1A
E6
FC
FE
07
0C
1B
1B
07
1D
20
0A
EE
15
E8
F7
0B
0B
F2
05
F4
F5
DF
22
06
28
F4
EF
07
07
F7
EE
04
A6
0A
06
00
2A
0D
ED
F9
16
F3
EF
19
00
12
F0
EA
F5
FA
02
BB
FE
07
15
0F
FF
F2
C9
F3
E6
21
EE
08
15
F0
DC
E7
14
02
F3
03
E0
F3
2D
07
11
19
07
F8
15
E7
02
09
09
1D
F9
05
E3
FA
ED
15
08
DC
16
00
01
F1
16
01
21
1F
C9
FC
EA
F3
5B
E7
FC
0E
DA
19
F0
F4
FE
F8
16
D6
E8
18
D8
E2
04
EE
15
FA
C8
FD
0F
FF
21
11
0D
ED
EB
E9
0C
EA
CC
0F
F9
0D
F0
18
FD
2A
FE
05
E7
06
EB
01
05
0A
FE
E2
DA
FF
E9
0E
EA
F1
E3
09
EE
F0
F4
19
A8
0E
16
06
1A
0A
F5
15
11
D1
FF
10
F1
07
F7
EB
11
D5
48
0D
E0
0D
F6
D2
FB
EB
0A
0F
0E
E0
F3
01
10
FA
18
D6
2E
15
F4
00
F4
02
15
DE
1B
F0
1F
DF
23
1A
E8
E1
F7
20
D8
05
F1
10
F1
15
F0
07
E6
09
31
FA
1F
F9
03
21
F9
02
E0
08
0E
07
06
06
DB
25
EB
02
E1
EA
01
E7
03
D3
F1
4F
FB
00
F2
14
04
16
05
F0
FC
0F
F8
03
03
09
0B
1A
FE
11
0C
E8
18
E3
0C
F9
06
E8
FE
F1
0F
F9
EF
1B
E1
F9
0D
E3
1B
0E
3B
00
19
F0
0B
EA
0B
15
DE
27
D8
0D
B3
B9
FE
06
02
F4
12
DC
21
04
D0
FA
F3
02
04
02
ED
F4
0F
19
1C
08
D5
D3
EF
23
FF
F8
0A
E0
EE
02
F4
05
F6
EB
15
FF
09
F1
11
08
11
EB
D1
24
11
D2
00
11
FA
25
08
13
1A
EC
26
F5
34
19
2D
F5
02
FC
0D
13
22
19
15
F2
FC
EA
E2
E9
1B
56
14
34
06
F9
10
DD
EB
E5
F9
E7
25
D5
F8
10
ED
23
E1
E5
CA
29
BD
EC
02
F2
15
0F
FE
02
F8
15
15
F4
E1
E4
D1
1C
FA
D4
F7
E2
29
01
E8
EF
12
EC
09
E9
13
0B
08
ED
0F
FF
E6
B1
F6
20
13
0D
1E
01
17
D1
05
08
ED
FB
FF
C7
01
1F
17
EA
F3
03
18
F6
F7
0A
08
0E
FA
E8
13
1D
FB
07
1D
EE
ED
E2
1B
04
16
E9
F5
FA
D7
F9
F5
FC
29
E4
2C
E7
FD
E0
F0
F8
FC
F4
03
0A
FB
14
F0
E1
0A
3F
0B
C3
03
FA
19
2B
F8
F6
F7
0F
EF
EA
27
FE
E8
FF
11
ED
F8
EB
26
E1
0F
F6
00
FE
17
01
E4
FA
DA
29
FB
E8
28
16
10
06
2C
E0
D5
1A
14
F6
02
FB
07
FF
08
11
22
FC
19
E9
EB
12
EC
0B
FC
10
15
16
FE
FA
31
17
F3
1B
F7
F3
08
D9
ED
FC
D2
1C
FA
FE
F0
0F
D5
09
20
FF
05
EC
04
17
12
0A
D4
F5
FD
07
1F
F5
08
D3
F4
18
1D
15
11
D8
F4
E6
06
F6
FB
15
03
FD
25
FA
ED
32
1B
F6
FA
FB
D8
E4
04
08
09
0A
F6
08
D1
17
2D
ED
EC
01
14
E8
F1
E0
F3
03
E5
D6
24
14
19
04
E8
0D
18
40
D7
D3
01
E1
08
ED
49
E2
0D
F7
F3
EA
FC
09
0A
FA
16
08
14
15
ED
26
1E
16
26
26
10
05
17
F6
16
0C
12
3E
F2
0F
1B
FC
F0
F4
06
F4
33
D7
E9
E9
F7
D9
DB
F4
E8
EF
29
16
F4
D9
FC
1D
1E
0E
09
FB
33
1D
0E
18
06
F4
17
02
FE
EB
F8
02
F5
FF
22
04
FC
EE
26
FA
E7
07
1E
E4
00
FC
F6
F1
0F
08
01
D9
04
13
F2
04
DC
06
07
F2
0A
0F
F6
FD
21
F6
FF
0F
12
E7
14
FE
09
01
E9
37
0C
F4
05
18
EC
EB
0F
07
10
F5
FC
17
1A
1E
E4
FD
E8
0D
08
10
1B
E8
F0
06
1C
E8
DB
EE
FD
FD
04
00
05
0C
E7
11
1A
1D
F4
DD
1D
EB
03
FF
0E
0F
FA
23
EE
FD
03
FA
0E
F6
0B
D9
FD
DE
F0
04
E5
2A
06
EA
21
E7
F0
EA
EB
F5
0A
EB
17
14
0D
DF
E5
0D
F5
06
FF
00
16
F6
F0
E6
17
02
0C
FA
F6
F5
07
EA
EF
00
F4
FB
FE
11
FD
11
17
F5
29
05
13
12
02
06
E6
13
CB
14
FC
29
05
F3
09
F2
0E
13
D8
CE
21
05
FB
F2
31
1C
EA
DD
2C
F2
F1
0B
11
22
01
F3
EC
F8
0F
16
EA
0F
15
E1
0B
E7
10
DD
12
04
E8
0E
F8
E3
08
F9
16
F1
F0
12
0C
1E
FC
FE
17
05
18
03
D8
07
E7
04
13
10
F6
11
0E
E0
06
00
EF
11
0B
EA
23
FC
EC
DC
F0
DF
DF
FA
28
05
08
07
ED
05
EC
F3
2C
FC
07
12
EB
02
16
EC
00
04
FA
E5
E7
1A
E7
F3
E9
E9
05
13
E1
06
D7
C6
18
F9
F8
FE
EF
05
FA
0E
D9
19
07
E0
F0
0F
12
B4
1B
EA
11
05
EF
F3
0D
EB
FF
F7
F2
FF
01
E0
F1
00
00
0E
D0
E1
10
F0
F2
24
9E
F6
1A
26
0F
05
F6
0A
EB
FA
11
15
16
0C
0D
DF
E2
E1
27
10
18
E4
1F
F9
14
0A
02
D5
20
0D
05
D0
E3
E6
0F
0B
2D
12
EC
F7
09
03
FF
EA
27
19
E7
DB
F1
F7
FD
FB
09
03
0F
0A
10
08
F1
12
FB
2D
0A
24
09
DB
0C
EF
DF
14
00
C7
33
1F
23
03
CA
F1
FF
F7
09
08
06
E6
24
F3
13
FE
1D
FA
04
DA
0A
04
0D
EB
CE
EE
00
08
E9
27
F0
1E
09
12
1B
FC
F3
F0
FC
0B
F4
EE
00
F5
FF
F7
01
F4
FB
FB
F7
FB
FD
10
1A
0B
1A
F9
02
26
EB
27
0F
12
FC
05
FE
22
F1
00
FF
09
0B
EE
D9
17
0E
F8
D2
00
EB
E4
06
00
16
09
11
D8
EE
18
19
30
2A
E8
F9
E0
02
31
E3
09
FD
E2
03
CD
01
35
07
0A
04
0E
01
F1
EE
F2
F2
1B
0F
06
F3
16
08
27
08
07
04
27
2B
CE
13
DF
EC
14
03
03
05
ED
00
E2
DB
ED
F9
F2
F5
F6
19
E8
03
EC
FC
D1
EF
E6
EF
06
F2
0D
1B
E1
EB
F3
E6
06
18
DE
05
FA
E5
FA
F0
12
07
FE
E0
F2
0D
E6
EB
D7
FE
20
02
EC
23
F9
C1
21
05
0E
F7
F0
F1
EB
14
0D
05
08
06
0E
F6
E0
EF
F1
F3
F5
F1
F7
13
03
09
E7
F3
03
08
1E
FF
02
1E
FC
12
E9
E5
06
F5
F8
F9
E4
04
FD
18
02
FA
02
02
F4
00
02
05
E7
08
FF
FB
03
03
22
F9
E5
2C
18
FB
27
04
23
E1
24
14
FC
FF
00
EB
0C
0E
08
03
F9
F9
EA
0B
01
DB
FF
2A
FA
23
F7
FE
FB
0A
FD
E4
0B
06
F9
0D
0D
1E
0D
0D
17
04
0D
FF
F4
01
E5
02
11
F8
02
15
F8
15
FC
F7
17
0C
00
F8
E6
FC
06
F9
06
EC
E7
EA
E9
0C
06
DE
EC
ED
06
EE
FC
FF
F0
DF
FD
F3
D8
E5
10
0D
02
FC
F6
1B
DE
1D
F0
FE
00
0F
F6
12
C7
FC
EE
F3
02
19
E7
25
E2
09
09
F0
FA
F1
E6
0F
CA
00
F9
EB
C8
F1
11
EA
00
DC
DE
09
21
F2
EB
00
FC
08
DB
E4
12
F3
26
1C
10
0A
DE
06
F6
35
E4
ED
EF
1A
FD
08
FF
0F
00
EC
EF
01
E9
03
0C
F5
09
ED
FD
17
F1
25
EA
1A
F5
16
F1
07
DA
09
03
14
1A
F4
FE
13
14
F3
0F
02
19
D2
3E
2D
E2
FF
16
0C
FF
D6
F7
08
16
DF
19
DE
0B
F6
DE
0D
2A
26
15
F2
08
01
E3
EC
DC
ED
FD
E8
1D
DA
F2
EF
0D
25
15
02
0C
F0
E9
FE
16
FD
11
E7
EA
00
0B
E8
F8
19
07
0A
08
FE
0F
11
FD
F7
EF
D5
06
04
FA
07
F3
08
DD
0C
0F
17
27
11
FE
1E
C6
14
FE
09
F9
EC
E7
F6
CD
0E
16
FF
29
06
06
06
E0
FD
ED
1F
0B
10
F1
FA
11
ED
17
E0
DC
B4
39
C4
07
09
12
03
E6
22
E2
F8
14
22
EF
12
F2
B0
10
FB
E2
F1
F3
1B
03
06
F3
FD
F5
0C
F6
F5
F5
0D
DE
EC
21
1C
DD
01
08
06
1C
0D
F8
22
0D
20
EF
1B
C1
00
15
DE
16
FE
1E
EE
1E
31
F1
E0
02
EE
07
F6
FB
F6
12
14
06
06
FE
D0
05
06
0B
0C
EA
DB
E9
0C
F0
14
22
F0
F8
28
F5
34
13
14
FB
08
01
25
10
E6
ED
CF
FD
E0
DD
04
28
01
FF
D2
F9
E3
D6
F4
EA
02
29
12
F4
DD
04
0F
0D
E5
E8
46
ED
F1
F8
0C
21
1B
F7
1A
02
0F
CC
0C
F1
21
13
14
0E
18
1A
1B
06
10
E7
EA
E4
02
ED
0B
F7
F8
ED
02
26
F9
0D
20
F4
FF
0E
FB
ED
02
00
0E
0B
EE
EA
ED
00
F6
0B
09
E2
F7
19
0F
00
16
F2
F0
0D
16
E6
13
06
01
F7
EE
0E
24
F4
E9
0B
D3
02
FF
FB
E9
13
EE
21
13
14
DD
E2
08
00
FA
F1
ED
FF
05
D6
1C
02
1A
FE
E3
E4
F9
F2
07
F4
23
F7
1B
F9
FB
DE
FF
F3
F3
1A
EC
30
01
09
10
EE
EA
0F
18
0A
E5
2D
E0
F8
E8
F5
02
E9
F5
FA
07
DB
D3
18
F9
E5
FF
EF
F5
FF
09
E6
F5
F3
0B
F1
00
EC
10
FC
E0
19
0C
01
F5
11
11
F6
05
F4
03
0E
0F
EF
E6
E5
09
FC
0E
F5
F2
FA
ED
0E
01
E2
F7
0D
0E
0D
0B
F4
04
2D
D7
0C
FA
FE
FB
E9
FB
E2
E5
0F
FC
E1
E6
02
37
FD
04
23
F8
10
E0
E3
06
0E
FE
FF
EB
FC
05
24
02
EC
E6
F4
14
19
2A
DD
0D
0D
F5
DF
01
14
07
0C
F4
F7
27
03
0B
EE
F6
F4
21
DE
EC
0F
F1
D9
2A
F9
CF
F6
E0
03
12
DF
E1
F6
09
F0
FB
16
0E
1D
F1
D5
1E
19
E4
10
02
E7
ED
F8
ED
E0
1F
C6
F1
1D
FD
F6
E2
09
1F
12
DE
01
09
01
0A
F7
07
04
20
0A
ED
33
D8
CD
0C
0A
58
E2
FD
03
0A
EA
06
0B
0C
01
EC
DB
CB
2F
14
FA
F5
F9
00
0D
29
E5
04
ED
04
E2
0C
26
F8
2E
F9
E7
D4
FD
25
F3
FF
1F
12
F5
0A
0A
12
F4
03
00
EB
00
14
02
FE
09
24
F4
CD
05
FB
00
02
0E
04
FB
FA
F5
14
1F
F0
FF
1F
D9
E6
0B
10
16
3A
F9
11
E0
02
1B
E6
DF
FC
D7
1D
0B
F0
EF
FB
01
09
E1
F3
05
00
F3
1D
EF
03
EF
06
E0
1A
22
FC
1D
14
28
DF
2C
0E
DE
F6
0C
17
3A
F9
26
EB
3D
14
E9
31
1B
09
FB
EC
0D
3D
1B
F1
E0
E3
11
F3
D7
FB
0B
EB
2E
05
0F
0E
00
07
EC
1B
EC
01
27
05
FB
12
FE
E4
ED
0D
15
0A
EC
06
E7
22
F0
F9
1A
DD
F9
FC
DF
02
E5
FB
00
09
EE
8E
F8
F4
F9
E2
E5
D6
E9
07
FA
28
0C
03
EE
12
F2
EB
11
DB
10
F9
FC
16
01
03
1F
38
2D
0F
23
EA
05
01
14
0E
E4
0C
D7
0E
12
E9
ED
DE
2C
ED
0E
F5
F9
10
18
0C
D4
05
F5
D4
29
18
E4
24
01
1A
E9
12
DD
2C
F9
11
F8
E4
E9
C4
EA
E0
E3
1B
06
24
12
12
FA
01
15
15
F5
12
DA
D5
0F
01
04
F1
FA
EE
EC
F3
E5
18
16
16
1C
F9
04
DB
13
01
FE
F7
F8
2C
3F
0B
13
08
FA
11
E7
0D
D5
F4
44
1F
E2
F0
DC
FF
06
FD
F8
FF
EF
1E
06
1B
03
07
F1
E8
E9
F1
07
2E
13
16
F2
01
E7
19
D3
14
F7
E3
0A
E1
FB
2A
E7
20
18
40
E8
0F
F9
FA
21
16
F9
FD
FF
E6
0B
D9
FA
FE
00
09
02
13
FF
16
F8
FE
16
F0
EB
EE
E3
11
EC
EC
DC
1C
13
EF
F1
22
0A
FC
DF
08
F5
06
17
1C
14
03
B2
D6
FA
EA
F9
FC
05
20
F7
D5
EB
FC
F7
16
07
E2
F6
F7
F4
40
1B
22
00
11
0D
05
16
09
EA
29
1B
EC
FF
15
F9
02
EF
F0
06
05
46
F6
10
0F
F9
00
D4
D5
1C
1A
F3
2A
C6
0A
0F
FF
17
FB
15
EB
05
22
FB
FF
FD
1B
F6
0F
DF
16
E9
F7
C1
39
EC
E1
0D
13
FE
E3
13
02
D8
E9
1C
EC
E1
1F
0D
F5
F1
F5
F7
E7
FE
03
15
17
FE
FA
FF
F7
08
FC
FF
0E
07
F4
FF
F1
04
EC
02
EB
1B
07
FB
FF
F4
FE
EE
15
04
06
05
01
05
F4
FF
F5
08
F3
FB
08
05
F1
09
F7
04
E8
FA
F4
F1
FD
F2
02
E6
0B
01
EB
03
FF
03
EE
F4
06
FB
0E
02
11
F7
F0
03
14
ED
F6
F2
12
05
06
04
F9
EF
01
FA
09
F1
F5
02
04
08
0C
EF
0F
0A
04
09
01
F6
D3
3B
13
12
FD
FD
20
03
0A
EF
FB
17
DF
C4
06
1A
ED
10
D1
E6
F8
0F
1C
DA
F4
0F
FA
FD
36
FE
13
E2
FC
D5
0D
EA
21
0D
13
F0
D3
E0
1E
F1
FD
11
13
EA
FE
E2
0D
FC
09
02
FE
E3
1A
16
04
10
EF
00
F9
10
0C
29
00
E7
FC
13
15
F4
14
25
1C
0F
02
DC
E9
F0
0E
E1
D2
14
14
11
06
F1
E7
0C
1D
3F
D6
DA
27
FB
F0
0D
FD
D1
F7
F5
01
12
07
F9
0B
1B
0C
1B
1C
F0
0B
05
EB
FE
F9
F7
16
05
0E
03
12
01
10
F4
E0
17
0F
19
FD
E0
E8
F9
FD
F4
E7
FE
07
1B
15
09
06
FA
1A
F9
E9
05
F8
F0
22
F8
F4
24
04
FE
11
12
0C
06
10
2A
05
F6
CF
FD
E9
E1
2D
E8
02
E6
E0
18
17
1E
28
08
20
F7
10
14
F2
03
F5
07
FC
D8
FD
1F
03
EE
01
1F
31
0B
11
06
F6
29
08
F9
1A
05
16
F2
13
08
04
DB
08
27
17
E2
1E
04
08
00
CF
E7
19
D5
07
10
0F
1F
1C
10
23
05
EB
15
E6
DA
13
F3
09
EB
F5
0C
08
D9
1C
33
14
D0
27
07
0B
FB
FA
F0
EB
04
2D
19
18
F9
01
E4
EC
DC
FC
DF
14
3D
0B
EA
FF
EB
E7
E9
00
20
F7
01
19
0B
E0
00
FE
35
EA
0C
01
07
14
13
1F
F5
F9
24
ED
E9
D1
0F
EF
09
F0
E5
36
06
EA
D3
F4
E5
D1
20
0F
FD
C2
F5
0C
09
0F
07
23
EA
09
FF
21
FE
EF
EA
EE
E1
E6
01
E3
E9
1F
DE
E8
1E
EA
FE
F3
08
0F
E2
11
08
0F
16
14
EE
25
08
DD
F6
ED
38
1B
00
F2
F8
F5
EC
13
FA
F0
31
F6
09
05
FC
E9
E3
F8
E3
DA
0B
0D
F7
0B
0A
E8
FD
E1
20
F5
EE
FC
F0
00
ED
1C
08
0E
0F
DB
E8
FC
DE
F6
1C
1B
FE
0F
00
F4
F7
FE
12
FB
19
F4
00
F7
01
E9
04
05
06
15
EC
F5
0F
CF
05
D5
F6
1A
02
F4
19
06
FB
05
1F
EC
FB
DC
E4
FA
07
28
ED
D2
1D
F6
07
FE
D4
FB
F5
FF
08
2A
F3
F6
0C
17
28
14
E4
F7
F8
16
0E
0F
FA
0D
18
09
E8
05
0E
09
25
17
F1
1B
EA
03
FE
FE
23
F9
06
EC
18
03
E4
00
33
0B
FB
01
EC
E8
F3
05
EE
EA
2F
FC
14
04
F6
01
F8
19
13
2E
08
03
E6
0F
08
ED
FB
FA
D3
F8
38
0B
17
30
27
FA
FD
15
15
1D
E4
E0
13
17
D6
E2
0C
FC
F1
18
03
EF
FC
FC
E8
0A
D8
19
2A
F6
1B
1A
F7
FE
02
31
F8
F7
E9
06
D8
0D
05
EC
F8
E6
02
EA
D1
3E
E5
05
F7
35
0F
1C
16
F1
EE
1D
E4
0A
E7
0D
0D
13
F3
F6
EF
FA
00
F5
FD
E8
29
0A
FF
00
ED
F3
DF
F5
EC
F6
EC
FE
0C
18
E6
FF
F3
23
FB
03
E2
17
E2
F5
F1
E9
F3
FB
FE
F9
09
EC
FF
FE
00
03
FA
E2
12
14
08
0D
ED
0F
19
14
FA
EC
E5
BA
0F
BD
02
0A
05
F2
F7
F9
FA
1A
F5
F2
00
F6
02
DA
0D
03
F7
07
F0
06
F6
F3
00
01
27
16
19
F4
0E
01
02
1E
00
0C
F5
14
F4
11
0E
F0
1D
03
10
D9
10
F3
ED
DA
EF
D9
F5
C9
EF
1B
21
11
0E
F0
EC
F9
EE
C8
C5
FB
1D
07
23
0F
DD
C4
F8
0F
0D
E9
EF
F0
05
26
30
FE
E0
0C
E2
FD
F5
2E
F1
F4
FE
10
11
E3
C9
03
F5
15
E7
13
E6
03
0A
03
D0
F8
F7
2C
E8
0B
DE
21
13
05
14
1E
12
1A
22
DE
F2
F8
ED
04
11
08
FC
1C
1D
EF
30
07
E2
F0
0A
17
38
13
FC
F0
0E
0E
1B
EE
E8
D6
00
F7
12
15
06
28
F9
03
00
0D
EC
0B
13
FC
FC
1B
04
DE
DB
04
EB
F4
F6
05
F7
F4
07
EA
0B
29
08
FA
E5
19
1A
2B
F1
00
F2
EA
06
F9
11
11
EE
E4
E1
E1
19
00
00
E7
FD
EF
D0
0F
F5
14
13
0B
08
24
07
07
FD
E4
E6
EC
F8
0A
16
DA
21
03
F0
DC
11
05
F9
EC
13
F3
D3
F5
2A
ED
F2
E5
DD
23
D9
14
19
00
F9
DD
EE
EB
18
F7
16
23
10
03
ED
13
00
44
FB
FC
E3
29
23
1D
E2
0B
EF
02
F1
04
D1
20
FC
06
ED
F3
EF
EC
FC
30
FA
C5
03
11
13
00
0F
E2
EF
16
F6
F8
0F
BA
0A
01
09
E3
F0
0C
EF
FD
FF
E6
F8
D2
1A
16
07
F9
FF
FD
20
06
17
08
E8
1A
04
0D
2E
D1
CF
03
F7
FE
20
FC
F3
03
18
3A
0D
09
F1
08
01
0D
31
EF
07
00
03
1F
11
EA
FD
0B
E0
24
F9
30
FE
14
09
F2
F6
FF
00
CE
09
FC
EE
E1
00
03
F6
1A
28
22
CB
ED
ED
16
F2
EF
DB
16
F8
FE
C6
09
08
FA
07
08
07
15
E2
F1
0D
ED
10
08
F6
1F
01
F3
F0
F0
F7
D0
0B
ED
08
0F
EE
1D
19
16
F4
D6
28
DE
17
15
34
D6
30
14
D6
02
22
02
D9
FE
17
4B
F2
04
D7
EC
E6
D7
F8
05
F0
11
0C
D7
35
07
02
52
07
26
E5
19
F6
FF
E7
F5
E9
05
30
07
FE
11
10
E2
EF
E4
C9
1B
04
E5
02
FC
F4
12
ED
BA
01
FA
FD
01
10
DF
00
ED
1D
FD
F6
E4
F6
4B
F4
05
F1
FE
2A
04
F0
E2
00
F0
FD
19
02
05
2C
ED
FB
05
F4
0F
F6
D5
EB
03
E5
17
27
1F
1A
26
FE
FC
E3
EA
00
E0
E1
E9
F3
1A
F6
FB
F8
ED
EC
FE
F6
E3
16
E8
3E
06
EF
24
11
FC
22
04
0A
24
F6
20
07
2D
E9
04
26
0C
F0
27
F8
01
EC
28
DB
D1
DE
FE
D0
F3
1A
FE
28
03
FD
2E
09
11
F1
0A
14
09
F1
1B
FB
04
F9
E5
1C
FC
EE
27
0D
35
F1
D7
00
FB
16
EF
F7
F0
05
FA
DE
1C
13
DE
F6
0E
25
FF
0D
F6
F8
29
18
01
18
EF
DA
14
04
28
01
EC
F3
31
12
EF
1C
FD
EF
03
21
0F
F6
12
F0
FB
0A
28
0D
FC
DF
F5
EF
DD
F7
04
13
E4
F1
05
FD
0E
1D
C2
F3
FF
F6
DB
EF
22
E1
FA
1D
CE
2B
00
0D
0E
E5
FA
11
16
22
EC
E9
E8
F7
F4
D1
F9
EA
16
0A
03
D9
E1
FB
E1
01
E1
FB
04
14
09
DB
CE
E6
EE
1B
EA
E5
FC
F8
21
D8
DB
22
00
EC
01
FA
0F
C7
00
00
F7
07
D2
EB
10
0C
F8
EB
FD
F3
06
FD
EF
F5
03
00
DD
FB
07
EE
03
20
CF
F2
0B
1D
15
10
D4
F2
F4
F5
28
F2
21
14
04
F9
FB
F1
02
FF
F3
0E
33
0E
2E
05
11
FB
1D
08
07
09
FF
E8
17
11
15
05
04
FE
22
FB
FB
FC
10
FD
FC
B9
0E
F8
19
AF
29
06
02
0F
0A
EB
E9
13
F1
E4
05
27
F4
F7
15
FB
F0
1A
0E
F8
0C
EB
0E
17
F8
08
EE
F6
19
DD
0F
1D
FB
E7
E6
09
D9
FF
1E
1D
FE
0B
EE
0A
FE
F0
00
F6
14
16
FE
FB
E7
0F
FF
05
F9
E4
17
08
05
F8
17
01
06
DB
22
F9
17
13
1B
0A
F8
04
02
EF
09
FE
10
0F
EF
FF
0F
F3
2C
FB
08
ED
1E
DD
0E
1A
B4
22
F3
FC
FA
1B
F7
E3
19
0F
F5
04
F9
EC
FB
F3
06
F6
1D
0D
1D
ED
13
BA
1B
25
2B
06
0E
F7
05
E1
03
13
0F
E8
04
00
FF
17
05
06
34
F6
02
EB
06
13
FB
09
F0
15
0B
E9
E6
F3
F7
F5
D1
EC
FD
E1
0F
D4
07
F8
1D
10
F0
02
EA
FD
02
E5
09
DB
05
F0
11
1B
1B
E9
ED
09
F0
E8
FF
26
06
03
2A
FB
2C
E4
F3
09
F6
F9
2C
06
03
EB
F9
2D
0B
0C
E8
EF
FB
D2
03
04
D8
00
01
0D
E0
FF
D7
E6
E1
FC
D3
1A
F8
F1
11
04
2E
F0
F8
16
F4
04
F1
E4
E4
01
31
1D
00
00
DD
0A
07
EA
FC
FB
23
FB
10
F3
EC
F8
02
13
18
14
E2
E4
24
DC
0D
22
32
04
DB
E8
18
3C
20
EB
0F
06
D6
14
E9
10
F6
19
0A
19
32
D8
13
F4
EF
D0
F3
EA
E6
F7
F6
14
11
05
06
FA
D9
E3
13
F4
F5
18
EE
EE
0C
E0
E5
11
F5
DF
09
1C
1A
50
F4
22
05
06
FE
FB
16
13
F3
EE
FA
13
10
17
E2
1E
E0
03
05
0F
11
14
3D
DC
EB
E3
FA
21
2D
0A
11
06
1F
2B
04
09
FB
F5
FC
E8
15
EA
27
FE
FF
EE
26
08
18
08
27
F8
08
03
0B
E2
32
EB
09
FF
FD
01
0B
08
DC
1D
F2
EF
D7
02
FE
CA
DE
E7
1F
00
0C
DE
05
D3
F8
DE
FE
07
FF
01
0F
EA
FF
09
02
E8
DE
0C
E7
07
EB
13
10
05
F2
F3
F7
18
F5
0E
EA
F5
0F
FE
EB
29
EA
F0
42
08
F0
1E
F7
20
03
05
18
2C
1B
30
08
FA
19
EF
36
25
FD
16
13
0A
D7
FC
08
18
1C
F1
F5
E2
1D
EB
10
FF
F3
E5
0E
14
1B
08
2D
0F
EA
E0
FD
E9
0C
F2
21
F3
13
1D
F5
FA
F3
22
20
07
03
E8
14
FA
16
E3
ED
EE
23
38
1E
ED
0F
07
13
11
08
F3
1D
EB
26
FE
DC
1B
FA
EE
F9
0B
F4
22
F5
06
F4
DE
1E
0B
0C
16
15
00
0C
04
1B
0B
12
17
01
1D
09
03
EB
EA
0E
05
E9
DC
00
DB
01
EC
08
E4
FA
00
09
0C
08
F2
02
37
E9
04
12
FC
2F
14
0D
F9
0E
1D
0D
F6
07
F7
25
FF
F0
0A
F3
EF
EB
F9
F7
00
2F
0F
EF
EF
0D
04
DF
14
00
15
01
1E
02
E5
09
0E
01
F6
0A
33
F4
79
0D
1E
D8
F7
06
EA
EF
0F
14
CF
E5
04
F8
14
00
F8
08
F1
F9
FE
09
EC
DE
DE
F8
0A
08
E4
E9
FA
08
02
1C
F9
EB
FF
DA
FE
19
F2
06
0A
F8
18
15
D2
F6
22
FC
03
1E
F4
08
C2
F7
11
FD
DE
F1
16
32
1C
E7
F6
14
05
15
E4
0E
F6
EF
F1
05
F6
FB
F3
EA
E1
07
F4
09
F9
DE
F3
E6
EA
F5
11
05
F6
F5
F3
29
F2
1E
08
E4
E3
BF
F1
05
FF
EC
E7
00
FA
0F
E4
F4
23
0A
44
E7
D9
05
0E
0F
1F
16
E7
E3
1D
FE
06
16
EB
0E
CE
0B
E6
0E
E5
F3
E3
F8
D2
FD
E1
11
F8
DA
1E
08
24
1B
13
33
03
FB
DA
F2
E9
FC
E4
0C
05
F7
C9
F4
38
D1
14
04
07
0D
F9
0D
FD
04
ED
10
F5
08
1E
E2
FF
38
E7
F4
FC
FC
FF
00
19
E9
FE
F9
D9
EA
1B
E3
E8
D2
E8
1C
F7
F5
EA
F3
D6
EE
E0
F1
06
13
EF
F9
EC
E0
17
1F
1B
1B
09
14
06
E1
0E
CC
FF
DE
EF
DB
F3
F5
E8
14
13
18
11
17
20
E7
1A
09
E0
11
E6
FB
FB
00
F4
FF
EF
EC
F1
0B
1B
F8
F3
EE
E1
FB
12
16
FE
00
F9
23
F3
F4
08
13
E2
EE
04
09
0A
08
F9
11
D7
24
07
F2
13
2F
08
E4
05
DC
00
CC
10
DC
FB
29
02
0D
E4
F7
E7
F5
1C
ED
ED
1C
3C
14
13
F6
2A
EF
EF
F2
06
0E
11
01
1E
F0
E2
18
FC
0F
0F
F9
30
E5
E1
ED
2B
0C
E5
2F
17
04
06
1C
09
0C
22
EC
FC
F1
DD
E8
EE
2A
04
01
E4
F4
C8
0B
07
16
00
13
0B
F1
F6
C9
19
0B
FC
0E
1D
0C
F9
08
DF
D3
0F
F6
E4
FA
E5
FC
CC
F9
1A
05
EE
F6
1F
04
F8
E5
06
DF
16
00
D4
F5
EF
14
0E
FE
29
08
F0
FC
01
00
E9
F2
0B
0F
03
F7
FF
2D
FF
0F
F5
F9
FE
0D
1D
0C
F2
19
3E
F8
F7
18
FF
FA
2F
DD
D7
1C
0D
12
FE
26
09
14
05
EA
10
FA
E0
F8
F1
FE
2F
0E
0D
F0
C5
1E
0D
F2
0A
20
F8
34
EE
EF
EF
E2
27
FF
00
FE
F7
05
D4
0E
EE
07
06
18
05
F2
FF
05
00
11
F0
2A
12
29
F4
FE
E8
FF
E6
01
F4
E7
DA
0A
0C
FD
F8
F9
F5
03
F6
09
0A
FD
13
D0
0C
0B
06
0C
22
0A
F4
2B
D4
11
15
06
D2
05
CA
35
F7
F0
E3
CF
F3
21
EF
1C
09
E8
19
E9
FE
EA
FE
10
24
15
E0
20
23
03
11
F5
E1
CC
06
CA
F1
14
F1
06
01
F0
FA
16
0F
DD
11
C1
E8
F3
0A
06
DE
D7
D5
22
2F
ED
E2
FB
02
EE
23
EF
FD
EC
F4
EF
06
0B
01
15
F4
08
1C
E4
0D
E4
F1
1D
CA
14
01
D9
04
13
06
04
02
F0
EC
04
11
D1
1B
0B
1F
25
E5
14
F3
F1
F9
FD
02
07
E1
00
E0
15
07
E7
06
EB
04
0C
11
0E
00
C8
F6
12
EE
E2
C7
F3
FD
EA
E0
06
EC
E2
15
01
10
0C
EE
EB
F2
FB
F4
F8
28
DE
00
0A
2F
E2
EF
06
0C
FB
01
20
F5
F8
FA
F9
0E
FA
15
F3
FB
27
19
01
D0
F9
1F
09
02
12
EC
28
D5
D5
F3
EF
E7
19
FE
0C
01
23
16
21
EE
1D
16
E3
F0
11
1C
18
EC
25
22
22
FA
05
DC
E6
07
2B
CE
13
ED
EB
0F
E7
29
10
0F
01
20
F6
1C
0E
CE
1F
24
0D
17
14
DE
50
30
06
1C
14
EE
05
EA
03
1E
23
0F
E7
14
FA
E3
E4
05
14
F4
ED
DD
1A
22
CC
18
45
F2
EF
F7
12
F3
FE
19
F9
18
FF
FB
04
F0
1F
0C
28
FC
09
EC
FF
FE
E3
0E
F9
1D
EB
03
12
00
F3
F6
F7
E6
FA
F9
D0
FD
F8
F1
00
F9
F2
D6
15
FE
29
10
DA
F2
EF
FB
FF
07
ED
08
03
E2
00
F2
FC
E0
08
F5
05
06
F9
06
11
EE
3D
EB
32
09
04
1A
DE
0E
04
F2
02
F5
2E
06
F1
F0
1D
1C
12
F4
EE
FC
07
F0
F6
0B
F9
13
06
D3
0E
08
1B
F7
13
14
FD
0D
B9
E0
18
15
ED
06
F7
F0
23
E1
FF
F1
20
EB
EB
0A
0E
12
14
FF
CC
21
01
F9
08
D1
F5
11
0C
10
02
D4
1C
D6
F6
08
08
10
EE
F3
09
EA
FD
F0
FD
FC
F5
19
08
1F
2E
EC
07
F3
0A
08
C5
17
E8
FA
02
FA
EC
EC
08
EC
14
EE
FE
01
34
ED
E2
24
29
09
F8
D3
F1
DA
FD
E5
F8
16
F7
14
F6
FD
F6
F4
2A
15
01
F9
F8
3F
E5
07
03
10
03
00
03
E4
1D
EF
F2
0C
07
EB
E9
25
D5
FF
E8
0E
EC
07
FF
FD
0B
1C
EB
CB
18
F3
EA
04
FC
EE
00
FC
EE
FF
0B
23
F5
E1
DF
FE
F5
EB
CE
03
C3
E6
1B
E3
00
E9
FC
F3
19
F6
F6
E2
FB
0B
0C
07
F4
1C
FF
F9
E7
E5
EB
14
F2
01
32
28
04
ED
01
07
F6
07
00
FC
EF
FA
00
15
F2
06
0C
EB
EA
EA
FF
05
0F
EF
F7
D7
1F
FE
08
09
FA
E8
EA
E8
E7
F4
1E
F8
FC
F2
DF
26
E8
12
F6
01
F1
16
0D
11
15
1F
0C
D7
FE
B2
0C
E3
DB
11
08
FA
FD
DA
FE
06
FE
FB
0A
FE
0D
27
0B
E5
E9
02
22
21
09
FE
09
0A
02
D8
F3
E1
FF
28
01
DF
FE
27
FA
FB
F9
06
16
24
34
16
F5
E1
25
DC
F5
E7
03
F0
F3
0B
E9
07
13
13
F6
08
1D
36
ED
0D
06
E4
01
0B
E4
0E
E8
F4
F5
08
CE
FC
13
FD
E2
13
C3
17
02
09
F7
03
D3
FB
E6
F3
09
17
F5
EC
08
E6
FF
ED
01
0B
FC
16
0E
14
D4
F0
D0
03
F4
FF
D2
0D
25
E5
01
16
0C
22
09
36
E7
2A
E6
EE
F4
DE
21
07
DF
DB
F5
0B
FE
D3
02
FD
FB
D6
1B
EF
D1
15
03
0A
CB
05
F4
E5
00
F0
03
12
FB
F6
DB
F8
E5
09
1F
06
11
EC
F1
0D
06
E4
14
F9
F2
E3
0A
20
05
DC
F0
F3
EE
E4
08
09
E7
1B
DD
E0
FB
FF
E7
14
EA
00
17
FB
F4
0E
0E
01
0B
F4
F9
DB
01
E9
1B
0A
F9
16
FF
EF
16
0B
FD
11
37
08
13
D8
F0
0F
EF
EE
EE
13
25
00
02
15
FB
E6
F4
01
C5
EC
14
FA
10
0B
08
FC
FD
FB
05
10
24
FF
F2
F6
F5
0D
31
00
01
15
FE
F1
F9
0D
0B
0D
F4
DC
F2
12
E0
07
E4
F4
07
0B
F3
15
BF
0B
0B
13
10
0C
FA
02
FE
16
11
23
16
00
E5
0B
14
E2
21
FF
06
C8
FF
CC
D5
11
0C
09
08
ED
09
E6
E8
15
0E
EB
E4
12
0C
FB
FB
0B
E6
14
FA
E8
07
FD
16
04
F2
EB
02
14
25
02
D8
25
14
20
13
EB
F5
F2
01
02
F0
F5
19
F4
E4
12
D4
16
16
22
2D
E3
06
E9
F4
FA
E2
DE
0C
03
01
02
FB
F9
13
0C
F3
2F
DF
16
EF
F9
F7
16
2C
0E
E5
09
FD
25
06
F5
2B
F4
FB
EF
F9
ED
F2
FF
E8
FD
FA
F7
EC
12
FD
E2
FF
11
06
13
0B
17
15
06
FA
E7
F3
29
F6
01
FC
E4
0C
E2
04
04
08
09
15
DA
13
FF
01
F7
F0
24
09
F8
F1
F9
E0
15
ED
D3
E3
FA
E0
F7
0C
00
FE
CF
03
E9
07
0C
E9
F0
F4
E6
28
F6
01
ED
11
FB
F4
EA
08
ED
F8
0A
0A
08
E5
F5
F7
1A
15
11
F5
01
FB
00
F0
0D
FC
0E
FB
01
1B
0A
EF
08
FF
FE
2A
F0
F2
17
09
F2
EF
F2
F7
0C
03
03
07
E8
00
06
1C
03
FA
F4
E9
18
0C
F8
07
1B
F2
EA
0E
0E
F5
10
04
EB
F8
F1
0D
03
11
20
FB
0F
10
09
04
07
FC
11
E6
E2
F8
0F
E5
F4
02
07
1E
FA
E2
05
FF
ED
F5
E2
04
DD
22
15
FE
F2
D8
FA
F6
15
00
E7
04
14
DA
F7
0A
E4
F7
18
07
1A
19
04
ED
F3
21
0B
F9
01
AE
EE
14
1D
F9
07
FC
0C
F6
17
E3
17
18
FF
E2
F0
06
1D
ED
06
F5
F7
F5
F6
DE
0A
F6
F3
CE
FE
0E
05
23
18
27
FF
E4
FA
51
F9
FD
EE
FC
25
02
0E
0D
15
2D
1C
E6
01
F9
0B
00
08
EB
21
1E
0B
22
03
12
ED
04
E0
FF
12
09
EC
09
07
FC
E9
D4
FF
0E
2F
F5
FF
F0
16
FA
09
F9
08
0A
0C
29
05
08
33
02
D7
B3
F8
C3
DE
15
F1
FA
20
D5
B4
10
00
09
DB
13
F6
09
02
1E
17
05
FF
25
F5
C9
C6
30
D0
40
F7
1E
F2
11
F2
1E
EF
CE
E0
F5
D1
FB
FF
F6
0D
0B
F1
DE
DD
0C
F9
19
FA
F4
25
F7
21
17
E9
D3
03
22
FF
08
16
20
EC
1F
F5
06
C6
EC
0C
0C
FF
16
01
F8
20
00
04
45
E6
F3
09
03
0C
F4
19
E2
0B
F8
2D
16
14
03
E7
FD
FA
34
E2
EB
05
01
F6
14
01
27
FC
CB
E4
06
03
17
EF
F1
26
0B
17
10
F8
2A
07
02
0A
01
29
F0
13
0E
07
F0
0B
0B
FA
29
0F
06
F1
29
EF
01
DD
06
C4
EA
07
08
05
0D
F7
DF
22
17
F1
FB
DF
F6
F2
F6
FE
05
F0
E1
F0
D8
03
08
03
FC
F0
18
11
F2
FE
02
FE
1F
F0
0D
20
FC
09
2E
FF
E8
08
E9
06
E6
FC
E3
DD
F9
E8
F2
C7
0F
E0
DD
00
03
F6
0D
F6
13
FE
E8
21
F5
F0
0C
0D
ED
E6
F5
F8
22
EA
DB
0B
26
EF
BB
1C
F1
14
07
19
04
17
07
0B
F1
E9
07
32
13
09
F5
EF
ED
EB
F6
02
0A
DE
10
DF
2E
FC
E9
E5
F6
DF
EC
10
E8
05
CE
E0
18
D9
09
EB
1C
DF
FE
39
03
17
05
05
E2
F7
FD
0E
E6
30
11
C8
0D
E8
1D
E4
00
E1
14
E5
F8
EF
02
1D
01
1B
DB
10
D0
09
1F
03
FB
D2
BF
05
23
E5
FA
F7
17
06
FB
E7
01
0F
C7
E0
06
F3
ED
22
00
E3
13
15
11
E4
FA
0A
1E
31
06
0D
15
E6
F6
04
F4
01
0F
17
01
14
1B
0A
FF
F9
D5
0F
D3
EF
FF
01
2B
D2
05
FA
0C
20
01
F5
33
E7
07
FF
F1
12
D4
1C
03
08
ED
12
FF
D2
FA
F8
02
FF
10
29
F6
0C
FC
F9
EF
12
E6
F2
08
00
00
EF
0C
DB
ED
E2
02
0A
2E
C5
27
BA
03
D8
13
FE
E2
13
F8
1B
FD
E4
0D
09
D4
E5
E1
BC
DE
C4
26
13
1A
25
1E
E3
F9
F1
E8
D1
F2
11
DC
24
25
1D
D9
2E
17
FF
EA
E8
D2
F2
E7
10
0E
11
3E
10
0F
F1
09
F2
0D
0E
F2
08
F8
FC
FC
0A
F1
F3
DC
FF
0B
01
F5
05
FB
E3
00
0C
02
0E
FE
F5
05
F4
E8
E8
E9
F0
11
D3
16
13
28
06
1B
11
E7
04
21
DC
ED
F6
F6
ED
FC
18
06
FF
16
F4
F4
3C
1F
1A
32
ED
06
E7
D6
28
ED
FA
0B
F2
1C
0D
08
D1
E6
0C
37
E9
E9
EE
1B
DE
12
0B
16
10
10
F7
13
E9
ED
13
FB
17
05
3B
FA
06
10
E4
1D
18
11
FB
1A
C3
0E
0E
24
E4
1F
EE
1A
25
F6
17
E9
05
E4
FC
12
0C
20
03
1A
EC
D3
C6
1A
E5
1F
EB
F5
DA
0A
0B
3F
1E
22
1F
1B
F9
0F
E9
2A
EB
30
15
FC
F3
0F
0D
E2
0E
1E
02
25
DB
E2
05
24
09
DB
F9
05
EB
18
DE
13
08
F0
14
F7
09
EC
E4
25
15
F3
0C
FA
DF
28
18
00
1C
FD
05
E7
EE
FA
0B
29
F4
18
F0
F2
04
12
F2
2C
F1
DE
12
1C
03
05
0C
09
20
05
EE
F6
E8
D5
12
FF
DF
FD
22
0C
FA
EC
0A
E3
FB
E8
E9
D4
12
1A
12
0F
0A
09
0A
28
EF
0A
EF
C5
11
F4
0A
10
FC
EE
07
EE
24
EA
11
FF
13
F9
E7
D0
20
18
03
FE
02
0D
F5
07
06
D7
10
EB
EA
F0
F8
00
E8
F7
0C
FA
12
18
E2
25
11
0E
03
FF
FF
EF
EC
F6
E9
1E
04
FF
E3
DF
04
1F
1B
FD
F4
0F
F0
DE
F2
F2
F5
ED
FB
15
22
FC
23
0C
E7
EF
E8
1D
0B
0C
E4
1C
D9
01
ED
D9
FC
02
0B
F8
09
FD
E4
3B
01
F9
14
36
0C
11
F2
16
FD
25
04
05
0D
FE
F5
F4
01
05
00
FF
F6
0B
DF
08
1A
25
EE
13
EC
07
FD
FA
F8
F3
10
04
CC
E7
04
11
05
20
05
03
F7
F0
23
08
04
F6
24
12
E4
FD
0C
08
FB
11
0B
F6
0D
09
1A
17
FF
16
1B
F7
F8
00
F2
EB
F8
09
FE
F3
14
01
04
FE
03
EF
20
2C
FD
F8
0C
12
FB
0C
10
F6
F3
F5
E4
07
CE
F9
14
E0
FC
12
E8
F4
10
D9
FC
1F
EB
F7
ED
08
0A
F9
DD
F6
0B
03
12
CD
09
24
10
0D
EB
EE
0C
FA
16
10
FF
F9
05
F2
0C
0E
0F
EA
FC
F9
07
0F
F5
F7
11
12
06
0B
E2
14
F0
C5
1A
00
08
ED
FC
F5
01
07
08
F2
F7
FC
FE
EF
F9
26
EE
0D
FE
FD
17
17
03
25
FF
18
EC
06
04
00
D1
F6
08
F1
0C
2D
F6
13
F7
FE
26
17
DB
1D
F2
E5
0A
F7
FF
DA
FA
0C
09
05
14
08
FB
F6
FF
25
06
13
F7
15
F0
0A
E0
1D
06
F4
F3
F8
02
EC
E2
00
F5
F1
FF
F5
F9
09
0C
04
EB
26
F4
F7
18
05
04
E8
18
E6
14
F1
F0
15
10
0D
14
0E
FC
0D
E4
35
F5
14
10
00
03
31
FC
FB
04
FE
0A
09
F0
1E
16
01
F5
F0
F2
04
08
08
E9
E8
F6
20
F8
F3
1B
FE
FC
1C
E7
25
13
07
18
1C
E1
1C
10
FA
F8
12
F0
F5
FA
FF
1A
F4
E7
02
FD
FD
F4
00
0D
1D
E9
F4
D8
14
F0
FD
0C
02
F7
02
E1
FD
02
05
0C
F1
04
E4
EB
FB
03
00
FA
67
F7
CA
DC
F8
16
09
07
09
EA
00
0F
F8
09
02
F8
08
F5
E7
F4
E9
EB
10
E6
07
ED
10
36
E4
EF
E5
1E
F3
E5
05
19
EA
CF
1C
F0
FB
F6
E8
00
C2
03
00
0C
00
F1
E5
F3
01
F5
0D
F0
40
F0
F1
07
F1
00
04
F1
F3
06
E9
0C
EF
F9
F9
13
EA
F0
F7
0B
0E
FA
F7
F9
F9
2C
FC
E5
05
FD
08
0C
F3
3A
0D
1C
1D
19
E9
2C
06
01
D4
08
11
20
10
E7
0B
EB
1E
16
EF
01
E8
16
EB
1F
14
FD
13
E3
0E
1B
02
03
24
FF
1E
FB
DE
12
08
EE
17
F8
00
08
F0
EB
0D
28
0B
FC
01
17
13
D4
04
01
15
0A
05
07
17
0A
14
06
08
15
FE
F5
16
08
14
12
18
E7
08
F9
10
0C
09
1C
D9
05
0A
F6
F2
D2
05
04
F3
FE
01
16
F9
E3
F2
0C
38
FD
15
EE
FC
0E
11
F5
30
06
F4
EE
04
E0
15
ED
F8
EF
19
07
19
19
0D
F1
13
EA
E8
D2
EF
D8
0C
0C
F5
ED
FC
00
ED
1A
EA
C3
FB
02
E2
EB
18
F1
2D
E8
FD
FE
07
E9
0E
E9
F6
09
0B
06
0F
CA
FA
13
23
0E
F4
EC
15
12
11
F5
0E
11
FD
F8
E1
FE
0A
09
F7
E8
F6
F1
0C
F4
F8
FF
E7
2C
19
22
FD
F6
1B
E9
18
1B
02
0F
04
FE
EE
F8
F6
08
EE
00
0C
08
0E
F3
FB
FD
07
0A
05
FE
CA
17
E0
FC
EC
08
1F
14
F8
FF
F7
DC
1B
E3
02
0A
30
E6
F4
F4
04
E9
06
D6
1B
00
F6
FF
FF
03
EF
0F
03
F3
10
07
FF
00
ED
E2
00
F3
FC
13
00
F5
1B
01
DB
F5
18
01
0D
1D
F7
FA
0A
E3
E7
FF
F1
EB
28
01
09
08
F0
04
CD
EE
01
FE
18
0A
0B
1D
02
E9
03
00
11
DE
0A
F9
0E
12
D7
F5
0D
0F
0B
FA
31
D1
ED
F8
FA
03
FD
F1
FE
F7
F4
17
00
F2
0D
F5
15
FE
02
03
23
DA
F9
FC
F4
FB
14
E8
09
0D
29
10
13
F7
EE
1B
F7
FC
06
FD
0C
E2
FF
FA
13
0B
EB
02
E6
F0
04
04
F0
1F
17
05
D5
F3
FA
16
19
1C
05
13
F5
F1
2C
F1
F6
06
E7
02
F3
F3
FB
FB
18
EC
28
F2
EA
F4
0B
12
0A
F0
FC
08
FB
F4
04
F6
10
0C
F8
FE
01
D6
12
E9
0A
F6
0D
08
FE
03
ED
0F
10
F9
1E
F3
EB
0E
13
F5
DF
FA
ED
FA
01
0B
24
10
04
02
03
F2
01
1A
07
F2
0F
E1
03
EF
E4
1C
F4
FF
04
1F
E3
F4
08
24
03
CF
FA
EF
0D
39
F9
E8
EB
E9
FA
F5
06
02
E2
17
38
F8
FA
EA
2D
0B
1B
11
F9
FF
1A
09
F1
F9
00
F0
FE
FE
1E
0A
03
F3
BD
E5
F7
0D
FC
FB
F6
2E
D0
00
22
07
E9
0F
F6
1C
05
FD
FB
14
13
1F
0D
DF
D3
E4
08
F8
E9
FC
05
FF
22
0C
DD
0C
06
F3
0D
D9
E7
07
03
EB
06
DC
31
E3
10
E0
F5
F3
C2
0E
F5
CC
E7
D9
08
F2
FB
EE
C5
08
01
EB
D9
F9
08
E7
F4
E9
FD
01
2E
20
06
FC
D3
D3
16
ED
0C
13
F6
F3
EF
26
03
56
0B
0A
16
14
08
D9
D6
F5
0C
EF
E6
EE
FD
06
F0
05
F7
FD
A3
17
1E
06
FB
CD
AC
04
06
01
07
00
F6
26
03
F0
1F
1F
12
27
19
FC
FB
E1
0A
F8
14
EC
3E
15
EF
1E
18
01
0E
E6
EA
F5
FE
FA
FD
0C
31
01
E2
F9
FA
02
E8
EA
EA
EE
EE
E7
DA
FC
F8
E6
02
F9
F4
18
0A
EB
FC
04
23
FA
EB
08
E2
E0
15
F0
E0
F0
0A
E3
F8
16
F1
F6
ED
F6
F6
1C
E5
E6
05
D6
1A
2A
BB
FD
24
F3
1A
F6
02
04
22
D1
F0
EF
03
0D
01
1F
E8
F3
27
E4
CE
19
30
E4
0F
E4
26
25
11
30
10
C6
EF
02
F0
F9
02
E1
FB
E5
00
F0
FB
06
EE
F4
F8
27
FF
F1
E3
FF
19
E3
07
0E
F1
03
DB
1A
14
10
F7
09
FC
09
EC
F4
E4
10
18
D6
FE
E4
0F
0E
FB
0C
E7
07
02
8B
06
34
07
FF
F6
05
FB
E6
FC
2A
1D
D8
F8
E0
F5
09
03
1E
2C
D5
25
FD
14
0F
30
E3
F5
F2
03
10
03
0D
F7
F1
FA
DC
0B
DD
13
0C
05
0A
D3
1F
15
0E
F8
F9
D0
1A
00
E4
E3
2A
1A
1B
E6
D9
09
03
F9
0B
3C
E8
0D
F0
04
EC
09
12
1D
F5
07
F5
C9
11
14
03
F6
EC
1E
2B
E8
FF
0E
0C
11
02
F3
11
FB
E9
FC
35
2E
54
F0
DD
FB
F1
02
EE
0E
22
F0
13
15
D0
22
EE
1F
30
E4
F8
1F
EE
49
4C
01
FC
E1
F2
21
FE
30
F4
01
04
0F
15
10
0C
04
05
52
1D
DA
F8
FE
F3
01
E5
BB
CA
17
1F
FE
12
04
1B
04
F8
D1
FD
27
FF
09
DA
E7
E3
EF
01
ED
0F
0C
EA
F5
D6
F1
10
22
FC
FF
F5
0A
FC
01
EA
F2
07
18
06
F5
3B
F5
F7
1B
E3
F4
F6
F9
D5
0B
DB
0B
14
08
FE
EF
00
DD
3A
F4
0D
F3
E3
F3
F2
FD
21
DE
C1
05
03
0A
0A
0C
E0
14
E8
06
0B
0B
F4
04
D6
CE
F5
FD
0B
1C
06
E6
ED
E2
EF
DC
EF
FA
00
06
E3
15
E3
FB
E9
FE
05
24
EC
F3
15
0F
F3
0F
1E
F3
03
F8
04
09
0C
F7
EB
0F
E8
0F
01
0C
FE
E9
EA
15
10
FF
EA
0E
F5
E5
DB
EC
0F
05
17
00
FC
05
B8
F7
04
1B
17
25
04
E4
FD
EE
0A
FE
E6
05
E7
F5
0B
09
0E
D3
14
12
FE
D0
15
CA
EE
12
FD
0B
EF
EE
F4
C9
E9
0C
1C
08
08
FA
F2
E3
CF
16
FD
EB
F8
1A
FC
EF
F1
12
02
F5
1E
E5
F4
F2
F0
08
EF
34
F4
F9
FD
E6
E7
04
E9
01
FB
E3
EF
E5
01
07
E0
0E
F5
F8
00
17
FB
06
0D
E4
09
04
0E
00
FF
FF
03
FF
24
FD
FD
E1
01
FF
06
10
FE
F5
04
13
C2
0C
0F
E0
F7
28
2D
11
FE
12
0A
16
10
F0
EF
D7
11
D0
F0
08
F9
01
14
F6
13
0D
00
03
12
04
E5
11
DC
F4
EC
F0
D8
ED
06
26
E9
0C
F8
F1
0E
1F
E8
F8
15
ED
FC
00
0D
0D
C5
F7
12
22
CF
09
13
02
01
29
F5
F2
17
F8
D6
06
14
E9
DF
FB
EF
09
F9
09
FC
FA
E5
0E
F9
02
E9
DB
10
F3
FB
DB
E8
F4
EE
E2
DA
F8
06
21
F7
E5
24
0E
F8
0F
00
22
F9
22
E6
18
00
25
EC
0B
EB
06
15
12
1B
EE
F9
F4
F0
EB
F0
0F
29
16
E8
29
DE
09
FC
0E
F1
E6
ED
15
02
FB
21
FB
0A
F6
FE
D0
20
E2
C8
E8
E5
19
FD
15
03
E5
FD
E9
EF
E5
FA
21
C6
10
F2
F6
21
18
F9
FF
1A
FB
DD
F0
FC
FB
EC
00
FE
FE
07
12
EE
1D
0E
38
06
08
E4
03
E7
15
E4
0C
07
18
E9
06
EB
F7
F5
09
FE
F4
0F
2E
06
E9
0B
E3
00
12
E5
F9
12
02
09
04
EC
F7
FB
F7
11
21
EC
05
FE
39
1D
E5
16
13
19
01
FC
FC
00
0B
E8
56
10
0B
00
06
FA
05
F0
14
E9
FD
ED
0B
09
EB
06
2B
0F
06
EB
25
02
F4
F9
F2
02
06
CA
07
07
15
0E
0E
E6
F8
D8
A9
0D
09
FF
E7
2B
00
0C
F6
12
F7
D6
F8
CF
E8
10
2A
F9
E4
12
12
1A
0D
0F
2A
1B
FA
0E
FC
0B
E9
EF
E9
E3
F7
E4
15
E7
19
EB
F2
EE
F4
F3
03
DB
19
FF
E6
E7
00
0D
03
0E
FF
C4
37
FB
C7
3F
0A
26
05
24
02
D2
3B
29
00
27
13
0E
1C
23
04
F7
F5
E9
08
FB
2A
FA
E4
11
11
E9
1C
F1
27
0B
FD
20
38
06
11
0E
EE
01
F2
00
00
25
11
EB
EE
F8
00
E0
E5
EB
30
F3
EF
17
00
EC
F2
06
EE
38
03
FB
00
0F
D1
32
21
ED
FA
FD
15
E4
0F
EB
09
F9
D9
01
16
0A
E3
E3
0B
1C
06
EA
FF
F7
FC
03
0F
09
BF
E2
01
EC
FB
28
03
13
E8
F7
28
E2
07
C9
12
F7
31
F4
11
FF
0D
08
04
09
07
FA
EB
0A
FA
21
C6
F7
EC
F4
F0
F1
E2
D8
42
05
1B
0C
E4
F8
0E
21
0C
FC
05
0C
FF
DE
1E
31
FA
03
0D
E6
06
18
0C
12
F0
03
EF
1A
06
0F
05
15
04
ED
DD
EB
F6
14
0E
11
0E
F2
07
03
F7
EC
F4
0C
F2
0E
1A
07
01
E3
0F
E5
FC
01
F4
F6
21
0F
11
06
DF
F2
FC
0D
15
0E
0E
0B
09
14
06
00
03
07
F8
10
16
D4
1C
E9
E5
05
F3
12
05
F5
F1
08
F2
01
1F
19
12
FA
1D
0E
E0
F6
E9
F9
08
FB
E5
09
F6
1C
F4
10
00
EA
1E
FB
F0
EF
E5
E3
FB
02
04
0F
FC
EE
E2
FE
F1
F8
1A
FF
FD
FC
14
0C
1C
19
31
EE
EA
D3
04
0A
10
B7
E1
EF
D1
F1
F0
E0
1B
FF
1A
0A
02
FA
03
F6
F4
1C
FE
F3
FE
0C
16
09
0F
1C
EE
15
03
04
FA
F3
E6
0F
02
00
10
18
08
1E
07
F6
01
15
FF
08
13
19
DF
21
F2
17
1B
EA
0B
0E
D7
EA
F2
F9
23
EF
FD
40
F8
EA
F1
1D
FC
21
FF
F0
0F
04
E8
0A
F9
F5
E4
22
D5
24
1C
06
E0
E6
14
07
E9
0F
27
EA
1E
F4
F1
F2
FA
FF
0B
ED
10
EE
FB
F8
12
E5
E1
F3
F1
1D
13
0F
0E
18
30
B1
EA
11
1D
04
1D
F9
31
EF
ED
F1
09
20
27
0C
EA
0C
0F
03
22
E5
D3
00
D4
2E
10
F6
19
14
02
ED
F8
F6
F9
F4
07
EB
2F
25
0A
14
2A
16
03
28
12
0B
ED
11
F7
06
F6
EA
24
F1
04
FA
0D
18
F7
0D
F1
E4
2B
FE
19
05
0D
F8
F5
FF
FE
F3
ED
F0
F5
FA
CE
F7
02
07
E1
3B
FC
32
2F
EE
E6
FE
E4
02
10
EE
05
35
1E
06
F9
F4
F8
0C
FB
E4
F5
18
F3
17
05
24
0B
E3
0F
03
05
3A
1F
DD
2E
0B
12
F3
04
07
11
EF
03
1B
08
1F
0F
27
00
02
0A
0A
0D
F6
31
0D
E0
F9
FD
F5
06
09
2D
F7
14
22
E3
F4
0A
24
F7
13
E9
F5
F8
D6
08
17
EA
F7
E1
DD
FF
DA
EA
DF
F7
1D
D0
11
1F
0A
FA
EA
0A
14
E0
11
2C
FA
07
F3
0B
EF
F3
E1
00
F0
E4
F3
08
EA
15
E9
E8
E8
FE
1A
1C
27
0F
D5
12
ED
01
E3
D8
18
05
02
EF
10
1F
F8
04
F4
EB
07
0E
F4
EC
3A
13
09
F6
FA
02
DF
06
03
09
06
C8
E4
1A
03
19
12
F5
24
DA
F8
19
11
4D
2B
04
0E
02
FF
0F
F2
12
F8
11
03
EF
0D
ED
E8
EF
F9
04
15
F3
13
E6
20
E6
1D
F7
0A
04
29
0B
16
03
F2
F4
E6
BD
09
0E
E3
09
FB
F3
F2
E7
E0
EA
06
EC
F2
FB
EE
E6
12
E1
25
E5
07
D4
1E
11
CC
B8
FB
16
EF
DE
0D
09
E0
34
D9
F0
F4
E5
07
05
11
FE
03
F1
0D
E5
F8
19
02
1D
F4
28
02
0A
1A
EE
04
08
F3
16
FB
18
12
D6
F7
E2
F3
FC
1B
11
15
F3
F0
F4
E6
01
E6
30
FE
D3
0B
EF
E1
15
10
F2
02
E1
FD
ED
DE
D5
12
E7
3D
FF
10
F0
ED
FD
15
1B
F3
1F
07
EB
E0
E1
29
FF
CE
E5
0B
E7
F4
F9
F1
15
DF
FA
06
E9
E9
22
F0
EB
00
24
12
09
05
D1
01
FD
DC
EF
0A
FA
F4
0D
D5
EF
22
F3
EA
01
1A
0F
F6
03
F9
FF
00
0F
EB
17
0A
17
F2
10
DC
2C
E1
0C
C5
E1
00
16
1A
E1
DC
0E
04
30
F1
00
FF
27
08
F5
0B
DF
2D
F5
FD
29
CA
F7
0C
F7
17
12
DE
FC
DF
09
06
27
F7
02
E5
F5
FC
DF
29
10
12
E2
11
DF
F3
18
E6
16
10
35
EC
DE
05
F9
F5
E2
1B
1C
F8
34
D8
F8
02
1E
05
0A
ED
0C
03
2F
0D
FF
0C
F3
0D
ED
1C
05
23
09
13
F7
02
0D
15
01
F7
E1
18
17
F8
FA
32
07
E9
1C
E8
20
12
04
D7
EE
FB
F3
F1
E4
E4
22
D5
EF
07
1C
F3
FB
05
18
F7
F3
0B
10
0D
F8
E5
0D
DC
E7
05
F1
FD
FE
1A
F6
26
05
E9
12
F4
0B
EF
06
FD
0F
F3
CD
14
F5
E5
ED
0E
0C
F7
FA
F5
DC
F2
EB
FC
F0
11
1B
DF
F5
EE
F5
FF
14
F7
10
03
FA
F5
EB
04
F8
0C
18
F6
EE
F4
EC
07
FA
FA
CC
E8
D6
E8
0B
0C
FD
E7
02
DD
FD
CF
07
13
0D
00
FC
E4
F3
06
E5
13
EA
E1
D3
0C
D3
01
06
F3
23
EE
0D
EB
0B
FD
F5
02
07
EA
22
04
FE
02
FE
CC
14
F2
E0
FD
02
22
05
05
E8
FB
F9
0B
F2
0A
16
0C
F8
1E
D4
E5
E5
04
F2
E3
FE
04
DE
F2
F0
1B
39
FA
FA
F0
08
01
E0
F8
F8
1D
23
11
CA
FB
F0
02
21
F5
3A
F9
29
0C
36
F5
21
02
08
02
F2
05
13
EC
E1
1E
E1
DD
1E
2B
08
FA
12
11
27
DD
0A
08
08
ED
F1
DC
06
25
03
10
DF
04
3B
F3
0F
0E
12
2E
FE
0B
EB
F7
E2
23
F2
D6
EA
EC
DE
1B
38
E5
EF
02
16
0A
E8
12
00
01
FA
0E
D9
0E
05
0B
F9
F6
0D
E2
0E
05
F0
F8
F2
F9
FC
E5
19
03
11
EB
F1
0A
F9
FA
25
DA
ED
EA
29
FA
F7
EE
EE
06
E0
E5
1B
F8
01
E9
0E
03
E4
00
C6
DA
15
E7
12
25
C2
13
07
DB
E2
F8
CF
0C
23
EF
F0
E4
F8
04
13
00
0A
23
F7
09
FD
D6
08
D7
33
ED
06
DF
E7
20
00
05
FB
E6
FF
27
F5
18
27
0B
E8
06
ED
F4
F1
1A
F7
D0
F5
EB
0E
2E
15
0C
EA
11
C7
DA
32
18
2E
EE
F5
1F
32
F1
14
01
ED
26
D6
D6
FF
24
FE
ED
EB
15
E8
E6
05
E4
1D
0E
02
09
05
0A
F4
05
0F
05
0A
17
D5
32
F0
F8
11
EA
FA
F0
11
F8
1A
0B
B5
13
09
FE
D5
FC
02
F1
23
D2
21
01
FD
03
05
ED
08
ED
10
DE
18
1F
1D
F9
0F
FC
F6
F7
17
F4
F0
F8
DC
07
F9
DB
03
0A
FD
E1
02
35
25
1A
07
FC
E6
EE
16
20
E4
F1
F7
16
00
F7
22
10
04
02
DF
F2
FF
E8
20
14
E4
06
F5
F5
03
04
FD
02
11
ED
F5
E8
06
DB
EB
08
F9
F3
DE
F2
F2
E2
10
10
F7
08
07
EB
04
F8
03
FC
EF
F7
DF
09
FC
F8
E1
00
04
FA
F0
F8
13
EE
12
15
28
F3
0A
00
1B
F1
F5
E8
14
14
EE
1A
1C
10
F7
D8
ED
08
06
05
01
11
11
FA
10
FC
E5
0B
E7
ED
08
F3
09
EA
01
32
1B
F6
FB
10
0A
06
09
EC
E0
0A
1D
10
EE
11
0A
0F
0C
EE
28
DA
F8
09
F8
DF
0F
E7
3E
09
0A
0F
D6
F4
13
F6
FA
03
29
0D
28
E9
FF
D0
0C
11
04
FF
EE
DC
D9
FF
0A
DE
F8
06
0C
F6
EF
F8
1A
14
FD
C4
07
13
1D
AD
0B
F2
FA
EB
13
E9
FF
07
F4
F8
ED
0B
E3
13
24
FE
F8
F5
E6
D5
08
19
F7
FD
02
F4
0A
E9
30
08
F5
09
F6
20
E5
33
F2
FD
FF
05
3B
20
0C
FE
0F
0E
05
EB
08
D9
E4
E4
03
05
22
DB
EF
0D
E3
08
E8
F7
F5
D3
E5
20
0A
FB
08
FF
28
C6
E2
04
3B
F9
14
1E
E1
D0
14
DB
0E
16
25
FD
05
F3
F9
0D
E9
19
EE
0E
ED
18
0A
FE
DE
1B
11
E4
D4
05
E3
E9
F1
0B
F3
E7
14
EE
F0
18
FD
24
D5
EB
EA
F4
0A
FB
10
F8
FD
EC
06
FE
00
2B
FF
16
FB
05
20
0A
1F
18
F0
06
6E
23
E1
D7
F8
13
11
DA
1B
E2
F2
F1
C4
D0
19
05
2C
1A
E1
F8
F8
F2
B2
F0
F2
FB
0E
EA
08
04
F3
16
10
E7
11
F8
F6
1D
FE
E8
F4
FD
FC
E8
1E
EA
F6
FE
03
13
34
2D
09
F0
D9
0C
DD
02
EB
F0
06
DC
0E
F9
05
E1
00
07
03
21
EC
F6
EA
D8
E9
FD
01
FC
1A
19
FE
05
07
FE
0B
F0
18
16
D9
06
01
16
FE
0D
D9
01
F7
F6
E7
00
00
E6
04
EE
ED
F2
00
07
CE
07
08
F9
E1
F9
11
00
F3
03
03
04
10
F4
1D
F5
07
F9
F4
0A
FB
D5
F1
F6
09
EA
ED
F7
16
11
F9
F6
E6
1E
07
08
ED
07
F9
14
07
F8
E7
F1
1A
03
05
02
F9
F2
EC
E8
FD
25
05
E8
00
F1
F9
5A
01
29
0F
FA
F2
F2
E9
E6
F0
F2
03
E2
0D
31
F7
24
F0
FC
CE
00
F6
06
F1
F0
D8
00
03
24
15
FC
F2
07
F7
FC
FB
07
0E
09
01
0C
03
32
E4
F6
FE
E0
F7
EC
D6
3C
26
0F
EC
DA
E9
F2
E9
ED
FF
0F
1F
D2
1E
F6
F4
1B
07
F7
D6
F0
DC
E2
D4
17
04
12
F6
D5
F8
FC
13
08
DC
16
E1
05
F4
0C
37
03
07
ED
FA
ED
17
12
E0
23
0F
05
0A
1E
F7
1F
25
1D
E4
F0
23
06
F7
20
2D
14
E9
E5
25
33
FC
F0
E1
F8
D4
0E
0E
2E
EF
E3
1B
F4
0E
EA
E7
05
05
FA
DE
F9
EF
F7
19
CF
F2
FB
D8
D7
29
0A
FA
05
D8
19
E3
16
F4
1F
E5
1A
F2
FC
1B
08
EF
0D
05
06
05
04
2D
FE
1E
07
0C
EE
03
0C
09
FB
DD
0B
06
DE
F3
11
01
FD
18
0F
DF
12
2E
19
19
17
08
01
DC
0D
1B
08
EF
DE
21
F7
D8
F5
CD
0A
FF
04
FF
F3
1A
F3
0F
EA
DA
F6
D8
F5
02
2D
F5
14
F9
FA
00
11
04
EF
FF
18
F3
0F
07
02
2B
F9
FD
37
11
FB
21
D7
DF
1C
EB
F2
E0
FF
09
FD
01
28
08
F7
01
04
0A
F9
E5
19
F8
14
F4
F1
D9
D5
F1
EC
EC
DE
FF
FC
F0
E9
14
E9
FF
00
E3
04
1B
F1
09
2F
EC
07
FB
29
26
02
10
EB
30
0A
E0
17
0A
0D
10
DB
E4
09
05
F9
0C
EB
1D
27
0C
16
0F
00
1B
DF
FA
DC
E9
44
07
0B
C7
FF
36
FA
39
E9
03
FB
EC
FA
04
12
01
DA
23
FA
04
E4
D7
E4
D8
1F
14
25
FF
1F
F9
F3
06
17
09
1A
FC
EF
01
0C
2F
E7
CF
F4
FF
EC
34
EF
F2
E9
31
F6
D4
1F
02
F9
1E
10
EF
16
1C
F1
EB
FD
F2
FB
18
F5
F7
08
19
FD
EE
0C
FF
F6
19
12
EE
EF
11
03
D6
10
FE
F4
F7
01
06
02
0A
1E
E7
09
07
F2
25
13
FF
00
F3
17
F8
22
FB
E6
18
17
03
1C
FB
D7
F5
09
25
0B
DB
11
D8
E5
11
E2
00
08
1C
F4
FF
FA
37
1F
DE
03
0B
DC
1B
13
F7
EA
EC
03
1F
0A
F7
06
EA
DF
F0
D4
04
04
0B
C3
09
1A
E8
03
FA
0C
FD
FE
F1
26
FF
15
F5
00
0E
EF
02
F6
FC
38
FF
E5
06
C7
FC
0C
F6
EB
0D
F9
04
F8
05
F4
15
F0
E5
12
FA
39
1C
02
16
E5
01
12
00
02
F2
00
04
FC
EF
11
FF
01
03
31
2C
F8
FE
0B
1B
11
09
24
ED
F4
FA
07
20
E7
F0
18
01
1F
F9
13
F7
21
E0
E1
FB
E1
E7
ED
F7
ED
DA
D4
12
06
F2
EA
08
0C
FB
F9
10
EC
13
22
D4
22
14
46
D4
1F
0A
E3
FD
F3
EA
01
F5
0E
04
13
09
10
F6
17
F5
11
00
1C
09
10
E3
F6
00
F4
0E
B2
07
C4
D3
E5
32
F7
D2
26
0E
EC
14
FB
F1
F6
FC
E6
0C
FE
E1
22
FA
15
13
D3
F5
F4
F6
F0
F7
C0
D7
F7
E6
1E
EE
F4
EA
12
02
09
FF
0F
E5
0D
FE
0A
02
06
03
09
05
D3
F3
F9
FD
05
DA
F9
FE
3B
E4
EC
08
19
0B
15
11
2C
12
2E
FC
29
FF
26
E9
2F
F0
00
0F
EF
FB
1B
04
17
00
F2
E2
EC
2A
12
F1
FC
F9
24
08
1A
08
E7
F8
10
08
F0
F6
11
06
05
FF
3E
EE
1D
13
0B
D7
0D
0E
F2
CE
08
2B
D9
11
F1
FF
27
04
F7
0A
10
13
26
0A
39
F1
F2
F9
F1
FB
02
EB
E6
09
E2
1C
DA
05
1E
F6
0F
E7
F1
FD
1B
FA
EA
0D
18
EA
09
0C
04
EC
F0
03
F2
E8
FD
0C
E2
13
14
F8
E5
D4
FA
FE
14
E7
11
04
F4
E4
35
08
0B
E9
F2
1D
03
0E
FF
FE
EF
FC
04
D2
FD
1B
0C
FD
05
FF
D9
16
DE
1E
F9
16
20
F5
01
EB
EA
FC
FF
0A
FA
E6
FF
20
EC
DB
07
EA
F0
00
04
DA
E9
1A
EB
13
0B
27
E2
E8
01
F9
E4
E0
F6
E4
00
F2
06
F4
EE
09
FB
F5
E8
14
E7
E9
E3
FD
F7
ED
19
EE
E6
02
03
F9
18
F4
FE
F7
0D
FE
20
FC
01
0A
F5
E8
13
20
FC
EE
F2
23
0E
1A
FC
1C
E6
0F
CD
03
10
01
1A
10
12
0B
23
EC
FE
F4
FF
F3
15
D3
02
27
F8
39
E8
21
EC
11
0F
DB
D2
06
1C
00
FF
05
EA
11
ED
F9
E4
E6
07
F8
F7
FF
10
07
00
EF
F6
37
05
09
EC
04
E6
29
03
EE
E7
FF
FF
0F
F5
12
00
F7
FA
FC
09
BE
F3
13
01
10
FD
06
DE
D5
F0
E9
01
01
04
19
1B
EC
11
0A
06
09
00
EB
10
33
E3
14
FA
C9
FA
EA
FA
01
DE
FE
FD
E8
F4
F3
E9
F7
F7
0E
07
F5
13
F9
F7
16
F8
08
2D
01
FC
DC
09
05
F5
02
E1
03
07
0C
18
2A
07
D9
F2
08
EF
07
F3
F3
10
DE
D4
0F
0A
FA
E7
F5
F3
06
F7
E4
DD
EC
00
F8
0C
04
E4
05
ED
FC
10
02
1C
EC
F9
09
20
03
08
0E
FA
FF
E3
E8
E9
F8
DE
F1
0D
DF
E6
07
1B
20
1C
1F
1F
EA
07
F4
0D
28
F0
07
0A
ED
F5
F0
F6
F4
12
01
F2
F3
A7
F1
19
07
EE
D5
20
FB
DD
38
0B
D4
CB
F8
16
DA
F9
14
18
DE
04
F8
07
E3
F6
0A
08
DC
05
2F
DB
21
13
21
E8
13
D2
05
07
F5
20
EE
E1
F5
CE
F6
12
FB
02
25
13
14
1B
1A
11
F4
0F
D3
15
F3
00
FA
ED
13
EB
FB
F8
04
08
09
0C
FD
0F
0E
FC
1F
15
03
D5
FB
17
F9
FE
41
F9
0B
12
E8
12
0C
FC
E1
DF
10
E3
E2
D2
07
E3
DB
E4
1C
DE
EB
12
18
09
F9
BB
04
F0
2F
19
12
14
1A
F1
08
E5
04
07
12
F4
25
DF
01
0D
EB
EE
32
0B
0A
FF
05
F0
FE
13
12
F1
03
00
02
0D
FB
DF
07
15
16
FD
D9
DD
25
02
E9
24
15
F0
09
05
F9
DA
F3
0D
07
F0
11
03
F9
DE
F6
FA
18
0A
F7
F4
35
09
F1
00
02
10
12
04
F8
DE
E2
E4
F3
0E
33
DE
02
19
01
EC
EE
F2
F3
DD
ED
14
ED
E1
F9
FE
E8
00
09
FF
F7
F0
FA
12
0B
E7
CC
0A
FC
C0
F0
FF
FA
17
DC
07
F5
FA
E9
CF
D8
2A
3E
09
E6
1A
09
0B
13
08
EE
27
27
0E
0B
FB
E5
30
F9
15
F7
FC
D3
FB
F1
DE
EE
03
1B
E3
F1
F2
0E
1F
06
08
D3
F2
03
07
17
25
F5
13
EB
F0
FD
0A
07
01
19
E1
F5
13
0C
FE
03
F3
D7
06
F8
08
21
DB
15
00
30
05
0E
F0
E9
D3
0B
0A
F0
FC
03
ED
07
F3
14
3A
DD
F8
0F
E4
0B
24
01
CF
E7
F7
18
C6
11
0C
F2
15
F3
00
05
EA
25
F5
25
05
1B
0F
21
F9
EE
0E
2F
29
F8
23
F8
08
0E
E1
F0
03
0B
F3
EF
1B
FE
EB
F5
F6
1C
13
E9
F2
13
F1
01
F4
F7
EF
03
05
2B
F8
F4
E5
1E
EC
EC
10
F9
EF
06
10
FF
FC
FC
F6
03
D3
1C
ED
0A
03
FE
F8
00
F1
0C
FF
19
17
FC
2A
13
FA
10
F2
31
EA
16
FE
F7
E0
0F
FA
F3
1D
01
09
FE
F1
E3
2B
1C
08
E2
E3
ED
11
FE
17
0A
07
FE
0E
E7
0E
FC
04
EA
EA
E6
F7
F3
06
01
07
09
FC
E1
EB
F5
ED
F5
18
EB
01
0C
07
14
09
E0
E7
F4
EF
F2
1E
FE
ED
EE
01
25
05
EF
02
EA
FC
0A
04
F8
22
16
08
F7
F7
EF
E5
EE
F8
E8
0E
FC
0C
F6
F4
ED
ED
DD
DF
E0
EC
EA
EE
ED
E8
FC
0E
F9
F0
2A
FF
F3
E0
1F
F3
EF
F4
23
D3
FA
07
E8
1F
09
EC
00
F0
E7
09
F9
E8
09
05
EF
1C
02
F5
DA
F4
F4
E0
ED
11
DE
25
14
FA
F1
18
DD
28
E8
13
F1
07
FA
F5
0C
02
10
D8
29
F7
F8
F1
03
E2
FF
FD
DE
D1
37
E6
02
F4
F3
06
E4
2C
03
F3
E1
39
20
03
0C
F7
26
17
15
15
D8
08
B7
FF
E8
DE
06
FE
00
F9
F7
F9
29
FD
25
10
EC
FA
DE
0B
F8
EE
06
FD
DE
02
F2
ED
F6
F4
FF
18
EE
03
05
E8
01
0D
19
0F
0F
ED
14
1B
F9
13
03
EE
EB
F9
EB
FE
E7
0E
E7
2D
F4
11
05
E8
12
1E
DF
F2
F8
07
08
0C
1A
F4
FA
EE
EF
E0
FA
0F
E5
D6
EB
FE
E2
E6
03
D5
E5
1B
EA
F8
1C
F0
00
FE
04
10
F3
12
FB
12
03
33
05
E4
04
05
18
F7
2D
03
0B
F5
00
1A
F6
10
09
04
0C
07
07
EF
16
08
12
EF
F4
14
F6
F5
E2
E6
14
02
F2
1E
14
02
2A
FE
ED
10
02
FE
03
FA
17
20
F7
EC
05
0E
E3
27
07
04
F3
0E
12
DA
FF
10
F3
09
EE
3B
E3
EC
07
0F
F7
F8
E7
FE
ED
EC
09
DC
FC
EB
E8
F5
1A
F7
12
0C
12
ED
04
19
E3
26
09
01
E5
FE
FF
2A
11
CC
1C
FB
FD
1E
FC
14
E8
E1
2C
DB
F7
F9
F6
25
FF
F3
E4
F1
FE
F1
22
07
F5
F3
09
F8
ED
F4
0D
E2
01
0C
EC
14
F7
16
13
FD
06
09
18
EF
0B
25
F8
0C
D4
19
EF
09
F4
FA
09
06
09
02
E5
DF
CC
2F
02
18
FB
1E
F2
03
00
EE
04
0A
F4
F1
1D
14
EE
00
F1
EB
11
01
05
01
DD
F1
F5
FB
11
0A
EB
05
0F
D4
E9
07
DA
F5
20
DB
EC
06
05
26
F9
0B
0E
FF
F7
0C
E0
1F
17
00
FB
1C
F1
03
06
14
F6
18
FB
10
FB
0C
FF
F2
FB
0A
F3
E1
F3
08
E4
03
D6
1C
EE
EC
03
0B
E3
16
FD
1B
F4
19
E9
03
1C
05
2D
E1
F9
F3
FA
EA
FB
E7
F4
10
00
E7
F8
0B
08
12
29
13
EE
01
F5
01
28
02
EC
D9
EB
08
07
F5
23
16
FE
D1
F3
FB
E5
EC
FD
19
E4
18
EB
05
F7
23
1A
EC
D2
FE
34
0F
13
1E
0C
0B
0C
F9
05
06
05
2A
E5
2A
0F
F1
08
FA
E0
F2
08
01
F5
11
E1
AF
05
04
07
E9
35
FB
E5
02
DF
D5
FA
EE
19
09
E1
15
E5
06
03
04
29
F4
E5
FC
EF
EC
04
E2
FA
F9
F1
10
FC
F5
08
23
0A
CA
1E
35
E1
C5
02
FA
E7
FA
DE
EA
C3
24
0C
0D
0A
1F
DB
FD
F3
D3
3B
03
6F
04
EF
06
FC
FA
04
EC
FD
03
EA
D2
F9
EC
F6
FB
F7
05
D6
24
F8
FA
E9
20
FB
FF
FA
10
16
FE
17
02
FC
18
13
EE
EF
FD
06
EA
23
11
3A
FE
12
F2
0E
F6
0F
1A
E4
00
DC
1D
0D
2B
FC
FE
0F
1D
EC
FF
DC
C0
E7
0C
FF
17
D7
C9
04
F1
F9
04
FE
EC
F5
F0
F8
0D
31
13
01
0C
09
11
1E
E0
24
FF
EA
0F
FF
06
E8
E8
DA
D3
05
DB
13
ED
02
F8
00
0D
FD
0F
DB
0E
15
FE
E2
0A
FD
F6
19
19
E3
09
F7
DC
07
E5
08
15
1C
18
EE
02
F1
D5
FE
06
14
EB
F6
F9
E8
F1
05
EA
0A
FD
F9
1C
08
03
05
0B
D5
DF
F7
02
DE
11
ED
F7
08
FA
2D
BC
FE
20
F5
F5
01
33
05
E8
14
16
CB
D5
FE
0D
F9
F1
1D
FB
BA
10
1B
0A
18
0A
FA
F3
DB
FF
0D
F0
22
E3
F8
F3
E4
D6
1C
F6
0C
10
FD
0F
F9
11
F7
EB
FE
F7
F8
FC
18
1C
06
13
F2
CD
F7
29
EE
F6
03
D9
19
02
F9
F8
20
D8
E6
E8
16
F4
D3
FB
EB
F1
09
12
F7
28
F8
FD
F6
08
09
0E
0E
21
0D
09
0D
11
15
0B
EB
EA
E2
F6
01
F5
F9
E7
22
08
ED
FB
13
0E
E0
28
2D
FE
28
09
F3
C2
22
25
E7
17
06
01
F5
03
06
F5
08
05
15
02
DD
19
F1
09
FF
F9
09
11
F9
16
F3
EB
1B
F0
01
F3
0C
26
0F
EE
FA
1A
2F
1C
22
F3
0B
F1
0D
F8
07
0D
EE
04
F2
E0
E0
E9
F5
DF
DA
17
F1
06
EB
09
D9
F1
F7
28
03
13
0D
16
00
24
2E
25
16
0B
2A
21
F4
0A
09
09
26
1C
06
0D
F0
DB
F3
F6
0E
F3
E4
FC
20
04
FD
DA
23
F9
F7
12
0F
04
19
01
05
16
2C
07
0B
04
1A
0A
32
EC
26
0D
FA
0C
D0
39
E2
0C
DD
E3
0E
21
23
E4
CF
09
04
05
C7
27
F7
F3
0F
0C
FF
F7
E8
0F
F1
03
FD
00
02
10
E9
15
08
D9
F2
FB
14
18
FA
E6
F1
F2
ED
D4
F7
15
E4
E7
13
05
1C
EB
0B
F4
FA
E0
0C
FF
11
08
28
F5
08
0F
E3
10
1B
0C
F1
F6
0C
ED
E8
FF
0C
FC
EB
01
0B
F6
F9
F7
1D
E6
F9
0A
F2
0D
F8
10
FE
FA
13
00
EA
FD
1E
00
12
D7
0F
00
F5
1B
E6
03
FE
22
20
0A
08
F2
F9
09
01
10
FF
18
C9
D6
07
18
F9
F0
F2
14
28
FD
15
DD
1D
E1
20
06
EE
EC
07
EF
24
E0
14
FB
04
E1
18
DC
E1
D6
DF
2C
F9
12
1B
F6
E7
E4
FA
EC
1C
ED
10
2B
F5
12
09
00
DF
18
F3
EF
1C
F1
D8
28
FA
12
07
FB
40
FC
35
FA
20
F8
E3
01
33
F2
0D
0D
07
DE
1B
EC
FF
F0
20
E7
F2
DD
26
E8
FC
1D
D3
04
19
02
FF
12
07
09
FA
F3
00
F9
FC
FE
E6
00
F0
00
F5
08
14
07
D9
FB
05
04
FF
F2
FC
12
0F
18
00
F8
EF
05
FA
05
F7
F5
08
F2
0F
0A
F2
F2
0C
02
F6
02
F9
F0
13
03
00
03
0D
0A
10
0D
09
0B
09
07
EC
07
09
0B
F6
16
FD
E7
0A
06
0E
11
F9
19
EB
00
05
FD
03
09
E9
FE
F4
FE
0F
FF
FB
F3
FD
E0
07
F5
EF
F0
12
00
15
F6
FA
03
11
F0
18
02
F9
17
30
02
FE
B8
05
06
08
F0
0B
12
F6
03
EF
FF
F3
10
0C
DA
F4
09
F3
08
FE
14
EF
F7
3B
EA
FD
F8
E8
1A
F1
F9
