F8
04
F9
FB
FA
00
0A
00
FF
03
02
FD
F9
04
F8
F8
FF
FB
00
00
08
04
FC
09
FB
00
07
FB
FD
FE
03
09
FD
F9
FC
03
01
01
01
01
04
FD
F6
0A
FE
04
04
FC
06
00
01
00
FA
08
02
02
09
F7
FF
00
03
04
FE
06
CB
26
06
15
E9
05
12
F5
F0
0A
0C
B5
2E
C8
1D
FF
16
05
1E
FC
25
E5
25
09
1A
02
FA
3A
00
F1
C1
F9
06
F1
FC
6F
ED
04
B9
1B
21
07
E0
F1
E0
E1
05
10
01
31
EB
1E
FA
EC
13
F8
37
E9
2A
0B
BD
05
07
1C
19
0D
17
02
E2
08
05
DB
1C
03
E6
F7
EF
00
1E
EF
1B
F4
2D
F9
03
F5
E9
ED
FE
DC
0F
25
1B
EA
04
08
01
FF
1C
04
E7
FD
0D
23
16
02
1C
FA
04
22
08
02
1A
F8
18
04
EA
F8
DC
0F
E5
0A
1D
30
F1
1C
1B
E4
F0
D3
05
1B
05
DE
FC
13
1F
EF
D9
11
F7
1D
EC
24
F8
FD
05
E0
E2
1A
27
09
ED
E3
0F
FD
27
FC
F6
00
0D
07
15
E8
11
05
0F
DB
CF
15
FD
EE
F0
E1
31
18
07
E0
03
FD
F2
F1
ED
FB
F0
FF
F5
13
00
09
06
FC
12
1C
D8
EE
25
12
07
E7
E6
12
E4
EB
10
CA
22
EC
24
15
13
FB
E6
F9
E4
F9
03
00
05
1E
FD
0E
05
17
F7
EC
0B
23
03
F6
F5
3B
F9
1B
1F
0D
17
28
E7
22
F0
0F
09
22
08
10
F0
FD
CD
18
03
EA
FC
10
12
02
F6
E8
0C
D9
F7
EB
05
F8
E8
F3
1B
06
D9
D2
25
1C
E8
18
0D
F8
24
01
07
EF
E4
E2
FD
08
11
D4
29
14
E7
20
0F
1B
F8
05
0B
F3
F9
F8
E4
12
D0
12
0E
F1
F6
08
0E
F5
27
22
FE
04
03
E6
2A
EA
EA
EB
25
EE
03
09
EB
F6
EB
F1
DB
14
E4
FD
02
F5
D6
EC
FF
ED
09
F3
F4
F7
AD
18
17
FC
D2
DA
0B
FB
DF
D7
26
EC
2B
E0
DF
FA
D5
10
F4
1F
C2
1F
0C
01
EA
16
0F
35
1F
32
06
0C
01
EF
12
0D
04
ED
21
01
2C
00
01
1D
0C
D3
14
12
0E
EC
CB
F2
12
33
BE
10
FD
E5
E7
DB
F2
2B
EF
FD
36
14
25
0D
03
04
FE
18
E8
CC
11
0C
21
13
BD
E6
5B
07
ED
B7
28
01
EA
24
DD
21
D9
F9
F9
19
23
F0
DE
05
4B
FC
0B
34
DC
02
0E
14
FD
1E
0D
02
0F
E2
26
38
F3
F2
E5
ED
D9
15
0D
F9
DC
34
EB
07
F2
F7
EA
06
25
31
2C
E5
0C
E5
F1
F5
09
E3
F6
DB
E3
2F
E2
02
23
05
ED
20
02
40
F6
07
E9
00
F6
24
09
00
13
06
F3
D5
F0
F2
16
0D
02
10
FD
22
E4
FB
11
EC
09
01
E6
19
FF
FC
15
12
01
FF
03
01
F9
06
E5
E6
18
FD
D9
05
F6
F6
E2
16
1E
D3
E2
0F
12
0D
E4
13
FC
0E
11
F1
12
2B
D8
D2
E9
1E
0A
E6
03
BB
11
0B
F7
02
F4
F3
F6
10
2C
19
F6
03
02
E2
08
F7
F3
FB
0B
E6
FF
06
FB
FE
EC
E6
FE
DC
FC
F7
0B
E5
F1
17
16
B0
F2
F6
2D
0E
20
05
FB
F7
10
18
FC
14
08
1D
F2
2D
FA
EA
05
FA
18
D0
E7
1C
14
E9
B8
13
F1
03
F3
0D
1A
29
2F
E1
24
02
01
FA
03
08
CF
0E
F1
08
FD
23
03
00
D8
DC
E6
FD
F4
F1
0F
01
0C
E9
FE
15
FC
0C
FB
29
E0
F2
19
FD
3E
16
14
D6
05
05
FD
ED
EF
09
ED
06
F8
EF
30
18
10
1B
FC
FD
29
0F
C6
F9
07
0A
D2
18
1D
FA
0E
3F
FA
FC
1B
F5
04
F8
FB
FA
E1
FF
F9
0B
08
F9
02
B6
E9
1C
11
EC
F6
21
FF
EB
F3
D6
20
FC
FD
ED
DD
D3
F4
FE
07
E9
FC
FE
CF
F2
E8
06
CA
F4
19
DB
DC
1D
12
F9
29
F7
E8
00
F0
F0
04
0A
F9
29
09
15
12
BB
27
04
F8
E4
DE
0C
F0
13
05
EC
0C
F2
06
F8
FF
1A
27
FE
D0
08
28
FB
09
1C
D2
DF
FD
09
EB
F7
F3
08
19
22
F4
EB
18
FE
0A
40
DC
EB
D7
10
09
F4
E2
FF
09
2F
0D
03
F9
F9
D4
FB
0D
02
07
0D
06
CE
31
0F
E0
13
F5
EF
0B
03
BE
F9
F7
FD
DE
0D
FC
17
19
D9
1B
EB
31
CE
09
1F
D3
F2
D0
CC
EB
03
EA
0F
DB
0B
F0
FA
09
28
20
2C
F1
05
E8
DC
FA
61
2A
06
22
1D
F8
08
10
FD
E2
E3
E9
18
FA
07
DF
F8
E0
13
04
E5
E9
F0
0D
C6
EF
B5
0D
F5
1D
E5
E6
C0
E3
08
F3
21
F1
09
10
E9
0A
1E
09
FE
EE
EA
FC
F1
0A
0C
2B
D7
C3
F4
DA
DF
F5
04
E8
36
E4
DB
2C
F4
F1
FC
0B
0C
15
23
14
01
F2
19
22
37
C7
D1
0F
36
16
2C
F9
D5
E2
F1
FA
10
0B
00
E8
D5
FA
F8
D3
2A
12
EF
FF
B2
F1
10
EA
D3
08
1A
08
FC
D9
34
1F
EC
10
CB
F1
14
FB
D6
05
E7
40
FA
0F
D9
06
03
06
21
04
F8
23
02
2B
17
00
42
35
31
00
08
03
DC
FB
09
F6
FD
2C
F3
1B
13
08
14
FF
DF
34
0C
26
FB
34
E6
0D
25
C8
F8
1D
E4
FA
17
E5
0B
0D
F0
09
1A
10
A9
F4
25
25
ED
EF
27
2B
F2
F9
E4
EC
D2
0D
29
02
E7
2A
01
E2
E9
EC
E9
EC
00
14
0A
0A
E3
1B
16
15
28
EA
EF
09
BB
2D
CE
E3
1C
35
0D
02
F2
15
07
E2
F1
F3
ED
E5
DB
07
FC
08
E7
FA
1E
1B
E3
04
12
ED
08
10
E1
01
F9
1F
EC
D7
FB
15
E0
0C
09
05
03
EB
F6
FE
FC
10
DF
1A
FD
08
08
EF
FA
33
F7
1A
28
07
12
0A
16
15
E0
F8
16
3D
FC
FB
15
19
04
C6
F8
14
09
EF
EC
22
EA
FE
03
FA
E5
DF
F1
FE
1C
2F
14
35
EE
02
DA
20
EA
E3
01
15
29
19
F1
FB
DC
F4
03
0D
F1
F2
01
00
1E
F0
EE
D6
D5
FF
1F
0A
FD
FC
FB
24
EA
15
E8
FA
F9
17
FD
25
EA
16
2D
03
ED
FB
1C
07
F3
D0
DC
F3
43
16
0E
E4
F6
0F
0C
1F
3D
0E
19
0F
04
25
0D
FD
FC
F1
22
10
0D
1E
C4
E9
2B
15
02
19
E3
E9
CE
15
0F
FE
39
E5
07
CF
34
20
F6
F7
F3
12
F1
07
1A
E9
03
FA
02
F6
10
0E
DF
0F
15
D9
39
15
16
F6
EE
EC
F8
04
0A
ED
2F
30
F3
EA
E4
0B
FE
17
D0
FC
04
E8
09
F3
0B
15
08
DC
10
12
F0
E0
04
10
FA
1D
0F
07
07
EE
09
DA
EF
F6
0D
D8
00
F0
06
0A
F9
12
EF
D3
10
C7
F3
01
2F
0F
D4
0A
EA
DD
E4
F6
3E
ED
0A
FA
09
F6
F0
2A
14
FB
06
0D
E4
19
F9
F9
03
D9
F0
ED
FB
26
E8
0F
F5
FE
13
F1
FC
19
E4
0E
F9
E1
1B
0B
0F
FB
0C
CC
1D
0F
F2
2C
0E
32
EF
D9
2B
11
C8
0F
07
E0
15
FD
3B
05
08
F6
F5
25
10
0A
FB
14
E6
0A
09
F1
F4
FA
01
06
EC
15
10
EF
06
C1
1B
E1
24
19
F8
0C
0B
1E
EF
F5
E3
21
D2
49
D3
12
20
DC
EE
10
F2
32
0A
04
0B
0F
11
F9
F6
29
06
D6
E9
0D
07
08
F8
19
F6
05
FC
F1
28
FE
FF
0D
5A
E2
CA
03
F6
DE
11
EE
F2
E5
1C
E5
F1
1B
2B
10
0D
16
0E
05
F5
11
06
36
E3
F5
C1
18
D2
15
17
FA
1C
24
EA
FD
29
0F
1C
F1
29
E5
F1
02
2E
3A
EA
06
E4
EE
09
FE
F8
02
02
20
F5
0A
1D
14
D5
E1
F0
0F
10
0C
D8
1C
F5
F2
07
1E
F6
01
A9
21
D9
07
F5
DB
E9
0B
1A
13
F9
DA
20
16
EB
FE
1A
18
EF
0F
EB
03
1B
FC
C2
D3
F2
DF
07
F9
E5
F7
FD
03
DF
F1
06
EF
D6
E3
EF
F5
E0
04
07
0D
0A
0D
F5
34
08
ED
09
07
26
E1
05
39
0B
C4
17
DC
E8
F7
18
09
FF
1A
3D
26
23
D7
15
F4
20
F1
E9
FA
0B
DF
07
0A
FD
EA
06
FC
E0
28
22
1D
19
26
10
FA
DE
FC
DE
0A
15
F0
E9
E3
EC
06
15
10
DF
0E
ED
07
EB
24
F8
EE
18
0B
0E
F0
1A
DE
20
0C
F7
F9
0B
0E
27
E8
FC
E6
D3
0F
00
E2
FB
07
38
05
FC
FD
29
16
3C
F9
0A
F0
02
F3
D8
F0
2A
F6
EF
0C
06
1B
EC
33
DD
04
03
00
FA
FB
E3
FB
06
FE
D6
22
06
E4
0F
CE
F6
E6
EB
E4
E6
FC
09
FD
17
19
E7
F5
1F
D1
FA
1C
F3
EC
0B
24
E8
F2
18
DA
F2
EF
0D
F1
EF
12
05
F8
0F
16
EA
FB
05
F5
E6
06
1D
00
0D
DF
02
34
17
ED
F4
25
17
14
13
C0
FB
25
F0
DC
12
03
01
E3
2E
E7
02
ED
16
09
26
E6
DA
01
18
EC
32
00
1A
DA
03
0E
F9
33
09
1D
D9
05
67
03
FA
1F
F8
01
29
DE
E4
0C
F1
0C
09
3A
13
ED
27
14
0E
0E
EB
09
01
09
11
E3
38
FF
DF
F6
25
F5
0D
08
0F
28
D8
17
EE
EE
00
08
E2
D8
ED
2E
03
DB
DF
05
00
0F
04
27
FC
31
1B
F3
D5
F5
F3
16
3B
EC
0A
FD
E2
57
C1
14
0A
EB
13
FC
F2
FB
F9
01
E2
1B
22
E4
E8
0B
26
FC
E6
F6
DB
FF
AD
2E
33
0B
05
28
0D
E1
D3
EF
EA
F4
2F
DE
09
1B
F8
F2
12
F3
DF
EC
D7
EE
17
2D
F5
DD
02
27
34
F7
EC
E6
28
27
C9
00
05
13
E7
EF
08
D5
F5
1A
F4
DA
1F
20
00
E8
F7
EB
F2
F2
FA
01
F5
11
0B
17
32
FD
1E
E8
E5
07
1F
EE
DE
F3
0A
FF
CD
04
EB
E1
39
E3
0A
00
FC
F3
07
FB
FD
04
26
1E
18
DE
0E
13
E3
04
0C
17
14
E7
09
0F
EA
D4
F0
F3
F6
13
BC
E7
EF
E2
31
E9
E8
E2
DB
FD
03
AE
F8
01
1B
11
33
27
D7
18
EC
1A
D0
17
1B
DD
0B
26
1A
04
07
E9
FA
2C
11
F3
1A
E0
F3
1C
2F
0D
12
02
F5
F4
DB
F7
0A
14
CC
0F
E9
0B
03
28
AA
25
DA
BD
1A
28
18
E4
09
1C
22
F7
0B
00
E2
05
2C
22
4A
06
EB
1D
F2
FC
FB
F7
EF
F8
0A
09
09
DE
FC
F0
E3
F0
1D
CD
D9
1B
F3
06
14
19
0B
08
F1
0E
F1
FD
C1
E9
00
08
19
17
D7
0C
EB
2A
CA
EC
0E
BA
DF
29
11
15
FE
E2
07
E5
E1
FE
DE
E7
E5
FF
1A
CB
1A
0A
0E
20
0B
FD
D0
00
EC
DC
EE
2B
26
21
D4
0F
36
16
01
0C
07
C4
06
AA
00
15
13
C6
D2
14
08
F9
2F
0D
04
F6
0D
48
F4
FF
E3
30
F5
F0
18
E7
DF
FD
F7
EB
31
0A
EA
00
1F
FB
02
32
D7
E7
17
1D
C8
F3
F5
17
29
15
E3
D5
34
D9
F9
27
DC
0B
EA
F2
F1
03
19
FE
DD
16
14
F6
16
DD
01
19
07
1C
0D
D4
0B
FE
23
16
E5
E5
02
FA
D4
CF
0E
01
E6
01
FE
23
02
12
13
E0
E4
D0
EF
15
20
EF
CC
D3
F9
DE
11
17
04
00
F3
16
D6
F7
0F
31
E9
E0
10
26
11
EF
DF
12
0B
26
28
12
01
E1
FA
F8
0E
ED
14
00
F5
30
18
13
08
DC
C4
EC
D0
10
F3
F4
11
10
DF
F7
CA
25
E5
E4
02
E6
0F
0E
01
F7
1A
F5
0D
48
2E
0D
0A
0D
02
12
27
22
07
22
F1
1A
39
F9
17
16
24
17
CD
01
E4
18
2A
02
43
07
E1
D4
DE
D8
00
F4
20
F6
1C
08
0A
F7
0C
F6
1D
F5
EE
00
EF
00
1B
EB
15
2D
45
04
F6
06
FE
E7
E8
E0
02
09
0A
D6
FF
CF
E7
10
F3
E9
F0
12
FF
15
EA
FF
DA
FE
F1
15
0F
E1
FE
11
12
07
01
F0
EF
44
2A
05
21
F5
F9
13
F7
1E
13
E7
0F
2D
03
09
DC
04
FC
2E
22
02
00
F8
1F
E7
12
FC
15
FE
FD
12
EE
F6
FF
14
0D
F5
DC
FD
1D
00
FF
04
3A
EF
F7
F3
00
04
F4
06
E5
F0
FB
32
0B
36
FB
2D
EC
45
FB
FF
04
C2
0A
EF
33
EC
16
26
D2
13
07
CC
DD
F3
BD
F6
08
04
24
EB
26
01
E3
15
01
09
EE
D2
2E
F1
F1
F8
DF
06
11
F7
23
17
F7
FE
13
F6
FC
03
F0
F0
FA
12
FC
09
07
DC
04
12
F3
F2
F1
05
08
FF
17
0A
1F
06
1F
F3
2F
E7
0E
17
F5
2E
16
1D
F8
CC
F3
09
B2
F9
24
01
DE
1F
EC
ED
05
06
E1
E6
EC
04
E3
D7
D4
2A
2A
04
2B
27
0C
0C
FD
09
11
FC
E8
F4
05
2E
DB
07
DF
FD
D1
1B
1E
0A
F3
25
1F
F5
E1
1A
05
03
20
13
08
E2
EB
1A
00
03
09
F4
14
F4
08
EB
F8
F7
DA
12
C6
16
F7
14
DB
16
F3
01
14
F9
28
1F
F9
04
02
ED
23
F5
EB
01
F9
05
1F
06
EF
F7
F8
F8
FE
DD
F3
F2
1A
F7
40
F4
BF
09
12
D6
2B
FE
06
C2
22
10
DB
3B
18
03
ED
1B
F0
E8
0F
02
25
F1
D2
08
0C
0D
FE
18
0B
0D
1A
22
FC
D7
14
E5
3B
11
F6
E7
21
E2
0E
F9
CB
F8
BB
11
EC
E0
FC
10
E8
E0
D8
12
28
F4
F7
0A
F7
E8
1E
E2
DC
14
EF
12
FC
0B
EF
07
DC
31
0C
03
1B
40
17
F5
F7
39
00
1C
FE
FF
E4
1F
02
BA
E6
15
31
45
1C
F1
FA
42
D7
EE
F9
13
07
FB
E7
ED
10
29
04
D4
FA
F1
37
F9
1A
17
F9
F4
E9
F8
14
E8
E3
00
11
1A
10
FE
D0
05
FF
1B
ED
F3
F5
F3
19
F2
EF
ED
04
F4
E7
04
2D
CD
F9
09
F3
0A
FC
F9
0C
FA
08
3C
25
DE
F6
06
05
ED
DE
EC
0D
E3
FA
F8
FF
12
EC
14
25
E3
0C
00
E8
3B
F0
FB
F1
1D
04
EA
F4
F6
FE
28
E4
D8
01
FC
0B
0C
06
06
14
11
FB
18
F1
EE
12
10
FC
07
4D
35
2C
FE
10
DC
EB
EA
DB
E4
FF
E5
1C
3F
EA
DF
20
1C
D1
FE
05
F0
40
06
E1
F8
F4
10
F6
0E
DE
0F
13
2A
FC
EA
CA
34
0F
FF
03
34
F2
39
D1
DD
E3
08
0A
02
F3
03
01
0F
1D
FC
04
12
00
26
F6
07
F9
04
D2
F5
10
11
E4
0C
18
2D
F1
34
C7
16
2F
24
10
D5
0A
04
47
28
E0
E6
D0
EA
18
09
11
E0
26
38
33
16
09
DB
FC
2D
09
F6
17
2B
23
13
E6
20
1D
F3
0D
F9
04
F7
E4
F7
09
E2
05
03
16
2A
14
F7
ED
09
EA
DB
E7
0F
AF
D5
28
FE
F0
4C
EE
EA
06
14
09
05
D1
05
E6
E7
01
EB
01
08
EF
F3
30
09
FD
DD
F9
15
04
0D
F3
E9
0E
EB
FF
DC
15
1C
E7
03
FD
DA
22
07
E7
00
E1
0F
EC
24
E0
01
F0
48
15
ED
1F
DB
1E
14
02
06
FD
AC
19
08
16
01
03
12
FE
FC
AB
19
D5
0F
1D
F9
EC
F8
E7
FD
12
E3
07
EC
FD
33
F4
EC
D8
07
0E
08
1C
03
08
19
07
DE
D4
04
E7
F0
FB
06
05
C1
FE
0E
CA
21
07
F2
E1
07
0B
09
E7
03
3A
EC
F5
11
0E
31
E4
E5
25
F1
FF
DB
E3
38
06
23
F7
27
40
0A
E7
F0
F0
EF
F6
04
0B
E2
F6
13
40
E0
E4
07
E9
2D
FC
38
AF
16
05
F1
13
22
EE
0B
ED
FA
E5
D3
14
27
FD
E5
1E
FE
E4
00
F8
03
44
06
03
0F
24
24
F6
F4
02
F5
D6
19
1C
F4
DB
F8
28
0A
FB
0A
0A
F5
04
E9
D9
1A
EC
D7
EF
F4
19
09
F7
06
D7
EA
07
F9
06
FC
1B
02
FB
31
12
E0
E7
03
17
0A
E6
06
FC
0B
E6
22
E4
E6
0A
03
E4
05
20
EA
1A
F3
CA
25
16
F2
13
EF
F3
00
EC
CE
15
2B
29
D1
05
26
13
F6
F8
FB
F4
09
F6
15
FC
EC
C3
B8
04
06
04
17
C2
25
F8
14
06
02
FD
07
0D
AF
02
15
E5
EC
05
0D
DC
FC
E0
1D
23
DC
FA
B0
10
F4
0D
ED
E5
08
F5
0B
0B
1C
19
DE
FE
01
11
D5
DE
12
02
E0
FD
1E
E6
D9
E5
F3
DD
12
0E
BE
E1
42
1C
E9
08
EB
3D
33
FD
C8
FF
F9
03
15
F6
0C
15
06
0C
D1
21
F3
FD
2F
B0
FB
E8
FD
08
E8
DB
E2
E5
F3
CA
5F
1A
D0
12
0B
21
07
BE
15
22
BC
D4
E3
E6
DA
0F
17
7F
CC
EE
3A
C9
AB
0A
F7
C8
E7
0B
F5
2A
F1
0F
0C
F1
0C
4C
C5
F6
C7
E6
2C
F7
E2
F9
01
FC
F9
F1
1E
E5
FC
09
F6
C5
2B
E7
D5
04
FC
35
C7
F8
E5
0E
1D
38
B4
F0
EE
01
1E
2B
D8
D6
01
0A
EC
C9
1A
46
F2
05
2E
08
D8
DE
40
C9
35
31
E3
3E
06
17
0B
04
F1
E0
18
0E
FB
26
FE
F0
05
15
0C
0D
FE
02
1A
3A
FD
30
14
EC
25
9A
26
DB
08
1D
02
E0
DE
2C
1F
09
37
F3
E9
E8
1C
16
E2
FC
CE
D2
2F
CC
0E
FF
EB
E9
2E
0E
F1
EE
F5
CB
13
E0
E2
20
00
0F
FF
E0
02
3F
EA
1C
0E
10
D3
0F
02
F0
FA
13
23
FE
ED
06
D1
01
EC
0B
EB
04
0D
FA
09
ED
F6
FB
F6
F8
EB
00
06
FE
1B
05
16
FD
DF
F5
F0
D7
14
2D
20
15
F9
C8
19
1E
D9
E6
E7
12
DF
24
04
FD
F3
DC
21
01
0C
F6
F8
F3
F8
19
13
13
E8
0A
05
13
FA
11
F4
00
10
DA
DD
17
05
0B
DD
F6
09
2E
E4
F4
B8
FB
FC
F0
09
1A
0A
F3
EF
F6
12
1B
39
DA
EE
D6
00
10
E8
EE
07
E9
E0
FA
F9
18
EA
E6
F6
01
0A
F8
F5
FC
F4
FC
2F
19
E6
FC
1B
03
07
F3
F7
10
F2
00
10
13
24
FD
2D
06
0F
0A
FE
E2
20
C9
22
18
22
F0
03
27
FC
0B
F8
E2
04
F9
FB
E9
24
D1
00
FD
48
01
4D
FC
0B
F4
00
EC
21
0C
2B
10
05
DE
CC
0F
02
E6
F1
0A
2D
02
1A
0A
19
DC
29
46
F6
E0
18
02
EF
24
20
07
F0
17
F4
F1
F7
F5
07
01
16
CA
FA
F9
07
E5
06
E8
0F
F1
06
00
DC
1C
21
C6
05
E0
E4
22
F8
F0
E8
FF
1E
0E
22
0A
18
0A
08
12
D1
F0
FD
05
0B
04
29
15
0C
17
FA
E9
F1
0F
D4
D1
19
E3
B7
F3
E8
14
FA
0D
05
EE
F0
1D
27
FB
E3
08
08
2F
FA
12
09
FF
34
3B
F6
07
F0
17
00
F4
04
D0
E5
0B
0A
E4
FD
F7
0A
1A
F5
14
36
E6
27
E8
EB
18
FA
E9
0D
F3
FF
F3
06
1C
21
3F
12
F3
E3
18
EB
22
03
31
F4
C7
EC
E9
FB
07
08
06
E5
1D
0A
FC
18
F8
07
EE
FB
2B
01
E3
34
F9
1B
FC
F3
1B
09
0B
1B
1A
0D
18
17
04
D3
FC
0C
F4
FE
1D
DA
E6
FC
1B
1A
3B
1C
FC
04
0B
02
24
28
34
02
F8
F8
FD
0B
0B
28
1F
FD
F5
14
15
03
1B
FD
E1
E3
0B
EB
CE
19
37
FE
07
50
E8
01
24
F4
DC
09
01
EF
19
11
48
CA
F3
1C
D8
02
ED
E7
F7
F7
02
E5
00
FC
22
14
17
FD
1B
14
11
BA
C0
34
1E
F4
35
33
F2
33
29
EE
EA
F7
F6
1F
EA
36
EF
1C
F0
F4
14
D3
EB
FD
D1
D0
FB
2A
FD
F9
EF
1C
EC
09
FB
F2
13
1A
0D
09
0C
DB
2F
E1
0C
03
01
04
11
FD
23
D6
12
F8
21
FB
24
F0
0E
E5
19
0A
08
0E
DB
1F
EA
F9
17
37
FF
FE
FD
FA
07
FE
38
C7
EF
DA
FF
B6
23
20
20
FC
25
12
09
FC
FA
EE
09
18
EB
FE
18
D5
02
F2
EA
19
E8
08
1A
F1
EA
DB
15
1F
F7
12
EC
FD
25
F4
10
EE
FF
04
0D
FE
11
19
E1
E5
F8
F5
0A
EA
B1
2F
1E
DB
F4
2C
FA
15
07
F6
25
E9
F6
15
09
F4
E3
E8
CC
EE
2F
F8
F4
19
09
DF
EE
05
21
05
05
08
00
05
F6
2A
13
16
03
05
F2
FA
11
13
10
07
F9
05
17
E9
FE
2A
F2
0C
0E
FD
FE
F9
08
F8
1C
0E
06
FF
03
FA
01
1A
24
F5
3E
21
F8
1D
12
EE
0C
17
ED
0A
FD
00
FB
F0
E4
F2
0A
FF
E8
1A
F2
0A
F9
09
0D
D8
E1
2B
0D
F3
EF
1E
26
FE
F5
FE
09
30
20
08
08
05
12
03
0B
25
03
26
3A
02
FA
F7
16
09
EF
32
E6
1E
E3
EE
08
F4
0C
FC
1A
0D
EB
17
FA
23
19
ED
F6
DF
0C
E7
FF
F9
F7
E3
F4
25
E4
ED
03
21
C8
0E
F2
19
E9
FE
0D
D9
01
ED
0B
DC
1E
FA
F5
F0
FE
B8
FE
26
EF
F5
1A
F5
02
0B
ED
FA
F9
F6
FE
1E
D7
D0
F2
18
D6
FB
FD
F2
FA
03
23
14
F4
DB
FE
3D
0F
F9
F2
EF
2C
00
D0
1D
0F
1F
D6
2D
24
12
02
E7
0C
EA
F6
1D
30
E9
0E
18
01
E6
BA
F3
02
15
0E
20
F2
EC
E8
E4
F2
F3
09
1C
FB
1B
3C
36
AF
23
04
EB
C3
1E
FE
EE
1E
BD
E4
24
33
05
08
0A
16
D3
03
06
1D
D5
06
0B
0B
FE
F3
FA
08
11
ED
07
16
12
32
F0
63
C7
DE
C7
1B
FF
D3
31
19
E2
12
04
F8
21
04
FD
FC
2F
06
F9
18
F0
DD
DF
11
12
13
2E
EE
2F
E5
11
18
FF
F4
05
F0
E3
0B
E9
E6
28
18
0D
0C
0D
EE
1F
26
2A
E8
05
FE
E3
11
F9
E5
F6
F3
FA
EE
F4
F1
32
EC
2C
02
0D
DF
03
0C
FC
1B
E4
14
FC
F0
F6
21
1B
E2
E2
13
E4
E7
EF
15
E8
F7
15
31
FF
19
0C
1B
FE
0E
F0
DD
03
F1
F0
F7
2B
3C
2E
20
29
FD
ED
35
FD
2C
FC
F4
07
1C
D7
EC
EF
F1
20
17
03
06
2D
EB
0A
D1
18
EE
0B
E1
09
E7
17
E7
1A
CE
24
EB
EE
FA
CA
F1
01
13
04
06
25
F3
F3
04
D3
1B
1A
03
14
FC
ED
F4
F1
01
EC
FA
F4
D9
EF
05
FA
1E
4B
FA
29
03
0D
FF
0B
31
D4
E5
EA
01
32
DD
12
F6
E0
18
F1
0B
00
23
1D
0D
06
01
32
FF
13
16
21
F3
F1
CB
F6
E0
DF
26
F5
FB
FD
C3
D4
1C
F5
FA
F5
25
F4
10
F6
55
E4
CB
21
F6
0E
24
F6
E7
C9
C2
0D
05
1A
0E
08
EF
DF
F6
11
0D
E0
E7
F3
05
0D
FE
F9
EB
10
29
F0
0D
E4
E7
C0
FD
FC
F1
F7
F2
FC
E0
FF
FC
09
13
2D
CA
E4
E3
14
0D
29
E8
02
00
EA
19
28
E3
06
12
14
10
06
11
E4
F1
0A
FF
20
01
1B
09
16
16
03
EB
F7
F7
E9
04
02
09
19
FC
E9
E3
09
E2
F5
08
0A
12
1C
E3
09
EC
F4
12
08
E6
E5
0E
FC
04
02
F6
2C
09
EA
05
E3
EF
F8
22
F4
E2
0A
06
E0
18
2A
13
18
D0
1E
FB
FD
C9
E3
02
EF
32
EF
F6
D9
1E
D3
EE
F0
06
07
09
00
E9
30
E1
E6
F4
EF
1A
05
F8
00
07
0B
FF
06
14
00
13
DF
F9
D2
ED
F6
F8
0C
02
F2
F1
EB
F1
0E
0F
10
E8
03
E2
DC
2E
0A
14
1C
FC
CF
07
00
FE
03
D8
07
F8
F2
C7
02
F3
CD
00
11
F2
02
F5
10
D4
E1
10
F4
E2
0B
0F
F9
0E
13
D4
09
05
26
FB
16
05
06
F3
0D
10
09
00
D6
03
E6
CA
F9
A3
25
08
FA
13
DE
EF
11
DF
09
FA
07
FE
C4
1E
01
0A
21
FE
19
23
22
EC
F8
07
CE
04
F5
1B
FE
F6
FC
F6
31
FF
09
1A
EB
FB
07
02
2F
02
0D
23
C0
19
16
3A
10
D0
EF
01
17
D4
E0
19
EC
01
E0
14
E6
FA
29
E1
CF
32
11
23
FF
FD
1E
0C
F7
F8
1B
06
E1
11
1D
1B
D2
03
03
F6
2C
19
BA
F6
EE
19
E2
D6
FF
02
1E
E4
08
2D
F5
10
FF
47
1D
03
0F
0C
D6
CA
25
EC
05
09
00
01
1B
F7
EA
FC
36
DD
D4
08
03
DE
1B
E2
DD
0F
35
D2
F1
DF
FE
0D
24
EF
FF
F5
E6
00
2D
1F
17
00
EE
F7
DC
FB
F2
0A
FC
DB
FC
FA
D7
35
FB
ED
CC
FB
EB
11
1F
0F
08
F7
07
20
15
BA
BF
EE
24
FB
05
04
21
F7
DF
1A
F4
E0
09
FB
FA
05
F3
08
00
04
0C
DB
F7
D7
1B
FA
1A
1A
CE
FD
07
D1
F3
EB
32
E8
30
1C
E9
03
F7
0B
FE
1B
E2
1C
FA
3C
27
E2
20
20
13
07
FB
1B
E3
0A
0A
0F
04
04
05
33
F5
DF
D0
EE
2A
22
0F
F4
CB
1F
F2
0A
0A
F8
03
1B
F0
1B
F3
E5
17
36
18
0C
F3
08
18
C1
FB
0A
01
06
0E
EE
E5
27
F4
13
C1
E5
FB
0B
04
29
E6
DE
1C
06
00
F8
02
E5
D8
09
20
16
2C
4D
E2
06
EF
F1
15
0B
DE
F7
03
0B
DA
0A
0B
10
DC
F5
F8
D5
E1
11
F5
EF
F0
F1
CF
1A
4B
FB
E6
EA
D5
2F
F9
F9
F6
12
05
1B
F6
E0
FA
1E
ED
12
27
F4
0A
FA
E3
09
33
FC
C1
EE
07
F5
1E
02
1A
ED
FA
15
D1
00
06
0D
D6
03
E6
DB
E4
2A
FB
E7
18
0A
CD
37
FA
1A
0D
0F
DB
DC
03
EB
1A
FA
03
EA
F0
18
E4
1B
27
FF
13
EF
F2
09
D7
08
10
0A
17
FA
22
F1
1F
0B
F9
31
E5
30
E0
12
FA
E8
26
D9
10
0F
F3
23
F8
12
F1
F3
D8
EC
07
05
F8
EF
C6
00
2E
06
ED
C6
00
F7
13
09
E0
1C
CA
DE
12
07
09
0F
F7
F4
04
09
39
DB
A2
E1
12
1D
0F
1E
23
EC
FA
00
DD
32
EF
D5
0F
FC
32
E5
13
D7
33
DA
06
D7
E7
16
E4
D2
41
03
FC
F6
19
D1
20
0A
FE
EB
2C
F5
FC
F1
DF
19
FF
18
12
E6
28
DF
E4
29
24
FC
E7
E1
E5
19
06
F9
0E
19
F4
E3
24
C8
F7
DD
F0
1A
11
D4
E6
0D
04
00
E0
D0
F9
09
EC
0D
01
28
EB
E6
F0
00
FC
EE
0A
0E
3B
18
1D
F2
05
DF
0E
F1
E4
E8
29
08
F6
CF
CE
01
DF
09
E2
F1
E1
1B
0F
F0
1A
25
DB
20
FA
E6
E8
FD
0C
DF
0C
FB
F7
F5
08
F7
0A
21
FD
25
24
00
F5
15
35
ED
04
15
DA
CC
0F
05
22
F9
E7
FB
02
F2
04
FC
F3
D8
FD
21
EB
FB
FF
19
01
17
0F
FF
E3
FE
E2
FC
E9
C3
ED
FB
E1
F1
E5
F4
0C
E6
FE
F8
F2
E8
0C
14
CD
02
27
EA
C4
E7
D4
01
08
FA
34
09
DC
08
D0
16
20
DB
1C
0F
F0
1E
18
FA
EE
03
25
07
ED
12
F4
0A
07
EB
06
2D
F8
E6
E5
E5
10
2E
FC
13
E6
28
27
F6
1B
EE
F9
FC
EA
23
FB
F5
E4
E8
1B
07
11
ED
FD
1D
1A
0B
F8
08
12
E4
21
F9
06
FC
F4
0A
F5
F5
F6
08
D9
10
EC
F3
FB
CB
17
F4
EF
07
19
ED
1E
12
F9
F4
18
E6
03
31
E2
F0
42
00
F1
CE
F6
DA
0D
D0
F0
14
F4
12
02
15
E7
E2
09
22
39
28
04
07
13
C4
20
F9
E2
FB
1B
FE
ED
05
FE
0E
F9
09
FD
E7
12
14
04
11
FB
F9
C3
DC
D5
DC
BE
08
F6
F5
09
F3
EB
01
0F
EA
03
35
E8
EF
07
17
06
15
D1
E9
F4
0D
F4
06
EB
21
DA
D6
EF
F8
F3
0F
21
25
E0
0E
0F
0B
00
16
F3
06
0E
FD
FA
02
C7
11
EF
10
31
D8
F0
F8
23
FF
E3
F5
40
0D
04
1B
3F
EB
F8
E1
18
FC
2C
E4
DE
0B
23
F6
01
0B
05
1E
17
F6
D9
0B
07
1D
DC
04
E2
02
D1
E3
22
14
E5
F8
28
FB
FA
F2
00
01
F7
12
04
16
CE
F0
EF
09
09
11
FD
F7
0A
D0
25
ED
D6
16
F8
14
E8
F3
1B
0F
22
1A
FB
19
06
02
02
08
F9
19
E9
E3
F3
FF
EC
2F
02
26
12
FA
0D
FD
FE
23
FD
0D
EB
DA
F2
F1
F8
F2
F0
0B
FC
0C
F7
02
1F
F5
0D
F6
01
26
F8
FB
12
E2
14
FB
F9
24
04
12
E9
E4
EC
0B
0A
17
ED
01
16
06
F4
11
FB
F7
F9
28
19
24
0D
F0
0C
02
07
12
32
21
E7
F4
03
FC
1E
05
F1
0E
13
2F
C8
16
03
F2
C8
FA
22
F2
07
1D
05
F9
09
FA
F5
10
D8
1C
01
E1
DD
15
0B
26
DB
FF
2A
E6
0F
1D
00
0E
F8
39
0B
09
F5
07
EF
F5
0B
FA
1F
0A
3E
F3
3F
30
0C
21
EE
05
0E
09
10
1B
4B
E8
BF
08
D8
02
27
C9
0C
0E
50
EE
01
F4
15
0A
15
3F
08
F6
46
E5
D7
1D
EE
EE
33
1F
2D
01
EC
11
E5
03
15
04
FD
25
F2
04
42
F5
C7
12
19
E1
F1
F8
08
12
FC
BF
F9
10
54
12
12
14
02
0F
FD
F4
1B
17
16
F0
03
17
EA
ED
CF
0E
02
F9
15
DA
08
D3
ED
E5
27
06
27
06
07
F4
E4
FB
19
42
EE
EC
03
F7
06
FA
3B
10
E9
D3
F3
F3
FE
FE
DB
F5
DB
DF
02
26
E6
18
F0
F5
0F
1D
E3
F8
19
E5
FC
08
12
DD
19
14
04
26
08
D7
32
14
FF
0F
E0
DF
20
CB
CD
E3
EB
F7
EE
EF
1A
E8
FC
19
20
EA
05
E0
31
07
2A
12
0B
F6
0C
F0
15
06
EB
1D
00
09
04
00
15
CA
01
09
1F
F5
28
18
F1
26
1C
20
EB
0D
21
0E
03
D2
F7
09
FC
FC
E9
0C
D5
09
09
F1
D5
EE
E7
02
DD
EB
E9
03
1B
F7
D9
00
E2
05
F7
E0
EE
FF
F3
EA
E1
3B
1B
CE
C4
F9
1B
CC
D6
08
EB
37
D5
0D
ED
DC
EB
26
EC
3A
35
F4
10
20
F3
D2
09
39
14
01
1C
FE
2A
1A
1C
D5
11
16
D3
14
1B
0F
0E
0A
F1
02
39
F5
FD
C4
04
00
11
E5
2A
FE
EB
EF
F8
03
FB
F1
13
46
0B
1E
01
EA
E1
00
E5
FC
04
04
EB
F8
F0
FF
12
E4
F8
02
2E
F2
ED
0F
F5
04
25
C5
1E
11
E5
15
04
FE
CF
E5
FF
F7
02
E8
20
0F
FF
D5
E0
1A
E9
05
01
DB
F6
0E
F6
20
E4
1C
F7
F0
DD
03
E7
22
F6
27
08
03
E0
17
0F
D1
31
EC
17
FF
D1
E8
14
E2
15
0A
17
DA
1B
CA
D1
06
08
E9
F4
FF
32
01
23
2F
07
06
FC
12
07
CC
02
EB
28
01
18
FF
10
11
0C
0A
19
1F
EB
E9
E6
0F
2E
17
FE
F2
09
FE
CE
F6
D5
E5
00
0F
12
01
E5
18
FC
17
F6
DA
DD
EC
28
ED
F3
FF
F9
14
F1
E9
DA
F9
1B
FD
EC
09
00
E1
EB
EF
11
F9
D0
19
22
09
0A
FC
25
01
E5
F0
E7
F5
E7
13
D6
14
07
22
02
17
0C
F2
E4
27
F1
2F
F9
16
1C
FE
0B
07
C1
0A
FB
33
FF
CB
10
1C
03
ED
FE
E5
07
EB
08
36
E2
F6
03
18
FE
0C
3A
F3
EE
11
F4
CB
FC
EB
1D
16
DB
FD
F6
FF
07
43
F4
EE
F3
22
1F
39
19
09
F3
14
F3
14
E0
47
F1
D2
D8
02
EF
FC
00
DF
0B
FF
0D
E4
28
1A
FC
2D
FF
FA
F5
E2
F2
24
2B
08
14
A3
03
E0
1E
37
F1
FB
02
D5
07
E6
03
FA
12
0F
E2
0D
0D
0A
EF
00
F0
02
E6
1F
E5
14
E2
26
08
22
09
18
CE
EB
0A
FB
06
F8
E6
05
0C
32
25
0D
F3
F2
F4
01
02
D5
DE
03
FA
0F
FD
EC
D3
10
22
EB
E2
F9
FB
38
FA
08
E0
DE
FA
0E
01
ED
20
27
CC
0A
F6
F1
36
EC
02
FA
1A
11
EE
E4
1A
FC
16
D3
02
EC
FF
08
CA
21
09
2C
0C
09
13
0D
F4
0F
11
03
1C
01
F9
06
E5
03
06
DC
12
ED
2A
F5
FC
FE
11
F5
22
F5
DA
ED
C9
FC
0C
07
0B
F2
EF
FB
F8
07
03
38
EF
C1
20
0F
08
0D
FB
E0
08
0A
17
12
08
1F
1C
2E
0D
F7
F2
F3
E9
E7
09
14
BF
09
FD
EF
1C
13
01
F5
EC
E5
FF
ED
F4
12
FE
22
F5
49
D9
1F
F2
F4
05
E1
F6
EF
02
FD
23
0F
FA
32
E6
E5
E6
18
E6
2A
ED
F3
14
EB
13
E4
01
F0
EF
F2
0F
0D
F5
0A
1A
F9
20
D7
09
FB
04
EE
1B
26
E5
D3
15
06
E4
0B
21
F6
FD
0E
00
FB
F6
E0
F8
20
F9
2F
2B
42
FC
37
FD
EA
20
09
14
1A
19
1C
0B
D7
D5
1B
FA
FB
05
FD
D3
4C
12
16
EC
1D
FE
FD
20
19
21
FA
0C
0B
3D
14
2B
D3
0F
09
E3
D7
DD
F3
FA
21
FD
12
E4
1E
1C
04
06
F8
FE
29
13
D8
2D
EA
D3
3F
07
DA
1D
1F
FF
F9
13
24
E2
C9
0B
38
CC
B1
15
D4
21
2D
02
21
F7
FC
E6
F3
19
17
0D
00
FA
F7
F7
11
1A
E9
DB
09
05
2C
F2
1A
4E
17
04
03
F5
E1
05
00
E3
04
1C
02
E1
05
0D
FA
1C
02
FB
02
0B
FD
11
D6
F7
E8
FC
18
13
FE
04
FF
EC
CE
F3
CE
F1
F0
09
1E
23
FD
0A
FF
06
F8
E6
06
00
1D
15
ED
06
E9
FC
FE
EF
F7
EF
FB
06
1B
F8
ED
1A
F9
FB
DD
02
FA
07
19
F7
11
E4
DB
0C
06
0B
FD
F8
17
E7
13
0F
13
08
32
DC
04
C5
D4
08
E2
39
EF
DE
0F
0B
FF
18
01
E1
1C
17
51
C9
D3
31
0C
08
EF
0E
2D
F1
2B
0E
C2
12
EA
FA
1C
D2
FE
ED
DB
F6
EC
21
FB
37
C0
0E
1C
21
25
06
02
17
F1
0F
27
1A
E5
E0
DA
05
04
02
04
DB
1E
12
0B
1F
05
0E
13
EF
06
0F
0D
FA
10
FB
03
DD
D2
F2
E9
FB
31
F4
18
27
DB
DA
EE
07
DC
FD
21
06
09
1D
22
FB
F1
10
12
04
F6
36
11
E7
0B
FE
21
F5
20
FD
03
19
EC
F2
14
FB
F4
0D
F0
20
EA
DA
0C
F9
FC
FC
DF
E9
FB
FA
09
0E
14
FF
0E
F5
06
16
EB
F3
FA
FB
05
FD
D5
F5
0A
F7
0B
E7
01
F9
F1
17
F5
1B
EE
27
D5
E0
D3
06
FB
28
19
1F
DC
FA
25
FF
FE
EC
FA
FA
FF
1E
E6
FC
0A
37
E7
CC
F1
10
2F
CB
DC
F7
1C
17
20
F3
0B
03
27
F5
2F
E8
23
1F
1B
18
FE
F5
10
14
06
01
0C
04
DF
34
25
05
1C
09
0D
01
05
0B
17
FF
25
E3
28
EF
0F
2F
F4
E9
F3
FA
0E
EA
10
10
D9
CF
13
49
12
16
02
FC
2D
10
E2
15
19
F0
03
08
25
E6
1F
05
0F
00
16
19
1A
00
EC
24
00
E1
03
0D
F8
01
00
07
E2
04
00
F9
32
05
ED
34
F4
29
16
32
FA
15
26
F0
08
EB
16
16
E6
E9
E6
D7
02
05
FD
04
00
F4
10
F9
EF
0A
02
11
0D
D7
F6
05
FD
FE
F1
22
04
07
FF
07
10
E7
0C
11
16
C9
FA
0A
F8
1F
F3
14
E2
F2
D3
09
DC
03
D8
D4
33
CA
EE
14
19
34
EE
2C
1D
26
E3
E2
E1
EB
03
C1
01
0D
CF
EA
39
ED
F4
11
EB
E7
1A
F9
06
AF
EB
1A
18
D8
F0
E5
E4
2B
19
F8
24
F1
DE
05
12
B3
F8
F6
05
F0
E8
09
04
15
FD
07
FA
F9
E8
0B
43
F6
0B
0A
F6
32
02
DD
1F
E5
BE
1E
29
C9
FF
0A
03
EB
D3
EE
E2
E4
05
D9
CF
0F
01
FF
ED
ED
F0
06
06
F0
09
F7
F0
09
D3
2B
F6
E8
05
1B
23
0A
FB
28
F5
FA
FF
1B
FE
10
03
01
EC
19
19
25
F3
1E
E9
18
D8
F5
13
12
D4
1D
D9
1A
0D
29
1A
EB
F0
EC
0B
F3
E7
30
09
E8
E4
F8
00
FD
27
16
3D
32
E9
FB
36
E3
EA
11
CA
2C
F2
DB
1E
2C
EC
27
E9
22
FD
F9
FC
FD
BB
ED
04
D8
F4
0B
EA
14
1F
EB
FA
DA
47
FC
01
05
E0
F6
06
D6
17
F0
F6
03
17
20
0D
0F
1B
F5
E4
FC
15
05
11
EF
18
FD
05
F7
1A
0F
04
1A
11
F8
08
E8
36
F4
EF
F6
15
E9
0C
F0
01
20
03
1D
22
08
FD
02
E0
26
D7
E7
E9
EF
D9
08
03
FA
15
02
FB
F7
F4
D4
1A
0B
0C
F6
EB
04
12
0A
F0
EF
22
E9
E7
F4
08
16
04
0F
01
DB
F0
F8
D9
FF
08
0E
EF
11
02
04
25
E2
FA
FC
1F
E2
FA
CB
00
14
10
F7
0B
0E
F6
13
C8
E4
ED
EF
F8
09
EB
01
DF
F5
F8
F9
ED
18
09
09
05
F7
C3
EF
EE
19
01
3B
07
E6
F8
11
E2
18
17
F9
2A
E2
13
FB
1A
26
C1
50
0C
DA
DC
F7
DC
1B
FF
E3
29
DB
10
F5
DF
06
E8
D4
2D
16
FB
07
D8
E8
17
0F
06
22
12
E9
CA
16
3E
F2
DF
E4
26
F7
E7
E1
C4
EC
FF
FB
44
BB
0A
D9
41
2F
E7
0F
FE
F5
C6
2A
1F
14
15
C1
E2
14
F0
ED
2B
1C
F9
18
01
AD
FD
E3
21
1B
06
11
27
CB
0A
13
04
FE
01
DB
E5
3F
17
1B
FD
F5
0F
F5
06
A1
F7
FA
FC
F3
FF
E3
F7
EC
39
04
0E
EB
D5
0A
F5
1C
CE
0D
E6
F7
1D
07
2D
DD
FD
0B
E1
0C
1A
F4
0D
FC
E7
06
02
10
F0
F4
EF
FE
08
EA
0A
DA
E7
2F
1A
DD
F0
D8
FD
21
F1
EC
4C
1D
F8
01
26
2A
F3
EC
C4
DC
DF
34
E0
F3
15
B1
38
58
DE
A4
1A
1D
54
E5
1A
D1
0E
06
E7
2D
28
07
DC
EC
1A
24
0E
EE
EE
51
FE
FD
D4
2E
DE
F8
FE
0B
05
D3
FB
2E
ED
37
23
D6
0C
BE
18
F0
31
00
EF
2A
1A
FB
1C
00
E3
32
DC
F6
24
E5
D9
E7
21
09
F8
F8
D0
EB
0A
CC
EC
FF
07
E6
EE
FB
03
FA
DC
DB
02
F5
1D
FB
00
F7
E8
12
CB
06
CF
E6
D9
B8
BE
F3
47
E2
11
05
F2
12
31
05
18
14
F4
0D
26
E9
08
0B
02
FA
2B
0B
1A
DB
EB
DF
F1
11
2E
07
04
D7
D4
FF
04
F5
E7
0A
E7
FE
EC
1E
02
3E
E2
0E
EC
15
18
EF
DF
10
EB
C8
07
17
0B
DA
EA
F8
F9
0E
00
F1
E5
23
FE
14
0C
F1
16
19
03
03
1A
E7
E4
14
0A
0C
E0
05
04
F1
0C
0C
07
FF
0D
01
07
E6
16
03
F9
ED
C6
00
E7
12
FD
00
13
FC
09
21
06
05
DB
08
F5
2A
18
03
E8
01
DA
E5
27
F4
07
F7
05
F6
17
F0
10
FD
FB
0B
02
16
DE
2F
E0
1D
01
E5
E5
16
FC
FA
0D
11
14
45
E3
D7
F2
FC
2A
FD
04
F6
1B
FE
F9
16
E8
1B
E1
F1
1C
F8
F6
09
FC
E8
11
0E
36
F9
E4
08
0F
F4
DD
11
0E
0B
CE
FF
02
EE
EF
C8
D4
1A
EC
15
E3
0F
EE
F0
2A
36
EA
04
F1
14
DC
19
F8
24
F1
31
E1
24
1E
E1
13
FC
EA
C3
E9
31
E8
11
FE
0E
AA
1C
E4
CA
CC
17
0F
ED
F1
00
10
99
E3
F7
3D
DD
03
23
11
1C
F3
1B
05
E6
04
01
FC
32
1A
D6
D4
F5
05
BA
E4
3D
11
0F
F6
EE
22
1D
B9
13
F6
F0
ED
F6
0F
F5
ED
EB
F7
FF
21
05
E1
D7
FC
2A
F4
FF
EE
07
08
EB
FF
F3
F2
10
E0
CB
F2
F5
06
F0
E0
F2
0B
04
F4
F5
FF
EB
11
1B
F7
FF
0E
F5
F8
F6
D7
06
EC
0C
1E
CD
FC
1F
1F
02
F7
F7
FD
13
F5
EC
02
0F
18
F4
1C
E6
0C
0F
14
EF
09
F5
FD
FF
14
F8
06
F2
F8
0E
15
1B
E2
2F
0B
2D
D5
DF
C5
00
FF
13
F2
0A
EE
F2
E9
05
0E
ED
06
01
D6
FC
1A
12
08
D1
D1
02
16
E0
EA
14
0E
0B
50
0B
00
F6
F2
E0
13
EA
E4
03
F5
E6
0D
18
0A
0F
F8
E9
07
D4
F5
FB
F2
27
1B
04
00
17
E0
D8
1F
F6
0C
24
0C
06
07
F5
0D
FE
12
07
E2
DD
D1
EF
44
EF
18
0F
FB
0C
1F
18
F9
0E
06
FD
FD
F8
0C
26
F1
06
31
F9
D3
EA
F9
F0
F4
E5
16
0A
F2
FD
D2
04
13
ED
F7
CA
EB
12
02
0F
FC
1E
EB
0C
03
FF
10
EF
F4
19
12
CD
D8
F7
02
24
F5
18
F0
00
EE
1B
F3
E0
E8
EF
1F
EC
00
20
0E
28
17
36
0D
1A
F9
EB
EC
13
0D
B3
E8
28
E5
FD
23
E2
01
01
F4
24
17
F0
07
F7
E8
F5
1F
F0
F8
08
E5
FA
05
00
15
EB
24
FE
EA
0C
E4
0D
F0
2E
F9
C5
15
11
F2
DA
3A
FE
F9
F5
10
18
11
EB
0D
F3
0B
DE
15
02
EA
26
09
EB
EE
E7
FE
0E
28
00
EE
D8
F1
00
E2
28
16
01
05
2E
09
0D
0C
0C
1A
1A
EE
17
C9
F3
E8
0D
D3
F4
FC
03
FC
09
15
00
03
22
0C
FA
EC
0F
00
11
E7
0E
18
07
0F
F5
F5
F5
18
18
FC
20
FE
D4
E0
10
EB
DF
DB
D5
00
E9
E4
0F
FD
15
06
1F
FE
FB
10
E0
1A
C6
19
36
26
03
F8
BE
0A
CC
F5
E0
0D
37
1B
F4
C6
08
19
24
F7
EC
10
05
03
30
D2
24
EF
07
F5
E9
FE
11
0E
F1
0D
F7
F5
D4
F3
0E
EB
20
B8
F4
3F
E0
FA
FE
00
FE
0B
F3
14
E4
09
10
F9
34
F6
EF
F2
2D
F8
F1
14
F2
06
33
0F
DF
11
E2
01
D0
18
FD
F4
F4
02
F7
CE
0C
EE
14
F8
19
05
37
24
FD
1F
10
E8
E9
D4
F1
04
25
16
31
F1
F9
08
03
10
12
04
1A
0A
36
EF
03
E3
E9
E8
04
A3
28
07
09
EB
20
F2
F7
03
E1
14
F7
17
0E
06
12
28
00
FD
EC
01
1B
06
16
FD
FD
F9
E2
10
E7
09
D0
22
30
EE
0E
17
F4
E2
21
E0
16
E9
1C
2A
F6
2F
0B
DC
38
D7
EB
13
0F
0C
DA
0F
01
F8
FB
20
04
E8
10
0E
CA
DE
07
F3
FB
DA
07
0B
03
EE
08
04
00
D9
13
29
F3
E9
FC
DB
D8
F9
FE
F7
FB
EA
1A
19
E7
03
DC
36
00
0D
32
E5
08
20
08
0C
0E
CB
3A
24
04
0A
00
1B
FA
E6
06
08
0C
D1
F2
24
FD
FC
0B
FC
0B
0D
0D
E4
FB
1D
FE
0A
F3
BD
0C
03
C1
29
32
FD
EA
08
FA
11
06
18
E3
CC
C0
F3
D7
F2
10
E2
F3
EF
1E
01
2F
FD
01
0C
E9
43
D8
F9
38
E1
2D
F4
2B
F6
1D
09
05
06
18
F5
0B
10
E7
E7
1B
20
F2
1D
DD
06
06
0E
F6
38
1A
04
F5
F5
F9
19
1A
43
F6
C7
F8
30
F4
10
E7
DE
FB
38
00
05
EF
FD
16
01
F8
F0
26
16
2A
15
F2
10
D6
1B
06
F5
1B
EB
E6
28
0A
0C
0E
06
0A
D1
0D
12
0A
23
EC
EB
FC
1F
02
0A
08
1A
F6
E1
F3
FE
F8
28
25
09
F9
08
0B
FD
DF
13
08
08
FE
0F
EE
FC
EB
13
FB
1A
0E
0C
F1
2C
0E
04
DA
03
FF
11
14
C0
F8
2E
EC
FA
21
08
F0
25
EA
1C
12
F8
2F
10
DC
11
0B
05
03
1B
28
04
FF
12
F4
DD
1C
1A
0E
0F
39
F6
DD
00
08
E6
E6
05
F0
F0
E1
1B
FE
1B
B7
E5
06
15
17
14
F5
1B
34
35
06
00
12
DE
E6
C7
ED
00
19
2A
EF
FA
25
00
17
36
F2
F2
ED
0D
09
3B
1A
1E
BA
02
F0
F5
07
ED
D7
02
F4
F3
DD
F2
0C
3B
DC
1E
03
1F
1A
F1
AA
B9
35
F9
E5
14
3E
F4
25
14
FB
EF
F0
1D
1B
01
0B
2B
E1
D9
DC
DB
F7
F5
F9
DC
B9
E9
E3
10
14
DF
01
06
DE
E4
15
ED
F0
04
0D
0C
E7
D2
FE
F9
07
1C
15
11
EA
08
E1
01
24
18
0A
02
19
F6
E0
04
27
F2
24
F3
F2
17
11
08
E7
EB
F7
1E
36
19
07
F9
17
F4
E9
F0
06
FC
0D
19
F5
E5
0F
F4
E1
29
00
23
36
FE
16
FA
11
F6
F1
DE
11
21
14
FA
1B
FD
FA
D9
F6
02
FC
28
FD
53
E5
D6
33
F2
23
25
12
17
F8
11
FD
0E
FB
1F
06
06
27
DC
EA
0C
F6
FE
F7
FC
0A
15
EA
1D
09
EF
F8
0E
06
F8
E3
EB
17
2C
ED
C4
31
D6
09
15
FA
C9
0D
F8
FA
F1
06
F5
EF
0D
D5
03
0D
E1
0B
ED
D8
FC
E5
D5
FE
25
F7
F2
0E
FD
FF
D3
2F
DB
01
DE
15
E0
F1
E3
0F
12
FB
E3
11
D4
0A
37
1E
33
FE
05
09
FE
14
F7
1D
05
0F
ED
0B
0B
03
FA
33
F4
FF
2D
0E
FE
E2
0F
24
D8
FB
01
F2
EF
E7
16
12
0B
38
0C
08
2D
12
E1
CE
1D
D6
00
00
F8
D6
E1
14
FE
0A
F4
1F
E0
DF
1A
25
F0
1A
E8
E8
08
0D
FE
0D
E5
E7
1A
C8
0D
06
F2
B7
F9
71
D8
D8
1E
E7
EA
20
EB
05
E9
FE
20
0D
05
BF
2D
0B
22
28
E8
0A
E9
FD
33
13
0E
02
0F
E7
C8
EF
14
0D
CD
05
F4
21
EA
33
F5
F7
04
CF
DF
FD
27
25
D5
F6
0B
FA
37
F5
FB
EE
07
14
14
E1
16
2A
F3
12
1B
0A
2C
2E
F4
F4
F5
05
01
05
E5
0F
F7
00
E3
F4
16
D2
C2
1C
44
FD
DD
1A
C2
25
E3
D1
12
FF
53
CF
F6
22
E2
1D
E4
FF
DB
0F
27
ED
DE
FC
EC
E9
18
EE
D6
E1
CD
EE
FC
C1
39
E6
03
FC
F0
EB
F9
B4
09
D5
E4
02
04
CE
EC
1C
0F
34
FE
00
EE
01
ED
1E
D7
D3
EB
FB
F7
16
07
16
07
18
04
FC
C9
AC
FC
ED
07
D8
F8
2A
28
0D
31
EC
28
37
F8
FC
1F
07
21
DB
C9
21
EF
00
36
04
05
3C
E4
01
00
FB
DC
15
05
FF
20
14
17
D5
00
E9
1D
F7
0E
FD
F7
FF
01
FF
FC
FF
FC
F6
13
C6
D6
D7
0D
15
14
0B
33
E2
FF
0B
FF
06
10
18
FF
F4
FD
FD
E3
1B
EA
26
D7
24
F0
E6
E1
0B
E7
28
FA
1E
DB
F8
02
DA
D6
01
01
FF
FD
02
04
02
01
00
FE
00
01
FF
02
00
01
FE
04
F9
03
00
02
00
03
FE
02
FC
01
03
FF
FF
00
00
FD
00
03
02
FE
00
FF
04
04
FE
FF
00
01
00
00
00
FD
00
00
01
00
FF
01
00
FE
01
01
FD
FF
00
FD
E8
FF
06
15
F2
FB
17
0F
F0
DB
40
ED
02
10
E7
12
1C
D1
03
CF
EB
DA
0D
03
F8
01
0C
0F
17
0C
13
CD
F4
1D
18
05
EB
F8
CB
4D
FE
E4
F4
00
F2
E7
2D
0E
2E
04
EB
EA
EF
F1
EE
24
F9
E6
F0
18
0A
04
C2
E9
F1
CF
47
02
EC
F5
11
F8
10
EE
20
ED
05
21
0E
17
10
07
0C
ED
23
F9
FC
00
05
F7
1C
1F
25
12
E4
EA
E2
F6
F0
01
03
31
25
DF
1A
48
17
10
E5
FC
D4
F6
0C
20
DF
D8
09
13
02
2D
F5
1F
1B
FF
08
C5
E5
09
0C
07
02
13
D2
FB
EF
EC
EB
0A
11
F3
FF
D8
10
F4
02
F3
DF
ED
E9
DE
15
DD
E9
15
FA
0C
0B
03
E5
1C
08
FB
EF
07
0B
07
35
03
38
CE
DB
22
E7
F0
0E
FB
FF
F1
EB
08
E1
E3
27
F2
1F
14
E4
E2
1A
09
14
EE
F8
DD
0C
F2
C5
F3
E9
EC
F6
DA
EF
D9
E8
45
E7
CC
07
16
FF
1A
16
F0
B3
07
2D
0B
10
DB
FD
24
F8
19
E8
E9
F2
EC
18
D5
FA
1F
F6
15
08
1A
0D
23
10
FE
F8
19
F1
1E
1E
F9
FE
06
F9
04
FC
08
02
FA
E0
FA
DC
0F
FE
05
1D
12
1B
1C
F8
FB
22
23
07
E6
EC
11
2A
EC
DC
13
FA
23
CA
17
D9
1F
27
24
F4
E0
E0
1E
FF
D7
11
04
FA
06
F6
0E
CC
0B
F7
F3
0B
EC
4B
08
24
ED
09
F6
E7
12
EE
FE
03
DA
11
32
22
1B
11
25
08
EA
FF
ED
FD
FF
1F
01
2A
4D
25
E6
FB
09
0F
00
FF
00
F8
E3
13
18
10
F2
02
1C
E5
F2
DE
EC
2A
EB
01
FF
1F
C7
17
FD
F4
14
04
FD
EE
0A
1B
DF
04
19
0B
E8
F3
0E
F4
21
16
F9
E8
F6
CE
C5
1D
DC
08
08
FE
F7
0F
FD
F6
EF
FF
F8
FF
FF
FC
0A
F3
1A
FC
07
F4
01
0D
00
FD
F2
0B
0E
FE
FB
08
F8
0D
FE
05
05
0B
01
FA
ED
10
05
EE
FF
FF
F0
F2
FC
03
FC
07
04
03
F4
04
F3
FD
02
0F
08
0D
F8
EC
14
FB
04
F9
03
08
F8
E3
07
00
16
06
D0
C9
E4
09
2F
1F
E9
E8
05
1A
EC
1D
17
0F
06
EA
32
E3
02
51
F1
FC
E9
1E
21
03
EA
0F
F4
04
ED
2B
1A
C6
22
34
01
FC
26
EE
00
16
0C
0A
44
F9
F8
FB
E7
FB
F4
0C
28
F4
DF
05
0A
F7
DB
03
F0
00
10
18
0A
F4
E9
17
ED
12
F1
19
EE
08
00
17
14
E0
09
1E
1C
DE
F9
0F
FC
29
FF
19
03
E0
0A
25
11
F1
DD
03
04
F9
0F
F8
10
F9
EA
15
17
20
D5
3D
F2
22
F6
F0
FE
FC
16
06
1A
EC
E6
1B
FB
F8
10
10
09
0C
F9
E5
F6
05
E6
06
21
F3
18
08
EF
0A
EE
DE
30
CD
EB
01
0B
FB
FA
00
FB
30
F9
F7
FE
FA
01
13
27
FA
F2
E4
D8
E4
27
F5
F5
FE
DA
04
CD
1D
DE
0A
D4
01
F7
E4
0F
F5
1D
17
23
01
ED
1A
08
18
E9
17
12
F5
EA
0C
EE
DA
ED
02
1D
05
05
CF
05
10
23
E0
BF
E2
1F
C8
EB
F3
E7
FA
F2
F0
06
25
24
FE
F8
F3
02
FE
F3
FC
F0
04
F8
2B
D9
24
C5
2B
EE
EA
D3
FB
02
04
D9
0F
07
25
1B
16
EE
CC
09
2E
22
12
32
E1
16
C9
01
FD
ED
FC
08
26
20
FF
01
07
F8
F8
E9
FC
03
D1
F2
1C
14
EA
03
10
1D
E1
4F
31
07
24
FE
0A
02
11
16
E9
2C
E8
FF
01
39
EC
06
C0
0D
00
06
0D
F3
18
EF
F2
21
F7
FE
DE
06
22
20
F9
DA
1E
DC
18
FA
F5
09
DC
17
20
0D
0C
C9
E9
1F
FC
F2
1D
DF
F6
1A
19
0A
13
09
E0
EF
EB
F1
E6
13
F2
EC
E3
16
F7
E7
ED
07
01
15
12
09
DA
FD
EC
DC
F4
D6
F4
08
0B
04
DF
D2
19
20
08
EF
08
02
01
FD
1D
00
1E
11
D3
01
14
06
E5
0C
08
0A
D4
1E
19
EE
1A
1E
F8
F2
10
EB
FD
11
F9
08
F5
FF
12
10
04
17
DF
08
12
E5
13
01
FB
F2
F3
EA
32
DF
03
04
F8
FE
16
EE
04
FA
17
EF
00
DC
05
02
F7
F5
F4
22
F8
E4
EE
07
09
DB
FC
E9
26
FF
E2
DB
DF
FF
FD
13
02
E3
EB
FA
34
CB
05
0A
E9
19
06
F9
E4
2B
22
1A
F9
19
10
35
F0
01
FB
FF
EF
08
35
F9
EA
19
01
04
0B
FD
D9
0E
0C
21
FF
0E
03
E4
FA
BE
F3
E5
EC
1F
FE
0D
28
06
F0
17
11
FD
F9
CD
E9
F6
02
ED
BE
21
01
0C
DC
13
05
01
D5
EA
0E
E3
08
F2
E7
25
E7
14
10
CF
02
19
02
EB
FB
F9
07
B5
EC
00
18
FF
FF
D8
EE
0A
F9
F7
D8
42
18
39
1E
FB
FE
2F
17
AF
03
FA
02
0D
FB
CD
F8
EA
00
22
10
07
0D
0A
C0
1A
E5
0D
05
DE
1A
29
03
C9
F2
08
0F
E6
EF
E2
EB
EE
33
EB
FA
12
08
E5
0F
EF
E8
0A
1A
F9
C6
EE
E4
FE
17
2E
FA
0D
FD
E2
0B
01
FD
F5
07
1A
E4
29
01
E8
EF
0C
2E
23
06
03
D2
DD
F2
2E
F7
DA
0F
16
1A
EE
FD
F6
E1
FF
05
DF
03
C7
EC
00
F5
FC
3B
11
14
E5
04
19
1F
F9
EE
DD
DD
D1
22
EB
F7
0F
46
12
0D
F9
D6
0D
E4
10
DA
F3
01
F5
12
04
E6
2B
E5
09
FB
F4
ED
1B
13
ED
E9
1B
D2
F6
01
EF
F9
2D
05
FD
EF
0F
EF
18
E4
07
D2
0C
00
C3
23
F0
15
F9
16
20
DE
22
35
F7
D1
02
F8
F1
F1
13
08
E2
02
06
24
FD
0D
F2
F5
1B
FC
DF
08
28
2F
F4
35
0E
EE
FA
F6
02
15
E2
00
34
E7
E7
E0
FB
16
02
EB
E6
FC
29
03
F0
F2
DC
DC
E6
FD
11
E3
E9
E9
06
05
F8
36
F3
2F
0C
20
15
FB
1F
2A
03
CF
D9
13
EF
FB
16
FD
14
02
EE
D5
0A
EB
17
23
1F
E5
23
E5
24
3E
C7
1F
31
F4
04
F6
04
F7
FF
24
FF
2A
04
F8
02
FB
F5
2A
07
E2
EA
E9
1E
FF
FE
FF
0F
28
16
00
F5
18
EE
EE
FF
FF
D5
02
F9
FC
04
15
FB
F2
16
FE
F6
13
EB
07
03
1A
0B
02
04
D2
E1
20
01
F9
D7
1A
E5
FD
16
15
F6
EB
EB
3D
E3
3A
03
FD
29
3F
11
E7
BF
EB
0B
1B
25
36
F2
EE
E1
25
DB
FC
E3
28
EB
07
CF
06
ED
05
0F
FF
EC
EC
01
E4
CB
36
E0
2B
FA
EE
00
16
F3
F6
0E
CB
EB
F0
0D
EB
40
D6
CC
F4
12
62
11
01
E4
3C
0D
DD
03
22
03
21
F6
DA
10
08
1F
DE
D8
D4
E8
EA
E9
1A
DB
0C
F9
EC
2D
F9
0C
04
E6
0F
10
FB
E7
D7
06
13
13
0A
0B
36
E2
DB
16
0F
D5
FC
1A
F9
23
09
F9
2B
F2
23
E0
F9
08
FA
EE
F0
DC
DC
FD
24
3C
DD
E5
03
FD
F6
35
20
E6
ED
E1
E4
02
08
D0
F2
02
F8
01
2E
10
EC
DA
17
FB
09
0F
02
F5
32
E2
26
0B
FB
E8
32
DF
D4
11
E7
2E
13
E4
15
FE
E6
F4
EF
06
D4
2F
10
1C
F5
24
06
06
FF
26
F9
CF
CF
22
0E
C8
1D
0C
FD
15
07
2D
EA
F9
F5
48
FE
19
14
05
DD
13
28
EA
F5
3E
ED
F7
E9
0E
18
1B
0F
0F
F4
FF
1A
E2
19
66
E9
12
F5
DF
F8
EB
30
11
E5
FC
0A
11
1A
D4
00
FA
03
EC
00
33
F9
0C
16
25
EA
2D
ED
F3
F5
F9
07
EE
EC
E1
14
D8
17
03
E7
E8
ED
01
09
FE
DB
06
14
18
F4
02
F9
1B
DF
08
1A
D5
F7
E7
17
E0
F7
08
F4
04
C4
28
E2
12
08
EE
DA
17
FB
09
20
09
F0
26
E6
F6
13
48
FB
FC
0C
1A
1E
F6
1B
2B
0A
06
2B
19
00
07
FC
1C
EB
F0
0B
2B
FF
1C
0C
E3
F2
09
00
0C
22
2B
22
01
F6
DD
FE
F4
17
1A
31
12
2B
F9
00
2E
E8
EB
09
10
05
F8
11
01
14
EF
04
08
1B
F9
15
D1
03
03
FB
00
DE
EE
18
01
1A
02
0B
05
0E
E6
D6
ED
04
E3
D0
0D
F0
08
14
30
09
1E
18
13
CE
EC
04
FB
F0
26
15
01
08
F9
04
1E
08
F0
FD
27
08
DF
11
04
FA
0F
1B
0B
16
22
14
E5
EB
1D
19
00
F0
E1
00
06
12
F2
0D
EB
E2
EF
DC
05
1F
01
03
3B
14
25
03
F7
12
FE
16
F8
00
F5
1F
16
07
1F
EF
E3
03
FE
FF
F5
F9
E8
DE
E7
17
E1
EA
1B
25
0B
0A
05
CF
D4
14
08
FF
06
F4
3D
05
32
E2
03
DB
E9
3F
2A
E0
35
26
15
14
DE
D1
FB
DC
F5
F0
15
02
20
DD
E9
05
DB
16
00
06
12
02
C7
0D
22
DF
0C
FE
4B
4F
EB
F7
1A
0E
00
03
11
04
0F
EA
EA
02
15
E9
27
20
0D
FB
14
FA
F5
D8
0C
1C
17
08
1D
0A
F2
F0
0F
D3
E3
08
0A
02
E5
E0
03
00
16
E7
FF
24
13
43
10
FB
E5
00
1A
EF
22
F4
FF
E1
0A
EE
E4
13
0A
11
27
23
F8
1C
FA
ED
19
F7
13
FF
1B
EE
0C
09
CD
F8
CA
08
E1
3D
0A
D9
08
17
0B
0C
FF
E3
06
DC
1E
FC
F5
24
02
D5
01
3A
EE
0E
22
DA
23
F6
31
D4
01
4F
2A
00
D9
F2
FB
E4
13
19
11
CF
05
53
F7
29
1F
EA
18
18
FC
08
09
13
04
FD
0B
E9
33
B1
07
F9
2D
B6
2A
F8
FB
0D
DE
D8
14
CE
13
43
E6
05
E5
13
F9
03
DC
0A
14
2E
F4
EA
EC
C5
0B
F9
D1
09
F5
10
03
1B
01
04
E0
F5
32
14
12
ED
29
23
EB
FB
11
ED
EE
FA
FB
07
11
0D
08
FF
07
F8
05
01
F9
EE
F5
0E
F8
02
01
0B
FE
04
06
0A
06
FB
FB
F9
F8
F6
0A
03
FB
FB
FC
F9
FB
02
07
07
09
0D
FF
E9
F9
02
F4
15
F5
FF
FB
0A
0B
08
05
F6
06
08
02
09
01
00
FE
F8
FD
FE
FD
02
F4
02
1A
1A
EB
10
2F
0F
EF
26
01
05
C5
05
23
D9
45
FB
C9
0C
CB
02
F9
0C
FE
07
F1
02
EE
F3
2D
1A
F6
0E
10
12
BD
FC
F9
F2
10
F1
EC
F1
FD
E2
F8
F4
03
14
FB
1A
C9
E7
DE
05
E5
28
D5
EE
2B
DA
1D
EC
E9
FE
05
FC
F6
18
08
11
F8
FB
F2
0F
25
12
0E
03
21
13
D8
17
0E
ED
F9
1B
F1
1D
DA
44
19
01
07
0B
07
03
FF
0B
FD
FE
1D
F2
FE
D1
EE
08
FB
15
10
0A
DB
FC
F9
E5
FF
E9
FF
F9
0C
1E
01
19
44
21
1B
10
F4
C4
08
D2
04
EC
10
D0
13
C8
10
0A
F2
0D
CB
F3
F5
25
23
40
F4
BE
26
11
1E
02
E8
06
CC
3D
F9
F5
28
01
F1
DF
18
D3
E6
ED
EF
EE
04
15
E7
17
D6
FA
DD
08
0A
F7
DB
EB
42
E2
FD
09
E7
5A
4B
DA
F2
DF
D2
0A
F9
F9
03
3F
CD
E9
EE
E7
F7
FC
16
F4
2F
EF
EC
08
BE
2A
FF
B3
E8
D7
E1
11
F0
09
F4
FA
0C
E8
E7
14
09
2C
22
F3
02
2B
08
EB
21
24
E7
F2
FE
05
E4
13
27
E5
E9
1D
4B
E3
06
F5
F0
F1
0D
BB
4B
0F
E9
DD
F6
2E
03
F8
BE
CA
FC
FD
18
F6
0B
E4
14
17
DF
F4
05
28
DF
D7
F9
02
4A
F7
19
FB
E1
04
09
20
10
09
10
AA
BC
02
E7
F0
ED
FA
07
00
FC
3F
17
50
0A
04
05
DB
86
24
18
C2
21
5B
CC
FB
62
E6
F0
F1
CB
35
2B
D4
F1
E8
DE
04
20
D2
01
F8
26
EE
FA
F6
04
F5
31
16
F1
0F
E0
E5
1A
08
19
F4
15
FC
0D
06
4C
2B
0E
FD
0E
1A
FD
F8
EE
FA
00
09
17
D4
E7
25
0D
01
F0
FD
1F
14
1D
38
DA
CA
F4
FE
11
1A
EB
ED
10
26
F3
1E
FB
07
F4
05
FE
09
FE
E3
E8
00
10
1B
30
F9
CD
33
E5
24
CF
01
18
D7
20
E6
02
15
E8
1E
3C
1B
FA
0F
FF
F5
0B
F9
1B
15
57
07
04
DD
CC
15
11
51
E9
FD
DA
17
18
1E
C9
F9
CA
04
2C
F4
0E
DF
15
05
C3
03
F5
F2
FE
F9
10
F7
07
FB
DC
AA
F3
1A
29
D1
0A
FF
F6
2A
3F
F2
FE
0B
F9
07
F7
1D
DE
F1
0F
11
0A
DB
FE
0E
FB
09
32
0F
0F
1D
F6
07
02
33
E9
D7
2D
28
24
25
05
F4
D4
FF
25
D7
09
E2
29
03
F0
1D
E5
FD
E6
FE
D1
0D
EE
0C
14
09
F1
1A
F5
FD
D0
FB
11
F1
20
0A
F8
F3
08
E8
05
F4
C1
F6
F1
0E
F2
2B
E9
F2
B7
21
FA
0A
EB
0F
E4
E8
1A
FD
08
ED
24
EF
FF
1B
0F
E0
14
F7
E6
FE
09
D0
DF
22
DB
F0
21
2F
1F
F9
1E
D1
FE
F8
30
F6
F3
1E
0C
25
0C
0D
01
2D
F2
03
03
F3
F5
0D
1C
0C
D9
20
DB
F5
10
CA
F8
11
F4
ED
E7
12
05
01
E4
EA
03
04
0E
06
06
FD
F9
1D
F3
08
FC
E6
C8
B4
E0
FB
31
EF
2C
FC
E5
EA
2B
02
1D
E8
00
01
E0
D0
FB
EC
EC
13
1B
EE
F6
19
F3
E9
2A
00
E6
E5
09
F5
0F
28
21
D8
20
FB
ED
F8
2F
F3
EA
CF
19
02
ED
08
ED
FB
D3
ED
FC
1A
0F
E5
05
12
FE
0D
24
1A
2F
F2
00
FD
0E
F2
1D
04
14
11
F5
00
16
0F
20
12
0A
04
29
F2
24
DE
0B
0D
FA
10
2F
1A
E5
0C
F9
00
0E
FE
E4
0B
DF
19
1F
02
0C
15
ED
DE
2D
18
FD
07
2D
F2
CD
F5
05
02
F4
ED
14
E6
F3
1F
0C
28
E3
21
0E
FA
12
05
E3
2C
E8
FD
F6
13
13
DC
E8
FC
24
38
1B
E9
EA
F1
ED
05
FC
D8
E5
09
12
19
F7
36
D7
E7
E2
0F
FF
10
F0
14
2F
02
10
ED
0C
07
0E
EA
14
D9
20
F8
09
F4
0E
F8
CD
1B
08
17
D3
25
12
00
EB
14
13
FC
16
08
13
2A
39
EE
23
FE
04
F2
30
E6
FD
01
1B
ED
04
E0
F9
F2
24
16
30
04
09
0D
E2
BC
08
F0
16
00
E8
06
14
F6
D4
07
01
F5
F1
F6
40
02
F0
16
EE
FA
0E
FC
20
E0
1A
0D
DB
EB
F8
0D
11
D6
DF
10
E8
F2
F1
0A
28
E7
01
1E
1F
24
32
0C
19
F3
05
B9
F5
F8
04
01
07
ED
F8
0A
17
CF
F5
0F
FC
08
29
1D
35
27
12
0F
08
0C
EB
03
E8
01
2F
03
15
0B
E0
28
DF
F7
FB
E3
F0
26
1A
F1
F2
F8
11
E8
FA
1D
F3
08
06
EB
F0
16
23
ED
FE
F5
FE
F8
F1
15
E4
CF
14
DD
1E
0C
0E
E5
CB
0A
F4
F2
0C
FC
2C
15
0B
1F
F5
ED
E7
29
F9
0F
E7
F1
18
E4
20
1C
FE
FF
00
F4
06
F0
E6
05
EF
2F
D5
EF
32
0B
15
D9
0E
FC
07
F3
D9
02
04
1B
E8
09
0C
DF
1B
FC
42
F2
FD
F7
1C
07
03
F3
10
FC
E6
05
13
EF
18
14
09
1E
F5
F1
FA
F2
ED
C8
14
21
05
DB
0E
D0
F5
14
FE
1A
02
18
FA
1A
D7
18
D6
1D
0B
EB
2D
21
EF
FF
FD
1A
1D
E5
1C
29
1D
FD
0A
EE
E2
FC
DC
08
06
EA
03
30
F2
17
12
0B
F1
13
17
F2
09
FF
05
F9
F8
F9
03
14
E3
F1
19
E4
08
FD
14
FB
0B
EB
FF
15
D7
03
F0
0C
20
02
0C
F4
CC
0D
12
05
E6
0F
10
1C
F7
F7
FE
FD
FF
FF
D3
21
F6
0D
17
ED
05
F4
13
0A
04
E9
ED
26
03
F3
EC
0E
EF
F8
03
06
10
11
11
16
CB
0F
08
17
36
15
D8
05
F3
EB
FE
FF
DD
DF
14
0C
0A
F2
FB
20
08
1B
18
1C
DE
F7
FD
EC
2E
FA
F6
25
11
12
01
2D
F9
FF
DD
EA
F2
09
0F
D3
0F
12
FE
22
0E
FD
26
FC
CE
27
05
D0
F1
F5
DE
04
BC
F4
03
E6
ED
17
E2
73
0D
24
E8
29
14
12
16
25
FB
04
FC
35
F5
0D
FB
FF
E7
FB
EC
11
28
03
1C
DE
13
FF
30
1E
F8
33
10
D1
01
28
1F
F2
25
EE
08
F6
0A
F1
EE
09
EE
0F
0D
E5
F1
25
07
0E
01
13
27
04
0A
F1
EC
C7
F7
24
20
01
34
EB
F9
0E
19
E3
41
C9
DD
0D
F1
0A
ED
F4
D7
09
19
CA
01
41
06
18
16
2A
1A
D0
22
34
0C
09
E7
DE
D0
14
E1
01
E7
1C
26
0F
15
15
F1
F1
F4
F1
E8
01
ED
E1
1F
06
0C
E7
F1
E9
3F
DF
F6
0D
00
16
FF
00
0A
1F
18
11
E4
30
07
F5
1B
13
EF
02
DF
16
C7
28
CF
EE
FD
E9
13
12
12
20
0E
0A
0E
05
E4
E8
06
0B
FD
03
07
18
03
03
00
D3
F1
D6
D0
13
0C
D9
10
3A
FB
E6
FB
CD
09
EE
2B
EA
2B
D7
11
05
3A
E3
08
FA
00
F5
F9
D7
E6
E8
26
EA
FD
0D
F9
F6
F4
0B
02
1A
F8
F6
03
E3
FC
22
0C
F2
F7
FE
D7
D1
04
17
13
E4
BA
32
EE
E1
1E
16
0D
F5
0A
19
E9
05
F9
1B
FF
23
FE
0B
0D
F3
16
E9
E4
12
F7
EB
00
0E
E9
0B
FE
D6
E0
EE
22
F7
E3
DE
F3
13
E2
26
EB
FE
1D
12
07
2E
1E
10
02
12
05
11
0D
F4
DA
FC
E1
FD
FF
0A
22
F1
FC
BF
EA
F5
17
26
0D
0B
E8
FA
35
E2
10
FE
F7
0C
07
0F
EC
04
EF
FE
0B
01
25
CA
17
EB
FD
DB
FF
0B
12
B7
ED
02
F5
F7
1E
FB
F3
0D
17
15
0B
2F
C0
D4
CF
E1
D4
DA
EC
F7
D5
EF
47
44
15
1D
F6
1C
DA
44
F3
DE
32
EF
22
0E
DE
17
C3
18
0B
C8
24
E4
CA
1B
E9
06
EC
0A
F3
C2
0D
10
07
F6
02
F4
FC
F4
3B
FE
18
23
08
0C
F6
02
1B
04
EC
22
13
21
E3
0F
16
20
0E
F1
DB
34
D6
05
F3
2E
FD
EB
0B
1B
FA
2B
1F
F8
E0
FF
FD
DD
D7
24
14
F8
15
FB
FF
F0
10
F0
FD
00
E4
E6
F2
E4
F1
F0
05
1B
F0
11
DA
3B
FA
14
FE
ED
13
29
F9
D6
0E
F9
E8
FF
0C
D8
28
38
25
ED
E6
11
2D
0D
EF
C1
11
0B
E0
0F
1A
20
0E
E6
DF
0A
E4
1A
16
1D
DB
05
06
EF
F0
10
DE
0F
E7
27
1F
07
0C
F0
07
F7
F2
07
E3
13
1E
0A
F9
04
21
EC
EA
FC
36
F6
17
09
E3
05
DF
E8
00
F7
12
13
DD
FA
0C
2B
49
26
FF
03
FB
F3
E2
E2
19
E8
01
08
1A
10
E3
09
FA
FF
1A
0C
DF
EB
D6
F1
F3
F9
F0
30
FA
F3
11
EA
F6
DF
EE
0C
29
55
0B
0A
F3
F3
E4
03
1F
0E
13
FA
F7
03
FF
0C
FF
39
04
19
1D
E5
FF
11
1D
13
EB
1B
27
E4
F0
FF
E6
13
F0
0B
47
22
3F
F1
F6
EC
0E
22
C6
DA
EF
27
EE
05
C1
07
EF
04
42
C2
02
FC
FE
CE
F3
EC
1D
06
F7
0A
F6
DA
0B
DC
0E
0A
F1
12
01
E0
0A
E7
13
03
15
35
21
F7
23
D8
1F
2E
00
FF
EA
F0
FA
01
19
DC
0F
EA
D6
E0
03
F8
DA
C7
2E
F3
F8
13
EE
CE
00
2E
F5
0B
04
22
00
BC
0E
EE
0E
35
28
E1
DE
0F
08
F1
F5
E6
2A
E3
07
EE
FC
11
E5
25
DF
F6
EB
08
1D
03
E6
F5
CA
09
16
43
F8
DE
0B
07
ED
13
E7
2C
2D
F0
39
09
D6
EB
21
F5
16
0B
FC
C2
18
03
E8
D4
EE
13
DA
01
28
0C
EB
01
10
F7
D6
F3
16
E5
FA
19
12
FB
27
0B
34
1E
07
C3
FA
E1
F5
EF
D7
14
19
E0
F8
DF
14
0E
FA
E6
E1
F5
F3
0C
ED
06
07
16
EE
CB
1E
02
E3
14
13
02
F4
DB
FE
F4
D1
F2
EB
08
0C
32
30
DB
F4
28
F1
FE
25
FA
23
EA
1A
23
F5
24
26
07
06
F6
32
E8
03
F3
FA
0B
E7
E7
C7
F8
FA
20
1C
DD
18
18
E1
FA
EF
11
1A
1C
D8
E0
01
FB
CB
F7
D0
1D
1E
BE
02
D1
F8
04
13
1B
13
18
E3
D2
F5
F0
37
40
D0
F4
19
D4
DE
E5
0D
0A
0C
DA
CE
08
32
AE
DF
47
D0
E1
14
D4
DF
E7
F6
F8
DE
10
DE
1C
EB
FA
0B
17
12
19
F2
EE
FD
08
FA
0E
00
01
0B
1A
E9
F4
00
D0
34
39
DF
C9
FE
E7
0B
20
FC
06
F0
1A
03
05
11
1D
29
FC
00
17
21
2C
1C
F1
34
17
FC
C7
E4
03
17
E6
F5
EA
10
0E
FD
01
E0
2A
FD
16
0D
1F
04
F1
EA
F0
FD
FD
F7
FD
FC
0A
01
D4
F4
ED
FC
07
4D
15
00
EC
0F
FE
F1
04
FE
DB
0F
E7
0C
0E
44
15
13
E8
FC
E7
E9
00
F8
05
00
EF
F3
23
EE
E4
F3
F9
12
EE
1A
1F
34
01
07
06
0C
07
12
F0
17
E9
F8
0F
ED
FF
F4
0B
FE
11
05
F8
EB
EE
F3
F3
1E
F3
FF
E9
07
03
35
16
F8
F8
F4
0A
F6
D5
0F
DD
21
F8
04
22
11
F7
11
05
D6
22
16
D6
FA
FD
F3
DB
07
09
05
1D
36
E8
FE
F0
EC
0C
29
DC
FE
1F
15
E9
0A
E3
E4
FB
EA
13
D9
18
F1
22
19
0F
E2
DB
D5
EA
07
E6
05
17
03
08
2F
1C
1D
09
F6
17
05
D5
F0
01
38
F9
F0
20
0B
0A
24
F4
25
29
29
F2
05
00
07
D4
E0
FD
17
0A
09
FA
06
12
C5
E2
F9
20
FD
0B
D8
F9
03
10
F6
1E
FB
00
06
17
F0
FB
FF
1B
FE
FC
FF
04
28
FF
07
1E
EB
F9
06
08
13
EE
1E
E5
E8
03
F8
EA
FC
E1
FE
08
F2
30
1A
2D
1D
27
01
FA
B4
11
1A
DC
23
42
CA
06
28
0A
06
F6
E0
E0
1F
D1
05
FE
14
E7
EF
FD
1A
26
1C
FE
F3
FB
18
25
F2
26
E8
E5
EC
E8
06
21
F6
EE
16
F1
31
FE
F2
FF
FC
41
22
F2
07
EB
08
EF
0B
EC
E6
0C
FA
07
D2
0C
2D
03
EF
48
0B
F4
EE
FA
15
FB
04
E0
3D
E6
F5
39
FB
FE
13
F6
02
12
FE
EB
D8
E2
03
04
F6
F4
0B
17
13
F0
DB
FF
0F
FD
14
18
F5
FD
12
21
2B
08
E6
05
FB
06
06
E3
08
12
00
0C
F6
09
06
16
F3
F3
00
E1
1C
DF
06
2D
1A
EE
0D
FA
21
07
16
F4
0C
3C
28
FF
EB
F9
F2
52
03
1A
E2
02
FB
F8
E9
FC
FF
E6
DF
F1
F0
00
E8
21
19
29
F7
F0
04
0E
10
03
15
17
FC
F9
E6
00
F4
06
ED
F3
FF
1B
FF
13
F7
FF
00
F9
DE
1A
FC
05
10
15
0C
17
0B
02
F6
01
EC
21
E7
0E
FA
0B
10
1A
E5
F6
EB
22
E5
03
FD
EC
14
E9
3A
01
45
DE
F7
13
FC
E7
FE
F0
1B
F3
FB
FD
D3
E8
E7
E2
ED
FE
2E
1E
00
FC
00
E8
E2
09
E0
12
E0
F2
EB
1D
FE
62
22
18
DE
CE
04
13
E8
17
C6
08
11
0E
2D
DE
07
0D
FB
4E
09
48
11
05
D7
06
FE
FA
1B
48
07
ED
D5
D8
E9
22
EF
07
4E
29
08
0F
13
05
F6
00
2D
F9
2F
E9
FE
F5
E8
25
E1
FA
EB
34
04
DB
11
0D
0F
EC
D5
28
D9
FC
09
02
1F
09
0F
FC
F8
F8
FC
09
EF
EC
E7
27
EA
0D
DE
19
F4
E9
0D
F9
08
05
E2
23
F8
17
F9
16
34
E9
07
26
05
E7
0B
0F
DC
17
FC
0C
01
12
30
1A
E2
D0
F5
F9
E7
E3
EF
01
0D
DA
0A
F2
EC
0A
EC
C8
0D
D7
E9
19
0D
23
F4
12
01
E3
EA
0A
D9
1F
34
00
32
28
F8
2D
2E
D5
E3
DD
2E
CA
08
F9
0E
18
0C
24
DE
3C
F1
19
26
04
ED
36
03
2F
14
FA
FB
F4
F0
F9
F5
52
D9
11
3A
DC
04
D7
11
DF
E2
04
E9
20
D6
1E
0A
01
F2
32
04
ED
2B
20
07
23
06
C6
0D
EF
36
05
E5
02
11
F6
F1
F0
1A
1F
F5
03
E8
1A
16
03
CF
F5
30
12
F8
16
0D
EF
03
FC
03
DB
EF
D9
02
08
06
F6
14
FB
FB
F8
07
F1
F9
F6
21
EE
21
E3
FC
D2
ED
25
02
23
1D
20
0B
08
FA
07
16
E3
EF
00
F4
D6
25
02
11
C7
08
1A
18
D1
26
EB
F6
30
E9
FE
DF
F8
19
1E
15
E9
F8
A7
F2
3D
0C
EA
16
F8
F7
EF
0A
F6
27
1C
03
09
21
00
45
06
13
1B
0B
02
1C
02
11
E7
EA
EA
ED
0B
41
37
01
D8
20
ED
EC
E4
FE
D2
1A
28
E0
F2
FD
05
00
1F
21
FC
FC
1F
F1
D8
FF
13
EA
D9
EC
12
E1
F4
DA
04
1F
D0
F7
EB
20
2A
15
E8
09
FB
D7
EF
1C
05
2A
E5
EA
00
1A
FF
39
13
22
31
DF
FF
DF
1D
10
32
0C
BF
05
F2
1B
2E
E9
07
1C
D1
2D
2E
18
02
08
E1
0E
E8
EE
CD
EF
F5
DD
20
05
0D
0A
20
ED
DB
03
FA
5A
F0
16
09
F6
3E
D9
09
16
04
43
2A
E4
05
47
E5
E5
DB
03
D4
27
0B
F3
E9
15
0E
FF
1C
DC
05
14
3E
1E
3D
FE
0A
B4
F9
C8
FA
08
08
43
02
21
F1
0B
09
16
11
F9
13
23
24
2C
F9
06
FF
F2
FC
3B
FD
1F
17
F1
1F
1C
03
F3
29
FE
ED
0D
0A
0E
F0
16
E6
EE
D8
E8
00
0A
FB
D7
EA
13
DB
FA
2D
F5
0B
FB
1F
17
14
EF
F4
A8
43
2A
00
12
43
10
16
12
01
11
33
07
02
FB
F6
F7
11
F1
2C
CC
F6
00
F8
FF
00
26
02
03
27
DB
02
EF
F0
1A
FF
FD
FD
1B
08
16
FD
E6
0F
F1
24
38
DE
06
0A
F9
EC
1E
07
0E
0F
00
10
F3
27
20
19
26
0F
31
F1
CF
15
06
2A
FA
F4
12
05
FA
EB
D5
3F
04
0F
00
2F
F4
41
17
ED
F3
13
E3
F5
EC
22
01
1D
1C
1B
F9
DF
00
02
FC
02
07
EA
1E
D9
F4
1C
C8
F5
20
22
0D
CD
F5
FC
00
19
F6
11
15
1B
F3
0C
F2
F7
F7
1C
F7
15
EA
E4
28
23
E5
2B
EE
E4
2B
E6
ED
03
00
0C
08
1F
12
5B
EE
D4
DE
E6
42
CF
F9
00
12
0A
FF
26
DB
F8
E8
FE
31
E2
FB
17
10
F1
3F
F7
37
ED
F2
FC
18
2C
D7
20
05
F2
B7
F9
10
CD
FA
BC
CB
4B
00
15
FF
32
06
16
27
2A
DB
E2
0F
02
FE
07
0D
2A
F4
FB
0B
FB
F5
09
10
1B
D4
01
3E
E1
32
F9
EB
21
C5
E9
F8
22
F8
19
F6
0E
DF
EA
06
FF
FE
0D
0B
2A
D6
F2
F3
E9
D3
FC
B3
E4
F6
F1
F9
23
25
F9
F6
1C
F1
16
E1
08
08
15
E8
D7
18
F1
FD
EE
E8
EC
E7
F7
17
F8
0A
DA
FB
08
16
FE
0A
FE
F6
2B
04
18
E9
0E
4E
F5
35
FC
FA
E3
EB
F1
EA
FE
EF
F2
09
DB
E9
08
FB
05
FA
06
FB
28
05
16
CA
F7
09
D4
FD
18
F6
04
0D
F3
D0
19
1F
E3
07
F5
F7
FF
04
EF
ED
0B
34
E7
F4
01
E2
04
D5
08
04
4B
D8
D0
EB
CA
D4
33
F6
D9
24
F9
F5
0F
6E
FE
F7
1E
EF
FA
F9
21
E8
F2
08
E1
26
10
12
EC
EC
00
C2
25
14
F4
ED
25
22
FD
28
20
F7
F7
2A
07
12
D9
15
FE
F0
FD
0B
E2
DE
FA
04
0A
F3
12
07
01
23
17
10
CF
01
0C
FE
1B
35
08
FB
03
CE
F2
EF
FA
FE
E9
FD
EF
11
EF
CA
EF
1B
0A
3B
D6
F5
EC
0E
F1
FD
11
0D
06
D7
0C
11
F5
EB
EF
E7
13
17
04
CE
07
F1
EB
07
15
17
FC
07
31
F6
01
23
0E
EE
DC
F0
FD
D5
EE
03
23
FA
DE
FE
FB
E1
32
11
F7
0F
19
FC
FF
DA
15
F5
0C
FE
EF
05
10
D7
14
F3
DD
FA
04
00
EE
1F
DD
DC
E7
18
F6
ED
0A
33
FA
22
1C
F8
DE
14
21
F5
F0
16
DC
FE
1F
D7
CF
04
23
FD
11
07
1C
DE
E4
F6
FF
E2
03
13
04
FC
EB
0A
21
22
03
0E
02
F5
EA
FF
0C
FB
FD
F1
21
FB
17
24
FB
0A
0C
0D
F0
E5
19
FB
04
17
1D
0D
0C
16
D6
EB
F8
43
FA
FD
ED
39
12
D6
E6
0B
E0
03
F0
0E
1F
0B
E4
FC
EF
09
34
FB
23
F1
F4
05
12
03
E2
F1
0B
04
08
DF
F7
ED
D0
1D
F3
F3
F9
02
15
05
0E
23
00
EF
F9
17
08
1B
EB
1B
F7
12
BD
F4
25
F6
2C
18
34
ED
01
F0
FC
27
F9
E8
EE
FF
20
F2
FE
FD
1C
02
0B
E5
D0
0C
21
16
3A
DC
00
0C
F0
16
3D
F0
24
F0
0E
1A
1D
EC
E7
1E
CE
14
F2
F7
04
D9
F8
1D
13
DE
EF
35
F5
E4
33
DB
D3
07
E4
19
E5
0B
02
F4
F1
1D
08
F0
F2
15
EE
F4
24
10
F7
01
D3
01
FA
16
FC
13
0A
33
1D
0C
DA
F4
09
0D
03
F5
CF
08
E1
01
16
D4
E3
1B
26
F6
19
DD
F1
06
DF
16
D6
17
02
2D
13
F8
FB
F2
FA
02
1B
2D
10
03
03
20
E8
14
1E
01
0F
FE
0A
1B
2D
FB
F1
18
0F
EF
ED
E3
FE
0D
1D
0C
FD
17
F9
F7
1E
0A
16
08
2C
1D
E7
F0
20
1F
FE
F2
F8
CE
16
1F
09
FE
04
DA
EF
ED
D8
FD
F8
0B
FB
F5
E9
FF
08
0B
FC
F7
17
F7
FF
DE
E3
28
F7
10
14
09
CC
1A
0D
08
1F
FE
D3
D1
DD
CB
E2
FF
0B
F4
3E
FD
09
1E
18
EF
13
FC
ED
0E
E6
DD
DF
F6
CB
1D
FC
E1
EF
F4
F8
11
C5
E9
EE
01
FC
41
26
07
F1
00
FB
DC
4A
D0
EE
F6
CD
E6
CA
0A
D9
F4
F9
38
1B
03
0A
1F
15
D7
3A
F3
04
1C
26
17
10
DB
34
DE
F8
03
D3
FC
E9
0B
11
17
13
1E
F1
19
C3
CE
0B
3A
FE
E8
F5
32
28
D8
00
49
BF
13
CA
1B
E6
21
48
F5
FB
07
18
EB
32
49
23
43
E9
E7
B5
CE
F7
F2
3E
B8
17
A9
06
1D
DF
E3
00
20
E2
ED
26
07
C1
E3
29
E4
00
1F
19
E0
2B
F7
ED
D7
09
01
F9
F5
1C
DD
0B
C5
06
08
EB
03
36
E1
28
F1
18
FB
E7
E2
EF
15
0C
F5
1B
D5
3C
28
07
FE
D8
05
E6
D7
02
0A
04
0D
DB
2A
F5
30
0F
08
15
01
D3
18
D3
3A
FE
04
28
16
F9
0C
E0
16
FE
26
FA
10
2A
22
29
15
D5
12
0A
31
D6
E1
0A
EF
C5
C7
E9
FC
1C
12
F8
13
27
F5
0A
FE
13
F2
14
FD
DA
0C
4F
F0
CF
01
0C
28
00
28
12
14
03
0F
0F
0F
31
F4
3D
1F
ED
12
FC
14
1C
04
F9
F6
F5
21
CB
0E
14
F8
04
0C
32
F1
F8
E4
07
29
F7
02
16
0B
17
F0
08
F2
04
25
CF
06
C6
E8
FC
17
29
19
01
F7
0B
E7
26
04
0A
EF
20
E4
25
1D
08
02
FF
0C
26
EA
DD
04
E4
F3
FB
08
19
3B
F8
F2
F9
E2
EA
E1
0A
0C
00
F1
FF
0E
32
DB
F2
0C
DA
12
01
E2
18
1B
08
F4
24
26
C9
EB
05
F1
0F
29
E8
F8
F6
F4
E6
FD
00
E8
DA
F9
11
15
F6
F4
02
D0
0C
EA
19
F5
EF
06
EF
04
F0
0C
13
23
14
00
0D
E8
1D
F6
1B
13
DF
E5
DE
03
EE
F4
03
0F
FC
0F
02
D5
E7
0B
EA
F0
2D
D5
FC
07
FE
04
FE
DE
F7
F1
C3
F4
F2
FC
12
E9
19
1B
E0
22
EB
2F
10
08
06
1A
AD
25
F0
14
E9
0E
14
FC
27
26
BD
1F
F0
E3
EF
1C
03
0F
20
F9
53
0C
E5
E2
0F
17
0F
DC
12
DD
05
1F
FF
ED
C7
21
DF
F7
FF
F8
F2
DD
DD
11
F7
07
F1
FC
F3
F6
F4
02
1B
F5
07
15
FF
DA
F4
0D
21
19
05
02
11
FF
F6
EC
02
12
03
0D
F8
E3
08
3E
2F
05
10
06
DB
D7
1E
D8
05
21
E2
D5
FF
02
0E
F9
F1
F2
A5
06
FD
F6
E5
F9
2C
1D
18
1C
22
04
0B
48
D4
FA
FA
18
0F
FA
11
12
39
F0
03
08
EA
D3
24
FD
0F
E1
D1
EE
E3
16
1A
05
2E
E5
F0
2A
11
F4
FF
22
D2
D9
0F
FD
10
F6
17
0E
EA
FD
4C
F4
FA
12
26
13
24
F1
EF
08
11
05
EE
CA
46
F7
3C
24
33
F3
1A
02
08
46
FE
3A
03
0B
FE
F2
0B
15
DF
F0
EE
E7
21
F5
E8
C8
41
F9
25
29
FD
E3
C6
EF
06
37
BA
0A
05
1A
FF
D8
1F
E0
EA
10
11
24
26
02
D9
16
07
08
FD
D4
0A
25
D4
0C
0B
19
FF
F3
F4
E2
29
F1
EE
06
05
01
D8
00
E0
1C
16
E8
1B
0A
26
1E
15
FD
09
06
06
F1
EE
F4
FB
00
DF
00
F9
FE
D4
E6
FB
01
19
36
15
0F
F6
04
09
04
E1
E9
F8
41
14
0B
F5
F1
0A
F3
0D
09
00
F9
E6
F4
1B
09
0B
FE
CD
13
FE
F7
E4
1F
DF
D0
0C
E4
FA
34
EE
E1
05
0E
F9
15
AF
29
19
EB
E2
F1
E3
2D
E0
FE
22
E4
39
EB
12
DC
EA
F4
DE
28
E8
F7
26
30
03
0D
E4
3E
26
3D
F5
00
FA
11
05
EB
1B
D7
18
04
00
EF
D6
2A
17
16
EF
33
FF
0A
FF
06
F3
CA
EF
EB
F1
F8
F7
DF
E5
06
22
EB
F5
01
0B
F6
0F
D9
F8
D6
17
10
0F
C9
06
FE
21
ED
03
F8
F4
F7
EC
E6
2F
14
13
10
00
17
F6
19
EF
03
11
1F
D8
29
12
12
12
EA
FC
14
36
EB
EF
03
F2
D6
2C
D6
F5
04
BF
1B
1E
E1
E5
0D
DE
3B
F1
24
2C
24
05
D3
D8
F6
FF
BB
C5
28
F2
A6
EF
BD
1E
BF
D3
14
BF
F9
F7
13
45
2F
D4
08
35
9A
DE
C9
3C
2E
EA
05
37
D1
05
29
23
0E
15
37
DA
1A
10
FB
EB
D7
08
F1
1B
0C
01
06
31
07
0C
E4
FB
F7
DA
09
0B
FB
1B
E7
0B
21
E0
15
11
05
07
DA
F3
E0
17
00
09
02
27
02
05
19
CC
FB
DB
01
F4
FD
18
0B
0B
1B
3B
08
FE
0B
2E
FF
D4
FC
20
00
FB
2C
01
2C
F7
DF
18
05
2F
F2
F9
20
05
04
05
F6
E7
0B
FA
14
F4
F1
FE
0C
15
1E
14
FB
E0
DD
07
23
D8
E3
F7
EF
F0
DC
1E
FD
FB
08
06
FD
18
F2
22
F3
2B
F3
CB
01
04
F5
FD
FE
18
F5
12
F3
31
EB
23
02
15
27
CD
E4
18
03
DB
D9
2F
F0
29
FC
07
FD
06
FF
26
DC
F2
24
F3
3C
F0
C8
F6
FF
F4
08
F7
F6
FF
DC
F4
DD
08
D7
E1
E8
DE
16
0D
CD
13
0B
E2
F9
F2
E2
DB
EA
E5
06
FC
F9
00
FB
F0
BC
0E
FA
F7
FB
FA
E5
EB
1E
0C
FD
F4
29
0B
1A
02
E1
2B
DF
16
17
DC
01
07
F0
11
F6
2E
E5
FB
F9
E0
FB
00
12
E6
CB
EB
FA
EF
E6
DB
40
20
F5
3E
E1
07
BF
25
0A
28
11
21
E7
E7
0B
03
06
EB
D6
05
09
EE
05
0B
10
10
FB
2B
2B
23
C0
FE
F2
EB
01
D1
0E
E8
E7
14
02
EE
1D
12
25
11
07
0F
FA
0D
ED
F8
0D
FC
EF
CF
0B
D1
F0
F4
07
11
04
09
0F
0E
EE
F7
E0
17
14
1C
EF
15
13
EB
E9
FD
E7
27
E9
29
1E
04
03
1D
17
07
ED
F5
E5
03
C1
39
E4
3F
F9
FF
16
0E
D4
10
3E
ED
07
14
0F
25
F1
D7
24
0E
EC
00
02
C3
16
D7
13
1D
0C
19
0F
E6
11
F0
FB
09
03
1F
04
FA
E7
FF
DC
05
DC
F7
09
0E
12
FC
EB
0F
22
F5
26
EE
E5
E1
EB
EB
D2
03
E9
EB
EE
38
F9
E7
DF
15
0C
16
E7
0E
F8
12
E7
61
DC
06
08
14
F3
23
15
E7
25
21
E2
20
E2
F8
08
EC
F5
E3
16
16
0F
F9
F7
28
36
06
0B
0F
11
F0
1A
E9
18
D7
1F
EB
DE
14
29
0F
F4
1B
28
0C
F8
12
2F
03
F3
15
05
F7
14
FB
26
F8
21
1F
FA
FE
DA
33
09
07
1C
CB
EC
02
19
10
10
CA
E4
DE
F5
05
2B
FF
0E
F9
FE
F7
08
03
14
0A
FA
E4
C1
0D
F6
17
E5
E3
36
29
FF
E4
EC
16
13
FC
1C
05
00
FF
24
07
D4
0B
19
D5
EC
19
07
E4
E6
DC
0D
18
E9
DA
28
09
08
0B
0B
F8
07
2C
F7
FE
F3
FC
00
2B
27
FB
EB
13
02
ED
DA
17
07
23
1D
EA
EF
19
03
EC
C9
EE
14
0C
FB
0A
F9
FE
1D
F0
F9
02
10
0D
18
37
F8
16
FB
F8
18
EB
F6
D6
13
FB
0A
1E
0A
30
FF
D2
D6
03
09
DA
F6
F5
DE
1E
10
FA
03
1B
0E
03
EF
F5
E4
14
DF
0E
35
03
28
B1
10
D7
0F
25
02
D0
12
4B
51
EB
1D
1F
E0
07
ED
00
10
14
07
EB
0C
E8
E0
01
E6
21
12
E4
0A
EB
04
FB
EF
12
B4
E4
01
08
11
EF
11
F0
F3
09
EC
35
18
F7
14
E3
CC
13
09
DF
EC
0F
0F
00
19
25
F7
09
DD
CC
E6
CB
F6
E9
FF
03
FB
F7
00
FE
C9
00
FA
F4
04
F0
35
E3
09
DE
F1
0A
24
B2
EA
2E
13
EF
34
00
D8
E6
DA
39
EE
10
09
E6
26
38
DB
08
F9
08
F3
0C
F5
FC
0A
F6
03
0F
03
F3
0A
F8
03
F3
01
02
00
F7
FB
10
03
01
08
F8
F8
EE
FB
FF
FC
FF
10
F5
F5
0F
02
04
F1
F5
07
FC
0A
FD
FE
09
F3
FC
01
FA
01
01
F6
09
0A
03
F4
F7
EE
00
FA
06
FD
DC
15
D2
FD
EF
11
0C
E6
1B
E0
21
16
37
FB
1A
25
DF
CC
FD
F3
CE
26
06
F9
14
1F
21
EF
F1
0D
EE
00
38
E2
B7
37
08
16
37
DE
F8
F5
FE
F0
15
09
E8
30
E3
E2
1A
11
24
3A
FC
13
E4
EA
DA
FB
26
EE
F3
FC
13
D2
FC
D5
00
04
1C
2D
E8
12
15
EE
E5
13
03
00
06
F0
F7
10
00
F6
34
0C
F2
11
FF
10
14
2E
11
18
FE
07
FB
F2
03
18
CF
F0
E1
16
EA
13
27
E3
CE
08
F8
E3
E7
F0
2C
2A
EA
3B
48
F7
FE
1D
F5
0F
ED
28
DE
CD
F5
24
F1
E5
F6
00
54
EB
E1
E4
F5
0B
0D
C2
E8
DA
F7
EF
1E
FD
ED
01
F5
F8
10
DC
34
F1
0E
2C
49
1B
F6
F1
1B
FD
00
15
CD
1D
1B
1E
0C
FE
27
01
EE
D9
0C
02
05
FA
1B
F3
ED
F6
AC
08
F6
DA
FC
F1
FC
FE
08
F2
F5
DE
03
D9
D4
06
03
15
0E
D2
EE
0C
19
E9
F1
23
0D
F1
ED
1D
04
F9
13
13
1A
FC
ED
F5
D5
F8
19
2F
EF
20
FB
09
09
16
1C
10
E9
FB
F5
D8
0C
30
0E
F8
F8
19
F2
E8
02
F6
D6
1D
CD
02
05
F0
EF
F6
03
FA
12
DF
00
E8
E5
DE
16
00
1C
FA
1C
F3
FB
11
D2
1D
25
13
08
15
15
DB
26
03
15
E2
E7
02
E3
0C
DE
38
E8
F4
24
BE
EB
FE
DF
ED
01
36
DB
27
13
1A
FE
F8
E9
25
03
12
E8
FE
EE
EE
19
15
F7
FC
03
26
C4
F5
FD
0B
FF
17
D1
F1
2D
02
03
0E
1C
0A
15
FF
02
E5
14
35
1A
FA
FA
28
F7
B1
FC
D8
FA
09
F0
43
28
F8
EF
E6
0E
0D
07
05
C8
19
F0
27
0B
F3
20
DC
1C
DE
15
EB
F0
C9
F5
39
E0
05
10
17
40
1F
EE
13
F1
1B
0B
39
0E
FA
25
FC
F5
13
01
E8
FD
26
24
EA
0E
09
FA
10
0A
06
F9
04
32
EB
28
19
10
25
FF
F5
38
05
1B
ED
1A
03
BF
01
18
E4
22
1A
EB
FD
F7
0C
16
02
03
F4
E4
D9
E9
22
05
13
25
0F
24
11
FC
3F
14
F9
0A
26
EA
11
DE
11
12
D4
F8
F8
02
18
E7
1D
FE
1F
12
F1
16
D4
16
1C
B2
F5
04
E9
F8
01
ED
08
DA
00
16
18
D3
FD
FA
29
11
1A
FB
FC
18
F5
E6
E7
E1
12
26
D1
07
F4
ED
DD
00
EB
27
FE
F0
06
14
E1
05
08
0E
09
E1
EB
3A
FD
FE
E6
F1
07
0F
04
03
CE
15
EE
D7
06
0B
F1
16
09
07
0F
05
07
F8
45
0F
2A
0D
F7
D1
15
F1
1A
E0
F4
16
08
14
00
FC
11
1C
DC
FC
02
05
F1
E8
EF
00
FC
F2
1F
F5
1E
19
EF
EB
00
0A
CC
CF
EF
F7
0B
F2
07
0A
0B
0C
20
25
37
F0
0E
E2
3E
F3
FE
D9
24
21
E0
DD
0A
1E
D7
0A
EE
08
2B
0F
16
0D
FD
14
FB
F4
1E
FC
EE
01
F6
07
F4
C3
11
23
1E
F9
08
F7
FF
E1
FB
FC
FD
D7
1E
1E
0E
F3
FE
E5
F3
F5
1B
38
FE
07
13
0E
06
0B
27
F8
12
D2
11
08
35
FC
15
1F
1A
29
DD
F2
ED
02
F2
2F
D9
11
C2
EB
FB
06
EB
F1
A6
CB
08
02
E1
0D
E3
03
D6
F5
0C
08
FE
21
0B
15
DF
07
FB
28
29
FA
0A
07
FD
0A
16
F1
FE
DC
01
E9
07
12
EE
D6
E8
E9
04
F4
18
CE
F3
24
F4
32
FA
1A
11
18
F9
F7
21
29
E1
E5
F8
24
F8
FC
01
04
0E
12
03
12
01
E1
00
FD
C9
F0
E2
2C
F4
09
FA
07
2E
02
EF
FF
F3
04
F2
FB
F0
24
12
DC
C5
EE
F1
34
D2
EA
26
FE
E5
18
12
06
F9
FC
35
ED
E6
04
F7
C6
F3
C3
F1
EF
0C
E5
05
20
F9
0B
F0
1B
E7
EC
06
FC
19
EA
08
FB
01
C8
F4
2E
1B
E5
D3
20
E6
F0
13
F8
15
DE
0C
FA
F8
1D
06
22
40
23
EF
ED
0C
17
21
16
CE
E8
EA
25
E6
F2
18
09
EA
DF
FA
F2
2F
0C
41
14
FC
F8
EF
0A
FB
F3
BF
07
FC
DF
D3
12
FC
ED
FF
01
D3
ED
F3
00
C3
FE
F3
FB
0C
18
0E
01
11
E9
E0
13
F8
EB
1D
10
FD
0E
EF
1E
12
E6
F8
14
EE
E0
06
D0
FD
07
F9
EE
E1
14
FD
12
00
07
FA
D8
EC
0A
E8
ED
FE
F8
0E
FD
49
02
D4
F3
3F
1F
D4
F2
EE
FC
D8
F2
E3
FD
F5
15
F0
E6
F2
08
20
D0
04
D9
FE
F4
EF
2D
FD
01
D6
ED
CA
2C
14
04
1C
F0
07
04
D2
FD
ED
21
0F
FF
01
02
03
E4
EA
EC
0A
FC
0E
25
C8
04
16
05
03
F9
F0
F3
01
0E
EF
FC
ED
0D
FD
FD
03
F9
1F
F9
06
0D
22
2C
13
FB
08
26
F0
F8
EE
F2
E2
0D
FB
E5
EB
1D
F3
E9
F2
13
FF
F3
07
F5
0A
27
E3
F0
0C
FF
05
01
F6
3B
FD
04
05
11
EA
F8
F5
18
E6
0A
F6
FE
0B
FD
F8
19
0E
F5
02
F0
C5
EC
12
12
22
FE
E8
23
E4
05
07
E3
D0
22
F1
DD
16
FF
DC
02
DF
ED
25
FA
0F
F0
E9
0C
E8
11
18
E2
F1
02
FB
07
FE
13
FE
F8
E3
FE
1C
F9
14
24
E2
E5
22
DE
23
F9
F1
39
00
FE
D5
14
21
15
01
18
F5
FA
06
1A
F4
18
19
10
DE
F3
DF
00
04
F5
F6
06
2A
D2
E5
FC
EC
0D
04
FF
FB
04
EC
20
10
F9
FD
F9
11
D7
F0
ED
EC
CA
2B
1E
01
CE
BA
E3
FF
EC
1F
DD
C6
08
EC
E8
F5
FC
14
10
F4
EE
F6
00
24
D3
0A
0B
EF
E2
EF
F3
FB
E7
FD
E8
1E
BF
EA
FA
EB
EB
F9
16
09
04
E1
0E
E2
FE
18
02
20
11
11
22
10
E4
08
FD
F0
35
1D
EF
FB
1D
15
F2
E1
E0
0E
11
EC
0B
FF
F6
E4
F6
09
08
09
E5
FB
04
DB
F0
D8
18
CA
F6
09
F0
00
0E
EA
CC
E4
21
30
2B
F4
0B
1E
E9
01
18
D1
ED
1E
41
EA
37
0B
F9
13
03
13
F6
2F
E3
11
18
FE
18
09
F0
E6
F7
0F
F4
17
EB
EE
29
E2
0B
E9
00
02
BC
03
F0
DF
08
0F
06
E2
EF
DE
F1
F4
F0
07
FF
FC
03
0B
FA
FF
E7
0B
F6
18
03
0B
11
06
34
30
09
1E
03
2C
FC
F7
00
0D
10
DD
26
0A
DC
EE
FB
DE
E2
F8
18
1A
FF
FB
F3
19
07
3A
04
03
EF
F8
03
EE
01
25
2F
F1
EF
FD
E7
01
D3
0E
04
F8
01
E9
E5
E1
09
FA
F2
FC
08
DF
0F
29
25
04
03
D5
16
03
F1
EF
19
1F
0C
13
EA
24
12
F0
05
CC
04
0D
09
E0
00
F0
FE
FD
02
FD
18
FF
DB
13
4B
05
01
FE
05
10
F2
1B
F4
E7
D3
F5
22
0D
05
37
06
06
04
F8
1C
DC
13
31
00
0A
F0
17
35
1F
E0
14
1C
F2
0B
F5
04
12
FB
25
F7
0D
F1
13
DD
DB
E9
08
0E
32
F2
E5
2D
27
14
E3
E4
EC
F7
0E
09
07
36
F4
36
0A
E0
FC
01
09
17
CA
C8
2F
D2
EA
09
FC
1E
FC
15
05
09
12
01
0B
EB
DB
1A
F0
06
F7
FA
0C
04
12
10
B1
FA
13
E2
21
4F
DF
1E
F6
FC
02
E3
F9
F3
1B
E2
07
EA
27
13
06
1B
F4
EA
2F
DD
F1
07
F2
F1
26
FB
E6
F1
E8
29
04
1E
06
E0
1A
32
FC
0B
EA
EF
40
00
FD
1C
0A
18
F2
06
F6
02
DD
E7
25
00
D6
E4
DC
3A
C0
E3
F9
FB
20
01
2A
27
0D
F0
E6
40
DD
C9
DB
2B
FA
F7
CA
22
CB
0E
2D
1A
2B
3A
0F
E8
26
FA
0B
23
40
07
05
F5
04
F4
E4
F4
30
1F
BD
EC
09
FC
1A
D5
F1
F0
FA
0C
EC
0A
DC
45
FF
09
04
32
D6
1A
19
0E
0E
10
E5
F4
06
DD
12
11
0B
0D
25
1B
1B
D7
FD
10
F9
FC
E9
04
03
01
0E
CF
ED
F1
F5
EA
F5
EA
FA
00
FA
F4
01
11
F2
D6
F9
12
FB
49
13
E5
0C
2C
E1
E3
F3
2E
F3
EE
F3
09
11
FF
27
AC
05
FE
24
FD
0C
27
EE
20
F5
15
E5
0F
0B
B3
F9
EC
14
11
17
E6
E0
0E
1C
11
24
E4
0E
E0
C1
F8
E9
F5
31
C0
4D
5D
F7
F0
EA
F3
E7
22
F7
F8
18
F4
F9
0A
FB
0D
05
19
1F
12
D9
1D
0F
EE
14
06
EC
E9
1D
01
FF
D3
D3
F5
F2
FB
31
09
F4
E1
11
DE
1A
FB
0F
07
28
2D
EA
36
D8
2A
0A
FF
02
C5
0F
DB
12
03
E2
24
DB
FD
08
F2
ED
F4
03
E7
DC
15
17
14
04
20
0D
08
07
F4
27
D8
CD
1A
F6
40
E6
FA
F4
E3
FF
30
E9
10
00
0A
FD
3F
FF
DB
15
D3
EF
0F
24
BF
10
D6
FC
E7
E8
09
E3
FE
2B
28
25
E4
32
21
25
D6
24
FD
F6
02
0D
EA
13
F9
E0
30
10
E2
06
ED
1C
0A
15
CC
15
F9
05
1C
CB
FA
07
26
1F
0B
2C
EB
0D
05
FF
19
EE
F5
E8
DD
F2
15
14
12
E5
0C
09
F7
02
04
FF
FA
EF
01
03
24
03
D8
F1
05
1C
EF
F9
07
FE
0F
EA
0D
02
DC
E7
D1
10
0A
FC
05
06
22
AA
11
13
13
FA
11
E7
04
F7
BB
00
D6
F7
23
2C
07
17
F3
2A
01
25
FC
DF
D0
2B
FA
F7
E2
FA
1C
1E
07
F7
F8
D1
13
F2
EA
26
EB
EE
FF
06
EE
0A
F3
E3
BF
2B
DA
29
05
27
D3
03
08
1D
CF
01
F6
D1
03
34
D5
E1
DE
FD
E1
14
08
11
E8
07
CE
01
D6
0A
39
18
F3
0F
D4
19
27
24
F0
E6
EF
0B
11
2D
27
10
D0
1A
ED
EA
C8
F6
E1
E1
F6
E1
20
2C
BF
09
04
DE
34
2D
E7
14
0F
0C
0C
F7
10
10
E2
DD
E7
1E
03
09
02
09
09
EE
F6
FE
10
FD
09
0E
0A
E6
FE
FD
04
02
FA
E8
F5
EB
FA
0B
DC
F5
00
DA
E1
FD
07
15
0B
EB
0D
DC
2D
E6
20
03
E6
15
DE
E4
F9
1B
14
09
02
23
01
03
E1
07
1F
11
EB
0F
02
1D
EA
0B
44
0A
F8
F4
11
1D
02
D2
F7
E6
E2
F5
19
1A
FA
F4
CF
FE
EA
0C
F7
32
E6
04
01
FB
F8
0D
F6
F0
11
1D
F3
CE
F4
F1
25
1A
FD
EE
0F
08
0D
FE
DB
FE
FF
E1
ED
E4
F9
D1
D6
03
F1
42
12
0F
F4
22
34
C0
05
3C
20
D3
FF
D1
FD
19
01
FA
22
23
0F
FC
06
1B
F3
EB
16
FC
EB
13
17
F7
02
05
E2
D9
E9
1E
F5
E5
22
3B
E8
EE
F7
ED
DD
0B
DD
4A
17
1F
E0
F5
2A
F4
13
FA
E6
D9
22
F3
E8
D6
DA
E7
01
FA
ED
36
EB
05
26
F7
06
FB
D6
F7
12
08
D9
05
F9
03
E8
EF
DD
F2
F7
EA
FA
0D
F4
02
FD
03
F0
F2
06
0A
32
F4
12
15
F1
21
FA
12
20
F0
F3
2B
FE
2E
05
F5
F7
04
12
0B
C2
EF
04
04
2B
F3
03
C9
21
F2
30
D5
D8
06
27
E7
02
49
EA
11
2B
F0
D5
06
16
14
03
D2
E1
10
FB
F0
41
08
EE
31
FB
3B
D5
CD
1F
F0
ED
2F
0E
14
01
F3
F8
F2
FE
E4
F5
02
EB
1D
13
C3
19
FB
EF
08
DD
F0
F3
19
04
F6
1A
DF
17
0A
13
E5
BB
25
16
1D
17
DF
12
FC
27
02
F9
10
F3
39
D0
DD
DB
F2
34
34
1F
26
0B
09
D7
0A
F9
DF
09
DF
07
26
FD
30
E3
0E
E5
F8
E4
2D
FF
0C
F9
F8
08
D8
08
DA
CC
ED
15
FF
30
E7
EB
1E
E4
F6
10
D7
16
1B
0F
DC
E4
24
FD
09
2E
D0
F3
20
18
19
09
29
FC
05
0B
FC
EE
0D
0B
D9
06
06
04
18
F9
FC
08
C6
07
1E
E9
FC
13
D9
0D
2D
06
EC
F2
FA
D9
DE
F1
18
12
03
0A
16
2C
E4
0D
0B
13
F9
E0
DC
FF
0E
01
10
E5
08
00
26
EC
0A
08
0D
17
F2
DA
E6
0F
EA
F1
F7
1D
DE
0E
F2
14
1E
D7
F9
F2
26
03
01
1B
03
10
00
28
C2
EC
12
14
0D
FE
19
06
02
1C
F4
EE
12
06
0B
01
1F
04
FD
EA
FE
05
52
1D
20
EB
19
EE
EA
D4
07
05
1A
28
F7
FF
05
0A
1B
F2
DE
07
05
E8
E3
07
E7
AA
22
CB
FB
E9
F6
F8
02
E3
0E
17
0C
18
F6
F5
24
EC
FC
0D
F2
16
07
F6
24
F1
F2
15
F0
1C
0A
FE
D2
45
F9
0C
F6
0E
E4
E8
02
CB
E6
C5
10
FB
FD
F5
F4
14
EB
0D
1B
F0
FD
0B
20
ED
DC
ED
F5
2D
D7
FC
0B
FB
00
41
EC
D6
22
23
FA
E5
E1
19
0A
CD
FA
19
0E
25
E7
06
FE
E2
18
1B
10
FD
FB
01
20
17
FB
04
0C
27
06
0D
CB
FE
DD
16
17
17
00
F1
1E
29
FF
12
36
EB
07
E9
05
10
EC
1D
DC
04
2D
E9
02
EF
FC
F7
CD
14
12
34
3E
D4
E3
5C
2C
EE
FF
09
0B
0A
E5
E0
F6
EE
0C
FD
48
03
15
EE
E1
1A
01
20
D3
F5
F5
FD
BA
09
F2
1C
1F
F0
02
D7
40
0C
F6
18
FE
F7
C2
FD
18
15
29
CC
D5
02
0C
13
29
FD
FE
0A
FC
EA
CF
B7
F7
33
FA
00
F7
EF
E8
18
F4
F5
02
03
ED
0E
31
FE
F5
0C
D2
07
E9
2A
F0
34
05
FE
1B
00
E8
1A
EC
0E
26
06
FD
DB
00
E9
03
E9
05
E1
2B
18
FB
0A
07
DA
16
CE
DB
0D
B8
0E
F5
0A
15
13
F5
FE
30
D0
0D
FA
F1
EA
0A
CB
19
00
F1
FD
03
04
E9
05
E8
0C
07
F1
F4
34
29
F8
F1
BF
F8
17
0D
EE
ED
DE
2E
27
F5
FF
13
07
EA
E2
04
FD
D8
27
0E
F5
DE
27
24
16
FB
16
02
22
22
D8
18
EE
EB
29
FC
06
F6
0C
1C
04
F0
01
E8
EF
D0
F7
FB
EE
E9
F0
14
09
04
03
12
F2
D3
ED
F9
01
1B
1A
DB
FB
F4
D8
2E
F1
1B
DF
E5
1D
01
17
02
09
C5
0C
11
0A
FE
FD
EF
E7
07
E1
20
25
00
FD
41
0E
3B
04
E9
F8
E8
04
12
CD
03
F4
EF
F8
10
D5
04
E3
05
FA
0C
03
2C
FA
18
2C
E0
21
CF
14
FC
38
F8
EE
0D
F1
09
DA
1A
29
0D
11
07
DE
DD
13
FD
04
F3
00
EA
DF
06
09
F0
EF
D5
D8
C6
F0
D9
15
29
FC
EF
BA
FB
ED
DD
2D
F4
F8
08
41
EF
EB
E5
0A
F1
03
F0
F8
F5
00
EB
F0
C8
F1
F9
2D
01
EF
F1
14
19
D7
E6
06
27
F1
12
F1
FA
D8
21
F9
0C
D5
0C
FF
09
01
FB
FE
26
D7
05
0F
F4
F6
16
0B
0B
0D
E7
00
05
FF
F5
08
F2
02
F7
01
09
FB
09
03
1F
F7
00
DD
EE
E3
06
EC
F6
E8
4F
19
FB
FF
EC
E1
E9
F0
10
DC
1A
32
1C
11
2F
EF
F4
07
08
00
06
09
22
07
EF
F2
E0
13
CC
18
FF
FE
0F
C0
F8
E1
1D
BB
0C
23
19
D7
0D
FC
F2
F1
DC
19
F8
F8
11
01
F3
25
00
25
11
08
DA
FC
EB
0A
F3
0D
15
F8
EB
F0
FD
FB
21
ED
FA
04
E8
FB
0D
F4
07
EB
03
08
EE
0A
F9
FC
ED
41
FA
03
CE
02
19
0A
E8
07
23
19
07
04
1D
0C
0B
26
10
FC
FB
1B
15
DF
24
FE
0F
EA
0C
12
25
1D
FE
E6
FF
13
C7
E7
F0
00
0C
EB
0B
14
1E
EA
1D
E0
CD
00
24
18
EF
46
01
0F
1D
16
01
F7
D5
EB
F4
04
CF
04
1A
04
FE
E8
15
FE
09
02
CC
0A
E0
25
FF
23
F7
D4
06
00
F8
06
CB
D8
EC
EA
16
E8
15
F3
DE
1D
E7
DC
02
F3
F1
EC
FF
F9
FC
30
EF
F7
E9
00
06
02
F0
F7
17
C1
FF
0F
24
FE
E7
06
EF
00
4C
FC
F9
0F
1B
F4
09
20
0C
FF
FC
1E
DC
1D
F4
D9
F5
24
FD
FC
18
0E
E8
12
09
F6
12
E1
0C
DF
FF
0F
E8
EB
C8
F6
FA
0F
EB
18
C5
2B
F9
FA
E7
09
E3
18
1B
EE
06
F4
05
1B
CF
03
25
2D
1F
0A
12
F1
0E
03
08
26
E2
DE
04
EF
0C
FB
E9
FE
F6
D2
0B
F9
EE
F2
F8
D6
DE
F3
FE
15
E3
FF
F8
EB
F5
E8
01
DD
03
E7
BB
06
FF
EB
03
D2
D2
FD
EB
24
01
06
E3
24
09
08
F1
21
DC
FF
00
DD
04
0B
12
F2
0C
33
F9
05
05
DA
EE
0A
EB
0E
38
D4
0A
1D
D8
3D
19
1E
F4
0A
F5
21
0C
1E
EB
06
04
E3
E5
ED
DB
DE
F7
F2
17
03
E0
E9
EF
ED
27
10
DD
06
0D
E3
E3
1F
0D
34
4B
CF
10
02
05
06
D9
CD
0F
FF
E3
0F
D5
07
04
F9
ED
24
D6
0A
0D
D7
D5
1D
EF
E9
1A
FF
06
F7
29
1E
FF
0B
DE
25
FD
E7
09
FD
01
22
10
29
01
19
35
E2
F5
0F
1F
21
1A
04
0F
00
FC
F2
15
0F
0D
1D
20
02
FB
14
E7
0B
19
02
DE
F5
EA
05
08
EC
F6
1C
03
24
DE
2D
11
F7
06
FB
0E
F2
E0
0E
E3
22
F9
24
E2
F7
F7
1C
F4
D8
FD
FE
1E
FB
FA
21
0A
DF
14
0C
DB
26
06
FC
EC
F0
EE
D6
09
1A
DE
EA
40
DA
E9
0B
FB
FD
06
DB
0B
D8
EF
0B
DE
EB
2E
FE
DD
F8
08
BF
DD
11
0F
08
C8
FE
ED
F3
05
E2
F2
10
15
0A
F6
13
39
03
D8
CF
06
E0
12
FD
CE
03
10
F6
F4
EC
C4
04
1C
FE
F0
FC
E7
2D
0E
13
ED
00
ED
FB
1F
03
23
DF
05
0E
FA
02
03
2C
26
E0
F2
E9
E5
0F
CA
FB
F2
09
2D
1A
E5
00
FC
FC
1F
F2
F1
FD
F3
CD
FB
0D
E7
EA
00
FD
E1
F9
05
16
0B
ED
0D
D6
0B
14
D2
38
0C
39
05
E7
D0
03
F2
20
0B
E5
18
FC
F9
14
F5
29
05
FF
15
09
18
06
2A
1B
0E
0E
08
16
03
E0
10
0A
1A
12
10
30
EF
F9
FB
F2
18
D6
08
23
FC
2E
08
0C
BF
00
E3
FA
D4
FD
02
E8
00
20
1D
23
06
E5
F6
EC
FF
12
FE
05
CA
FA
11
F9
F5
04
0A
F4
1B
10
1B
18
29
0F
20
16
0F
3D
0D
08
14
E2
24
04
FF
1A
F5
1D
DB
D6
EA
0D
F1
B6
0A
1C
1E
C3
F5
0E
FB
D1
19
EB
04
18
10
F5
DE
EC
F3
00
D9
08
EC
F7
EA
F2
F4
E1
EA
18
32
D7
E3
0B
E9
1E
06
21
DB
11
FB
FB
1D
1E
13
04
16
0D
C9
1E
10
DE
AF
08
FE
E8
B3
25
FE
CD
FF
DD
05
10
D5
11
DC
15
0E
4B
06
F0
DB
E4
08
F2
03
16
BA
CF
F1
FF
01
1D
2D
F1
EB
E4
15
E5
01
FB
C0
27
D1
05
F3
E5
03
E8
FC
04
E9
1D
FD
0E
22
16
21
DE
32
03
FE
FB
ED
11
1D
F9
E0
F7
15
0F
06
0E
E2
17
21
25
04
0F
E2
F0
1B
28
FF
1F
F7
18
14
07
07
F9
F5
FC
EB
2F
E3
0D
0D
F1
19
EB
FC
12
E2
18
F5
2C
05
1D
0B
07
EC
1D
02
E0
09
EF
FA
2D
10
D9
2F
E6
02
2E
17
0A
D3
0B
24
DD
DF
D9
1A
15
F6
D8
24
2D
EC
0B
EA
FE
06
02
01
E4
E9
23
E7
16
DD
E1
0F
E2
0F
00
FA
37
E2
18
00
15
20
FF
0A
FE
16
F7
FD
1D
BA
0C
1E
EB
F8
14
0F
ED
2F
18
E3
0C
F8
E9
12
F5
3A
41
DF
02
16
08
FD
31
0C
B9
DF
F0
0C
02
13
D5
2C
0D
EB
F9
D7
E8
09
FC
16
F1
D8
EF
FF
1C
FE
FE
14
16
ED
20
03
FE
30
F8
1D
F0
EC
06
E3
DA
F7
F9
E7
10
05
DE
ED
53
43
FF
FC
FB
02
E9
11
1D
0F
39
2B
13
0A
DD
0B
1D
08
0F
14
04
DA
03
F1
13
08
04
F2
09
F1
1D
EA
EA
F3
07
EF
1A
1A
01
D9
08
17
04
E1
EC
F4
35
26
FF
15
F9
F4
04
E9
1F
22
0F
13
F4
20
18
38
CE
EB
19
F4
E1
E9
FD
2D
12
FB
10
1D
09
ED
3B
15
F2
D6
DE
D5
DB
06
20
E0
00
22
EF
E4
11
1F
1C
03
CB
EB
14
25
22
38
20
23
12
39
1E
1F
1A
17
DC
0A
C8
E0
0B
03
02
CB
FE
AE
3B
32
B3
12
26
FD
F1
FE
11
01
F7
E4
1D
13
C6
26
15
E4
E3
E8
C0
F2
F8
DD
F0
EB
0D
0A
19
E6
F4
0E
1E
FA
05
01
ED
F2
2B
C7
15
05
31
26
D5
10
E6
14
1D
15
07
F8
D4
1A
E8
0C
02
20
F8
02
15
06
F0
3B
18
D3
0B
1B
E9
26
FC
F0
3F
FF
D8
E6
29
06
DC
EB
EF
2C
E1
0C
ED
0D
E5
0A
E4
FD
EF
29
F4
0B
F5
F1
1E
FE
F1
F4
FA
F1
07
F1
0B
03
FD
FD
10
06
DA
E8
F8
E6
0D
12
1D
F4
23
EC
12
D3
C7
F4
F1
19
CA
2A
25
FF
1C
0C
D4
06
0C
F7
DB
F2
19
19
DA
EB
F6
D6
21
23
F9
0A
2B
D4
24
D7
E3
53
DE
CA
1B
0C
EC
1B
FB
08
03
03
F3
EE
F8
E7
D8
FA
CD
F0
2C
1C
01
E2
08
FE
16
0B
36
E9
08
33
1B
F3
0B
01
36
CF
EB
F8
F0
E3
0D
07
F1
E5
D1
13
EF
12
F6
04
02
E0
F7
FD
16
06
F3
36
FB
DD
2F
F3
19
F5
E2
EB
07
05
1F
35
11
03
0C
09
0D
1D
F7
CE
05
DD
05
F3
FD
B9
24
0A
DE
01
CD
14
E1
E5
22
0A
28
2E
1A
F2
FE
DF
0E
2F
E4
17
DE
11
FC
09
D4
EC
00
13
EF
15
2E
0F
0D
18
CC
C9
1A
3D
FB
12
02
EE
DD
14
08
F3
FB
00
EE
07
F0
CD
F0
E0
16
05
F6
12
F8
19
FC
F9
E2
1A
35
2B
07
F4
DD
06
05
FA
1A
F1
24
F1
FA
09
E5
0D
01
FC
1A
0E
D3
E5
12
EA
CF
05
EC
F8
D1
FB
CF
EC
20
16
F1
F5
3C
F3
FC
09
E8
FF
F4
D7
01
39
1F
06
08
1F
F7
16
F0
02
D9
FD
10
DE
E0
40
32
0E
F1
06
0A
1F
28
2D
00
FD
FA
EA
FB
F5
F5
28
E3
07
31
DC
0E
3D
E2
16
FB
0F
07
F5
29
45
FD
E7
F1
F9
06
F3
17
E4
E5
04
09
1D
0B
30
0B
FE
FC
11
CC
18
02
FC
11
DF
FB
FB
E4
FF
04
F6
EF
26
18
2F
F3
0B
1A
08
13
C7
EA
EF
0E
0A
38
D5
10
D1
21
FF
F4
00
EA
E0
FC
CB
1C
28
02
2E
E6
F0
FF
14
FC
F7
0C
25
DA
14
16
1C
F4
FD
18
24
0A
CB
FC
F0
03
E9
F0
09
12
06
1F
D0
07
32
1C
DB
2B
DE
EA
16
F2
10
EB
0D
05
20
FD
17
F8
F7
FB
FB
F5
04
27
E2
DE
0B
11
03
FF
D8
FC
04
17
EF
0F
2A
EC
13
F9
05
FD
EF
0D
13
FE
DF
1C
03
F2
08
06
18
10
03
FA
3C
DF
FE
F8
10
E3
E6
F8
D9
FF
FE
1A
09
D5
00
07
D6
12
FA
20
10
0F
09
0B
0E
13
FD
03
FD
15
0A
D9
F0
FA
C9
0C
FC
0F
13
0D
FF
D1
FA
F9
1F
20
09
12
F1
D4
F7
F3
20
1C
D6
02
EC
F7
FE
C9
F0
3C
B7
2A
06
ED
E5
D8
0D
17
F3
07
FC
ED
F0
F1
09
FC
09
14
02
FF
16
E7
EB
00
FF
0E
C3
F6
F8
03
35
48
0E
E2
0B
BE
13
E2
F9
06
08
1D
D1
08
26
D4
10
E7
E9
10
20
BF
23
01
0D
EE
01
33
11
C6
FC
F3
11
07
11
25
F2
0E
2E
D4
1D
FD
DE
0F
ED
F9
0D
FD
0D
1F
1A
F7
26
15
10
01
2E
E7
2A
10
CD
DB
FA
24
D7
2D
EE
06
BF
03
19
D9
F8
F0
D1
1E
03
0F
D8
F1
09
FD
E3
07
E1
27
F6
FE
F0
07
2C
D0
14
0F
3F
2F
03
E7
11
FC
FB
0A
02
40
2F
EB
D2
1D
E4
F4
0E
34
12
C4
CC
F0
E5
23
09
EC
0C
0D
1C
3B
0D
FB
F0
EA
06
09
04
ED
D4
37
02
B3
3A
CD
EC
EB
22
E5
FB
29
DB
EB
F0
43
B4
FB
DE
1E
FB
47
11
F4
00
18
FF
0F
F4
E6
F0
16
1E
17
EF
04
EE
01
1C
F2
17
2D
DC
FB
10
01
22
E4
D8
1C
EA
F6
F1
1F
FB
11
EC
F4
0F
F8
DF
F9
0A
E5
FC
08
B9
0B
14
F0
16
E2
05
DA
0F
E5
EC
38
08
14
C6
E6
05
EE
FB
EB
09
F1
E6
03
07
31
F0
F1
12
F0
0A
CD
DE
06
04
D3
18
EC
F8
E9
19
F8
D9
2A
FC
09
42
02
26
FD
1A
EB
03
FF
F1
12
3D
12
02
CD
15
FF
D1
03
19
13
1E
01
F0
01
FC
EE
FE
19
37
F5
FB
0A
07
FB
14
10
0C
E6
F5
06
11
EF
E5
21
FA
3E
F8
EA
1A
EC
D8
0B
19
FD
F8
0C
18
CD
07
ED
F4
11
07
06
E3
03
1F
20
EA
2B
13
1C
13
00
EA
EF
EA
F6
FB
FB
11
F5
19
18
FA
3C
20
FE
20
F2
28
05
20
ED
F2
27
20
02
0C
E9
01
FC
DC
1B
EF
1D
ED
16
0A
CC
FC
16
13
D8
0F
18
FA
E9
1F
0B
E2
11
08
05
30
07
E3
1C
FA
FF
E8
00
EA
FB
15
FA
E4
0F
F0
ED
FF
F7
00
F9
F5
09
02
04
03
F5
D3
F3
08
02
FC
EE
03
DF
E7
21
F0
13
D7
FD
E1
CE
E5
0E
05
01
F5
04
DE
FD
0F
19
13
38
DC
CB
DA
F7
10
F7
00
3F
06
D9
ED
09
02
16
E6
E7
1A
0F
F9
0B
FF
28
11
CB
15
FE
02
F8
F8
BB
DA
C4
3F
F9
02
CF
0D
35
EC
D7
21
DF
E8
DF
F6
F5
0F
EE
E0
AA
16
18
0D
E9
F9
EC
F8
FA
ED
18
18
20
1A
FB
F2
F4
BB
FE
E3
DE
0B
0A
E1
0C
F2
20
F9
0D
07
F0
D4
DC
13
04
D5
1C
C4
FC
EB
0B
03
F6
15
0A
FC
10
CE
19
18
C7
27
2C
04
1B
0A
25
07
E1
01
D3
D9
FE
EC
1D
02
05
1A
02
19
01
FE
DF
0F
25
FE
F7
F2
05
12
0D
1C
ED
E1
11
E8
EB
07
0B
16
EE
E7
F5
1B
02
E2
0E
F3
FE
2B
F6
09
FC
E9
23
EF
FD
23
DD
FD
DD
07
04
F1
F3
FC
FA
14
FA
CF
28
F8
07
0F
EB
F3
40
0F
1B
F2
F7
04
FD
FB
1B
2D
F2
FE
E2
DC
D7
DF
E6
F7
E0
14
0A
1F
10
CE
08
02
DC
24
C6
E1
0C
13
CD
2A
FE
EE
21
04
E3
04
11
F4
22
10
F9
25
15
F3
07
0C
16
FE
F1
F7
05
04
16
DB
F8
1A
F0
13
01
DB
21
E9
2F
02
DC
DE
09
00
55
00
E6
31
14
C4
08
F1
F9
05
D7
F3
E7
EA
18
F7
08
DE
18
0D
E0
07
12
16
06
2C
01
FA
DB
0F
0A
E8
01
05
0A
09
E6
DD
F9
2E
CA
F0
F9
0E
04
26
FC
07
17
F7
E4
17
FA
13
16
D4
EC
FF
0F
F4
F5
CA
30
0C
20
11
06
E0
FC
0D
1D
EE
FD
03
EA
09
FF
F2
1B
05
EC
02
1A
0C
11
FF
F1
0A
F0
42
DB
19
39
0A
1D
13
04
F0
F7
0F
2D
29
E5
F6
FA
CC
10
EB
09
E5
04
09
09
FC
E1
25
F5
E6
06
E0
08
E4
01
10
F9
05
FB
11
10
F8
11
F9
2F
32
CD
E7
15
09
0B
0F
0A
CD
31
1A
03
0B
05
0D
1E
17
16
1A
05
D3
10
00
F2
05
1C
08
F4
02
E7
0D
12
1C
F4
1B
FA
25
10
19
21
E4
E8
15
E5
F5
F5
08
0C
FC
F5
F3
FE
FE
17
36
0B
3C
0A
EC
FE
D4
FA
14
DF
15
EF
C3
F9
32
E0
22
1A
EA
FB
28
CE
06
00
10
ED
17
05
21
0C
DD
EB
06
04
12
04
28
E9
DC
F9
F8
02
1A
08
AD
10
2D
1E
BC
FE
0C
E4
25
1E
FA
10
0F
21
21
24
DE
E6
EE
F0
FE
DA
21
0D
0B
0C
F2
ED
C8
03
1D
05
03
18
F5
F8
D8
0B
F1
29
2B
E0
14
12
0D
D9
2F
F1
E6
03
F2
0A
18
FC
19
01
0D
05
E6
23
06
00
C7
03
10
FA
F8
2E
F6
FE
DD
C4
04
FA
C3
FD
1B
DD
FD
0B
EE
10
ED
EC
FE
1F
EF
E9
F1
F0
0F
EB
0B
22
1E
1D
F4
05
09
18
0A
F6
21
F3
1A
DC
F3
F2
F7
1C
12
0C
E0
1C
FF
F4
F4
14
10
EB
E3
EF
E5
1C
20
03
FF
15
11
14
1D
04
05
06
10
DB
C9
FB
03
0E
14
0A
0D
E5
18
F6
07
F6
0D
F2
E4
02
F2
2C
02
39
05
20
D3
04
33
EE
0A
1D
37
FE
00
EE
1F
D4
FC
07
FB
E7
1C
D1
16
17
FD
EE
E9
FC
10
F5
F0
FA
DD
FE
08
EE
F9
0E
FE
39
F9
13
BA
1F
EF
F6
D5
48
17
A5
E2
E9
18
F4
0D
23
FA
DC
E3
36
EC
D6
F7
01
08
EA
07
14
FD
F8
1F
C6
E8
D7
FB
E6
38
E8
3B
3A
1E
E4
00
EB
0F
0D
ED
E4
38
E6
22
09
FF
07
E6
F0
03
EC
11
24
0D
04
16
1B
EC
FC
F0
1A
EB
20
06
EC
20
0B
E4
F1
9F
24
29
F8
0E
F6
14
15
F7
4B
DC
FE
FD
D1
19
02
03
30
EF
00
BD
05
E7
FB
3D
14
1F
0A
2B
FA
1D
15
E6
E0
E6
D6
2C
DC
1E
28
B4
0D
EC
BA
2E
CD
E6
1F
E7
06
D6
FF
FF
D0
01
D7
0D
10
F2
02
27
0F
BE
33
10
05
E3
EF
9B
F1
04
E2
E6
F1
C6
B8
A2
01
43
0C
D9
E9
FE
0D
23
D8
18
13
0B
19
F5
FD
14
09
0B
0E
11
13
0B
FA
2F
F4
03
27
FA
0A
F5
05
FA
1B
FE
3C
FD
DC
F4
05
04
F6
FE
FF
E6
11
E4
FA
00
06
2A
C4
1A
0C
34
08
04
0A
20
05
11
FC
3B
F3
F2
16
11
F2
E0
EC
2B
F6
F2
16
D0
09
E5
E1
E5
DE
15
F0
D6
11
F2
1B
C2
33
15
F0
1C
F5
EC
0C
FB
E0
EB
E0
FC
D7
E0
E5
E5
FD
0A
32
22
05
2A
07
01
25
11
FE
24
05
0F
07
FF
2A
16
F6
0C
01
FA
1B
FA
0C
25
1E
1E
D0
07
05
20
E9
CE
EB
FF
1B
21
0D
1C
CF
F2
D7
F2
0E
E9
F1
F0
D2
06
10
E1
1F
F5
27
02
F2
F0
DC
FA
37
DF
FF
1A
EA
F9
FA
F0
23
F4
28
1D
E7
31
34
0F
00
F0
27
F7
F5
03
E3
02
EF
E5
2A
F8
EF
D3
F8
F3
D1
F5
1A
CE
0D
E6
F9
0F
07
03
0B
FE
17
1B
06
15
F9
1D
25
E2
10
F1
06
26
EB
16
D0
02
29
F9
E2
1F
EA
EF
FB
0E
0D
F0
F2
06
E3
1C
ED
06
E2
0A
FE
D2
45
FA
1A
04
11
F3
C3
F0
FC
30
24
D3
0D
0A
1F
06
1F
FE
28
11
ED
FD
E4
1E
07
EF
A9
E1
30
EA
ED
D0
05
14
FE
E5
02
19
D6
FA
0A
1F
F6
FD
DD
F9
FA
03
06
B6
AF
D8
0A
3A
BD
C6
CF
47
0F
DE
2E
4B
D9
ED
29
FC
1C
11
B9
EA
CF
24
BB
F3
C9
B1
A9
18
E4
01
1B
06
3D
04
E1
F4
1D
EA
D9
01
1F
0F
E2
0C
F6
C3
FE
1B
33
FF
E1
FA
0D
13
2C
24
0E
E1
14
43
F3
E7
0D
F5
D9
42
17
F0
EB
0F
E1
D1
03
CF
3C
2B
CE
1F
3C
FD
15
F8
F9
28
17
18
15
0D
0F
1E
D4
FD
EB
0A
D1
06
3D
13
EA
EE
D3
FC
F0
1B
F7
09
E0
E1
EE
17
30
28
17
10
DD
05
32
F7
11
09
FE
2F
F6
FA
0E
E7
DA
5B
0D
0B
E3
00
04
28
F0
1F
2B
08
EA
DF
2A
D6
1A
F7
3C
06
FF
07
FA
35
27
FD
EB
D6
19
EE
1A
14
F6
0F
EE
EE
12
24
0B
06
DD
06
11
E9
FC
08
0F
05
F5
ED
0F
FD
DC
FC
28
05
E8
09
DA
23
13
21
46
EA
D8
07
0E
ED
0B
39
EA
F9
0B
E8
01
43
04
B4
E9
18
04
EB
FD
CA
48
DD
13
E3
1F
F4
E5
FF
1E
18
D6
00
0C
FA
F8
1C
0F
DB
26
D8
15
DF
E5
D5
28
FB
F8
F3
29
05
2E
C3
12
EF
1D
E1
E5
FA
11
E9
28
F3
11
25
20
D1
0A
04
11
08
FC
10
CE
1C
F6
EC
ED
15
36
08
12
F7
13
25
05
EB
2A
F7
07
1A
E6
DF
F6
28
3A
0F
DE
F8
2B
EB
16
11
DD
0F
1D
F6
21
E9
0D
D4
05
FC
FE
32
18
02
01
F7
FC
EF
1A
18
09
F5
E6
03
FB
25
34
EA
04
D6
08
FB
11
1C
01
18
08
04
06
1B
F7
F3
EF
D2
EA
FD
DB
E4
F9
E5
15
D2
FD
FA
CC
16
F9
14
E1
FF
16
FA
F3
01
00
E8
01
F6
ED
1F
1B
16
F8
08
0B
00
0F
14
09
E8
EE
FA
EE
FB
FE
14
02
EF
F5
37
34
17
06
E4
EB
D1
E3
02
0B
02
03
16
F5
17
08
F9
EB
F1
1A
0D
F1
10
FC
F9
00
EF
12
CF
D9
1E
F4
1B
EF
0B
F4
1D
EB
0C
0A
E7
F7
E8
09
D6
EE
16
12
F8
12
1D
F7
F9
FF
FE
EB
20
EC
ED
EF
0D
F9
EE
D0
D7
EC
11
F9
18
F4
FE
FD
17
DF
EB
EE
01
C5
16
F6
25
2D
D4
00
15
E5
C7
F6
1F
06
09
F8
08
27
F8
E5
D6
0A
DE
2E
13
0C
D2
EC
F2
EC
16
1E
1D
E8
F6
EE
FC
E9
F9
EB
25
02
2D
F5
EF
0F
03
F9
F5
1D
2F
D8
02
E7
F2
0C
D9
F0
F4
11
13
23
29
FD
C4
34
D6
17
19
F0
CE
D7
0A
E2
0E
EB
05
22
FD
F0
EA
F0
12
0A
10
05
0C
14
D0
28
0D
FA
D5
00
ED
19
FD
1F
0D
DE
3F
DD
31
DB
CE
F1
E0
FC
FC
FC
1E
F6
F2
26
F4
26
D4
08
D5
E5
FD
0C
EA
F7
FE
3A
E7
0A
DE
C7
01
F1
E8
07
FF
26
13
F3
EE
D6
04
F4
04
03
DE
DB
08
20
F8
E5
0D
E1
03
11
1E
18
11
CF
0C
1B
F0
D4
0C
1A
2D
D4
F5
D0
09
12
19
28
F7
FA
10
03
08
09
21
09
0A
F7
21
0F
0B
DC
EC
0A
0F
16
05
27
12
26
DD
FF
F6
CD
EC
D3
F3
0B
16
EC
14
16
D9
EE
1F
0A
06
C4
03
05
14
FB
0E
E3
E8
EE
EE
30
F9
18
1B
DB
06
19
FB
3E
E5
26
E2
22
0E
F2
05
ED
E0
D2
0E
0F
15
F3
0A
09
FA
0E
03
11
F5
CE
F9
03
3D
33
07
39
0E
E5
FD
F8
F8
FB
F7
21
FB
EC
FB
06
0A
03
0B
1B
35
E5
0C
0F
EA
0C
F2
14
E5
F7
ED
0B
42
E7
F2
21
0C
E6
E8
1E
F8
0E
14
27
0C
1C
E5
19
2E
0A
11
12
F6
1B
E8
20
F4
F5
09
12
10
DD
D8
FB
02
EC
03
2D
E7
E7
EA
D8
03
FF
BB
2B
12
14
E3
EB
32
2E
F1
05
00
EF
30
ED
08
