16
1B
D6
16
F1
24
22
01
00
FC
F6
0A
0F
F5
09
0C
22
01
F7
ED
E7
14
DF
13
10
01
E7
F3
D9
E9
04
FA
FE
1A
EE
0B
E1
14
FB
EE
F8
F7
08
24
FC
FA
D6
F0
E3
EB
F3
F2
0A
FE
FE
13
F0
F4
E5
F9
FB
FF
F3
11
09
0B
EC
F5
DA
0F
FA
FB
F3
02
1F
13
03
0E
D5
F9
F4
02
EE
D6
07
24
27
07
DE
03
0D
EC
1C
03
F7
09
EA
18
E7
11
E4
22
23
E1
E9
19
19
31
02
01
F5
F9
1F
FF
F7
E7
EE
16
EC
13
FF
00
01
F5
DC
23
DD
0D
E9
04
1E
10
EF
FA
1D
5F
18
0F
12
21
0B
16
F8
06
16
05
C2
01
F9
F8
DE
F4
FF
F8
15
DE
E5
01
03
0A
F8
03
E0
1E
0A
04
EB
1E
16
F2
F4
21
18
E6
04
16
2A
0C
0D
F1
0B
F8
E5
0E
0C
00
F2
CF
F2
16
02
E3
1D
DE
FD
DD
F1
FB
18
F8
F6
F7
16
12
03
16
F0
0E
EB
11
0C
14
EC
F0
1A
24
06
21
F2
EF
E4
25
FB
03
1C
F9
E4
EE
01
37
07
EE
EE
F1
F5
F1
1A
1C
F5
E6
04
F5
13
E4
DE
0E
FF
05
1C
EE
18
06
1A
14
E5
26
01
1E
F0
06
14
E8
F5
DC
FB
F4
FF
E8
E9
FF
1C
2D
DF
17
F9
FA
EC
F5
FE
0E
FA
F8
01
F5
F9
2D
03
07
18
E6
2A
FB
D6
FE
10
05
10
E8
F5
ED
15
F7
07
E9
F6
12
E3
09
FC
F3
EA
E0
1F
FA
FD
12
29
E0
EE
0E
0B
FC
E1
F7
DA
FC
08
DF
09
20
FB
08
16
14
EC
12
15
22
FE
FE
11
13
F2
11
05
0B
F6
00
DF
F4
E9
23
FE
1E
E7
10
01
E0
EF
1B
C9
1D
F4
E9
FF
1B
DC
10
0A
04
03
02
0A
ED
24
E6
E1
E9
FF
17
F8
0F
18
F3
06
05
EC
F7
F8
F7
FF
35
EB
FC
F7
12
13
2E
CD
00
FA
F2
FB
FC
04
01
F9
FD
22
2C
E7
FA
01
1E
FE
18
F7
08
DB
FC
F0
01
F9
0A
0D
F5
07
27
DE
1B
EA
FE
0F
19
0A
F6
F9
10
E0
19
0B
E2
2A
16
EB
26
EB
12
16
F1
38
13
FB
D5
1A
10
08
10
D8
E1
13
13
14
13
1D
04
B2
05
08
28
03
F9
03
29
F8
E9
D9
00
F3
ED
EB
F6
0F
F8
EB
F2
FD
0B
F0
F2
27
F7
E7
15
F5
03
F0
00
D8
F4
F7
F9
EF
EC
EB
05
F6
00
1C
FA
FB
EE
FC
F3
FC
2C
F2
0C
16
09
F0
0A
0C
15
FA
07
08
13
1B
1D
FC
13
F8
09
09
E3
F1
F5
1B
01
01
F0
18
E2
0A
45
06
FA
3B
E8
ED
06
EF
DC
F4
F7
04
24
FB
30
01
0F
04
0A
1F
0E
F2
F0
F2
18
F5
09
2B
17
F9
DE
FD
EA
22
CC
0F
F3
EE
F4
F8
1A
13
0E
2A
ED
E7
E8
1A
16
F7
04
DA
26
F8
F0
F5
FC
06
10
CB
03
FB
FC
14
E4
17
F6
10
F8
18
F9
2C
05
D0
F4
21
FB
FC
05
0B
0D
09
F6
12
13
0C
03
F7
F1
FD
FF
1E
0D
0B
11
18
E4
C6
BC
F3
04
0F
DA
23
1B
EF
E2
1A
D7
F9
FF
09
0E
EA
01
CA
1E
2E
FD
25
D9
18
F9
05
D8
07
2A
E3
00
1B
FF
F7
EF
16
0A
F8
2C
2B
10
FB
29
D3
DA
E6
FA
2B
C9
14
D0
C5
F5
2C
0C
FD
02
31
D9
0D
09
21
CF
AF
CF
E5
09
FB
D6
B5
E3
01
0A
14
34
F2
19
DE
D7
FC
EC
F1
F9
26
EA
F9
2E
15
FD
FA
1D
19
28
3D
17
F1
0B
E1
36
FC
24
EE
1D
06
15
08
FF
EF
FA
36
19
18
FB
19
F7
1F
05
F4
07
08
EC
CF
30
D8
F8
E4
FC
10
0E
10
01
15
39
27
04
F8
ED
D3
0A
F1
DE
15
1C
CB
E6
D5
09
0E
35
CC
15
0D
F1
DB
15
CA
EE
1A
F3
FC
DE
06
E8
EB
F5
C8
F1
02
0A
D0
E6
FE
23
25
FB
FA
FA
FA
24
E4
E7
0C
14
15
F2
0C
2C
FE
F3
C8
DD
FF
E8
F8
0A
D0
16
F0
1E
FA
08
17
17
E7
02
24
0D
18
07
1A
0C
F6
0F
07
FD
F9
E8
02
07
01
1F
F9
F6
EE
FC
E5
D4
FD
05
EF
DC
ED
14
F0
14
22
FD
08
0B
F8
E7
DC
07
04
F8
F4
FE
04
0E
1C
0A
EB
F1
F4
0A
15
D1
FA
01
D9
FB
F0
F9
FA
0E
1D
08
EA
F5
EB
E9
F8
F7
02
FA
09
16
08
EB
0B
F3
03
03
07
08
2A
EA
F7
24
0D
FA
E9
0D
FC
13
00
FB
EA
15
0D
E9
ED
F7
EF
F2
FA
F7
FB
F0
07
F8
0B
1D
FE
01
F8
CA
0C
05
11
27
09
FD
01
0F
0B
E9
1B
F5
F7
07
0F
1E
FD
06
F3
DD
0F
04
04
09
0B
0B
02
08
06
ED
07
19
01
FE
15
FE
F5
1D
FC
F0
0E
1A
1B
0A
03
1D
05
EF
F8
08
03
EF
E0
FD
05
F4
D7
F9
01
FC
23
02
03
EE
EF
2A
01
D7
F6
11
0F
F7
14
12
E2
10
20
0F
F2
BA
12
ED
F1
FE
FB
EB
F3
0E
F9
EC
05
0A
06
ED
EC
02
FA
0F
FF
E9
02
12
06
06
28
F0
16
D5
01
DB
FB
1A
FE
11
19
17
0F
F3
25
1A
0C
EC
D0
EB
EA
F3
C9
E1
E3
E7
1F
24
0B
0A
21
13
FA
2F
20
F5
30
F4
08
03
E0
F6
DA
F5
CD
00
0A
03
F8
1D
DB
0E
0A
02
07
23
EA
1A
24
0B
06
0F
20
08
02
0A
29
00
1D
00
01
19
E9
FB
05
08
17
F2
12
23
FD
ED
00
1F
F8
10
FA
10
FE
00
F9
F4
FC
E7
F0
EA
06
1E
E9
02
0F
0A
07
FF
0F
24
0E
16
00
EC
F4
EF
DB
07
0F
FD
26
FB
29
DE
05
1B
04
FD
CA
36
F4
00
D9
07
E2
0D
00
37
EF
FA
0D
FD
DC
F2
E7
EF
E0
F5
E9
CF
F4
F5
03
18
E9
E4
EF
F4
1C
FD
FA
02
21
0E
0F
08
FB
F4
E3
11
EA
FC
30
02
1B
13
16
F4
26
FE
31
01
F6
F9
E5
EB
F2
F9
18
EF
1B
FB
FE
FF
FF
EE
07
05
08
D9
11
19
0A
1F
06
E2
EC
07
F1
FC
04
DD
03
21
BE
E5
2D
F2
16
F8
F9
15
FD
F3
F6
E5
07
29
03
F5
18
00
2E
2B
0E
24
F9
F0
F1
EE
FB
0E
F3
19
ED
02
02
E1
37
0F
11
30
FB
EA
15
0D
04
D6
EC
EE
E6
FC
0A
2B
F5
F3
08
25
EB
FD
F5
EE
F2
EC
E5
10
1C
E9
2F
22
FB
0F
FC
0E
0E
F1
34
E3
13
DA
F0
19
F9
14
F8
0C
EC
F9
FE
16
26
1B
F5
0F
FA
F3
F2
0F
E9
E6
F3
E7
EA
20
19
E1
17
F4
EE
0C
E9
F6
FF
0F
FC
F3
E5
E0
14
FA
F0
1F
05
1F
1A
E0
EF
E4
01
CC
03
FE
F8
03
13
1A
F5
15
07
02
05
26
03
25
11
DC
FB
1A
00
0F
DF
04
BB
1E
FE
D0
17
1A
19
0A
D0
E9
EB
05
1B
0B
F8
13
DB
06
FB
F1
09
16
F4
DF
03
FF
DD
02
EF
EA
14
F6
19
FF
DD
E5
0A
F0
FB
08
00
DA
06
11
29
07
0B
07
00
00
FE
11
1C
04
09
EA
0A
1A
13
12
02
EA
0E
0B
23
16
06
02
03
DC
E1
1B
13
D9
D8
24
F8
08
05
C4
2D
F3
D7
02
FD
1E
11
E1
00
27
1B
07
E1
FD
EE
E9
0D
11
F8
1F
F3
03
23
05
E8
04
CD
DC
0A
01
15
14
26
FF
0E
00
06
F3
0C
01
FC
F5
FF
05
18
F0
1F
EB
17
0D
17
FE
E0
16
F1
FD
1B
17
0B
02
F9
E8
E4
F0
1D
F0
E0
30
FC
08
07
0D
EF
16
F0
18
EF
DD
04
F6
27
04
11
FC
12
F3
0E
00
08
02
E1
E3
CE
40
F1
23
FC
1B
1F
1B
FB
15
E3
01
FC
1B
F3
F8
09
01
20
06
E4
05
F4
FF
DB
FB
06
FD
E8
16
0B
F3
04
07
FF
25
F5
05
D1
3B
EF
E9
2B
C4
11
0A
D4
F1
05
1A
D4
05
FE
27
0A
08
DF
10
24
2B
1A
01
E8
0F
0A
EA
FC
10
10
F3
02
F7
D7
FD
33
D7
EE
D9
F4
20
E0
14
03
01
EB
FC
E5
ED
04
25
F2
1A
FE
03
FB
22
05
FF
12
00
ED
01
0F
10
04
12
FE
FE
DC
12
F9
F0
24
07
30
0F
E9
0F
15
EC
F6
EF
0A
F5
23
15
1A
21
01
04
F4
DD
ED
FC
F6
22
13
25
CD
0D
EC
03
01
FD
DA
FB
01
38
F5
CE
FF
21
FD
CD
F1
F2
2E
E1
07
00
09
0A
24
F5
2D
19
FE
11
2B
09
FF
06
0D
FF
EE
12
F4
0D
F9
03
0C
02
24
13
F2
EF
00
1E
F4
F9
DB
F8
EF
FB
FD
24
12
E9
0F
05
04
15
29
0F
25
CF
FA
16
E3
0D
1A
22
F6
F1
12
CA
FB
F4
F4
F8
DA
E3
0C
10
E6
EC
FA
02
EF
18
0C
FC
DF
FA
0C
12
D4
F6
E8
2E
06
EA
12
26
DD
EE
FA
1D
07
EA
05
17
FE
00
DA
19
FC
03
E0
FC
22
D7
04
37
0B
31
0A
3E
00
D9
2B
FF
22
E6
F2
12
F4
DE
01
07
F1
12
DF
E1
1E
13
FD
10
E3
1D
2D
E8
12
F6
0F
2C
2A
0B
FB
F2
08
13
01
0C
10
EB
36
1E
F1
07
0F
18
05
FA
1C
11
EC
1C
F3
E0
00
ED
1C
13
EF
E6
0C
F2
09
11
F2
2A
F6
1A
DE
E7
24
F4
19
FE
16
2D
17
EB
0F
15
E0
2E
FF
D6
07
07
0E
FA
FE
EA
F0
FC
E9
FB
F2
F5
F5
09
07
EA
D9
F7
22
25
08
29
F1
F9
06
D8
28
20
24
E2
4C
00
24
DA
F7
E1
EC
FC
06
0B
0E
0C
F7
ED
E0
18
06
09
09
F9
03
F6
07
13
EE
0A
C7
D5
15
DE
BF
10
37
EC
23
0E
15
F3
23
FF
E1
E2
1B
E1
BF
E7
D3
EF
3A
DA
29
2F
F2
F7
DD
0A
D6
FD
C8
01
E7
D6
EA
E8
0F
0A
F7
10
48
00
22
2F
E8
E4
F7
04
EF
F6
01
D6
F4
2B
1B
2D
FE
2A
00
0A
DD
EC
05
1B
F2
F6
17
09
0E
21
EF
1B
F3
D0
10
EE
EC
15
F6
D3
14
07
04
08
E0
EC
F6
17
FC
FE
09
0A
0A
E9
CC
F3
08
0B
25
D9
EA
F1
F5
F1
ED
F5
F6
17
03
F9
FF
1D
E4
07
C7
F3
01
19
F1
FA
EF
FB
E4
EA
F6
FC
E2
22
F9
09
E4
18
16
E8
F3
F5
FE
CE
02
F5
09
0E
D6
05
EE
13
EF
F1
10
F0
07
11
05
F3
18
02
1B
19
DA
0B
1C
FB
F0
07
11
ED
FF
F4
BF
FE
10
F2
D1
04
EE
FA
FF
E1
11
10
F0
1D
E9
FE
FE
ED
F2
FF
00
0B
F5
0B
1D
04
ED
07
01
E0
23
E5
E5
EB
FA
3E
FA
EE
FC
10
04
F2
FB
F3
EA
D6
ED
0C
0E
E9
15
05
1C
09
F8
0F
F7
06
FB
43
2D
CE
F4
F5
FF
F4
1F
12
E3
09
F1
13
21
22
FD
08
0B
10
F5
F7
11
FD
FB
00
F4
F7
0C
DB
26
F5
20
02
04
0A
FC
D2
F9
F3
C8
F7
1A
E5
EC
03
E4
02
1A
0C
EF
E7
E0
E4
11
1C
04
F6
F0
FB
E9
FA
F1
F3
EF
ED
03
FD
39
FB
F4
FF
27
FE
03
01
07
D2
F9
FA
FA
08
00
C3
12
18
05
F3
DF
05
00
F7
12
10
06
E7
02
FC
FE
1D
EF
08
0E
15
FE
03
0E
0C
E3
07
15
15
F1
0B
0A
F8
26
10
07
09
E3
DE
07
00
14
F7
08
E2
29
0D
F6
E3
18
10
F2
DE
F1
0D
E2
18
F7
06
09
1F
03
05
27
13
1B
04
1E
07
F8
DF
F1
FD
EF
F6
E8
FD
18
0D
1B
FB
22
2E
07
D5
0A
E3
03
01
FB
EF
F8
05
F8
F6
FD
09
F7
12
09
F6
08
F4
1C
FF
EA
18
E5
23
DD
ED
17
E4
0F
EE
0B
13
F9
10
1E
08
19
FA
FA
00
20
14
0A
05
FF
F9
11
FE
23
2A
F3
1E
22
01
02
F3
E4
00
12
16
FD
0B
08
FD
FF
E4
0F
00
F0
E4
FB
11
0F
E2
1F
FE
04
E5
18
DE
0E
E2
04
10
F7
F0
02
09
F4
FD
FE
F2
24
15
FC
08
F1
17
FA
20
03
14
E7
19
1B
0E
FE
C9
0D
2F
F7
D5
08
01
D9
0E
FD
E6
EE
F6
FB
F0
E5
07
27
1E
0E
EE
12
07
06
F5
E7
FF
EF
04
EC
06
0C
F9
07
EF
1D
EC
F9
F8
11
F4
09
0A
09
DE
E8
F7
05
FD
08
EB
11
0C
FC
22
FA
09
E9
18
F3
11
15
09
DF
25
D9
FE
1D
DE
F2
23
F4
18
D9
FC
F5
19
0A
3E
F7
DE
EA
FB
08
18
31
08
1B
03
04
FF
23
04
16
F2
E0
F6
05
17
07
09
06
12
F3
E9
07
14
0C
F8
04
01
2E
FB
1C
03
02
1D
F7
0A
FB
19
FE
FB
16
EF
E0
FC
1C
DD
DE
ED
FF
08
FC
06
01
F1
E9
F5
18
EB
05
09
FE
F1
1F
02
21
E7
2F
18
B3
FC
33
13
F1
FC
10
E2
05
01
E9
F5
DB
E2
F7
F1
08
27
DC
10
E3
DA
EC
00
DB
08
F0
F1
22
D1
35
09
EE
1C
00
11
0C
F8
08
11
0B
07
F5
DF
EA
0E
12
F8
EB
0A
F6
19
E8
E7
29
03
E1
0F
0A
FD
03
00
FF
17
E9
0E
E2
EA
E3
00
0A
ED
E3
21
09
FA
F8
1D
02
E9
EC
ED
0F
03
EC
FA
0D
2C
14
D2
F0
09
0C
11
1C
F5
26
FD
F8
10
14
EA
FD
07
FB
0D
FC
28
05
F2
02
06
14
DC
D1
23
ED
21
18
08
2B
17
DF
E1
1F
10
0A
E7
00
15
F3
FC
F8
F9
2B
FF
F6
09
DA
1A
03
0A
07
F7
1A
04
DB
F0
F4
1A
05
13
15
0F
03
1B
0C
EF
09
F3
01
FC
E9
0A
10
F9
FD
FF
0A
F9
1D
ED
FE
15
08
DD
CC
FB
ED
F7
00
02
E6
06
E1
13
18
FC
1F
FD
15
0B
FC
DC
E3
F7
F2
00
01
22
E6
1C
E6
0E
00
0F
E3
F3
00
04
C2
15
03
14
FD
E7
14
EA
21
2A
08
F6
15
EF
F5
05
0C
11
02
05
F9
14
FD
00
1F
0E
28
1E
18
03
17
01
07
12
EC
EC
0D
05
EE
EB
22
ED
0A
F7
0A
FE
F8
12
15
02
11
E9
EB
FF
E1
EE
08
28
F4
18
16
00
FA
F6
EE
FD
07
0B
EF
01
F5
18
18
0D
1B
20
02
F3
05
FD
FF
FB
04
FC
E7
F2
00
E9
F9
05
14
ED
14
E0
24
F2
06
EE
EC
FB
08
01
F6
F3
07
02
15
13
EB
10
E2
EC
FD
EF
09
08
09
F4
F2
DC
F9
10
08
06
E5
0D
FF
F6
03
01
18
0A
FA
09
05
12
01
F4
1C
06
E5
E6
F6
EB
EF
2A
E7
03
07
F3
0D
DA
0A
ED
0B
E7
FD
0D
0A
0F
FC
E0
F2
E0
02
F9
03
20
E6
FC
F5
F6
0B
20
04
18
05
05
08
02
04
13
07
F2
E7
DB
FC
FA
04
0C
0C
DC
FE
03
24
FC
E1
E4
05
E6
FE
1D
00
10
F8
F7
12
F7
F1
F1
22
36
27
F9
1C
0F
13
FF
FD
ED
25
0F
09
04
0A
1A
1F
20
0D
F9
00
FE
E0
D8
FC
CE
1D
19
06
13
18
21
EB
E0
03
F0
EC
29
08
DC
F0
11
22
0C
DC
10
0B
1B
1A
20
F0
12
14
F9
DE
00
F9
FC
ED
D3
EB
F1
FD
F1
12
EA
EB
36
EB
0E
1F
F8
09
16
14
F4
02
F7
F3
FD
F8
F9
E3
FF
EC
02
E5
F2
FA
02
03
1F
0A
05
09
F3
F7
F4
1E
FC
05
F2
01
1E
FB
D4
FB
11
FC
BD
FF
05
E7
0E
E7
01
E4
04
24
F7
22
00
F4
F2
10
DB
1A
FB
0C
1F
E6
F7
05
F1
E6
0A
F7
FE
0F
0E
0F
E1
F7
16
05
FF
01
F5
F7
08
0F
0B
EB
EC
F5
D7
FD
FB
EA
D1
F8
FF
19
FF
16
F9
E8
FE
0B
00
19
0F
09
E2
19
00
F0
1A
FB
06
10
FA
F5
14
F6
F8
16
02
01
09
09
FD
05
25
0E
0B
FF
0E
11
06
02
FF
00
17
10
EF
E0
F6
06
03
03
09
F1
E1
16
08
F2
22
0A
F9
F1
04
F1
04
0B
01
01
F5
0B
EF
20
01
1C
10
05
F9
F4
F2
23
08
FA
13
E6
FF
F9
11
1B
EB
10
09
F5
FB
21
DE
19
F8
D5
E6
0D
F7
0B
F7
E8
02
0F
1D
F3
08
18
EF
DD
02
11
F8
21
D3
FC
F3
F8
01
19
F0
EB
18
07
01
FE
21
E1
20
10
FF
F7
F9
12
14
1A
0A
F6
FD
03
0D
12
11
2C
EB
0A
D3
FC
FE
D5
0F
F0
04
37
E7
DA
F9
FC
10
1A
05
EA
05
05
ED
FD
EF
10
0B
01
00
03
04
FC
F1
E1
27
2A
0F
F6
10
07
EE
05
08
EF
FF
F6
20
FB
08
FF
0F
08
F2
06
F5
0B
04
E3
FC
09
EB
1A
FA
EE
D4
EE
DB
06
F3
EE
0A
E5
F0
FE
07
14
ED
11
00
DF
EA
1A
F5
08
FB
F9
27
F0
1B
15
FF
F8
04
11
0F
16
FE
0C
D5
05
F8
EF
EF
FA
0A
F1
14
E0
EA
FB
15
F5
EB
EA
FD
2F
01
F9
E7
EA
F8
08
E3
22
12
10
FE
FC
DA
24
F5
E4
14
04
FD
05
09
0F
F1
11
06
FD
EA
08
E6
0C
09
03
ED
EF
EB
06
F9
F7
F7
E5
1C
FC
FA
00
FD
0F
01
F0
00
10
06
D9
EA
03
08
16
04
EE
0B
EE
0A
17
05
0E
FB
E8
D9
D2
02
CE
05
E9
09
F8
16
E7
E9
06
F5
F2
EB
28
03
05
0A
0B
EC
04
E7
F7
02
F2
1D
21
EF
FF
25
FD
F4
D5
0E
2F
04
0F
F3
FE
16
17
27
1D
FD
1C
F2
0E
11
F8
05
ED
25
10
11
E3
F3
09
00
DC
E4
07
04
0A
F9
C4
EF
02
EB
21
1A
ED
EE
EC
27
ED
D3
04
0A
20
0F
22
E6
0F
13
FD
E7
15
FB
0D
22
18
F4
DB
FA
07
EA
F8
FE
05
E8
F4
F9
EB
EB
FA
E6
FB
F9
E1
13
FF
ED
E5
EC
04
11
F9
12
10
16
1D
01
FB
F8
FC
FD
0E
FC
10
00
FF
EC
10
08
0F
08
08
08
E6
E9
14
FA
0B
13
E4
0D
EE
07
1D
EA
17
F8
11
FF
11
1B
F7
01
EB
1F
0D
00
F8
E7
19
02
09
2C
0D
F7
04
FB
F3
F4
0A
EE
18
05
E8
0B
CF
0A
0C
E7
0B
03
00
EC
E1
F8
11
0B
D6
0A
F4
02
E9
17
09
FE
F7
EE
02
16
05
F3
10
11
EF
F0
07
EA
F8
1F
F9
FF
EC
FB
0A
16
FE
FD
F2
18
02
FA
05
E5
0A
0B
0B
15
13
10
F2
EF
F7
D8
17
14
08
06
FE
F6
F4
1B
DE
06
0B
1E
D2
F6
09
35
E0
0A
0D
05
08
E3
12
05
EA
FF
04
DB
F3
EE
F2
F1
EF
F0
D5
D8
FD
F6
10
EE
F6
09
1D
1E
07
EF
E9
FD
EE
F7
F8
02
E6
17
13
F5
FF
E8
FB
EF
12
07
01
00
04
0F
F3
FB
F4
0E
E5
DA
0F
FB
C6
E7
DD
FF
F7
F3
05
03
16
F7
FE
FE
00
F5
18
DA
E9
FD
F3
1D
0E
1A
0E
EB
F3
E6
F4
FF
E8
05
25
FF
DE
E7
07
FF
FF
2E
07
0A
15
18
F5
0F
06
03
F8
09
FD
0C
26
FA
26
10
09
FE
13
E2
F6
10
0E
F4
DD
FE
07
E4
F4
11
0E
FF
10
FF
11
16
05
0E
1B
E6
E6
FC
16
EE
EA
03
E4
00
0F
2B
1C
23
10
EF
FF
F7
14
0D
19
ED
F2
F0
08
00
F3
E4
E5
00
18
DF
0E
DB
43
F9
DF
E1
0B
10
0C
08
05
F3
E5
13
0F
07
E2
F1
15
FE
DC
EF
0D
01
06
FD
08
FA
E3
ED
E8
10
EB
E8
24
17
14
F5
2C
F2
10
F1
03
FE
02
F3
17
FB
D9
ED
12
FC
07
FB
07
FB
FC
10
0F
DF
E9
E2
F4
07
15
EA
F5
08
02
E1
16
F7
FF
F2
0A
06
E2
20
08
08
E3
0C
16
F1
F4
F7
FB
FC
09
FD
DF
06
FF
1C
02
CA
F6
DC
E8
18
D2
FB
E2
FD
03
28
0B
00
2D
F0
F6
ED
20
CB
1C
F9
12
F4
EF
1C
F2
F7
0B
EE
EC
D6
15
FC
06
08
13
F2
F6
F3
26
0B
08
1C
F8
11
07
E6
E6
C0
DA
FD
FA
0D
FA
EF
1C
1D
07
14
FA
19
16
F9
1C
06
06
E9
0B
FD
00
05
E7
FE
F5
0A
0C
03
05
F4
1C
FA
F2
F5
14
FD
E8
05
03
0E
0B
ED
0C
F2
15
02
F2
11
E3
FA
E0
21
31
DE
36
06
09
FB
D4
E4
02
EF
13
FA
E1
19
F6
DD
FC
04
F1
0D
D5
15
F2
F6
F5
D0
FD
EB
1B
F3
F7
F8
F9
FC
DF
FE
F9
FE
F1
ED
EC
F5
E7
02
EB
00
11
2B
F1
17
F9
12
E0
29
08
0F
2B
0B
FF
EA
F1
E3
F2
0A
FE
2E
0A
FC
04
05
1F
1C
1B
02
15
1C
FA
F6
FD
FC
D4
F6
D6
E2
E8
FD
FF
0D
E9
FE
24
1F
01
DF
F3
F3
22
F2
FE
ED
F2
1C
D3
1C
DD
27
E1
24
FF
03
04
15
DA
0F
F5
F9
FE
04
07
13
EF
1A
FE
F2
16
E6
07
06
02
05
07
16
03
13
17
0F
1D
06
2E
FB
0C
FD
0F
12
F8
0E
0A
1C
27
E1
0F
F9
F9
F0
E7
0E
EC
FC
07
EC
EC
24
02
FE
05
F0
FD
09
EA
0A
F6
E8
FA
0D
E1
04
21
F3
0A
25
01
0C
25
F4
03
EC
12
E6
DE
FC
FF
25
FC
E5
30
F5
0C
18
13
0D
D9
22
FC
0D
E9
E9
1E
E7
F0
D6
D4
FD
29
D3
00
01
10
09
DF
25
FB
1F
DC
14
12
04
F4
29
04
DE
E9
E2
0F
16
00
F6
25
0F
FB
26
E7
05
1B
FD
20
D1
FC
EF
1A
02
D8
0F
2D
03
F5
EC
0B
0F
FC
02
F8
F4
F2
21
0B
C9
E3
FA
D4
F7
F0
01
FC
0D
F7
1D
08
EC
2E
DA
F4
23
E1
F6
19
1D
F9
F8
0C
0E
F8
E4
F6
08
07
18
E4
F4
F9
F4
1C
10
14
00
C7
2C
09
EA
17
16
FA
19
F8
E7
E6
E7
F9
09
F0
F3
14
F7
D3
03
0B
F0
FC
01
09
F9
09
E4
FA
05
DF
FA
DF
1D
06
05
0F
37
E9
F5
F2
00
07
F3
10
FA
0D
19
F0
F7
05
F9
FB
0C
26
F9
24
E3
0C
04
FD
09
19
0D
09
C5
07
FF
FD
EC
07
DF
E2
11
FE
0C
EB
00
15
F9
F6
CA
11
DE
ED
FF
00
E1
07
00
08
0F
FB
D2
DB
ED
2D
E4
FB
18
F7
EC
13
E1
1F
EC
EE
1D
E1
10
11
F7
08
EB
08
35
04
FD
18
F6
FE
F1
02
06
E6
06
04
ED
16
DC
02
0B
24
FE
02
10
D2
0C
EB
F1
0A
E6
FD
E6
11
06
05
02
0E
05
16
03
24
15
DA
FA
FE
1E
ED
F6
0A
02
FD
22
FF
16
19
0E
1E
E6
EC
04
FE
E0
F1
11
37
19
14
F7
E5
0F
E4
ED
E2
19
18
0C
0B
09
0E
F6
ED
06
0B
12
DA
53
00
EF
F4
C5
EA
FA
F8
F2
15
0A
18
E7
FC
FA
07
F8
13
06
D0
1C
EB
0B
DE
11
0D
F1
FB
D9
2C
2C
EC
EC
D2
E6
08
17
FB
FD
21
EC
02
26
0F
26
0D
CD
06
F3
F8
F9
E2
0C
DD
E9
D5
09
15
0F
FF
01
F5
F5
28
FB
1F
F9
F8
29
E8
DD
12
01
21
FF
08
FF
E1
14
16
F6
ED
DD
10
0B
F3
12
06
E9
F5
01
15
09
FA
EA
E4
F2
0C
04
E1
14
DB
08
16
11
E3
0E
2A
1C
04
E9
1D
0B
37
0E
10
25
FA
04
04
31
E8
0E
03
26
FA
07
1A
07
E3
FB
EF
F2
FF
E6
14
FB
FA
14
F5
04
F6
08
FD
03
FD
12
00
FD
13
14
11
F8
F1
23
FC
0A
FA
EF
E8
02
E9
FA
15
17
F4
13
F0
FE
F5
F3
F2
F6
17
09
06
DB
19
F8
08
ED
0A
F7
18
F7
10
E8
F3
1E
00
F5
FA
03
10
F3
E8
09
03
07
01
FE
FC
EF
1B
0C
D8
E4
F4
FE
E4
11
DA
E9
0F
05
0F
10
0D
0D
18
13
0C
EE
19
E5
F9
22
06
F0
FB
F3
EC
15
F1
F3
ED
06
05
F8
03
06
19
07
01
03
0B
01
06
F3
0A
03
21
F8
0C
1A
FE
F8
05
F3
FC
FC
E2
0B
EB
F9
E8
16
E3
0A
15
E5
00
14
F5
0C
F9
05
E4
FF
00
FD
E9
F2
12
EE
0D
ED
ED
14
08
17
FB
D9
0A
02
F6
D9
E6
E9
1B
D8
F9
1B
02
EC
03
D8
FD
F8
F2
13
1D
02
07
EB
F8
D0
FE
1D
F3
F7
02
E7
0A
F7
02
0C
0F
0A
F9
FF
13
F6
10
FE
EB
03
E0
EE
FF
08
F8
1B
EB
F0
F5
15
FF
0A
01
F5
0B
F8
0B
F8
FA
FC
F4
16
F9
EE
D9
04
F9
FD
DD
06
07
E6
EF
FE
0D
09
14
10
05
F7
11
FE
11
05
1D
25
03
10
28
EC
F6
14
E1
DF
10
0C
0A
FE
F6
FE
DB
0C
F5
0A
FB
04
F4
F3
F9
09
ED
0F
E8
DA
F7
E6
05
13
F6
13
0C
DF
F8
04
E8
FE
00
C4
1B
09
0D
F4
05
04
30
02
02
F4
09
06
ED
F8
F6
21
10
0C
F9
F4
1F
FF
09
FB
D1
05
FF
10
F2
0E
12
1C
01
FE
01
F7
1D
00
0D
F7
00
DF
14
17
10
05
03
F6
1E
08
0C
05
F2
04
EF
14
E8
E5
FB
21
FC
F9
02
0C
06
0F
02
FB
F3
03
E9
FF
04
FD
11
21
18
22
03
FF
07
F5
F5
F8
DF
FA
01
DD
12
E7
F4
0B
FA
F8
FD
FD
1B
09
14
F5
14
EF
F8
17
0A
EB
01
17
09
0C
FC
F6
FE
F4
E6
0B
10
04
05
12
14
FB
10
F1
F1
05
FD
E3
EF
04
21
0D
01
EE
E8
E3
09
E3
0D
0A
20
0C
10
05
1A
04
0D
F8
1E
1D
16
1E
03
FB
EB
FE
22
03
1B
F0
F9
02
E7
F7
01
ED
08
F8
F0
04
EE
06
09
DF
1E
EE
FD
E7
02
08
D8
0F
12
21
09
0D
03
DD
06
E4
F7
FF
F5
E7
0D
1E
01
04
F9
F5
05
E3
0F
08
07
EE
0D
F7
14
C0
0E
07
E5
F7
F4
FC
D5
2B
EC
DE
F5
10
0F
F5
EF
F9
F2
0D
1B
DA
27
13
F0
F8
E9
F0
07
D9
04
0A
1D
19
2E
F7
0F
1E
EB
F6
07
FF
01
0A
F9
1D
FC
EE
FD
E6
F3
09
F7
F8
E1
F4
06
2D
F1
0A
C5
1E
0D
F9
08
0E
DA
F3
08
05
D1
0F
18
FD
0F
03
F9
DF
E1
1B
09
E5
2C
F0
08
06
1D
0C
EE
FC
0A
24
07
22
0B
11
F3
07
EE
F9
E7
F2
F3
27
1F
09
E0
F2
F1
FC
1A
FA
09
E2
04
0A
10
F9
00
F7
02
F8
ED
0B
F6
F5
0A
02
FE
15
0B
1B
E8
EE
03
12
06
F8
F2
0C
FB
03
23
1A
FB
05
F4
2C
0D
24
19
0C
08
E5
11
21
F0
D6
0E
FB
E4
06
0A
F5
DC
04
03
ED
17
23
10
09
03
12
D8
F4
0D
FD
E1
FD
E8
EB
1C
EF
E1
D3
00
00
F9
07
15
FE
E4
E5
EE
FE
F1
E6
09
FF
FE
E7
32
03
F6
FF
F5
F4
21
E6
05
F8
E4
20
0C
E9
34
08
F0
13
F8
F8
F8
DE
CE
42
02
21
17
EB
0B
E3
EA
13
04
07
D5
02
09
0E
01
04
FB
26
DD
10
17
F5
EA
21
FA
06
FF
EA
E8
FB
1C
0F
08
08
22
E2
07
16
DE
11
EA
00
0B
FC
F3
1F
EC
D1
11
FD
09
E5
F1
04
08
F3
EB
10
F2
EC
F3
07
CC
FD
EA
11
09
02
06
0F
15
11
02
F0
1A
11
02
EA
E2
CE
06
F7
E9
0B
01
ED
00
D6
FF
00
1B
10
1B
20
FD
E4
FC
05
28
EE
12
EA
00
E2
0C
F6
FA
F8
1B
19
14
FD
14
EE
10
F9
E1
F4
1A
21
08
19
E4
FC
FA
F7
F0
01
FF
10
06
FE
0E
EF
05
FF
12
FF
F9
EC
FD
FB
F3
FA
EF
F9
FD
F8
00
F2
04
F5
2A
16
F5
1E
ED
F5
E8
FA
11
E9
FC
26
12
FE
D5
DC
FD
0A
F8
E7
F9
EF
F3
F4
DC
F6
00
00
F7
06
05
FD
E9
14
E9
F7
E5
01
0A
00
FA
06
07
EF
F3
E7
05
F8
DF
F4
0E
06
14
FF
1F
EE
19
F5
07
01
1E
03
14
E9
2A
F8
FC
E2
2A
17
E1
26
0A
18
D8
1C
ED
FF
0E
10
E1
05
F5
F7
17
F0
1A
EB
ED
1F
F2
15
04
F2
08
EC
FF
EF
00
DC
E7
10
FF
FE
03
07
01
03
11
19
17
00
F0
FD
DC
03
09
F7
00
FC
0E
FA
FD
08
0A
02
F6
16
F2
FD
11
35
EA
17
0C
1B
09
F6
F2
21
14
16
0F
EE
1E
EB
FE
FC
16
0E
EC
04
03
E2
11
05
12
F8
F6
0B
0E
14
F9
0D
05
E2
0C
15
13
06
11
22
FA
1C
F6
E0
05
25
FC
F6
FB
F7
E7
EE
E5
0A
F1
E5
11
D8
1E
FB
E1
FF
E2
E7
FC
05
14
EF
DA
EA
EF
02
F8
00
FF
2D
0F
08
16
0B
02
EB
FE
13
17
E5
03
08
DE
F7
F9
01
EB
02
20
0D
F8
00
0A
07
DF
E4
E5
E7
2A
F6
F8
04
FE
11
EF
14
F9
F1
F4
FC
F7
FC
0B
14
01
12
19
03
03
EE
0B
F4
F8
03
07
19
FF
0F
11
FB
F5
F7
32
09
FB
F4
09
04
E4
F6
2E
0E
0D
0B
DE
03
0A
F4
06
F4
FF
E6
19
FE
11
FE
0E
0D
0A
1A
02
F1
11
19
1A
F9
FB
17
F2
FC
15
0B
DD
FE
F7
00
E3
DB
F8
23
2A
F7
04
DD
24
17
E3
09
04
03
ED
E5
F8
F6
02
06
EA
F9
F9
F9
F9
1C
19
E6
1E
12
ED
02
17
00
03
FA
06
E0
01
DB
15
EB
F8
05
1D
10
F7
EC
FC
0F
F8
0D
0C
13
22
06
1C
0F
07
E7
D7
00
E1
19
0E
2D
F2
2B
24
26
E8
F3
FF
FF
13
F6
F7
F1
F3
0E
FE
0C
1C
2C
F1
1A
E6
1F
23
F8
EB
30
F6
00
F0
E3
09
DD
EE
1E
08
0D
18
01
0D
07
10
0A
D6
0A
F2
E3
09
F5
0D
11
04
1C
0A
F3
0A
FF
2E
2B
0C
B7
05
EA
0D
00
FD
1B
34
10
F5
F1
1E
E7
E4
12
20
C2
0E
06
19
E3
0B
04
ED
E1
00
13
07
04
F0
F2
FA
0F
09
FA
EC
15
17
12
09
E8
05
2F
18
F7
09
13
E6
EC
32
F1
F0
FC
00
DD
E0
1F
F9
09
F9
FD
CD
0E
DF
28
EE
F8
DD
E6
FC
F4
1D
0D
04
FA
0C
01
16
06
E1
0C
ED
0F
0D
D3
1C
01
F3
07
1A
00
C9
DC
FA
3E
E9
F0
EE
32
F0
EE
1C
E2
DC
D9
EA
25
06
FC
13
03
0D
10
09
F4
DD
F2
08
1A
FB
F7
03
F5
EE
0E
0E
17
0C
03
14
FB
0F
21
01
25
29
26
FE
13
0A
F2
10
15
FC
F4
F6
06
FD
E9
18
12
05
00
0F
09
0A
03
E9
0D
E1
FC
E5
15
F7
F2
E0
14
F6
0C
F7
FF
19
16
F7
00
0D
02
02
0F
D7
09
F5
FC
D3
E2
0E
FC
E2
FE
0E
F3
07
FB
0C
09
E7
EC
00
EF
E5
0C
F3
06
0D
FD
09
F3
00
EC
F7
E1
06
0A
0A
FB
F9
F8
1A
FB
2B
00
F3
02
03
F6
01
08
07
0A
F3
15
F3
F0
0A
FF
08
06
0C
27
06
FD
F6
E4
22
24
23
0D
FC
06
1D
02
EF
FC
1E
E9
DB
13
04
0A
FF
24
FC
11
0F
07
F8
FC
F9
F7
16
2F
06
06
12
10
F6
F3
F8
08
F3
02
1F
F5
F4
13
F1
06
F3
0F
29
FA
0E
09
0A
FB
10
E3
E4
01
F6
F4
04
FC
EC
F6
00
0A
E9
F6
1C
FE
05
C5
ED
E9
C3
11
1A
0A
D9
FF
F6
00
E0
F5
DD
13
EA
12
F7
F1
DB
FB
03
06
10
13
F3
C3
0A
F8
06
FD
05
F5
DD
F5
00
F6
12
DE
11
06
FB
1E
EA
E0
1A
01
DC
12
F3
14
ED
EE
FE
0B
E9
21
DA
1A
08
F9
12
03
01
C6
E5
EF
0B
DC
0C
04
0B
C8
1F
0B
F2
E9
18
0F
F9
FF
E5
1E
D8
EF
05
DC
FC
FD
29
13
10
24
FA
27
02
FB
07
08
09
F4
16
ED
FB
01
F5
0D
30
F3
15
0B
F8
17
17
12
18
DF
21
C9
F7
09
06
1D
ED
0D
EE
EF
E5
D6
02
F6
FB
F7
FD
D0
0C
F1
EA
37
E7
F6
00
DD
09
0E
FD
F4
FB
1D
E3
03
F4
EB
07
02
1D
EB
00
03
0F
32
E3
FC
F9
E5
EE
F4
F1
CC
DD
07
36
D9
D0
0D
FD
0B
DA
FC
EC
F7
F3
D6
07
E3
E8
F2
F3
13
26
09
0C
F5
17
18
16
2D
0D
54
EF
2F
01
15
1D
E4
16
0B
01
19
C0
EB
F3
21
0B
0D
28
07
FF
D6
D0
15
22
15
15
09
FB
1F
F9
EB
3C
FB
08
10
F5
2E
F5
0A
1F
F3
20
08
0A
06
11
FB
FE
12
FD
06
ED
18
16
FF
C4
03
10
02
F5
40
F6
EA
07
EB
01
F3
2B
F6
0D
06
0F
10
DB
F7
DA
FB
DA
FB
0F
FD
00
0C
D8
0E
04
01
FE
E5
2E
0A
19
EF
ED
F4
19
2F
0F
F2
ED
28
11
0C
08
14
0C
00
FC
0B
16
14
01
14
0B
1E
E9
12
FE
ED
25
F4
E2
1E
03
1F
19
12
EC
05
13
F5
F9
E9
F6
2C
DA
F8
13
0A
F3
26
0E
2F
E7
FD
32
02
07
FC
CB
DA
F2
12
DA
F9
19
FD
08
19
0F
06
D2
1A
E7
F1
0C
D0
11
F2
E8
01
E0
FA
09
FA
DE
E7
1C
FB
FA
10
ED
0F
06
05
3D
CA
0C
1E
1F
F4
13
08
0C
F4
F4
09
16
14
C6
1C
FD
05
2E
FC
00
F5
CB
18
02
F9
C6
DF
1E
F9
FC
FD
0A
0C
30
F2
0E
F2
14
09
FA
09
16
F2
E7
1C
FF
10
15
FA
07
D6
F6
F3
FF
0C
28
06
05
15
00
09
11
1F
DD
08
EF
20
FD
F8
0F
11
0E
EF
EC
ED
F2
E9
F2
F6
0E
2A
ED
0E
0C
08
F5
0A
0C
11
EF
EE
F8
F3
09
0F
0B
0F
F1
FF
1A
FC
FD
07
0A
F3
0E
0B
29
FC
0A
10
02
24
06
EC
10
09
EE
08
08
06
E8
10
11
01
16
0B
FD
0A
EB
FF
F9
F7
0F
F9
EE
F8
05
F8
0A
D9
0A
E4
E1
08
16
01
25
33
E9
E9
E3
EF
05
FE
E8
F5
0C
23
EB
0B
19
0E
02
12
F1
04
FA
FA
0A
F3
29
EC
FF
FC
E1
E6
0B
F0
07
E8
F8
EF
1E
E8
07
FF
F2
06
08
E3
06
01
0B
0A
01
10
04
F4
F1
F7
D2
17
EB
FF
21
07
00
F4
02
ED
F1
1E
EC
02
03
DC
FD
11
15
F3
F5
0A
0D
ED
ED
FB
F7
F2
20
F4
F7
EA
F6
01
0E
FD
E3
E8
E6
E3
05
00
FB
15
01
16
07
18
04
FA
F4
0C
F6
EF
09
FC
F6
FE
27
D9
1C
2B
E2
18
10
EB
00
03
11
0B
F6
D3
EB
EE
0F
E3
2D
F5
ED
F7
03
EE
FA
FF
31
E8
00
2A
02
EA
E7
02
01
FE
FD
0C
FD
16
E2
FE
E1
13
02
14
E7
00
FB
FC
FE
E4
E1
02
0A
FD
15
FB
EF
FA
F0
06
F7
0A
FC
D0
07
08
E8
0A
EB
F9
05
F5
E9
E7
CC
02
17
06
17
08
FA
EF
00
04
DB
F6
E9
FB
F6
1A
E3
FA
F7
0D
ED
E6
03
F2
09
F5
21
F5
FA
DA
F6
FC
0E
EA
00
E8
EF
E7
07
08
05
E6
1A
DA
08
13
0C
0A
F7
01
00
EA
2D
10
03
06
04
DE
EF
EC
EE
F3
DD
FA
E5
E7
08
1D
08
12
FE
01
FF
1A
21
EF
15
D7
00
07
11
28
07
09
03
FD
E9
DE
EE
F2
F4
0A
16
1A
F2
13
11
EF
1F
24
EF
14
0D
14
0C
E9
F4
F6
F2
05
EC
2D
D8
D6
2B
2C
EC
0A
25
E9
0F
00
02
02
15
0B
DD
F6
1F
F7
FB
00
C3
F8
C0
E8
DD
CA
18
13
0F
DD
FB
01
F8
F1
05
03
06
03
EE
EF
F0
FB
E4
01
E8
15
1A
DD
18
28
F2
15
03
FD
EB
FD
02
0A
F1
01
FA
13
07
E7
DB
F7
F6
2F
DF
F3
11
10
E8
EE
07
F7
0E
FD
03
40
E4
F8
FC
17
F5
2A
DB
F4
1B
F1
02
07
01
F4
14
F3
1A
07
1D
08
0D
E7
14
D8
03
E5
1B
02
02
E7
1A
E9
FC
0A
02
F4
00
FB
12
E9
10
05
E0
18
EA
20
06
12
0B
00
ED
2F
01
10
F7
09
E8
F6
F3
E7
0E
D6
E6
06
00
07
F1
1A
01
FD
F7
01
DC
0A
05
FC
FF
1A
F4
1E
21
E8
13
05
EA
28
08
F0
14
FE
1B
F5
F4
FE
14
21
0B
F0
E8
FE
0D
E2
F3
1B
17
1A
13
FA
C7
F7
09
F4
0F
07
1D
2E
07
FB
C8
1E
16
FE
1F
F1
06
E6
05
18
00
00
03
13
F8
F9
F3
10
FA
1A
FC
1F
06
E5
DA
F2
14
03
05
D8
E2
09
17
0A
08
18
1D
C7
07
0A
E4
07
01
09
F9
EF
F9
01
F8
E5
08
06
2C
FB
19
21
0E
2D
0B
0D
EF
FD
00
FF
E8
15
0B
19
E6
0F
E6
0D
DC
0E
D6
0E
11
F7
12
02
19
10
14
17
E8
05
EC
F6
E0
FE
18
F6
F7
FF
20
0D
06
03
0D
C2
D7
14
39
10
FC
E6
12
25
FF
0E
B7
04
EE
09
05
12
23
0E
D0
EE
E7
03
D8
EF
F9
E6
20
09
ED
F3
F5
ED
10
F5
03
D7
F6
D0
22
DE
FE
ED
0D
13
40
00
F5
14
FE
05
FD
0C
FA
1A
38
05
EE
EE
FD
29
ED
F9
21
F3
F7
FC
D8
F6
02
F4
1F
FC
E5
E8
16
D9
1F
18
0E
1D
0F
30
04
2C
E7
D5
F6
12
F0
FE
01
03
08
F1
16
FA
E6
01
EA
D4
01
3D
ED
11
F3
29
F2
01
FC
EB
F4
19
0F
17
03
31
FD
1A
FF
F9
09
18
D7
F0
1E
15
0C
1C
04
0B
06
18
13
02
11
1D
07
08
05
F0
E4
CE
0B
05
29
FC
09
1E
EE
DF
03
08
E1
04
07
DB
09
EB
EF
ED
E8
E4
4A
F6
DD
DC
03
D8
DF
09
C2
E0
32
E6
AF
33
00
F8
CB
EB
0E
35
D9
1B
0A
03
F6
0B
17
DE
ED
08
D8
04
F4
D6
E6
08
F4
24
F5
F6
20
02
0E
00
E8
0F
06
F5
D1
0A
D8
08
27
F8
2A
FB
03
34
08
F7
F9
0D
E1
28
1B
FE
08
0F
02
18
32
20
0C
E2
15
F2
1B
02
F4
E9
2B
19
E3
00
31
EA
F6
FD
12
18
09
29
1A
F1
3E
E2
0C
E5
E7
1F
07
FE
D2
E7
19
E4
FD
F4
EA
EC
1C
2D
E3
F9
08
E6
1B
F2
EF
F3
0C
03
01
06
E5
15
F4
2B
FC
16
08
F1
EF
F3
DC
F0
DE
F9
05
18
09
04
16
DC
FF
FC
1F
24
FC
E9
FC
D5
FE
1A
EC
ED
1F
0B
1D
E5
0E
0C
0B
E4
DB
D2
02
FA
01
14
E0
E2
11
F6
19
FC
21
F8
E9
E3
03
30
0D
E9
C6
0C
00
11
05
1D
EC
D5
0F
0A
19
DA
EE
12
01
FB
03
E8
05
04
F9
D6
1F
F2
E7
0E
11
07
D3
01
07
00
15
12
E6
08
16
F6
F7
0B
0C
02
DE
E1
10
E7
F4
0F
E3
ED
D1
FC
E8
10
F1
13
1C
FA
1A
04
00
E1
F1
0C
FB
22
02
22
09
0C
00
1E
0D
E2
0F
D9
05
0A
ED
EA
18
FD
E9
FF
10
02
F7
08
00
0B
F5
12
03
DA
00
0D
07
FF
F4
09
02
F4
EA
F8
1A
F0
FB
E6
09
FC
F5
F3
FE
E1
18
10
0C
02
15
F8
28
03
EB
ED
07
10
03
04
1C
F6
E1
07
04
E2
F2
07
09
02
FF
11
2C
F8
D3
F7
1C
FF
E6
E8
0B
EF
12
20
0A
03
D6
13
1C
F9
23
26
03
F2
F1
0D
DD
19
DE
F3
17
0B
EF
15
2A
F5
0D
FB
15
0E
03
11
F0
FB
EB
D9
F9
1E
F6
E3
FA
F4
13
C1
F6
03
F4
F3
F9
02
01
FF
FE
DB
D8
E9
FE
1D
0A
12
F3
03
11
E9
1A
EC
01
F5
FC
14
3D
FA
0E
EE
F7
01
CD
05
12
EC
17
FC
00
1B
ED
0A
03
17
1C
12
EF
18
02
ED
18
FF
44
EA
03
01
14
23
11
F8
06
03
FA
E0
15
FE
0E
F5
0A
09
04
1B
0D
12
E9
08
FD
FB
E9
F0
EA
E3
EB
F5
F1
11
F7
FA
DE
EF
22
DB
22
01
F4
EA
F7
19
DA
07
11
01
05
D7
11
00
D7
04
EE
DE
CF
12
D7
FE
C9
FC
E0
02
08
E9
E5
F3
F6
DE
FC
29
18
31
0B
12
1D
EB
E2
F7
05
15
06
0A
20
12
EB
EA
0C
16
FC
E1
1E
FF
0E
25
FC
FF
F9
D7
F4
25
08
FC
F4
10
29
F5
F6
F7
1C
07
FE
FC
F3
FF
07
06
16
36
13
F7
E7
09
EC
F7
FB
ED
E7
F3
F4
01
FF
E5
F0
0E
2A
13
FA
F5
ED
FD
F3
F2
0D
13
04
E7
EF
0D
F3
2A
01
F6
FA
E2
EC
16
F1
19
F1
E5
F6
E4
FD
E3
FD
0F
DF
F2
F7
ED
F4
F0
00
E5
36
F3
25
1D
0A
EE
2F
E8
D7
E8
08
DB
D0
F2
43
E8
1B
01
F0
0E
13
24
E0
D2
E5
F5
D2
0E
07
02
04
EB
05
E6
06
FE
09
06
BA
0B
EE
11
16
F8
E1
FC
16
3A
E8
EB
1B
F2
D4
0D
E3
16
EF
32
03
E4
15
0A
E7
02
FD
E2
D8
E9
0B
E0
05
13
E1
04
09
1B
1D
EF
EA
16
E8
F0
F7
FD
E9
14
F5
CE
E0
1F
F1
F9
09
EC
0D
E6
DB
1B
F5
13
19
F6
03
EE
E6
0E
09
F4
FE
E7
E7
DB
00
02
07
09
EC
13
05
36
1C
08
04
06
EC
F6
20
F7
EB
04
C0
F4
FC
F9
DC
32
D9
08
0C
D8
F7
D3
D9
19
E6
19
12
0A
11
1B
03
02
18
ED
0D
F2
DD
EA
D9
11
21
FB
24
F2
F3
24
0B
F5
22
F6
0D
06
FE
E9
F0
03
16
02
19
00
F6
00
E2
EB
04
0D
02
EE
28
16
0D
13
FC
34
02
E8
1A
13
EC
FE
EC
05
03
EB
F3
DE
F5
0C
E8
0F
0D
FD
FF
F7
FC
F9
02
0C
22
FF
0A
E8
2C
00
1C
09
D8
11
F6
EA
03
E1
F9
1B
16
15
F3
EB
F2
03
F9
0C
30
FA
10
E1
FA
0E
03
FE
0B
F8
13
EC
09
DE
FB
FF
F8
FB
EC
E9
03
FF
06
05
FF
30
0E
F5
FE
EA
F0
EE
D5
15
32
06
C6
C8
F7
1C
13
01
08
22
05
EB
E9
EB
11
FC
F3
FE
09
03
FD
F0
13
FE
16
EB
F8
E5
FF
CA
09
E4
1E
0E
E2
FD
DE
FA
0F
0D
0C
26
03
F1
16
FF
FE
0A
F5
F1
0A
0B
FD
FB
EC
08
F8
FB
EA
E5
F6
EF
D1
0A
0F
11
D5
FE
FF
00
11
DE
0F
F4
0F
F1
F7
02
EC
01
13
FA
FE
FE
F6
16
EF
21
FF
FA
F2
18
05
EF
1D
0B
16
F3
12
02
EE
FF
14
FE
F4
0E
1B
0B
08
0A
FE
28
03
13
0E
E9
FD
0F
0B
FB
EB
04
F0
EF
E4
ED
F9
08
0B
FE
FC
01
FC
0A
EB
1B
FF
FD
F2
F1
07
E4
F4
CC
FA
F3
F7
FF
F2
F6
FE
1B
18
1B
FE
12
15
FE
E7
CF
E8
02
F5
E8
E4
E5
FC
F9
05
F8
F9
16
06
F2
14
F9
17
FE
1A
D2
1C
E3
FF
F5
F4
09
EA
0B
23
F2
F1
03
06
FD
D8
01
F6
03
03
14
ED
0D
F0
F7
1C
04
08
FD
FB
EA
0C
06
02
E8
05
F8
1B
F5
F2
F7
08
EA
FB
E9
BD
EF
F7
FC
F6
02
1A
FF
EC
E2
05
0E
FD
FD
0C
0B
03
F9
EB
15
18
EA
E6
F1
18
10
00
EC
0D
FE
13
04
EB
0A
07
09
FD
F2
E9
04
10
F8
18
FA
CD
10
00
1E
0D
FC
1D
F6
1B
08
22
07
11
15
12
14
0C
F8
14
F9
EC
E5
FF
0E
FC
ED
0B
17
ED
02
F3
FB
F2
0F
05
01
05
17
0A
21
E7
FB
09
F7
FE
FA
08
07
0C
0C
F5
E1
02
EA
03
F8
01
F0
0C
FE
16
07
05
01
01
06
04
D8
1A
14
0D
01
EA
0F
DA
09
01
F2
EA
E1
E2
F0
F4
0A
E6
2D
E1
EA
0F
D7
11
51
1C
F8
ED
F9
EF
19
FF
F3
20
FE
C5
D9
C6
FA
D5
C4
DF
0E
F4
18
F5
17
F0
39
21
FF
09
F2
C7
C9
E1
F2
C9
14
18
D0
42
0E
3A
29
2A
EA
2A
07
F4
EF
E0
FE
13
EA
EA
19
E3
05
02
19
BF
27
1B
22
F8
19
EB
EC
E8
03
0C
0D
02
1D
F5
CD
2E
FD
1B
F3
2B
F1
04
29
F9
04
EA
F4
CC
D7
FB
ED
1B
01
22
DF
09
FC
D4
F0
1A
EF
19
E7
E8
F1
01
22
E4
0E
EF
D8
F9
FE
F5
26
2C
EE
F0
07
2F
EF
22
1D
0D
18
FD
F3
FE
16
3C
DC
E1
D3
F6
45
1C
E6
04
CA
07
FB
FF
27
12
E4
E0
2F
13
EF
24
22
06
FF
12
EF
F4
E9
0D
F0
F7
EB
F9
06
FD
10
08
0F
F5
0C
E0
18
F7
E9
10
1F
EF
00
FA
15
0D
0A
E9
EC
26
00
02
E5
FA
FF
F3
F1
D3
FF
E5
CC
00
DE
E7
14
F1
02
0B
DF
ED
0E
03
10
0E
EC
FE
0F
EC
03
0E
09
FF
13
09
01
F6
00
F7
03
06
EC
0D
ED
0C
F4
EA
08
F5
01
FF
11
F1
0A
15
0E
0E
D1
EC
DC
F4
FF
10
E4
14
09
00
F7
0A
0D
FD
F2
F3
17
E7
FD
01
DB
F2
04
FA
00
F8
F2
0A
EA
FE
FD
0B
EA
ED
F0
F8
F2
FA
09
F5
E8
04
09
11
EF
04
0A
F2
FC
E7
0A
1C
14
FE
F4
0D
10
0B
00
01
00
17
F5
02
FB
09
EE
0D
04
04
F6
EC
03
29
07
F9
18
EE
12
FB
07
E4
21
F5
14
FA
22
FB
F0
12
C9
09
0B
F8
ED
19
05
02
08
F6
F7
0B
F3
F4
09
03
19
04
F0
F3
F2
05
05
FA
ED
14
F2
00
1E
E9
00
07
04
00
0B
0A
07
E2
F7
0F
05
03
F6
F1
0E
FE
E6
DE
12
23
FD
F6
E1
13
14
F4
1F
02
FC
07
12
17
EC
EB
F8
16
03
FE
04
1C
EE
14
14
E0
EA
D7
E8
F3
F0
03
F3
F7
DE
F3
F7
00
EF
EF
EE
D7
D6
0E
F1
E9
E8
02
E3
0D
FF
F7
15
F1
14
0C
21
46
C5
18
FA
FD
0B
06
1D
FF
0A
D4
EE
0C
F6
03
10
F9
E3
2E
E7
F7
13
18
0B
0F
FF
01
E4
FE
F4
F0
06
0D
DD
0C
20
08
E1
0F
04
F6
0D
E9
09
0A
F1
12
12
1F
E3
0C
08
11
FE
0A
FC
0C
04
03
F6
F6
FF
FF
1E
F3
11
1E
EE
EC
01
16
FD
F9
E5
1F
DC
1C
ED
FB
23
E2
17
11
1E
EC
EF
F7
EF
F6
00
01
FE
0C
EC
16
23
F4
05
FC
F0
12
F9
EC
E9
1B
FD
F0
1B
0F
17
EA
0E
00
0C
D7
F8
FC
1B
F0
F3
FC
2D
F1
06
F3
FD
ED
F1
19
1D
E9
15
04
10
0A
03
04
0A
03
FC
07
0E
F2
17
21
E6
18
11
22
21
FB
FA
15
ED
00
13
1D
FB
06
F6
1F
1B
09
18
D7
BD
EA
F6
11
0E
08
2A
1C
08
00
F6
02
FD
E9
1A
F8
14
E7
F5
F9
0B
15
EC
E0
08
09
FC
10
29
04
03
17
FC
F7
E0
FD
F3
1D
F1
28
F8
CA
FC
29
10
15
03
4B
13
3B
34
25
06
DB
00
11
F8
DA
03
08
27
0F
10
3D
1C
01
DB
D7
CC
DC
FA
EA
F1
DA
4F
09
08
A6
E8
E9
FB
37
E2
FC
0D
ED
EC
AF
EB
CA
F2
41
FF
12
14
0B
C1
29
F2
04
D0
04
D9
F9
05
17
10
03
02
15
F4
07
C4
EF
DE
FA
26
03
ED
F1
04
FE
23
17
EE
17
40
03
0C
09
12
05
0B
F6
E8
D8
23
EB
0D
EF
EC
EA
18
E9
1C
C8
BE
F8
01
CD
EB
11
DE
01
CD
FF
03
07
F2
F5
40
13
FF
FA
02
FA
13
0E
32
FE
F5
04
21
E6
FE
FF
FB
C4
D2
20
10
D4
F7
CF
E6
D8
DE
0F
E4
F6
1E
0B
EF
ED
13
E6
01
E4
0E
EB
F2
1D
01
F6
EE
F0
EA
0A
02
0A
1A
08
05
F8
FC
E7
19
0B
09
FE
03
DD
00
F6
D8
1D
33
EB
00
12
F9
0A
DC
0F
F7
FB
21
18
03
FA
07
FD
28
F4
F4
F4
F0
10
FA
F2
0E
FA
E6
FC
2B
07
FE
16
F7
F3
F6
20
2E
01
D8
FB
03
10
FE
D8
23
18
1D
DD
F9
F5
17
1A
06
09
08
FC
F4
0E
E4
FD
E2
13
03
F1
F6
F8
0C
08
FF
03
FE
27
EC
FB
DD
EC
F2
FC
F3
FE
12
F6
12
F7
09
06
0A
EB
17
E9
D9
19
02
F2
0C
19
11
14
F2
1D
F5
01
F5
D9
25
09
F8
F7
E5
12
10
05
20
17
FB
D9
0E
F2
FE
1E
DA
0B
08
26
14
08
07
EE
EB
23
0F
15
0C
23
F1
06
F2
08
F7
E2
D4
0B
E6
12
F0
0C
ED
22
EC
38
E8
F5
01
E8
16
FC
1C
D7
F7
DA
07
0F
0D
ED
DB
0D
F7
11
26
24
F2
08
1E
E4
F3
08
F8
1A
FC
CB
F7
FF
ED
F9
16
22
EE
20
07
12
DD
FB
FE
0C
F7
F4
F3
07
13
E7
0B
F5
DA
16
FE
00
DC
F2
0E
02
00
EB
EA
D1
FC
03
CD
F1
0B
F6
07
FC
F1
01
1A
E9
FB
EC
13
02
30
E8
03
E0
0C
07
DF
F2
C5
0E
D9
F9
F2
FB
02
E3
FD
E7
FE
32
02
1B
DF
15
FE
FB
06
07
0E
14
F2
3E
E4
32
16
F3
C6
FC
20
E4
0B
05
09
FB
FC
1F
00
02
28
07
F2
F3
03
E0
21
0B
E2
FC
FE
0F
F4
F3
0A
0C
0D
0E
0F
EF
15
0A
01
0E
0E
21
F2
09
F7
F8
F2
FE
F9
1D
0C
06
F3
D3
DB
EF
1C
E7
0F
F4
0A
ED
0C
0C
1F
05
EF
1C
EE
FC
E1
DF
09
05
DB
F7
05
F7
FF
00
0C
DA
FB
0F
F3
FF
01
15
13
F7
E8
FB
EF
11
06
F8
01
09
16
0E
17
F7
04
03
06
08
04
03
26
05
FB
FA
03
18
11
E6
F1
EE
F0
EC
FE
0A
FC
06
E4
F1
0C
FC
02
F3
0C
DA
06
0F
E4
FC
E8
0D
EF
F7
F0
16
EE
FB
12
13
04
0B
04
FE
E4
0E
20
00
16
16
04
F8
F3
0E
FA
09
F0
F7
F5
EE
02
10
09
E2
F7
11
F4
20
FA
FB
FF
26
F6
0A
06
FA
FC
F8
E2
03
0B
EA
FF
EA
E9
DD
05
21
F7
01
F9
1E
E8
06
E8
E4
FE
C3
07
25
EE
EB
04
00
0B
ED
0A
F2
EB
1A
0E
FF
08
F4
14
FC
17
14
01
F5
F3
EF
10
E6
F1
02
00
19
EB
17
E1
D6
03
1A
0A
16
EE
FF
07
0B
F8
FF
F3
1D
1B
E5
FE
0F
F1
FA
EF
08
F4
0F
03
F0
23
10
06
12
E9
FC
F3
21
27
F7
1C
E0
08
17
1E
08
05
FA
0C
0B
08
02
FA
14
FC
08
FA
0F
F5
18
EB
D0
F6
19
1E
F4
1E
15
F0
EF
EF
14
13
14
1A
29
13
F0
0D
DF
0C
DD
27
E3
EB
F6
E9
F3
15
F8
E6
39
1A
FA
CE
1C
F9
FB
19
F4
04
04
D9
E7
03
10
F6
EB
F7
F4
17
EC
CC
1B
EE
08
EE
09
FC
FC
FE
FC
FD
0C
00
01
FC
D2
F6
26
0D
FA
E2
FB
F2
0A
13
0A
08
ED
16
02
18
EE
F1
06
FE
1D
F5
E7
F6
0C
18
EB
FD
03
E0
DE
13
F0
FE
00
01
18
F2
00
D3
F7
DD
10
F4
05
E4
34
03
F1
F8
FD
F0
15
0D
E8
F2
05
24
E3
D3
F1
F7
E3
EC
21
DE
1C
1A
01
F7
03
28
17
01
E2
03
EB
FE
FA
D2
29
FA
E5
EF
11
F8
F0
05
D8
FC
00
0F
05
FC
E0
F4
10
07
01
07
20
00
EB
ED
0B
10
D6
F0
37
00
1A
E1
2E
FA
26
25
E2
F1
24
F8
01
F9
17
F4
03
D0
FC
15
F6
3E
23
FB
06
EE
25
F9
FD
12
F6
1F
1B
11
04
32
14
20
05
20
FB
FB
02
F9
FD
1C
FE
02
04
FB
1C
FD
EE
0C
F1
13
F7
1F
15
05
08
10
16
28
E3
1D
0C
03
FD
03
04
F0
06
0F
0E
14
E7
EE
21
11
F5
F9
08
12
07
FA
03
F2
0F
03
03
0E
06
EC
00
04
FE
0D
00
25
F9
F6
00
22
17
14
F4
EB
15
FF
0D
E8
08
FE
F5
EA
F6
15
F6
EB
0B
14
F6
01
F3
F9
01
FD
F8
F2
11
FF
EE
F7
F9
F2
13
E6
FD
EC
10
18
FB
F7
EF
0B
12
19
07
FC
F5
F5
14
E3
E9
E2
0E
FD
D8
FF
FB
F0
F3
15
E4
E9
19
FF
04
0D
05
FC
06
17
07
0D
EF
0E
21
09
0D
08
0A
09
04
FC
FB
0B
18
E9
F0
FB
04
19
18
F2
FA
07
FA
01
F9
FF
05
F1
24
08
05
0C
09
00
F0
CE
09
01
EE
F1
F8
05
E7
FF
F2
09
F5
02
E9
12
F2
1F
EF
28
F9
1F
04
F6
E5
FB
0C
18
16
00
D2
FE
F8
29
F1
06
02
11
F5
07
EE
04
15
CB
FE
EC
1A
E8
E5
07
11
F6
16
0B
2A
11
F9
F1
E6
FC
1C
05
03
18
1C
E2
01
F4
02
09
F6
F6
0D
EB
FA
23
FD
0D
D0
00
18
FC
08
10
07
F4
11
F8
28
2D
F1
0D
FB
3E
08
F3
2F
06
1E
F3
F4
2D
E1
0F
0F
09
05
FE
ED
26
19
07
16
F3
F8
DF
F3
0D
FE
F2
F4
DE
F7
FA
F0
CD
18
16
EF
0C
FB
03
02
FA
0C
CD
17
E8
F3
09
12
0E
ED
F0
EC
0C
F3
28
19
11
FF
00
13
FF
F3
F9
F2
0C
C2
0C
09
05
F6
22
FC
00
FF
ED
26
F4
FF
FB
0F
EE
10
0E
06
01
FD
FE
2A
D6
DD
F5
0E
27
11
FB
14
FB
CB
ED
09
FE
F6
00
FB
0D
26
08
0C
FA
E3
1A
19
D6
13
0E
FE
22
E8
F9
F7
FE
00
F8
01
F0
18
FD
FB
12
06
12
18
F1
F5
E0
F8
E5
09
EA
10
F3
22
F3
09
FA
F7
00
F6
06
F7
E3
F1
F0
E4
10
1A
22
11
F9
15
07
F4
03
D8
F1
01
20
F7
DE
E9
01
0B
11
EB
FD
E6
FA
0C
DE
FA
19
DE
EB
EE
F3
FA
D6
E5
EB
02
00
07
13
18
13
15
08
03
10
F4
11
09
F5
13
E1
DD
F1
07
F7
EF
08
00
FC
07
FC
FB
0B
15
10
E5
0E
E8
FD
11
F7
11
1D
17
11
F5
0E
F6
FA
19
F9
04
EB
EF
13
EB
07
EA
01
03
FD
FF
00
E3
EB
04
03
EE
E6
04
FD
F7
FA
F8
FC
09
01
F5
F6
F6
F3
28
F6
0E
FD
01
D2
0E
07
00
0F
03
E3
F2
E8
FC
0E
E7
FA
10
12
07
FC
06
FA
EA
04
19
0E
15
F1
0A
EE
EE
F6
24
15
E9
F2
16
FF
FC
F9
16
1C
06
0C
05
F3
15
ED
F7
F0
0D
00
FC
FD
22
15
FD
03
FB
0E
FD
FD
2C
F0
E8
11
F8
1B
F7
03
FC
F1
0E
03
D4
EF
19
F1
09
E2
0D
E3
01
F6
11
ED
EC
04
E6
EB
03
F0
F3
FE
00
24
15
E1
ED
E9
14
FB
D6
E7
FF
01
E3
F6
FF
04
F9
11
04
29
19
FA
06
F9
D9
08
F8
F4
04
EC
F6
28
E3
0F
FE
EB
EF
25
EC
0C
FE
1A
09
F9
FD
E6
1C
F4
D8
08
1A
E3
D7
E1
EC
08
22
04
0A
FC
07
F6
09
D8
FB
ED
EB
ED
0E
F7
08
2B
DF
F5
18
1B
05
EE
FC
2C
19
CE
F8
F2
06
F2
16
09
14
F0
08
F3
0F
ED
0A
F2
F1
05
17
02
FB
19
DA
FA
F4
07
0B
21
1C
09
06
D4
FA
0E
1B
E4
24
F9
F1
F0
F9
1B
E1
E9
0E
18
FE
EF
D8
14
EC
08
03
F5
FC
24
0A
F3
03
0C
FE
11
CA
CE
EB
18
0D
EB
11
0B
EF
07
FA
19
F7
02
EC
E9
FF
07
F9
FB
3D
18
25
36
10
F3
F7
08
14
F8
06
0B
E7
02
00
F6
F5
EE
EE
02
19
0A
FB
07
F2
0F
DC
E6
F6
F2
F2
F7
E6
1C
E2
2A
F3
0E
38
F1
EB
0D
F5
FA
F8
EE
F9
F4
FD
12
03
DF
12
CD
06
F6
03
0C
11
F0
FC
10
FF
1A
20
FD
F2
14
08
05
F5
D1
10
0B
F4
DC
2C
0D
0B
09
19
09
FA
E8
E9
0F
07
01
0F
14
F8
0F
30
12
F2
02
16
03
FC
09
06
08
F6
F5
EB
FB
F7
21
02
E6
22
F9
F9
0B
01
03
0F
E1
15
05
D1
0A
0C
1E
F5
0A
19
02
F7
03
0B
0F
12
22
21
FA
FC
F5
FA
DF
ED
1A
0A
18
DF
FE
F8
11
01
03
22
FD
00
0C
1D
E8
17
F5
F9
06
11
E9
00
DD
FA
F2
0E
05
EF
07
F9
28
11
F7
16
EA
FB
EC
EC
04
EA
FF
F9
18
F1
10
F8
FE
19
F3
10
03
F4
0B
F2
1E
F4
FA
FF
FF
0A
F3
EB
10
12
25
F8
FC
05
03
09
DC
F6
EB
14
E3
EE
FC
07
FC
1F
FC
EE
1D
22
01
EF
29
11
1B
2B
19
0A
11
FC
FA
02
00
0C
F6
F8
0D
26
C6
12
EE
EE
E9
22
F2
02
FD
DC
D9
F3
0A
0B
19
EC
0C
FF
17
FF
1E
14
EA
16
D9
FB
CF
F2
00
FF
F0
FB
F5
EB
F8
08
F7
F5
17
19
15
09
F2
FE
17
FE
EA
0B
0D
EA
13
16
11
0D
EB
09
0C
2F
FA
DE
FC
EF
E9
EE
0D
FE
0A
11
F9
23
F6
F8
09
F8
F8
27
20
07
E4
1C
1E
F3
14
CC
F9
0E
08
2A
EA
15
0B
1A
F9
23
DC
E9
C5
2B
21
E9
1E
05
F6
18
EA
E1
06
1E
F8
FF
23
F6
E9
F8
01
18
ED
F7
F7
DE
1A
20
16
F8
11
FD
D7
FD
ED
FC
21
18
17
ED
20
FB
EA
01
FB
0D
08
09
F1
10
14
07
19
21
0D
0D
FB
FE
1B
12
FD
05
E8
00
F9
E9
E6
08
F5
0D
FC
FF
19
F1
1A
F8
FA
07
1C
FD
0F
24
F6
D5
08
03
F1
EC
03
1F
13
1C
FB
32
21
FD
FB
DE
26
00
1F
FD
D5
F1
26
26
22
E7
EB
DB
EA
EB
11
F8
03
E9
F1
0B
00
09
02
F5
CF
39
03
CE
EA
13
F6
24
FB
D0
06
14
02
25
35
EA
E7
03
F3
F2
0F
24
0B
12
0F
FF
EA
0B
1D
06
FD
05
10
0F
1C
F5
FF
14
05
00
0F
FA
F9
F3
05
F5
EC
08
08
0C
06
07
07
0B
0B
06
FA
08
E3
D5
CC
FA
E7
E7
FE
11
0E
F6
FE
1E
CF
0F
E7
EF
10
16
22
05
09
1B
E2
16
13
06
1B
00
F7
F7
F9
07
18
E1
F2
1D
F9
13
F6
08
25
12
09
1B
02
08
2A
19
F1
EE
DA
0C
EA
15
0A
EE
10
20
0D
0A
02
01
FF
0C
22
E1
F3
00
10
FA
F0
F8
08
EF
09
FB
01
1F
14
24
EA
EE
16
F1
01
F6
D1
EC
FD
FC
03
06
03
FD
1A
F6
14
14
FD
08
F3
0B
0C
D9
F9
F3
FD
EE
DF
FA
D9
F6
11
1C
EE
07
EC
DC
FA
0B
05
F1
F8
F2
FF
06
22
10
F1
F6
15
06
0A
11
F9
E7
00
F3
E3
09
E1
F3
0E
0A
15
FD
EB
18
21
E7
F6
00
E1
F3
FB
EE
16
01
FC
FD
0E
1F
03
FB
EF
0F
07
2B
0D
C7
E9
F3
F4
ED
EB
EB
18
05
15
25
EE
F7
FF
09
1B
EE
10
F1
C7
25
FC
FA
F9
04
F4
15
F8
12
03
2F
03
D3
0D
34
18
EB
16
F5
09
E6
11
EE
FA
05
24
0D
11
FE
EB
27
20
E9
F5
EF
FE
FA
25
E9
04
DC
FB
F0
C4
F9
E3
02
F1
F8
E6
1B
21
2B
09
13
EB
11
FD
F6
EF
06
11
FF
1C
F2
FE
0E
EE
F2
26
13
FD
FF
0C
19
FD
18
0B
F7
03
06
F1
F5
FE
46
E9
0D
F7
22
2B
07
11
12
E9
24
F4
E5
D4
06
0B
F1
FB
F3
09
F7
F2
15
DB
EF
F0
F9
02
11
FD
DF
E5
0C
F6
FB
FF
EA
0F
0A
EF
16
E3
E5
04
D8
F1
09
EF
EF
ED
FB
EA
CD
05
0B
03
E7
2A
04
0F
FC
06
13
15
18
06
F8
03
08
03
00
15
11
0D
35
F3
18
17
F8
E7
C3
F4
E3
EC
FC
33
00
D8
E7
1E
16
E3
E6
FC
21
D2
F3
E0
DC
F7
13
EF
FE
0B
13
1D
12
F3
E8
D5
DD
F5
F3
E8
01
0E
06
F2
E7
0E
F8
F2
20
04
11
F3
1C
28
1E
FA
02
D5
17
00
F3
15
02
1D
02
11
12
26
FE
00
C7
14
15
04
EE
EB
FF
F0
23
03
08
0B
F8
FB
0B
FF
06
E6
16
F7
F9
03
1A
1D
FD
09
08
2B
FD
E7
10
08
EC
F2
12
E8
EF
0E
09
FE
10
DE
0C
FD
0E
04
E0
FA
E3
E9
E2
19
FA
0E
13
FC
02
F5
D0
F5
16
0B
F9
02
2C
F0
EA
F9
0E
FF
13
E5
D9
DC
FC
EE
F0
E3
11
EE
FD
F9
06
11
FE
11
01
FB
F5
04
FD
F9
15
1C
04
07
F4
FB
0B
EB
D2
03
10
12
1D
E3
10
F5
00
09
DA
06
FD
F6
14
0C
04
06
08
C9
E7
FB
05
F0
0E
08
11
05
EB
06
19
DE
05
01
F9
F2
14
F7
15
FB
19
F5
05
1B
24
C7
09
EF
F6
D6
F6
E5
09
07
E3
E0
D2
09
D1
30
FE
0F
1B
F2
FE
24
F1
18
0B
16
FE
ED
F5
1B
19
00
1C
F4
F7
19
F5
F9
0B
08
00
0B
00
EE
02
FC
F0
19
0E
12
26
15
16
FA
F6
FF
0C
FE
FB
03
EB
DD
02
F8
23
F7
14
F9
22
F1
06
0D
F2
FE
0A
F4
EF
F4
0C
F6
0D
F7
EF
F2
25
FB
04
1A
01
F9
02
E3
F4
F3
F1
F9
F3
00
10
0A
17
FF
02
37
E0
F5
F8
EE
02
DD
10
12
D5
E9
E8
10
F3
17
DF
E3
18
FB
00
14
F5
F9
ED
05
06
01
E1
EE
F4
0C
FE
0C
02
FE
25
E6
FE
08
FB
23
10
0C
0E
FA
F0
0C
FA
11
18
07
ED
EE
30
FC
F2
03
07
FF
E8
EE
FE
EC
0F
EC
EC
E9
EF
13
06
DA
CC
F1
FB
FB
02
D8
0A
FE
02
11
12
ED
13
0F
F9
E7
FD
18
10
D1
06
F8
FC
E7
03
F6
E7
0A
09
32
FE
F6
0C
0D
0B
2D
E2
FF
27
FC
F8
F9
E5
10
00
11
22
D2
42
23
17
10
13
F4
D0
F1
D3
D9
F5
10
29
EB
E4
FA
D4
F5
FE
BD
FE
13
D9
15
EF
17
D1
CB
19
15
02
0D
23
18
18
1B
E4
08
D9
E7
24
1B
05
0A
29
DF
05
F6
E6
F7
33
0F
FC
FE
FD
ED
FC
E1
12
0D
14
1C
18
EF
DC
F2
0A
F1
F8
07
CE
2C
DF
DB
FD
F0
F7
0B
EA
1E
0D
F7
1B
D7
EF
F9
03
02
CC
29
FE
1A
07
10
E8
E9
F9
18
11
D5
E9
CE
E6
13
03
1D
07
14
DE
DB
EA
E7
E4
FB
18
1B
18
06
09
12
F8
1F
DB
DB
16
13
04
F2
07
16
C8
11
03
1C
FF
19
E4
D8
03
FF
F8
04
FD
F2
F1
06
D8
13
04
DF
03
08
F5
1D
14
EB
19
0B
13
06
0B
02
02
E7
F3
FF
1E
E1
1F
13
31
02
0B
11
13
F2
0C
03
03
0D
F6
F9
D8
10
F8
F7
0C
0B
15
10
FB
EE
15
01
FA
11
F4
0E
0B
01
D8
1E
14
02
F1
09
0C
FA
28
29
EF
01
07
F3
F1
FF
05
08
EE
24
25
F3
24
FC
E2
11
E5
06
21
01
14
E7
F1
E4
06
EE
DE
DC
DE
EA
36
F8
F2
1E
07
F4
05
FB
18
FD
00
F4
0C
02
15
2F
F4
0D
FA
09
18
EB
15
EB
04
F7
0C
0A
08
21
EB
00
CB
1A
0C
F7
07
28
0D
18
0C
FD
03
04
0D
F6
01
DE
F7
03
1A
F8
FF
F7
10
FB
E3
F0
F0
11
E8
F5
F2
24
EE
FB
1D
FC
F7
11
15
EA
EA
FC
0B
10
18
EC
ED
25
F8
15
F5
F1
07
0D
26
19
E8
D3
07
16
20
E2
EA
18
FA
1B
F6
18
02
FA
EF
1C
0A
09
E2
F1
EF
1D
23
05
35
FB
1E
F2
16
FD
04
FD
FC
DD
0A
2F
F6
FA
07
F3
04
32
DA
1B
13
E6
22
FD
33
F9
D1
07
0A
E7
1C
ED
03
F8
FB
03
FD
E8
FB
07
E0
FA
03
EF
0A
F6
EA
28
F5
16
0D
F5
18
DC
1D
0E
1E
C7
F5
E6
19
10
ED
08
04
03
03
0F
E5
FE
DF
0E
F0
DD
18
F7
13
EE
10
1A
21
00
13
05
D7
15
14
E9
FB
10
E7
F1
23
FC
FC
F8
F9
0A
02
38
07
F5
29
EE
F5
FC
F4
01
1F
FC
09
ED
F5
F1
CF
E3
F3
F5
DA
FC
0A
EE
FE
07
FB
16
F9
FF
F1
01
E9
FD
EA
EA
EE
D9
15
12
1B
ED
ED
EF
F2
0F
E4
EF
0B
0D
E0
11
FF
16
00
DA
FE
F2
F0
19
2A
13
33
EA
23
F3
13
0E
23
FC
13
05
EA
15
09
16
00
E3
1A
D8
09
02
FF
E1
11
E8
01
E0
FE
00
E8
17
FF
F5
0B
DA
F6
15
03
FC
E7
0D
10
DF
17
F5
14
1A
03
14
EC
12
EF
07
F3
E5
01
E9
F3
E7
24
FE
F8
F6
F2
11
F1
E8
37
F7
ED
12
FB
09
10
01
E4
DE
E4
0D
2A
04
F7
FA
13
0E
02
0C
EF
E5
03
10
0C
00
EE
01
D0
35
1A
EB
18
EB
24
F1
FE
E2
F6
19
E3
FB
F9
D5
0D
25
FD
F3
03
03
02
F9
04
F2
FE
1C
FE
17
1B
0E
13
F6
40
F9
FD
09
10
1A
F6
14
04
EE
26
06
F9
0F
FA
13
09
D7
00
EC
FA
15
FE
FA
29
F1
E9
D5
F3
FA
E7
11
13
EB
E8
FF
04
F7
26
F3
17
E5
F2
03
02
E3
0E
0F
F3
10
F9
FA
F5
13
DB
E7
D4
EF
06
0D
24
D0
0E
1A
F5
FB
DF
06
18
FD
38
F7
0A
ED
E3
F3
1B
C6
1B
08
1B
07
FC
13
20
EA
15
F2
08
01
FD
16
F1
15
14
17
F8
F8
E9
FF
E7
0D
1C
F0
00
1F
E8
FC
0A
F6
04
0E
02
FF
00
ED
FF
14
F3
21
F9
E2
00
0E
F8
08
F1
E0
CD
1C
04
ED
EC
FA
12
F6
0E
08
13
FB
08
E7
0C
17
E2
06
E4
11
EB
0F
1F
13
DA
08
F9
3A
30
13
12
05
05
F7
22
ED
F7
F8
FC
FA
E7
FD
28
DA
FD
12
EE
12
09
1E
03
F0
08
FE
F8
FC
F2
17
E6
FE
05
1C
1F
0C
2B
10
ED
DD
F0
0E
FC
EE
F0
FC
07
09
FF
F0
17
02
02
0C
18
D1
FC
01
01
0F
1B
EA
12
E9
0B
00
03
01
05
02
03
00
29
CE
EA
F9
E5
FD
FC
07
F4
E2
DA
21
F3
0A
E3
FB
FB
FF
23
F7
FC
17
22
EE
DE
05
10
29
1D
E4
F8
21
39
FA
0E
EF
ED
E7
11
0C
0B
04
0C
CD
E8
16
20
EA
07
17
FE
07
EB
ED
E0
F6
00
F1
FF
01
F5
00
FF
05
F0
F3
1F
0E
E7
F8
E9
FC
12
F1
F6
FD
05
FF
DD
FA
FA
1D
04
1E
F5
FA
0F
DE
F6
04
F3
17
01
14
13
20
E5
EC
F6
FB
F4
0D
02
F7
09
05
F7
1B
10
00
E9
0B
00
E1
02
0D
01
0E
EA
09
29
F6
FF
2B
15
EF
24
F6
0A
FA
DF
EC
3D
11
FF
FF
F5
08
FD
06
1C
FC
E1
0A
1E
03
1B
F7
05
E5
ED
F2
E6
EE
13
FB
F3
EA
0D
EC
04
FD
EE
14
15
F9
FF
29
F0
F0
FD
03
F1
0E
27
1C
12
E3
EC
23
F6
FD
0D
0D
F8
F2
08
EB
E9
08
ED
EF
2A
FE
04
1B
01
F0
ED
FC
0A
00
0B
07
02
0E
0E
2C
0D
19
F6
17
FB
20
FE
FB
14
EB
23
24
22
3F
01
01
DB
FA
EB
EA
E6
06
E0
10
D5
01
F4
18
F4
F8
15
F8
F4
06
F9
05
04
F4
07
0B
08
FB
01
F9
F6
00
E7
2B
0C
0C
00
16
F0
F7
26
28
F2
FA
F3
0B
F7
F9
01
EE
F1
F1
FD
F0
F4
FF
FD
FC
16
F9
02
23
0C
EF
05
0B
2A
19
FB
04
F9
FA
26
09
08
E9
0A
F8
F2
FD
E8
05
1B
F9
FA
EC
17
1B
27
1A
FF
F5
F2
14
FE
1E
FA
06
10
00
EE
21
03
09
07
FF
08
20
0A
F0
F7
08
17
FA
18
0F
EE
0A
13
00
16
FC
04
02
27
0C
F3
05
25
32
E9
0C
FB
FA
02
08
1F
E9
0F
FD
F1
F0
F9
16
09
FD
04
D9
E1
F8
1F
FA
03
FB
02
F2
EF
EA
E4
03
F3
11
E9
10
00
F5
00
EA
FB
1A
F2
E1
F0
F5
15
F0
E0
05
08
FC
F0
ED
FC
D5
0F
18
EC
EE
06
0B
E6
F1
01
11
F9
ED
22
F1
15
F7
F8
21
1A
1C
00
FA
0C
02
06
25
FE
F1
EB
05
06
FF
07
00
00
04
02
0E
04
00
E1
14
F2
11
CF
FC
F5
07
D3
0A
12
08
FB
03
0C
16
FA
15
16
D6
02
DF
ED
10
EB
F7
EA
F7
FF
FF
EC
F2
1C
FB
F3
F4
19
09
EA
F4
07
E8
E2
20
EA
0B
04
F8
EF
FE
E9
FD
F1
FD
FC
14
02
F7
0E
16
10
08
07
EA
0B
1B
F4
EF
FE
00
07
EC
E5
08
F0
F4
0E
E7
10
09
1E
0F
16
F7
E0
EF
FC
1B
20
1C
E5
E6
FB
E3
DB
05
11
11
DB
1B
13
0A
E0
19
08
25
16
12
E4
04
EF
11
06
1C
F3
1C
FE
DE
04
20
17
05
D1
D4
01
EF
F5
0A
F5
41
F4
26
F0
CF
21
03
0E
13
F8
EB
E3
01
F9
ED
D2
F8
F9
EE
F4
DD
06
EE
0A
F4
F0
FA
10
F4
EE
01
0A
EF
F7
D1
E1
00
27
04
14
1F
F9
02
07
CE
ED
FF
00
ED
F7
0E
F4
1A
07
FA
EF
DF
1A
F1
E3
0B
F4
07
E0
02
15
01
FD
EA
F4
06
03
FC
04
05
25
F7
00
15
06
18
DD
F5
DF
F7
EB
14
EB
F6
19
03
F9
F8
04
00
FE
FA
02
FE
F6
0B
14
02
F4
F4
1A
D2
FC
F0
F7
D5
11
03
23
E9
07
F0
FB
3B
0F
2F
06
F7
43
EF
13
16
EF
D5
47
06
F6
1C
EB
F7
E1
12
F4
D4
ED
23
FC
0E
2C
DF
EA
F9
06
F1
10
FA
FD
D7
16
EE
1D
2E
F7
18
17
18
FC
EC
F0
1E
EE
19
08
09
EE
02
F6
01
E2
FF
E3
05
0F
09
FC
22
10
09
0B
E8
18
08
DF
05
F6
F6
CC
0A
F9
F2
EC
0C
FA
02
F4
FC
19
F6
06
20
F9
E7
FB
1D
F5
F5
13
01
03
06
09
F3
EE
0C
12
F7
0D
FB
F7
FC
EB
F6
F4
19
F8
04
F8
25
E1
0C
02
F4
E5
03
0B
17
08
18
DF
ED
F6
F0
12
1C
0E
10
0F
E7
22
FD
07
ED
0A
1A
1B
F3
F5
2A
16
1A
FE
C9
03
E4
F5
E5
06
1B
E8
21
E9
DC
16
08
ED
0C
09
1A
03
30
DA
FB
01
1B
F1
17
23
0C
D9
13
00
F9
05
EB
07
24
2A
06
F2
1E
1C
22
CD
23
03
13
F8
00
FE
28
26
E2
E4
11
26
F1
18
F3
25
E4
FF
F4
1E
F6
EB
F9
E1
17
FB
27
E1
05
F0
F5
14
19
08
F8
2A
18
FD
F6
14
E0
DE
20
19
18
D2
EF
0A
2C
0A
13
ED
FD
43
1C
E1
FB
E3
18
DC
17
D3
1F
D9
FF
F3
EA
FB
08
F4
1F
EB
17
E8
FF
08
0B
FF
05
0A
16
FE
EC
12
F7
0F
FB
0D
E8
F9
0D
13
F7
01
ED
08
E4
EA
F6
EB
02
E4
01
DC
F3
FF
F2
0A
09
09
D0
1D
EE
18
E2
F0
17
0A
06
F7
0F
F7
FD
EA
08
F8
F8
15
0C
F9
FA
FF
F9
F2
0E
04
18
08
06
21
DE
FF
08
10
FC
09
F8
01
07
10
FE
11
22
37
01
16
F2
1A
0E
F6
31
CC
FD
F6
EF
17
06
FC
0E
F1
EE
10
00
15
E9
CD
13
C8
EC
19
F2
04
DF
E8
CF
04
27
21
1E
1E
1B
F5
F2
05
17
EF
F3
F1
F8
FD
DA
06
F0
FC
EA
2C
FE
E3
FF
EB
00
0A
DB
07
13
05
06
F8
0F
0D
2A
F5
10
E9
E9
07
F8
25
F9
E2
FD
14
F9
0A
ED
FA
EA
12
ED
02
E2
1D
FD
09
DD
FC
E8
FC
2C
F4
FB
07
19
F9
FE
0E
E2
DA
EF
08
0E
EF
07
FA
0F
F8
FE
01
15
CF
06
DC
02
12
E0
FF
08
05
E9
47
F3
F5
04
1D
28
0F
EE
F4
29
EF
D8
EE
F0
DB
E2
FA
DC
15
15
FC
0A
F7
04
01
10
F4
F2
ED
03
1F
F8
F3
16
05
F1
1D
ED
CF
19
1C
02
E9
F4
0A
FE
11
00
E6
EA
01
08
14
18
E2
06
08
C1
02
00
E2
E5
1E
E9
09
F4
F6
09
FF
E5
F4
20
1F
EF
FC
E3
38
1B
FF
2B
08
20
01
14
E0
08
03
30
F1
06
F0
16
2D
15
F6
11
1F
10
FF
C9
0D
0C
EB
14
08
29
C9
07
D0
0B
D0
09
04
03
0E
41
23
0E
F6
22
E6
0F
22
0A
D2
19
09
00
04
0A
E4
08
FF
EE
13
14
F1
F2
2C
0C
DD
13
13
E8
10
25
FD
F0
0A
F7
DE
FF
0B
FE
13
F0
02
16
F6
FE
ED
D4
FA
F2
EF
FB
05
F8
19
F9
D9
0B
D5
E7
03
D2
12
22
F1
DF
EF
00
D8
13
02
08
EF
04
CE
FA
0F
0A
0A
21
E8
DB
F2
1B
F8
D1
04
34
0C
10
0E
06
FF
DA
07
02
F9
0B
21
FD
0F
F5
15
04
0B
10
F7
DE
28
04
F8
04
20
01
2A
D9
FA
07
14
FB
EE
F3
FF
00
EF
07
FB
0B
05
01
D8
E0
FE
F6
0D
ED
0F
09
F0
FF
21
F0
EB
04
FA
EA
FD
0C
FB
F7
DA
1E
F9
16
2E
FC
ED
EF
1A
06
DE
2D
F3
E4
16
0E
FA
1F
FA
EA
EC
1A
F7
0D
23
0F
EC
05
18
08
34
1C
F3
F1
2A
EC
12
FA
0A
ED
1D
00
1A
09
02
EB
F2
F8
ED
F0
E8
06
09
2B
0B
0D
13
ED
E8
1E
FA
F0
FC
E4
FF
F9
0E
FF
E8
E1
0C
11
EC
D2
E1
F0
F7
EE
F1
0C
16
F2
00
F4
F2
25
11
F6
15
EA
15
EF
EA
F7
EE
E9
F5
E5
EA
FE
F0
0B
FE
F1
F4
04
13
E6
06
E9
0D
02
F1
EE
DE
06
DC
0E
FA
F0
EC
F7
F2
0A
07
EF
CE
DF
D3
1A
EA
32
04
11
F9
01
F2
04
09
03
00
E8
FE
22
F0
FD
F6
E8
08
16
EB
E8
08
0D
F3
FE
FB
EF
FA
0C
1B
F0
05
ED
07
EF
09
0F
FE
F7
FF
EC
E3
EF
0C
31
0C
03
3A
24
09
E8
10
05
E9
14
0A
00
1B
E7
01
08
F6
26
EF
08
F9
F2
09
0C
0F
FB
F2
FC
FE
F6
ED
00
00
05
ED
FC
00
E6
F9
D6
0D
F5
20
12
34
02
FF
13
0A
EE
01
FE
F0
1A
F2
07
FD
F3
F4
F4
FA
E7
00
02
0E
13
FF
E0
16
FA
1C
D3
0C
00
05
09
F9
13
DF
FB
0B
FB
1D
EA
C2
07
F7
02
E6
23
25
FA
17
15
2C
D6
FA
FC
00
FD
F3
FF
F7
DC
DA
1E
EC
0B
F8
2C
05
15
F3
04
1E
F7
F2
E1
20
F9
FC
10
FD
2D
F8
F5
DB
F4
E1
F6
DB
1A
D8
FB
11
14
D8
EF
01
F0
00
D9
19
EF
FE
D9
F2
FA
07
EF
D2
ED
03
0A
00
FE
31
13
FD
F2
FB
DC
24
13
0F
22
0C
E0
08
22
01
EE
1A
1E
0E
04
07
0A
FC
30
1C
E7
1C
F2
10
21
F8
17
EA
EB
0C
0C
10
F1
F3
07
24
E8
FD
00
C4
0B
22
09
10
2B
07
FB
EC
1C
E6
16
E8
05
17
1D
06
DE
05
23
05
D2
0A
30
F0
1F
E8
E1
EB
FE
FE
03
F4
0F
F3
18
FD
12
00
10
1A
F4
F4
F8
08
14
EB
00
F8
12
D4
E4
00
3E
F4
EE
22
EE
22
06
EA
21
13
0F
02
07
00
02
06
04
FF
07
FC
F9
09
DE
05
0D
09
FC
18
F7
FA
FB
F5
2E
F5
FA
DA
05
FA
1A
FA
06
21
17
12
08
38
21
EE
F3
F0
FF
02
F2
F5
1E
E2
E2
EF
E8
0F
F1
F5
F2
0D
E8
F6
FA
23
14
EC
DE
F2
EB
EA
21
FB
F2
E8
FA
EE
F4
FF
00
E1
FE
FF
FD
16
FB
0F
0D
1B
F3
0A
FD
F4
F3
03
D7
EF
E4
12
00
E6
0A
01
E9
09
D8
F5
F6
20
28
08
08
E8
ED
00
13
2E
1A
E3
01
0C
11
E8
0B
FE
EB
D8
17
01
FE
04
16
FF
FE
17
F3
F5
FA
F7
FE
0A
3C
0E
FC
10
21
15
12
F1
D6
00
FC
03
0B
FF
0E
F3
F0
F1
20
F5
FC
07
1C
FB
E6
05
11
EF
00
FA
E0
E8
09
0F
01
06
16
2A
E8
F0
0A
10
EC
EB
DE
E6
F0
10
00
02
D6
11
0A
0D
0C
E5
FE
FF
F4
F5
F8
EA
FA
F6
18
0E
09
F6
00
F1
13
E6
2C
0B
15
F7
DD
F1
1C
1D
04
D2
07
FA
1D
28
07
E1
D7
F0
F7
23
D0
02
0D
09
E8
F6
E5
11
FA
00
0F
E9
F3
11
DE
17
12
F3
D1
0E
0F
10
1C
00
00
17
E5
FC
0A
01
37
F9
FB
ED
08
EE
F3
F9
01
02
DF
1E
F3
FD
EA
10
FC
06
E3
FE
00
EC
F7
00
1D
F4
F6
11
05
17
0A
1A
DC
0A
D5
03
D0
14
ED
27
02
EB
EA
07
1E
FC
F7
FC
FA
08
E5
09
16
0D
E9
EE
05
FA
0F
0D
1B
03
06
F6
EE
F7
F8
E5
20
03
F3
E4
F7
F5
EB
0E
3C
2D
0B
E8
F2
07
EC
10
E2
FB
F1
01
EC
EC
0F
0E
06
06
16
FF
DD
03
1D
E5
C8
19
E1
F0
EF
16
FF
F8
09
0F
E9
E9
39
03
E7
F1
E8
16
18
DE
E9
F3
FD
FE
FE
CF
1B
21
E8
FF
E6
E8
28
10
E9
E7
FA
02
01
07
2A
0D
13
E8
0C
0E
FF
FC
06
20
E3
F2
11
F4
D1
EB
F6
E2
33
F0
E2
E2
0C
E8
E6
D9
EE
FF
EC
FC
05
1D
0D
E7
18
11
F0
F0
FF
E1
EF
0F
F6
E0
FC
04
EF
02
ED
E9
19
FF
FB
F4
EF
29
ED
F1
F9
E5
ED
0B
17
19
16
F5
0D
0A
1A
07
0E
F0
FE
F0
08
0C
CE
15
27
EE
E1
07
ED
FE
E4
04
F2
FA
0E
0A
EF
02
FF
F3
F4
F8
1D
0A
EE
FE
D8
DD
09
FE
04
13
F5
09
FE
FE
E3
04
10
01
05
18
F8
F2
F5
04
04
07
F9
1A
F5
F2
CE
F7
15
01
02
24
12
F2
F6
0D
14
17
13
FE
F4
F7
18
16
E1
F2
1B
F6
F1
05
02
E1
00
F1
F9
19
13
02
FB
F5
0E
FB
FE
16
FD
FC
0B
DF
DB
02
F6
D9
0D
F1
E3
CE
0F
00
02
19
15
0D
FB
EA
FB
F7
F7
FC
08
02
1B
0C
E8
1A
F7
E7
ED
F6
07
08
13
DF
2C
15
DD
00
FA
11
02
F0
14
1D
03
06
FB
EF
38
F0
0A
F1
17
0E
1B
EC
F9
DD
DF
0C
F0
F0
E4
FC
ED
0E
15
E6
ED
FC
19
0E
ED
0C
03
F2
D3
FC
FD
21
07
12
08
1F
07
06
F0
FF
F9
E3
FD
F9
F2
0A
E4
12
18
06
F5
09
DC
E9
E6
F7
F4
20
11
01
D7
05
16
16
0F
09
E4
F7
FB
15
03
0C
F6
F6
17
11
E9
06
EF
09
FA
FA
1A
EF
00
0E
12
E8
BD
0B
11
13
FE
0E
0E
05
03
FC
F4
FD
08
F4
21
04
FC
E9
FE
F6
F6
F0
FA
F5
E8
E8
FB
F2
1A
02
F7
FE
F9
0E
0A
19
0E
F0
0A
FB
FB
F1
FE
E5
04
F5
E0
0F
2B
DA
15
0A
F5
02
F6
F6
05
08
FD
28
F6
F5
E3
F5
F7
2E
08
F8
FF
0B
02
08
07
11
0A
FA
EA
EE
FA
E6
21
0B
08
02
11
00
EB
FA
14
0A
F3
E9
01
13
0D
E0
F6
0F
F8
FD
E9
E6
1E
03
0C
0C
FE
FD
00
FB
FC
04
E7
12
10
F5
FA
0E
F0
E7
F0
13
15
F6
EB
FF
03
0E
15
F3
03
EA
12
FD
E6
10
03
09
00
0E
F2
02
07
04
08
E1
1B
02
F3
F8
F6
14
04
F5
07
FD
18
01
F6
07
F8
F8
01
06
0C
EE
F5
FA
06
F0
0D
E7
E7
0C
13
0D
1F
EE
E1
01
0E
13
FB
01
E4
F7
FD
0B
FA
E5
12
04
07
F7
E1
11
02
01
DF
0A
EF
0C
F9
F8
0C
FF
06
DF
FF
14
10
F5
11
08
FB
F8
05
E9
FB
F0
DC
09
FA
E5
E0
04
DC
0D
09
0F
03
F2
04
27
EC
05
17
23
14
0A
09
FD
1F
05
FE
09
09
EA
EB
0D
FF
EB
19
FF
F3
18
0D
05
09
EB
FD
2C
DD
F0
F3
F6
02
EB
0B
04
39
08
09
FE
F0
03
04
F8
0B
0D
15
01
1D
E5
F5
F9
F8
0B
FD
02
F8
17
F2
0C
19
09
F7
EB
03
02
24
01
12
EF
03
F5
13
15
F8
08
ED
11
27
08
0D
E6
F9
DA
14
00
ED
08
21
F3
20
0D
F0
03
F9
EE
16
FE
FE
1D
1D
0D
1B
EF
DF
FF
EE
EC
C6
04
04
12
0F
FC
DF
05
F9
E0
FB
0A
FB
FC
27
F5
F0
07
F3
CC
01
34
FA
04
E7
01
F2
EB
DE
FC
03
0E
00
1F
DF
18
10
F7
10
08
E8
CD
F5
E8
EA
10
EA
FE
06
D3
06
F8
10
05
F9
06
04
0F
01
F5
FD
1E
21
0D
10
FE
F7
E8
0F
16
E9
04
16
0F
1A
0E
0B
1F
FE
18
E8
00
2C
03
05
F6
FF
1C
1C
0E
EC
EF
02
E6
F4
17
09
D5
0A
07
F5
14
02
0D
F5
F8
FD
F6
E2
E1
FD
0C
FD
09
08
00
FD
02
E7
09
F8
ED
07
08
02
EF
D9
EE
D9
EE
F3
18
F7
26
F5
07
DF
07
18
ED
FC
14
17
00
02
02
05
ED
DC
07
1B
0B
EF
F6
03
01
FA
F2
E5
F0
F2
FF
E4
F0
0D
1C
F5
00
ED
F0
F4
F6
F2
22
14
04
18
1C
12
1F
D2
2F
07
FC
0A
F4
F2
0E
05
CF
EF
F6
F0
FA
DE
15
19
1D
E9
ED
0F
0C
F9
EE
EF
0B
E9
E0
00
25
E3
23
07
FB
01
02
07
CE
03
D8
0C
DF
0C
DF
EA
F6
04
33
15
F8
FA
02
E0
F1
F7
1C
DF
0C
00
E6
1F
10
E9
EC
10
DD
E3
F8
37
08
F7
1C
FC
E2
F8
ED
EA
19
F5
F7
FD
C0
F7
0B
12
10
DA
0F
0B
26
0A
FE
F6
CC
FD
F4
16
F9
F0
CC
FA
E4
ED
DA
FC
F6
0F
08
0C
F0
0D
17
07
24
11
18
04
FC
FA
F8
F9
F6
F2
11
FF
FA
18
E3
EB
0E
E6
13
15
1C
D9
02
0D
06
F5
02
FD
E1
EF
DB
F6
01
01
0B
13
F9
00
F9
17
06
FA
0B
46
D4
F7
FE
EB
EA
13
18
21
DB
BE
FA
FF
D1
ED
22
37
2D
D1
18
E1
11
E3
FA
26
24
06
01
EC
1A
08
F6
17
E9
14
FA
F8
11
F3
F5
3D
D4
FA
0C
C9
05
E7
11
1C
09
F5
14
FF
D2
26
04
09
0B
10
1F
35
12
E4
D6
FF
F3
2D
02
C2
F3
F6
F5
E6
13
05
F5
F5
E4
F2
E6
02
17
2A
F6
ED
0B
0E
EE
21
11
FB
21
0F
0B
07
23
0C
06
D0
DF
EB
EB
03
E0
FE
F8
EF
D9
E0
ED
EC
04
10
19
02
F0
CD
E7
FF
FD
0C
19
FE
DD
22
F1
0E
00
D6
EE
0E
1B
EA
E0
24
F0
1C
0A
4F
14
23
1E
D7
1A
EB
30
20
0D
EA
E1
C9
1A
3F
14
29
EC
14
25
E5
E4
DA
20
C2
F0
16
0E
FB
FA
F6
08
01
F6
EE
E4
18
1A
0A
05
10
12
D9
05
F0
0A
F4
DB
00
00
0F
F5
0C
E1
F5
DC
FF
06
25
EF
F9
F1
F1
EB
E4
15
EA
05
03
F5
F5
03
0C
10
03
F7
E1
06
12
F5
FF
E6
F6
F1
18
11
F6
EB
11
16
0C
00
04
F3
0E
ED
01
FF
10
FD
0F
FB
07
1E
FC
19
06
01
0A
01
13
01
F8
F2
1B
08
05
FA
FD
FA
F7
15
1B
CA
FB
FD
EF
04
EB
23
EB
E9
FB
F2
F4
0D
F3
05
24
0F
FE
FE
15
01
F0
14
06
F3
FC
FB
FC
FE
00
DF
F6
FD
00
09
FD
0A
08
05
FF
F3
FA
08
10
05
EC
06
F0
0D
F8
FB
02
0D
E4
06
F7
E4
FE
0E
D8
14
DE
2F
00
07
E4
F8
F5
E6
FD
F9
FF
0D
FB
D2
02
F2
FC
FA
ED
05
01
E8
E7
ED
0D
EF
03
F4
F6
06
F7
F5
F6
DE
06
F7
F8
FE
2A
FC
FD
0C
E6
09
F4
ED
FE
E6
E2
F7
F7
E8
05
06
0C
EF
D4
11
04
FE
22
0D
DA
18
05
15
ED
E0
01
EE
04
D9
FE
E1
06
F8
FC
F1
DA
18
17
14
0B
02
F0
08
F2
20
26
1A
F9
0A
F1
11
18
11
12
F2
04
07
EF
02
03
04
F6
15
0C
22
FD
12
F4
FF
FF
EF
E0
E7
F7
E7
FF
09
0E
14
F7
04
0D
FF
E7
EC
F5
0B
04
FB
1D
21
E3
F3
1C
08
01
08
F8
D8
14
0D
17
FF
1C
05
1D
F2
17
F8
15
10
15
01
12
FE
11
0A
01
D7
01
EB
00
FE
08
08
FF
04
DB
0B
ED
E3
F7
EA
00
05
F2
F3
2F
08
EF
0C
02
EB
08
04
F2
ED
12
EE
FA
05
06
EF
0A
FE
F6
10
E1
F7
21
F1
0F
09
12
0F
26
FF
03
F2
06
EB
FC
15
04
07
15
21
FE
03
09
0E
F8
F5
FE
F5
EE
0E
EA
15
05
F5
F1
F4
F9
F7
16
19
09
05
06
F0
F6
00
07
16
0B
00
0D
E7
FD
25
E5
F7
FC
0C
ED
24
F8
F6
F9
00
10
F3
0B
07
F3
F9
01
08
E7
FF
CE
0F
12
F3
DF
F9
F2
0D
F9
FC
D9
06
F0
16
00
F0
22
13
DC
EF
06
0B
15
03
E0
E5
EF
1D
F5
FA
19
F8
DF
08
F1
04
FA
F9
1F
F8
FE
01
FE
F6
F8
12
10
0B
F3
00
05
00
2B
02
10
E9
F3
E8
DE
FC
E5
13
F8
11
F7
FC
EC
EC
07
FC
08
0C
F6
01
2F
05
02
F4
10
15
06
16
E8
FF
E7
2C
E9
28
FE
FE
00
10
D3
25
FC
D4
E6
EE
1E
4C
C2
01
1A
E2
F1
00
F6
2D
E0
FB
1E
18
E7
0B
F7
E7
DB
F6
EA
06
0C
13
E8
DD
EC
00
FB
20
F4
03
18
27
E5
02
14
21
E0
AC
2D
E7
E2
07
1D
F2
FB
10
3F
E3
E1
1B
0B
19
E3
F8
F5
1B
EA
09
DA
FF
F1
54
04
1B
DF
D0
EF
11
E8
17
FD
22
26
ED
F6
EB
28
F6
F4
13
05
FA
0A
03
00
FB
DB
1E
F3
0F
1B
2D
18
E8
10
DF
E4
00
D7
EC
01
FF
F0
EA
FD
20
03
35
EC
FF
F3
20
10
CD
DD
F4
03
EB
A5
ED
B4
26
00
FE
CD
E3
ED
D0
F3
67
26
F1
04
0E
EB
FB
24
03
0C
25
23
D0
08
09
02
D8
13
1B
E7
F9
12
FA
02
E4
07
17
01
0C
E7
EB
E1
DD
E7
DA
06
02
24
F0
F5
DA
1C
34
DC
07
F5
E8
21
36
00
ED
F8
14
D6
00
FA
16
09
02
12
E1
1F
FF
23
E1
F7
01
FB
FA
FD
1A
FE
02
0C
0A
1D
1A
FD
03
E0
E8
F6
E8
FA
FE
FB
E8
0C
05
24
FF
18
04
E0
F7
08
11
0C
F8
13
F5
D0
E9
F9
14
E6
1E
0B
12
F2
F7
D8
0B
0D
FA
FA
03
03
0B
EF
22
FE
11
15
D9
FC
EF
0A
06
E9
08
0A
FB
F3
22
FD
05
06
0F
05
E3
F0
22
FD
08
16
F7
FF
1B
08
17
EC
05
FB
26
D4
ED
E0
29
25
FB
36
FF
05
13
E9
F5
F2
14
0F
2C
FE
1D
08
2A
DE
0A
0B
02
1D
F6
F9
ED
F6
ED
30
18
F3
DD
1D
02
F3
21
DA
20
36
F5
00
00
18
E8
0A
F3
02
D3
20
FF
F8
F5
00
00
EA
E8
12
04
05
05
EF
E0
E7
03
01
EA
1C
01
E4
E1
0B
23
D2
FF
FE
1D
FC
F9
E9
00
ED
F7
20
09
1B
0B
FE
11
E8
00
E5
0D
20
01
EF
09
DE
F7
FF
0A
EE
15
06
38
FD
00
FF
F5
1A
1A
FE
F7
F0
F5
EF
07
DC
DE
F2
FF
FA
F5
11
F8
FB
1B
1E
F9
ED
0C
EC
03
1E
10
1A
0C
0C
E9
FD
FB
06
05
1C
0C
06
05
02
11
EA
EC
07
17
E9
FF
13
02
27
3A
07
F7
1D
03
FC
0D
EB
D6
14
ED
05
F1
E4
20
1E
0D
F6
E2
F0
40
EF
10
0C
EF
F7
F0
D1
FC
EA
08
1C
10
07
00
14
12
DA
1D
F9
FD
F0
F3
BF
FC
03
EA
0A
0A
FF
F1
07
03
05
F2
04
F6
1F
18
E5
25
09
01
09
DC
00
05
04
EE
F4
0A
08
DF
FC
D9
DB
EC
09
E2
F2
10
E9
04
09
F8
00
FF
0A
10
EB
04
0D
F4
E7
FC
19
FB
2D
D0
03
DC
F9
EC
E9
06
04
FE
FE
D0
06
20
E4
15
0A
07
38
E9
08
21
D8
03
F1
FA
FC
F0
F2
1C
0D
ED
E8
0E
0D
0A
DA
F0
F2
00
EE
FA
E0
14
0A
F9
D2
E4
25
26
06
E2
F9
DA
0B
CE
00
05
F9
06
E6
00
0B
EC
E3
01
0B
F1
12
DF
0E
15
F8
FE
01
15
0F
F2
FF
0C
FA
FB
F7
EC
0A
DE
07
F3
F5
FE
EE
16
15
FA
EA
32
0B
09
EC
F6
16
EE
F6
FE
D6
E9
11
01
0E
EF
24
23
E7
F6
12
0A
07
00
EC
FC
15
05
1D
13
16
03
F3
0B
13
0F
FE
FE
13
DF
F9
E0
FD
0E
09
DC
14
07
F3
1F
20
EA
FB
09
16
FD
06
1A
01
E4
FB
01
E5
EA
01
06
2C
FF
FC
04
09
EE
02
03
FD
00
F1
ED
E7
03
00
E3
0B
EE
13
18
15
25
03
15
FC
19
F6
16
FA
EF
EF
09
E7
0F
F8
00
16
ED
FA
EE
FA
09
F2
23
06
01
E0
FE
05
00
E4
F0
E2
F9
0B
15
0C
02
FB
F3
05
D3
08
EB
0B
06
0D
FF
E5
F5
08
06
01
10
E1
E8
D9
FD
FD
F2
10
F8
F1
1E
F7
0F
0C
FB
04
0D
F8
EA
01
F2
FB
1C
0D
05
06
EE
E6
08
0D
0B
19
05
DE
E6
0D
0F
0E
15
01
0C
FB
FE
0D
F7
11
F2
F0
F5
D5
03
17
EF
F3
1B
F6
F3
F7
F2
04
36
FF
FB
02
1C
10
17
F9
F1
09
FE
12
F2
00
20
00
EA
F0
F4
0F
00
10
11
0D
E8
FA
FD
1E
D4
0C
E7
D1
0D
F2
E9
0D
04
00
08
F6
E1
04
E7
0E
EE
F8
E1
01
F9
10
F3
13
FF
FC
20
E6
E6
EE
F5
F7
EC
1D
0F
DB
07
15
14
1A
FE
F8
1A
D8
F8
E9
02
0C
DE
29
17
09
11
05
EB
18
00
FD
FB
F2
F1
04
0F
EC
09
FF
11
04
F5
F7
FE
FC
EF
00
F3
1E
E7
F9
EC
E7
08
02
08
B2
09
FB
FB
D8
EC
11
FF
FC
DB
11
03
00
07
20
DF
E8
D8
F1
F5
D8
E6
0F
16
01
F7
F1
02
16
00
FC
E4
E6
DF
C3
0A
EA
F7
FA
0A
29
F6
EB
FF
07
F1
29
F5
04
F3
15
FB
0A
14
D3
E1
DF
0F
16
EE
1C
2C
0C
FA
FD
F3
FF
E7
10
16
06
13
0D
D9
18
F8
24
D3
F3
18
E1
F4
15
F3
08
EF
E2
0F
E2
09
EB
09
0D
F9
F3
EF
27
F5
E8
F7
2E
FB
FD
01
1C
E7
FC
D9
14
F3
13
18
0D
E4
01
E3
1C
D2
2F
F9
CF
01
15
30
1B
EC
16
1F
FF
2A
F8
CC
F4
1E
15
E2
F8
12
E3
07
CE
E9
43
18
0B
E8
F7
04
0B
FC
03
0B
0C
18
09
E1
25
F0
21
FA
F5
0A
1D
15
F2
E9
EA
00
F3
FD
15
E9
16
04
E3
F5
00
F1
FC
F4
F3
FE
FB
18
01
EC
F7
FB
08
EC
01
10
F3
06
FB
10
13
D4
0A
E9
FA
04
F7
DF
03
E8
FE
0A
FE
E4
04
0E
1A
0F
1F
32
FA
09
07
E8
01
09
0B
FD
E9
EE
0F
1F
F9
FB
06
FD
FB
0C
E2
11
FE
08
F9
F9
09
0A
23
05
06
2B
EB
2B
1A
0E
02
F9
FC
FD
F7
0A
EC
01
06
13
09
F2
E1
EE
04
FC
F3
03
12
06
F6
0E
0A
F4
06
18
13
FD
F4
E7
18
08
0B
2C
1A
FF
EE
F2
07
F5
E4
10
1B
1F
F4
01
09
EC
F4
FE
F9
F6
FA
15
09
33
FE
0A
19
EC
F3
11
EA
EF
E8
FB
0B
0B
06
FA
D1
EB
E7
EE
D3
F6
F3
03
06
EB
E5
01
F3
08
F1
E4
08
F8
D6
F2
FA
0A
09
01
FC
FC
FE
FD
15
FD
07
0A
0B
ED
17
0C
F5
F2
18
D5
F0
F4
10
D1
FB
04
17
FD
0E
1E
FE
06
11
FD
FD
08
FD
DC
FE
FB
FF
09
EB
F2
FE
FB
02
09
E3
16
1D
1D
24
E2
E7
F8
16
FD
FC
20
1B
16
12
15
07
11
FE
14
0A
F6
D8
03
11
03
FE
1C
F4
C4
0C
17
FD
19
00
02
11
FA
13
ED
03
F0
04
F7
06
0A
02
09
01
03
F3
02
E9
D7
F8
12
F5
15
05
1B
EB
FA
FB
EF
FC
0A
F0
1A
F8
04
E9
FE
EF
09
05
0C
0F
0D
0E
14
F8
07
FA
D0
F2
F4
0D
F4
0F
E4
1A
06
F5
03
F5
03
00
05
F4
1B
EE
01
02
12
EA
01
E8
01
20
E2
F7
D4
EA
15
DB
1B
DA
E7
1A
09
0B
16
0A
08
EB
F4
EB
17
FF
13
FE
E3
0A
0F
15
E1
E3
1C
0F
0A
00
F9
C0
FA
FF
D3
25
EF
25
F4
09
FC
EE
FB
DE
1E
F5
01
ED
0A
ED
D3
08
18
F3
19
0C
05
19
28
0C
DC
F8
EA
DD
05
F4
1E
21
06
1B
08
DE
02
FE
23
03
13
1C
E6
F8
0F
12
05
F3
01
EB
FC
DA
12
1C
0B
25
07
F8
05
14
10
01
FB
FB
F3
F4
F7
ED
FC
1E
F8
E4
F3
F9
F5
EE
DC
EE
08
F9
08
FB
14
19
0B
17
FE
19
00
27
01
0C
F4
E5
E5
33
EC
05
EA
02
F3
06
EE
00
F8
ED
D7
11
CF
EE
07
07
01
11
03
DD
05
10
1D
07
19
07
0D
27
15
11
F9
07
F9
13
0F
11
E2
09
39
1F
02
F5
F1
13
D1
E7
0D
F7
31
E4
14
28
F6
13
23
E0
09
FF
ED
E3
1C
FE
F4
DE
F0
0C
0D
25
FE
D9
E8
05
12
FA
0F
03
DF
FF
07
FE
2F
DF
EA
07
E9
10
B8
23
01
EF
10
DA
FC
08
24
F0
0A
E2
07
F3
0B
17
F3
02
F3
0A
0E
ED
12
F9
00
E4
ED
05
17
E9
11
F7
F4
0E
01
00
F8
EF
1B
10
2A
F3
F5
02
02
FD
F2
02
FB
12
12
DE
0F
23
E3
1E
F2
FD
00
00
15
FD
1D
2A
F6
23
E0
E1
D9
F6
30
08
06
E2
F8
F3
22
0C
07
12
E1
D8
E0
DF
03
FA
05
D5
0F
11
1A
CF
1D
F7
EE
0A
04
0B
0B
17
F7
FF
14
F3
05
0B
F6
01
09
20
31
3E
02
D6
20
03
14
FD
EE
20
03
2E
F4
F3
0E
F3
00
D9
E2
F9
EC
22
0A
F8
FB
0B
02
F0
01
F5
D9
F4
09
FC
DE
DC
00
FD
03
CC
F6
00
DF
F2
02
E7
23
22
D7
CB
1C
FF
E7
F1
FB
EC
FF
03
01
11
17
F6
1C
F7
13
04
19
F1
EE
F8
12
1C
1F
00
04
05
E2
02
F0
05
E9
05
F6
FA
02
F0
DC
DC
10
15
DD
13
0A
17
FF
F8
1A
13
E7
0E
25
F1
07
0F
E6
FD
FC
EF
F9
10
FA
01
2A
FD
21
F6
27
FD
F8
FB
01
E9
FB
F1
1B
0B
27
19
26
F1
19
0D
0F
0B
0E
09
12
22
06
01
14
EA
EE
0C
EB
F1
15
11
12
DB
F2
EE
0C
E4
0E
F3
0C
F5
14
EE
0E
F9
F5
EC
DF
FE
00
EC
F7
13
02
DB
EF
03
F3
EA
15
18
22
0B
19
12
1A
04
F5
0C
F8
0D
0C
E9
06
FE
FE
EC
25
17
03
F1
16
DC
FB
06
0F
0F
21
FC
0B
E6
F7
EE
0A
12
FC
D8
03
FB
0A
F2
12
0C
0B
1D
07
10
0B
05
F7
DA
09
F7
00
FF
0D
E6
EA
EB
06
F8
00
22
E7
0D
ED
EE
25
F2
E3
32
F3
F4
12
1E
E4
E9
DE
FE
10
E9
03
E5
08
20
F4
0A
EF
EF
D0
F2
ED
FD
19
FD
EB
FC
2E
E7
1A
17
09
F8
05
E7
00
13
06
17
11
10
17
F5
FB
20
F0
2A
14
1F
0A
0A
1E
2E
0C
10
0B
1B
F6
F3
01
FE
0E
F8
0E
FA
12
08
E5
1E
02
1F
F7
FD
FE
04
12
F4
24
FA
F6
F3
03
00
F2
EB
DA
02
0B
EE
2D
F6
04
0C
E2
ED
E4
F7
F2
26
17
EE
F3
12
DD
F0
E6
EB
30
FE
06
F2
04
FC
2C
E5
FB
05
0C
06
2E
01
E0
D8
03
0E
FF
09
FD
FC
FB
F5
E2
2D
15
DF
07
1A
13
E1
04
0B
FA
09
EF
34
ED
04
11
DF
E6
2F
16
16
21
EF
E6
F3
23
D6
DC
F3
01
12
E2
06
E2
FA
0F
16
D4
D0
F7
11
FF
EC
D9
08
D8
15
1B
1C
EB
29
01
2B
23
FF
FA
25
2C
F4
F4
04
0F
0F
F0
1A
EB
15
16
E7
0F
02
19
05
F9
E4
2A
E8
F5
0D
1E
F4
13
36
1C
0D
EC
04
01
F7
1C
03
1A
10
DE
1D
1C
0A
FF
0A
04
FA
EC
0C
0C
22
D3
01
13
E2
FC
EF
1A
F9
F0
09
19
20
05
FD
EF
0F
FC
FA
F3
E4
F0
00
1D
00
33
08
E1
13
E8
EA
17
CF
1A
0C
0C
F0
E9
F3
F3
FE
F3
14
E7
F6
2D
E9
FB
F1
08
FB
09
0D
DB
19
06
07
EA
D9
00
E6
05
10
E7
02
F5
E4
17
19
14
01
E7
F0
ED
08
ED
10
F5
02
FE
2A
FF
10
E1
1C
0D
E7
04
0A
2A
03
F1
26
EF
05
F8
F9
13
EB
F3
13
F1
02
F2
09
08
02
F2
F2
E6
0A
0B
EC
10
0F
0E
E3
EE
E8
26
1E
19
05
F5
D2
D2
DE
E2
20
0B
01
FF
E4
10
EF
EC
EB
11
F5
0C
FE
08
17
F9
05
01
FE
D3
00
18
FB
F7
22
D8
0C
EF
F4
2E
F5
EC
F9
16
FA
FD
07
03
F4
DA
08
F3
F3
F7
EF
0A
FD
05
F6
03
F2
1A
F5
DC
07
12
ED
0C
13
0E
FF
FF
04
FA
F3
FF
EC
18
FC
EE
F3
EE
05
13
DD
EA
12
EA
10
F3
EC
F4
ED
FC
22
09
FB
EF
01
16
00
EF
F2
F8
07
0D
04
0F
0C
E5
F5
03
0B
D3
0A
25
02
F7
D9
F1
23
09
2F
17
25
06
F5
FE
E9
16
18
EF
15
F4
F6
FC
25
F5
03
FE
1C
02
09
F5
21
F3
F5
13
06
FA
F5
05
13
07
01
0C
D8
FE
F8
D4
1A
C9
E7
E6
FB
0D
FA
19
F6
EE
F9
E3
0B
0E
02
ED
11
FF
D2
00
0D
0E
28
09
1D
14
0E
E7
22
DD
0C
0F
12
DC
02
0D
FB
FD
EF
EB
DF
F7
0C
FE
1B
EA
16
04
F7
EF
FC
E0
0C
07
ED
EB
FD
08
FE
E8
E4
09
14
F6
D0
FA
1A
18
F0
03
10
FC
E4
01
E7
E1
F5
04
09
F6
F2
0A
05
F7
FB
F4
05
F8
F0
FF
F8
00
FC
F8
F2
F9
FB
E5
FB
0F
FD
07
0A
0B
06
E4
F3
0D
D1
00
09
17
05
E7
FE
04
15
1A
EA
E9
E6
0D
E5
1C
08
F5
2D
07
05
1B
FE
01
0E
F7
02
04
ED
0C
DC
E7
04
E5
F1
09
2B
FC
FB
0E
13
06
EE
07
1E
0C
18
F2
EF
01
FD
02
FE
08
EF
EC
F4
17
1A
FA
1F
06
08
04
0D
04
1C
02
FE
0E
F9
0A
F5
0F
1A
F3
F4
F6
12
08
E6
CE
FD
01
0D
FB
05
F0
00
EC
0F
2C
11
01
00
15
07
17
DD
F3
FC
F8
0C
E1
FE
13
FA
FD
F3
01
F4
14
02
1A
11
FE
09
05
03
0D
EC
14
18
F4
03
1A
FC
F0
0A
10
F8
E5
2B
E2
FA
FB
D2
01
13
15
02
F7
09
04
EF
1F
0E
F7
04
2E
FE
F6
E9
17
10
F7
02
FB
04
01
FF
10
F5
EF
00
11
0C
03
06
EE
00
0A
E1
FA
01
09
17
F5
F0
26
E1
F7
FA
FD
F9
E7
09
21
07
F6
22
F4
F6
0C
E4
0E
F7
DA
EE
EE
05
F6
FE
24
26
EA
ED
F3
01
03
04
14
0D
07
FC
05
1C
FB
FB
1D
EC
FF
F8
03
FD
FE
F5
D5
EC
FC
09
1F
02
F8
13
38
FE
04
F4
F8
21
E8
F9
19
07
E8
28
1A
17
EE
F1
FE
1D
13
14
F7
1E
2E
EF
0B
F5
DB
15
F5
26
07
F3
01
ED
08
0F
0A
E1
00
0D
ED
07
28
DA
F2
04
1C
26
43
06
07
15
EE
2A
DA
05
E7
E9
15
00
08
31
FC
0F
EB
01
2B
FA
F3
07
E8
F7
F1
EB
02
01
EC
49
2E
1A
EA
0C
F5
18
18
E0
09
09
04
13
FD
03
0F
03
E9
ED
00
11
1B
04
F4
E2
03
04
05
0F
24
1A
1E
02
06
DA
0F
D2
10
0D
ED
F1
FF
F2
0B
FA
E6
1B
29
1A
00
F5
13
21
0E
2E
1F
11
2E
EB
18
FE
1B
E1
01
F8
1F
EF
F9
FB
EF
F8
09
ED
EE
17
11
EF
30
FD
06
05
2F
FA
05
02
08
0C
EC
F4
B3
10
C0
21
F5
18
15
27
17
16
E6
F7
EF
02
E6
09
0A
F5
EA
FB
29
09
FB
EC
1B
2B
03
02
D3
1A
2D
DE
E2
D5
E4
25
DA
09
22
23
EF
F2
0F
E3
E4
E6
FA
08
10
FD
F6
0A
EF
F4
21
D9
27
03
18
0A
F2
DC
14
18
EC
FB
ED
26
E5
F2
E6
F6
F7
CA
CB
F8
7F
29
03
E8
D8
0B
01
12
FE
FF
11
17
25
1C
2D
12
17
30
10
D1
19
E4
10
01
FC
F0
F0
FA
01
F9
ED
39
10
11
FC
F3
F9
D9
D5
F7
2C
17
FE
16
17
F0
11
28
F8
1C
05
0A
D5
0A
F1
EA
0F
1A
0B
FB
0E
F8
D2
39
14
1D
FC
1A
DC
13
F6
E5
03
F0
EC
2D
1B
1A
20
1A
1E
EE
E1
DF
17
F6
0D
FA
FE
22
09
DE
FC
EF
E8
E0
CB
07
03
08
E8
FF
07
E9
07
17
1F
E1
E7
3F
C5
00
02
EE
0C
0B
13
F4
C9
20
45
F8
EF
EC
09
04
FD
23
D9
02
14
06
0D
F9
29
2D
FB
01
13
13
E8
EA
39
03
DC
D4
FD
F7
FF
EC
F3
03
FC
FF
06
FB
FB
EC
EB
EE
0D
0A
0B
25
F5
06
07
22
17
00
10
03
E3
1C
D0
D7
33
17
01
FD
05
0B
F8
FE
E5
F5
06
F6
E7
F0
FD
F6
13
DC
F3
E2
04
D8
F7
ED
14
04
F2
22
1E
E4
FD
03
1F
01
E1
1D
FC
FA
FC
0B
14
07
EE
00
EC
04
08
D5
24
0A
0D
FC
0A
16
F8
FB
F0
F8
FE
F3
FB
F5
07
00
F6
22
02
FF
19
19
FA
0B
D9
E1
EA
05
E7
F4
EB
14
16
01
F5
FB
04
0D
F1
E4
15
F0
1A
0C
F3
FF
04
DA
27
02
03
DD
F4
18
1F
E4
FD
E9
F9
FC
0D
0F
24
EA
26
EE
23
13
07
10
01
19
27
2A
15
1C
0F
F6
ED
07
1F
0D
01
13
02
18
0A
12
0E
0A
00
E7
E7
06
DC
0B
05
1F
0F
F5
01
F7
14
18
1C
EE
31
0C
FA
0D
1C
0C
FC
F1
D0
03
EF
FF
05
EB
DE
12
06
05
16
1A
01
F2
F9
EC
F1
FC
35
E6
EC
F7
18
EC
CE
E7
ED
48
05
01
F8
DD
E8
EB
18
E6
16
13
00
EE
E9
09
0B
00
FF
E2
0F
0A
13
F7
F4
0A
E6
FD
D2
09
00
FE
16
F7
1B
05
E4
FC
F9
00
FF
F6
F9
FF
F3
07
05
E5
04
EC
20
FC
F2
01
03
F5
07
0B
15
14
0E
EF
FA
0B
D2
FC
1D
04
03
02
0C
E7
FC
E7
DF
17
ED
D9
EB
04
12
04
EE
0F
F5
EE
16
BC
FA
12
E0
E7
00
18
DE
0E
00
04
06
1D
09
1D
D3
E3
FE
07
07
0A
E9
0D
FE
17
09
05
10
15
F3
FE
F2
DF
DD
0C
0F
F8
08
00
17
04
06
E7
05
06
05
F7
EE
EB
07
17
F7
FF
30
06
0F
01
12
09
FB
20
07
F7
06
19
F1
0D
FB
F6
08
EB
0E
05
05
0A
F6
05
1E
0D
0F
1B
07
0D
F7
00
15
0D
EC
0A
EC
1E
EA
17
F8
1C
01
21
0F
0B
1C
FE
F8
F3
0C
0D
0C
FE
05
F1
07
02
EE
0D
0A
EA
1C
03
11
F0
21
11
00
FE
08
F0
F8
06
05
F2
F2
FD
E2
E1
E1
0C
04
13
03
F4
0A
07
F3
F0
F1
F8
FF
F7
08
F3
EC
FC
07
F1
0D
E5
0A
08
04
F4
EE
F7
07
07
0E
12
FC
06
FB
E7
0C
11
03
09
22
F4
0F
F8
0D
06
F6
F8
02
14
F8
1C
FE
10
EB
DC
F8
0C
F7
E5
FA
EB
10
D4
F7
08
09
F4
F6
1C
F7
12
FC
04
EE
03
EC
0D
09
DD
F7
FD
0B
15
0A
18
20
09
F9
06
F0
01
11
F1
0C
09
00
F3
F6
00
04
F1
EE
16
F9
EE
C6
04
D8
00
1C
0E
05
EF
E6
08
F5
F3
FB
E6
02
04
FA
11
FE
DD
11
E1
0E
0F
03
2B
00
F2
F9
01
23
F9
19
0B
05
16
0D
1A
10
F8
DE
0C
EE
19
03
F4
02
DB
12
E6
28
1E
0B
C4
F1
EA
DA
EA
E8
0C
00
14
EE
02
04
FD
09
F5
03
EC
F3
47
FD
06
0B
FD
F5
ED
1B
07
0A
05
FA
CF
FB
F6
D8
FA
28
32
10
F9
3B
08
BE
1F
EA
EE
E9
15
17
14
EA
EF
00
1D
08
F0
0B
1E
FA
FF
F6
00
13
13
26
10
F5
DB
F7
16
09
EC
13
E8
04
FA
EF
08
1F
1C
FD
D5
CF
FD
00
E2
05
DF
EE
24
E6
06
F9
FE
16
08
EC
F5
34
05
22
0F
13
13
24
E5
13
E8
02
D7
C1
F3
0E
1D
FE
1C
D3
04
0D
EE
FB
07
1B
D9
F4
08
F7
03
0A
02
E6
0B
EA
05
DB
02
0B
F5
F3
1C
03
F1
F3
F2
FB
F9
14
FA
04
1C
F1
03
E7
E3
0E
F3
02
E9
17
04
FE
07
14
F9
03
07
07
E4
0F
0C
0B
13
FC
0C
F0
FB
E9
0E
05
1A
E7
E4
F0
FA
08
05
07
23
0F
F8
14
06
14
E7
D8
FB
F6
E8
FF
EF
0A
F1
16
17
1A
EA
EB
11
FC
04
F2
FB
16
04
21
F4
FA
F7
EE
FC
10
05
FF
29
EF
F3
DE
E4
0B
02
F0
01
18
06
1F
09
F7
0A
0F
F7
D4
0D
FA
00
09
EB
22
14
10
F6
13
EA
FA
FB
FE
0D
EE
0F
E8
E5
08
25
02
0A
E3
07
0A
0D
14
F1
14
0C
F1
00
16
0C
09
08
F9
0F
E4
14
F8
F1
F9
0B
16
E4
FF
0B
F5
16
EE
F4
1D
FF
F6
FD
F4
0A
12
FA
02
F1
FE
0D
0D
CA
13
FF
09
FD
02
EE
0A
FC
07
05
FB
E6
14
F5
15
01
FB
09
FA
06
35
21
13
12
08
0F
01
12
0B
18
FE
23
E0
D6
1E
FE
09
15
FB
1B
E5
EC
F0
13
0D
F4
E2
F8
FB
FC
F8
01
E7
DD
03
F5
18
15
F2
F6
E7
E6
18
F7
05
08
1B
1F
D2
F5
05
02
EF
FC
F9
1C
10
F3
F5
EF
EF
FE
D4
F7
FB
FA
F1
0B
FE
D6
FC
F6
E5
EF
D5
F8
F8
E9
FF
F4
19
E5
07
E1
03
05
0B
FF
18
13
FF
F2
F2
FF
2F
1B
00
F9
0B
DF
DE
FB
0A
04
F1
FA
00
F2
13
19
09
F5
0E
FC
03
E7
0A
F0
E1
01
08
E4
E4
11
F0
10
FD
DF
F8
FD
F3
0E
07
F1
03
1C
EF
09
18
E4
0F
0A
0A
1B
30
E3
D7
09
F5
EC
07
F4
10
31
F4
FA
0E
E7
EA
E2
0C
FE
05
F1
DF
21
09
08
04
12
FB
1C
2F
FB
09
0B
09
F3
03
EC
FF
0A
29
F6
ED
09
FD
F3
E9
E3
04
F3
F7
D8
19
09
E4
F5
EF
F9
DC
08
0B
04
FE
F5
FC
09
0C
F1
D7
F0
06
F4
E9
14
FF
F3
1A
01
E1
12
F3
03
10
0C
07
DB
00
F6
F7
ED
E7
09
22
03
17
F6
15
DE
F4
03
CF
0C
15
F1
13
ED
19
F5
E0
04
04
D0
F3
04
E3
EB
E9
10
00
E4
0B
F2
E7
F1
0F
06
E0
D1
F4
0A
08
E9
2A
CD
15
0D
EA
00
08
FB
06
FC
FF
05
CB
06
07
05
1B
21
2E
E7
F3
FA
B6
12
28
2C
0C
FD
D9
2C
D3
0A
18
0C
FC
34
EF
FC
E1
F2
23
1D
14
06
2D
14
F6
05
E6
2D
EE
17
12
BD
0D
15
0B
F9
20
E9
1A
00
E8
17
1A
EF
0D
DF
02
F9
DA
0F
02
E2
21
32
27
0C
FC
08
1E
1C
1A
ED
15
DB
F6
0C
03
05
0C
FB
F1
F4
DB
05
13
0B
F7
0B
E6
0D
EF
27
13
2F
FF
05
15
00
15
F8
25
05
05
1F
BC
F9
10
11
09
FD
0B
12
0F
CD
E9
19
DA
17
F9
E1
C6
FC
D5
E3
32
0F
3E
FE
E7
07
25
1A
13
F8
18
34
CD
21
EE
04
21
28
08
14
FB
F2
E4
0D
EB
08
1F
16
EC
13
1E
FE
F5
02
05
29
F6
0B
0C
06
32
D6
FA
FE
1D
EE
17
F6
DB
18
E2
09
09
0C
FC
D6
1A
36
03
16
FB
E8
09
00
E7
FE
15
17
F5
11
F4
23
19
F1
07
EC
EC
03
E8
F4
F6
0E
D6
E9
1A
0A
FB
02
F7
0E
2F
F2
0A
11
28
ED
06
10
24
11
EA
F1
07
F1
F5
E9
05
FC
FE
00
0F
18
1B
0D
09
E5
11
F9
EF
F6
C9
FF
1B
DC
0C
19
0F
FD
1A
E1
0D
E7
0B
24
E1
05
08
DD
ED
14
0A
E8
E3
F7
1B
E9
FF
FA
DD
08
01
FD
F6
1F
FF
3E
E2
E8
20
0C
08
E4
F4
F0
0F
DC
17
16
09
EF
03
F6
11
F3
1F
F4
1E
08
FB
06
FD
09
EB
0F
01
FB
03
04
18
EB
1B
F4
1A
F6
11
FA
01
FF
D9
E0
1E
F3
E0
EC
0B
FC
09
FB
FD
02
0B
07
1D
1B
DD
F6
F3
E0
2B
D8
09
EE
05
2B
19
12
EA
0A
EC
D4
E7
FE
1B
20
0E
02
EE
0C
E9
DE
FC
FB
05
F8
FD
ED
0C
F2
EC
EC
EE
1E
F3
0B
10
0B
08
09
22
E7
F1
EC
06
06
FF
08
23
03
F4
04
FD
E2
FA
DA
04
02
F2
EE
F3
F1
F4
13
E1
0D
18
F8
FC
E9
F0
10
FD
09
F6
08
FC
06
FB
15
1E
F3
FE
10
DB
05
09
FF
F7
DA
E9
F0
23
F6
19
04
F6
E8
20
E4
08
05
09
04
F2
EE
F9
01
0B
F3
02
36
04
1A
27
E6
F3
EA
04
18
10
0A
09
0C
FF
0E
FD
FE
07
18
08
2B
F6
0C
17
F7
07
F0
04
E9
15
07
FE
0F
13
15
0F
0C
D4
1E
FA
CC
E6
F4
28
23
F9
0D
F5
06
EC
17
0E
FB
00
E0
F0
F5
F5
01
00
0E
0D
FE
F6
FA
FB
E0
FC
E9
F2
19
07
1B
18
05
1D
05
F5
05
FC
04
F1
D8
F6
06
26
04
E3
ED
12
0C
12
16
F2
08
EC
00
EB
FD
E4
06
E5
06
0F
18
EB
F8
FB
EC
03
EF
36
04
05
11
F2
24
EE
FD
F5
EE
12
F9
F4
06
F1
06
01
07
DE
29
1C
F8
02
FD
E8
D9
0A
2D
1F
E6
09
13
15
FB
D5
08
10
01
FF
18
07
26
E9
2F
E2
30
1D
17
05
00
28
05
F3
E6
DF
CF
11
0D
FE
1B
01
0D
10
FC
1D
01
FF
22
24
15
03
FB
F3
FB
1F
ED
18
ED
F2
22
DA
F6
1A
F2
10
DE
0F
0E
FD
ED
17
E6
23
04
04
E3
F4
DD
F6
19
E7
10
EF
0D
D0
D6
13
E5
1D
F4
0D
19
D7
09
FD
E6
0E
FC
F0
F7
DD
0A
07
00
03
1F
F5
EA
03
FD
FB
F5
EA
02
03
08
08
00
01
F7
0A
11
EE
E6
1D
07
13
0B
C4
D5
00
E9
1D
EB
F4
FB
19
16
F9
27
FF
EC
FA
D6
18
07
25
E7
FC
14
23
1D
07
1B
F6
FA
0D
DB
E3
F2
FE
EB
0A
14
0E
03
FD
F8
D7
05
06
DD
FA
F1
F5
35
0A
F1
18
FE
16
09
FF
E8
0C
0D
1C
15
F2
FA
01
06
04
EF
04
EA
1E
0B
28
27
E9
06
38
03
F8
F3
04
01
12
1F
06
12
0C
1C
0C
03
0D
0E
0B
F2
06
F5
04
10
EC
F6
0F
0F
1C
FB
1A
F6
10
17
DD
01
FE
F7
0A
EE
E9
0B
F4
FF
02
02
E9
E2
01
10
05
F2
1C
05
0F
DA
F4
F8
00
FA
E9
FD
16
F8
13
01
E1
FE
F6
01
F2
E1
09
14
0C
0D
24
FB
14
FF
1B
03
EF
FB
0A
F3
ED
1B
F1
E0
0B
FF
E7
EF
E7
F2
04
00
06
0E
21
DC
14
DF
EE
F8
FB
F7
FD
01
05
12
0C
07
F4
01
1A
0D
09
06
02
06
0E
17
02
02
F9
EB
CE
21
D6
00
DB
15
06
0F
20
F1
18
EE
00
15
F3
15
1A
FA
12
0D
F2
ED
FD
04
F2
FC
DC
F5
06
15
03
01
F2
02
18
11
0E
1B
16
E8
E6
F1
00
2E
DB
E0
07
1F
13
1B
DC
27
F3
0E
F2
E1
13
B0
01
E2
1C
F5
FE
EA
14
19
06
CC
F8
07
C7
00
E4
19
F6
05
F0
EB
EE
1F
FB
08
09
07
D7
F1
DF
19
01
13
14
21
DF
16
DA
E4
E1
3C
17
E6
14
08
10
1D
0E
F2
FD
DB
F5
F0
F6
EF
EC
F0
24
1C
03
E8
F1
EA
E7
02
FD
00
13
06
0D
EC
EF
06
20
0C
F5
E8
0B
09
F1
07
14
ED
EF
FC
FA
F5
09
F4
FC
11
06
FB
2F
FC
31
11
F3
EB
C7
2D
08
0D
0A
04
09
F6
EF
FB
EC
DE
0F
18
DA
03
11
0B
EA
1E
FC
0C
29
ED
FF
03
05
EC
FA
E5
FE
1A
F6
14
11
17
1B
E5
ED
0B
06
FE
07
1B
08
F3
E8
38
05
09
F0
F3
0F
FE
FE
1F
1A
FA
12
EA
1A
06
EC
EF
29
EC
D4
D7
12
F1
2F
F5
FC
24
FF
DB
FB
EF
23
22
19
05
EE
17
E0
F9
18
1A
11
F9
FB
15
2F
14
F9
EA
02
E3
E7
F2
18
ED
EF
DC
36
E4
25
1B
EA
D0
1C
03
F4
1B
0C
1A
09
F0
10
14
0E
0D
14
0E
F1
37
F9
0C
FA
00
02
DA
F5
F6
E0
E3
11
F0
1D
F6
1B
DD
F1
20
D3
F2
00
F5
FF
00
F8
21
05
FF
14
2C
0B
02
02
E5
F8
FA
1D
1A
20
0B
03
16
ED
0A
00
1A
00
23
E4
DF
1D
D9
18
E9
15
F4
EC
1E
1A
CC
2E
FC
04
E6
F0
1E
15
10
14
D3
DC
26
E2
06
E8
E9
F8
05
15
0B
0B
13
DA
FB
EE
FF
00
31
EA
F6
31
1C
06
EE
18
F6
39
F4
1C
CD
E5
12
00
02
EE
11
FF
00
F2
05
01
F3
16
E9
EA
FD
06
F0
FF
04
EE
14
FF
03
F5
1F
24
F8
F7
FC
09
F6
F0
ED
F6
22
0A
08
FC
15
1C
EB
06
F7
F7
17
04
11
FC
FE
0E
E6
02
03
FA
EA
F9
E9
2F
17
0F
05
F8
08
02
F5
16
1C
FD
00
FD
F5
E4
13
16
08
08
D4
ED
E2
FC
1C
F6
02
04
EB
EA
D3
04
02
D9
FB
DE
FB
14
F4
FB
11
0C
0E
53
CB
F5
DC
CA
FA
05
15
0E
08
F0
34
15
13
16
29
16
FD
E4
FD
EE
07
06
ED
33
F2
FC
27
19
29
05
F0
1C
EE
17
F4
0C
EF
1D
F4
00
0A
DF
0A
23
E2
22
07
FE
11
E4
07
0E
0B
FF
F6
13
0D
FE
08
0B
06
E7
F4
1B
E9
FD
09
F2
DE
F8
0E
EF
19
F1
04
EA
F9
19
FB
0B
FE
FD
F1
E6
16
15
04
09
F0
FD
11
01
F4
06
EF
12
FF
0F
E2
0E
FC
1C
FA
F4
F2
0C
1A
E6
FD
FA
05
E0
0E
FC
25
DF
03
F5
F2
E6
F0
F5
03
EC
F6
1A
09
FF
18
EC
D6
F8
0B
04
09
0B
D3
F5
0C
0D
F2
F1
14
17
FE
F3
FD
F6
FC
0A
05
12
06
0F
1C
F5
00
12
00
00
F9
FD
E8
17
04
F8
02
F3
EF
EF
FB
10
F9
EB
0C
F2
07
01
F9
E8
E9
1B
DF
F2
0B
F6
04
1F
EC
F5
0C
0D
ED
FE
FD
09
EE
05
03
FE
DC
F4
26
18
FD
1F
00
00
FD
16
01
15
1A
10
E6
3E
02
0E
18
E6
F4
F7
CD
FA
05
02
FC
F5
E7
EB
0C
1A
D1
F3
D1
06
0E
00
FA
F6
11
1A
21
05
1F
F2
EA
F5
1F
0D
FC
FF
F4
F5
FF
FB
07
D7
F4
0F
1B
ED
F3
1A
E5
0B
14
09
EB
0E
F6
07
F4
11
E8
1E
1D
E1
DD
EA
F2
EA
FB
EA
1E
FE
E5
2A
14
EB
0A
15
FC
E0
FF
09
F3
07
EF
15
F9
EB
16
0E
0F
21
FF
02
E2
0F
09
13
17
0A
0C
16
ED
01
F0
0E
21
15
04
18
2F
F5
21
E4
1A
F6
15
03
EB
E6
08
EC
0E
E9
F8
ED
EF
0F
E4
FB
0A
0E
F5
FD
0C
F5
FD
F9
05
FB
41
09
F4
0C
0E
14
F9
FE
EE
F0
CE
F4
16
06
0A
F5
01
0A
F1
19
E7
F1
01
F1
E8
F4
FD
F3
FD
EC
10
F1
FB
FC
C7
03
FD
EA
2B
1B
0A
00
1D
F5
F2
CF
F1
10
FC
02
FA
0F
FA
1F
07
10
D8
DC
19
04
DB
00
E7
15
FC
08
FB
09
E7
1A
F1
EF
10
F3
0F
04
03
E4
E8
08
2C
FE
0A
FD
E2
04
FB
F7
0C
DE
F5
F1
FA
EE
08
BE
1E
12
DE
F9
E0
F6
04
32
C6
FC
04
E6
E8
0C
09
03
08
F7
14
E8
25
FC
F7
F4
E4
FA
FB
EA
0A
E6
00
F7
01
08
E1
0B
12
08
F1
10
CC
D9
E9
FE
EB
0F
0A
F9
09
F3
F1
09
FE
E5
1B
E0
E9
E7
F0
EB
D9
0A
EC
F6
FF
F2
F8
FB
FD
16
12
FB
23
01
F7
FB
0F
FC
0D
D4
01
0C
FE
EC
0C
0A
E6
12
06
F9
EB
2D
F9
16
ED
FE
29
FF
02
E2
E9
12
E2
E5
02
FB
0E
15
09
ED
F1
F5
07
28
0D
0D
0E
FC
FC
F3
CE
EF
03
E9
34
09
0C
00
F9
F0
0B
14
00
F9
0C
10
17
FB
0F
EA
1A
E2
FD
F5
07
3B
19
08
DC
D7
F9
DF
0E
EE
FC
23
E0
06
EF
01
10
FE
0E
01
09
FA
0A
06
1D
05
0D
0D
0E
F2
07
F7
05
F0
EB
37
F2
02
04
08
10
F5
06
ED
EC
12
F4
0A
1C
0F
F1
ED
1A
F4
ED
F8
F9
E5
E2
19
F5
0B
D8
FC
EE
02
DA
F8
F9
F7
07
22
F2
FD
04
E5
03
F6
13
E8
FF
1D
28
1A
FC
1B
01
11
17
E8
E0
E6
0B
FB
D9
01
01
F4
DF
F4
07
05
15
FE
17
0B
EB
06
14
0C
0D
2A
12
F1
F9
ED
FC
F2
F5
20
F8
F0
F5
11
2A
0A
F6
F8
00
E3
F9
FE
EF
1C
F5
E9
08
1C
FF
09
F4
01
F8
0B
FC
FA
F5
06
01
F1
18
EB
E4
FC
06
0F
00
FC
F5
06
F9
FD
FA
06
E8
F0
02
EE
F0
E5
E2
14
08
F7
FB
13
FC
F4
05
EB
0B
16
FC
16
F6
02
0F
FF
F8
ED
0E
01
F6
0D
F5
FF
F1
0F
F1
FF
F7
F5
F1
F0
FC
18
05
1D
02
F2
F3
05
F8
FA
11
06
17
16
FA
20
0E
16
0C
EE
11
EF
18
EF
FD
F3
FE
0D
FB
EB
1C
0B
0D
03
FE
0B
22
02
0E
E9
F0
17
EF
EF
E4
DF
06
F3
0F
F8
F7
F0
11
F5
EB
15
08
E9
E7
14
0A
0F
18
E8
0D
16
03
0A
02
FC
0B
FF
ED
EB
E6
F7
1D
FD
14
EE
05
20
ED
E1
16
CE
FE
07
14
F0
06
F7
10
F4
F7
D0
04
01
EC
19
06
13
F7
1F
01
EB
0F
14
F1
ED
F6
EE
16
02
3A
F9
FD
08
D7
F0
10
01
02
01
0E
1A
1C
14
08
1C
FF
F0
11
10
19
FD
FB
08
01
03
16
10
05
05
14
E5
F5
18
0F
1D
FE
0B
FF
04
07
FF
31
07
E9
0D
FD
3B
03
F6
F3
F6
11
DC
17
E8
0C
DA
FB
0C
F5
06
F4
FD
02
F7
0E
FD
F9
FC
1A
F3
FA
24
DE
FF
FC
05
FF
14
0A
EE
FC
00
EC
0F
20
04
D5
05
06
05
0C
10
11
09
00
FB
02
2D
1A
08
16
EA
23
11
04
DD
EA
F2
FC
FA
FB
0D
F4
09
1A
FF
0A
F2
E4
FE
EE
03
04
E3
19
F7
13
0D
FA
E4
06
EE
F0
DD
02
04
F2
1C
E6
ED
08
26
F8
06
2B
0A
E4
F7
07
FA
1D
E8
02
0D
01
0B
F5
E0
F9
F4
08
1B
07
28
0A
EA
0E
E2
15
D1
F8
05
FF
15
14
17
04
F6
0C
0B
09
0B
19
18
E3
17
D5
1A
ED
D8
0F
E7
05
1A
25
0F
EA
FA
EA
07
CF
13
E3
05
ED
E9
20
FC
14
C6
E6
0F
02
1D
1E
10
29
00
05
10
2F
10
EB
F0
FC
E9
0C
E5
F0
E3
05
EC
12
ED
01
E1
04
1B
FB
15
19
00
07
0F
F0
EC
02
F7
07
1D
00
16
03
EC
0A
05
DB
EF
01
F0
DC
03
06
F8
FD
F7
FA
FD
F4
1A
12
FB
02
09
F2
FE
FA
DB
F2
EC
12
FA
ED
01
1D
E4
F7
00
F5
FB
F1
01
21
13
ED
F7
03
08
28
FB
FC
E6
08
EC
FB
03
05
F6
06
0B
0A
03
09
05
17
04
09
E8
FD
F9
02
EF
0F
EC
E6
F6
09
F8
E8
00
E6
F0
FE
0B
20
FF
FD
F7
EF
02
1F
F7
E8
F4
07
F7
F7
F7
09
06
14
09
0B
EF
07
FE
1B
18
19
05
F7
14
FC
FF
2C
DC
0B
06
FF
FC
24
F5
E5
FB
F0
01
DD
03
D6
FC
E7
02
F8
FC
16
0A
EB
0F
07
FF
1C
02
F2
FA
F0
D4
F7
1A
EA
F3
1D
EF
EF
06
F3
DE
03
0C
06
FD
F5
FC
07
FD
2D
0A
01
F3
E3
12
E7
F9
F5
FC
FA
EC
20
04
F4
09
06
E8
F4
E9
08
25
1E
29
1B
0E
23
D9
E2
F3
D6
EF
10
E1
FF
CC
EA
1B
F4
0C
11
11
E7
EA
ED
FE
18
23
E7
F8
FF
F1
F8
19
11
1C
0D
01
12
EE
08
FA
27
0D
11
18
06
EA
0F
17
1D
13
E7
08
0C
08
0C
18
17
2F
12
CF
D0
EE
E7
12
F0
30
18
13
EE
E4
CF
0B
03
0C
EC
FD
F4
14
FE
FE
E7
0A
13
F8
23
FB
E2
02
06
16
E5
E9
0F
FC
28
2B
06
EF
16
ED
F0
E3
09
0A
EC
02
02
DC
EA
18
FB
2E
0C
1F
EA
E5
F0
05
06
06
FC
E9
DE
1C
0F
1C
1B
0E
10
0A
0E
DC
12
08
0E
31
0E
17
E0
FC
F5
EF
E9
05
06
2B
EA
F6
E6
F9
EA
0C
0F
0C
09
07
FD
FA
0B
FD
F2
F1
FC
F7
0E
02
4D
F2
07
FD
F7
06
15
F0
0D
0B
0E
CB
F6
11
10
02
FA
F2
15
08
EC
32
F6
F0
05
0C
00
E4
15
2F
E4
E9
06
18
07
03
11
21
FF
FA
E6
EF
05
F1
DF
0E
0A
13
20
07
F8
DE
09
08
10
F2
F1
F8
E6
26
E8
23
EB
0B
07
F8
0B
08
FC
DA
C4
30
20
02
F2
1A
F4
E2
27
F5
0E
F2
3D
FF
F9
03
1D
03
2C
E9
1B
0B
FF
1F
EF
F0
0B
FA
F3
25
1B
00
F2
D7
F8
00
E6
FB
0D
03
03
03
06
F2
F1
F7
05
EE
0E
09
F4
07
16
02
0E
03
00
F0
FA
F9
FF
F8
06
1E
F2
15
23
00
0C
09
1C
FF
08
FB
F8
DC
E6
05
06
10
F5
F4
D3
ED
0B
10
0B
07
F2
