F4
E5
E9
E5
DC
D8
EA
DE
DB
F6
DF
E7
DE
C4
D1
E9
D6
DE
14
32
20
2C
5E
43
1D
40
34
13
27
1C
20
46
35
13
30
24
12
26
1A
1E
47
31
12
2C
20
F7
E6
E9
E7
D2
DB
EC
D9
E2
0B
18
14
1E
38
28
18
2D
1F
1A
36
2A
32
5B
42
21
38
27
0A
25
1C
20
45
34
1A
2D
22
14
25
1B
25
49
32
16
31
23
11
2D
25
25
4B
3B
1D
3B
2A
F2
D8
E6
E6
D0
DB
EE
E0
E8
14
29
1E
29
49
32
1C
31
27
F6
E7
EF
E4
CB
DA
EF
D6
E5
0C
1E
12
19
3C
2A
14
32
25
16
2A
1B
24
45
30
16
2D
22
F2
E6
E6
E8
D9
D8
EF
DF
E3
F6
E3
E8
E6
C5
D5
ED
D3
E0
10
2A
20
21
49
36
18
30
23
10
1E
18
1E
4E
3C
18
3F
2E
EE
E2
ED
DD
C4
D7
EB
D2
E1
0F
24
19
27
4A
32
1C
2E
20
F6
E2
E8
E2
C3
D5
E6
D0
E1
13
23
1C
25
44
31
1D
36
2A
EE
E4
E6
E3
CE
D6
EF
DD
E1
FB
E6
EF
E8
C5
D6
F2
D2
DA
0F
26
19
23
3E
2F
15
28
1D
F2
E3
EA
E4
CB
DC
EA
DA
E7
0E
27
1C
24
4D
35
1B
33
23
12
29
1E
23
4B
35
13
30
24
EA
DC
E6
E1
C7
D6
EF
D9
E2
ED
EA
E8
E9
DC
D8
E8
DC
D8
10
22
18
1D
44
33
17
31
24
14
2B
1D
26
4B
36
18
35
29
0D
21
19
20
4C
38
16
33
24
F5
E9
EC
E7
CF
D7
F0
D9
E2
F5
E3
E7
E1
C9
D5
EB
D9
E4
13
27
19
25
4D
31
17
2F
20
F3
E5
EC
E5
C5
D0
E8
D0
DE
F2
E4
EA
E5
C9
D9
E8
D5
E6
FB
ED
F1
E8
CA
D5
EB
D2
DA
15
2C
20
29
4D
39
1D
34
26
14
27
19
25
44
2E
19
33
22
10
1E
17
1F
46
33
13
32
25
EF
E3
E5
E6
DA
DA
E9
DA
E0
0F
24
18
25
4B
35
1B
2F
24
17
32
22
25
4F
37
16
31
23
F6
E7
F0
E3
CB
DC
EC
DA
E4
0F
25
1D
23
43
31
19
2F
23
11
27
1B
1D
4A
3A
1A
3B
2A
15
27
1F
23
42
33
18
29
21
14
2F
22
27
53
41
1B
2F
29
F2
DF
E9
E1
C4
D2
F0
D6
E3
F1
DE
E7
E5
CC
D9
EC
DC
E8
10
24
1A
1D
3F
2F
18
2E
24
0E
29
1F
1E
49
39
17
37
2A
11
23
16
1F
3F
2A
12
29
1E
EC
DD
E4
DF
C0
D2
E9
D2
E0
10
1D
18
1E
46
33
13
31
28
12
25
17
20
47
31
16
32
23
13
26
1C
24
46
34
1B
32
27
0F
1C
15
20
42
30
16
30
22
0C
25
1C
1E
41
2F
16
26
1C
F1
DE
E9
E4
C3
D6
EE
DB
E3
F7
EB
EC
EB
D9
DA
EE
DC
E6
F3
DC
E6
E6
C3
D3
EF
DA
E4
09
1C
13
1A
48
34
14
34
2A
EE
E4
E7
E1
D2
D4
E7
DA
E2
0F
1B
12
18
3D
2A
0D
25
20
F2
E3
EA
E4
C2
D5
F0
D6
E2
F6
E1
E8
E7
C9
D7
EE
DD
E5
15
28
1C
27
4A
38
1B
39
2A
12
25
1A
20
43
31
11
2B
22
EF
DF
E8
E4
CD
D8
EF
D9
E7
0F
21
1B
1F
3E
35
18
34
2B
13
26
1B
19
42
33
10
31
25
0C
1B
14
1B
3E
2B
17
2D
21
EA
D8
E2
E1
C7
D5
E8
DA
E0
02
EF
28
F4
ED
4C
EF
ED
36
F2
E5
EF
E7
D5
DD
EF
DE
E0
13
27
1A
23
3D
29
17
26
1E
F1
E2
E9
E9
D9
DD
ED
E0
E6
14
2A
1E
1F
46
31
11
27
20
12
20
1E
1A
47
3C
1B
3B
2E
05
06
08
15
35
26
19
3A
2D
E4
DA
E0
DD
D4
D7
EA
DF
DE
F2
E3
EB
E3
C5
D4
EB
D9
E1
15
26
1E
23
4B
34
18
34
23
12
23
1B
1F
41
31
18
2E
1F
F3
E6
EC
E4
C1
D1
EC
D2
DF
08
1E
18
1D
3E
2E
1B
2E
24
11
24
1B
20
48
35
19
37
2A
12
28
1B
28
52
3A
17
3C
2D
11
23
1E
1E
4B
3A
1B
31
23
F2
DD
E7
E3
CF
D6
E8
D9
E3
0C
23
1B
22
4D
38
1B
3A
25
F6
E5
ED
E8
CE
DB
EF
DD
E5
F2
E3
E6
E5
D5
DB
EE
D4
D7
11
27
1C
26
4F
34
1A
35
24
EA
EC
E5
DD
E4
D1
E5
E9
E5
1B
2A
1D
20
4A
3B
19
34
28
11
2B
21
2C
5D
44
21
42
2E
16
2C
24
23
51
3B
14
35
29
27
3A
31
35
5D
48
27
43
33
10
25
1C
22
48
36
19
37
28
15
2B
20
25
4F
36
16
35
26
13
23
1A
23
4C
39
19
37
29
16
28
20
28
4D
37
19
32
23
11
24
19
22
4A
34
19
33
21
1C
27
1E
1A
43
34
15
2D
24
15
2E
20
28
4D
39
1A
34
22
0F
24
20
1F
3C
32
1B
37
30
0D
26
19
25
48
35
19
36
26
EB
DF
E4
E5
D7
DC
F1
E5
EA
EE
E0
E9
E2
C6
D6
EA
D3
E2
0E
1C
15
18
45
33
17
3A
25
0F
28
1F
1B
49
35
12
2C
20
11
29
19
22
4D
33
15
32
22
11
27
1C
23
4F
3A
18
34
26
11
2B
21
25
54
3C
17
37
27
0D
24
18
1F
46
2F
14
2B
21
21
4C
41
F4
05
0E
AE
86
B4
1A
29
26
33
3C
33
21
37
30
09
0C
0D
18
30
27
13
2C
28
00
05
0A
0E
38
32
12
39
31
F3
E5
ED
E6
CD
D8
E8
D0
DE
0C
23
1B
24
4B
38
1C
37
2B
F3
E4
EB
E8
C5
D5
EB
D7
DE
12
23
1A
21
45
34
15
30
20
F9
ED
EB
EE
DB
DB
F1
E1
E8
11
18
13
1C
3C
2A
15
2C
1B
0E
24
1B
1E
3C
2B
16
2C
1F
17
2B
1E
28
4E
38
1D
36
26
0F
24
1D
21
43
34
17
2C
20
F2
E3
E9
EA
D2
D7
EA
DF
E6
F8
EC
EF
E7
D7
D9
EA
D7
DA
18
1D
15
1A
46
38
16
39
25
0D
21
18
1F
3C
2F
19
2D
21
17
2D
20
24
59
42
16
3B
2C
13
24
1D
1D
40
32
0D
29
1E
0D
1A
14
22
48
2F
18
36
25
10
22
19
1F
48
36
15
35
26
D6
F9
16
C9
FA
2A
D8
F9
25
10
24
19
25
50
39
18
34
25
EE
E0
ED
E4
CB
DA
EE
DF
E7
11
26
1B
1F
41
32
15
28
1F
17
2A
1E
27
4A
35
1A
36
24
FF
0B
04
EE
EA
E5
D7
B4
B9
13
29
19
26
42
2D
1C
2C
22
EE
DD
E3
E2
D1
DA
E9
E2
E8
18
2D
22
1F
41
33
12
2F
24
EA
DC
E7
E3
CF
DC
ED
DC
E5
15
2D
21
26
53
3D
1A
38
25
11
20
19
21
44
32
1A
35
25
14
2A
1D
26
4E
3A
19
35
26
13
25
18
25
45
2E
19
2E
1E
11
24
1A
25
47
31
1B
2D
1F
F1
DE
E4
E0
C5
CF
E5
CD
D7
EC
E0
EA
DF
CC
DD
ED
DE
E8
11
2A
1D
1E
45
32
17
2D
20
12
25
1C
24
4C
35
19
36
1F
0B
1F
18
19
46
34
11
32
22
0F
20
16
21
49
33
16
33
21
F2
EB
EE
E5
D8
DC
E8
DC
E4
16
26
1B
22
4B
38
15
34
25
11
20
18
1F
4A
39
19
37
29
1E
48
39
1A
32
24
0D
06
07
F3
E5
EB
EB
CE
D7
EA
CD
D9
F1
E3
EA
E4
C1
D2
E7
D3
E3
12
2D
1E
29
50
39
1B
35
23
ED
DB
E5
DE
C9
D6
E8
D6
E4
10
1D
1C
20
4D
3A
24
41
32
F0
E1
E8
E7
CF
DA
EE
DB
E5
1A
2B
1E
26
43
2D
1A
2C
1E
EF
E1
E7
E4
C9
D6
ED
D9
E7
0E
1A
11
23
42
2F
1A
34
23
0F
25
1B
23
45
36
18
2E
24
F2
E3
EA
E6
C5
D5
F1
DB
E0
ED
D4
E2
E4
BD
D4
F3
DD
E8
EC
DC
E2
DE
CF
D1
E9
D3
D8
EA
CE
DB
17
3A
29
01
0B
FF
EE
E2
EB
E8
CE
DC
F4
DF
EB
0E
27
1D
27
47
33
1F
35
23
08
1B
15
1F
46
30
18
31
25
EF
E3
E8
E3
D5
D8
EB
DC
DE
14
29
1F
21
49
34
17
33
24
1D
2D
22
27
42
40
1E
31
32
0A
18
14
1A
41
2E
15
34
29
0C
22
18
21
43
2E
18
34
24
F6
E5
ED
E6
C5
D2
ED
D1
DF
F2
EA
EE
E4
D5
E0
E7
D7
E0
F1
E1
EB
E5
DB
E2
ED
E4
E7
0B
0C
07
15
2F
22
15
2E
21
E8
E3
E9
E5
DA
E3
EB
E1
EA
EE
DC
DF
E0
C8
D3
E6
D6
E0
0C
19
11
1B
3A
27
10
2A
21
F1
E1
EB
E5
C9
D4
EC
D7
E3
EF
E0
E9
E0
D2
DB
ED
E2
E5
E2
CD
D6
EB
CC
D6
FB
F6
F3
F2
E2
ED
E7
D4
E0
F0
E1
E6
17
2A
1E
23
46
33
14
2B
21
0D
24
1B
22
4A
38
19
37
2B
13
21
16
1B
3E
2E
12
2A
20
11
21
14
23
49
31
19
35
25
1D
2F
28
27
4B
3F
1F
3A
33
EE
E2
EA
DF
CB
DA
ED
D7
E2
EC
DD
E3
DA
C6
D1
E5
D0
DA
0D
20
1B
19
3E
30
0E
28
20
F0
DB
E2
DE
C7
D5
EA
D6
E2
07
10
0C
1C
3E
33
1C
3E
30
18
24
1C
20
47
3B
17
33
27
12
28
1F
1F
4E
3D
16
36
25
F3
E3
E7
E7
DF
E0
E9
E2
E7
16
2A
1B
F2
F0
EA
D0
A1
B1
13
25
1D
21
4A
37
17
37
23
2F
61
4C
09
17
1A
EF
D7
E8
0B
18
10
22
41
2B
20
39
26
15
2D
1C
22
4F
3B
1C
3C
2C
EF
DE
E7
E2
C5
D4
EE
D8
E2
1A
28
1F
20
40
37
23
39
2F
ED
E5
EA
E5
D7
DA
ED
DE
E0
ED
DA
E2
E4
C2
D9
ED
DD
EA
13
20
1A
1C
42
35
15
32
26
13
2D
21
26
51
39
1B
39
28
10
28
1D
1E
46
36
13
2E
23
F3
EC
EC
E8
D7
E0
EC
D6
E3
0F
22
17
20
47
32
15
32
24
0F
27
1C
20
4A
36
19
36
26
14
28
1C
2B
53
37
1E
39
26
E9
DF
E6
E4
D9
DE
EE
E0
E7
16
25
1B
22
4C
38
18
34
27
12
2B
1F
21
40
30
0F
27
1F
F0
E2
E9
E1
C6
D1
E9
D5
E2
14
28
1F
20
4E
40
1B
3E
2E
F2
DC
E6
E3
CB
D6
EA
DC
E2
F1
D9
E4
E1
C7
D6
ED
E1
E8
1E
28
1C
23
4B
3A
1B
38
2A
15
2D
21
1F
47
31
15
2C
20
FA
EC
F0
E8
D9
DE
E5
D5
DA
F0
E2
EA
E5
CA
D7
F1
DC
E5
0B
1E
12
1E
38
29
15
25
1E
10
26
1A
21
45
31
15
2E
21
12
2C
1E
24
49
37
15
2E
22
17
23
18
1B
43
32
16
2F
20
11
1B
14
1B
45
30
17
30
1D
ED
DB
E7
DE
C6
D4
E7
D4
DE
EB
D8
DF
EA
D7
E2
F5
E8
F1
14
2C
20
23
4B
35
12
2C
22
EF
DF
EC
E2
C9
DB
E9
D5
E2
F2
DE
E7
E1
C9
D8
E8
D5
E4
F3
EB
EF
E8
D3
DC
F0
DD
E2
E8
E1
E6
E3
D0
D8
F2
D9
E1
13
30
21
28
59
41
1A
38
27
12
2D
1E
1F
42
2F
17
2D
22
0F
2F
21
27
4C
3A
1B
36
27
F5
ED
F1
E7
D0
D9
ED
D5
DD
19
28
20
1F
4E
3A
17
34
25
F3
E2
EB
EA
CF
DF
ED
DE
E8
0F
27
1B
22
41
2F
13
2C
21
E1
F5
2C
E5
ED
34
DF
F2
38
0E
26
18
24
3F
2F
1C
2E
22
EA
EC
E9
E3
DC
E0
EC
D8
E1
EE
E3
E9
E1
C1
D5
EB
D0
DF
14
2B
20
24
48
34
16
27
1E
10
F9
C3
38
00
81
3C
06
A9
10
27
1B
21
47
38
17
35
29
14
29
1F
23
4A
38
1B
35
2B
0F
19
14
F2
E0
E4
D4
A7
B5
0B
20
18
1C
3D
2B
1B
3C
2B
14
1C
18
1C
47
34
1C
3B
2D
F5
E7
EF
E7
CD
D9
E8
D3
DF
12
23
19
22
42
31
15
2F
23
0C
1E
1B
22
51
3C
1C
42
30
0E
21
15
24
45
30
1B
30
1E
EC
E1
E5
DE
C3
D0
E8
D7
E2
15
23
1E
25
41
34
1A
34
28
E5
D6
E3
DC
C2
D1
F1
D5
E4
12
23
17
1A
3C
2C
12
27
1C
12
22
19
20
44
31
14
31
23
F0
E1
E9
E3
C3
D1
EB
D4
DF
E9
D8
E0
DE
D3
D9
EE
E8
EA
0E
28
17
25
56
3C
1B
3B
2C
10
24
18
1D
4A
36
15
35
2B
17
2A
1C
26
47
36
19
32
26
F0
DF
E5
E7
CF
DA
F0
DF
E5
0F
24
18
25
4A
32
1A
31
20
F2
E1
EB
E0
C5
D9
EA
D7
E2
FC
09
04
13
2B
24
1A
37
2C
EE
DA
E5
E1
C9
D5
EE
DC
E6
0E
21
1A
23
4E
36
18
38
29
12
24
1C
20
47
34
13
2D
24
EF
DE
E9
E2
C8
DA
E8
D5
E5
0F
25
1C
1E
4A
3C
15
38
27
ED
DA
E9
DF
BF
D2
E9
D3
DF
0E
1F
17
1A
3B
2A
11
2D
20
E1
E6
F0
DA
EB
F6
D8
EA
F8
14
2A
20
24
49
3B
1B
35
28
F0
E0
DF
E8
D8
DF
F0
E3
E2
ED
E2
E7
E8
CF
DF
F0
DE
E7
F1
E4
E7
E6
D6
D7
E9
D8
E2
0E
1F
16
20
4A
34
1B
36
27
F3
E4
E8
EB
D9
DF
ED
E1
E3
EC
E3
E6
E0
D2
D6
E7
D2
DF
F5
E5
ED
E6
CC
DB
EC
D9
E4
FE
03
03
01
08
07
04
08
09
0D
21
17
23
41
2E
1D
35
26
14
26
1B
26
56
3D
19
3D
2B
10
23
16
1F
4B
34
19
31
25
F4
E5
EE
E5
C7
D9
EF
D6
E0
1B
27
1E
29
45
33
1D
35
29
17
2A
21
26
4B
35
19
31
23
F2
DF
E9
E0
C6
D5
E9
DB
E5
13
2A
1D
26
4F
37
1A
34
22
EF
E2
E8
E0
CA
D8
E9
D9
E9
EF
DE
E7
E3
CB
D9
EE
DA
E2
F2
E1
E7
E3
C6
D3
EA
D2
DF
20
49
3A
3A
5A
45
30
43
3A
08
1D
17
1B
3E
2B
14
26
1E
0B
1D
15
1D
46
36
1A
37
28
ED
DD
EC
DD
C1
D8
EA
D9
E8
16
2D
1D
21
4A
39
13
30
26
0F
1F
14
1D
3E
2C
16
30
23
DF
D6
DD
D4
E0
D6
E2
DB
E0
F1
DC
EB
DF
C2
D5
E9
DA
E4
0D
25
1C
22
44
32
17
29
21
14
2A
1D
26
42
30
1A
2F
22
12
28
1B
26
54
37
19
37
24
16
2D
1D
26
50
39
17
34
27
10
29
1E
24
51
39
16
33
21
11
2B
1E
1D
50
3B
17
31
24
F1
DD
EB
E2
CD
DB
EF
DB
E4
16
29
1B
21
48
32
19
2C
1F
0D
1C
14
20
42
2E
16
35
24
0E
FE
F4
FB
DD
E0
1D
5C
46
3B
5A
46
FF
06
03
CD
A8
B8
10
27
1B
21
3D
2F
18
2D
23
12
2A
20
29
4C
35
1A
32
1F
10
1B
0E
1D
39
23
0F
2B
1A
10
21
15
23
42
2E
19
2E
22
EA
DC
E2
E0
C9
D9
F0
DD
E7
28
1A
05
34
2D
13
2B
1A
08
13
20
17
1D
45
32
13
33
23
F5
E7
E7
E8
D3
DC
E7
D2
DA
0D
21
14
1E
45
30
11
31
23
14
28
19
20
46
30
0F
2D
1F
0F
22
18
21
48
31
18
2D
24
EC
D1
DA
E3
C7
D1
EE
E2
E6
F2
E0
E9
E3
C7
D3
EA
DB
E3
0E
26
1C
1F
4C
38
14
30
22
F3
E4
EE
E7
C6
D7
EF
D5
E4
EE
E3
EA
E3
CA
D8
EC
D9
E5
ED
DC
E8
E8
DC
DF
EB
DF
E7
F3
E5
E8
E5
D8
D8
EE
DF
E5
0F
20
16
1C
45
33
18
33
28
0D
20
15
1C
43
31
15
32
25
0A
17
12
19
3C
2F
15
2C
24
16
2A
1D
25
47
33
14
30
20
F8
E9
F1
E5
CB
DC
E7
D5
E3
F2
E2
EA
E5
D1
DB
EC
D7
E4
E9
DD
E3
DF
CA
D7
EE
DC
E6
EC
DA
DD
E6
D8
DD
EC
E6
E8
EF
E7
EE
E6
D5
DA
EC
E0
E1
F1
E7
F0
E6
D2
DD
ED
D9
E3
0F
20
16
24
48
32
1B
35
22
ED
E2
E5
E1
D0
DA
F0
DA
E4
0C
25
1A
20
45
2F
13
2C
1E
0F
23
17
21
49
33
16
34
25
EE
E1
E8
E4
CA
D5
EF
DB
E7
11
21
16
1E
44
33
13
31
25
15
27
16
1F
44
31
17
2D
23
F9
E8
EC
E4
CC
D7
EB
D1
D9
15
FC
0C
05
45
37
18
30
20
0E
23
18
21
40
30
15
2D
24
0E
22
19
1C
4F
3B
11
37
27
0B
1C
15
1C
44
2F
18
33
25
F5
E7
EE
E9
D3
DA
EB
D9
E4
F1
E2
EB
E0
C6
D6
E9
D9
E4
13
29
1E
20
49
32
14
2E
22
17
1E
1E
25
46
33
1B
36
29
12
24
19
1E
43
32
15
30
21
0C
18
12
1F
49
31
15
38
2A
17
2D
23
22
56
3F
1B
3A
2B
14
29
21
1D
3B
2D
11
25
1C
18
28
1A
21
45
32
15
2F
20
07
10
0B
1A
36
28
1E
36
23
14
30
22
27
4F
3A
1D
35
27
0D
1A
0E
18
42
31
16
35
27
15
31
22
2B
5D
44
1B
3D
2C
0E
21
16
1F
44
31
18
32
23
14
2C
20
24
48
34
14
2F
24
1A
32
20
24
44
31
16
24
1C
0F
26
19
1E
42
33
16
2C
22
F3
E6
EE
EB
D6
E0
EB
DC
E6
10
26
1B
1F
46
32
12
2C
22
11
28
1A
21
43
32
13
29
1E
1A
34
22
25
46
30
13
2A
1B
0A
13
0C
1F
49
35
1B
3F
2C
F0
DF
E9
E2
C4
D7
EA
D6
E4
0F
26
1C
26
56
3D
1B
3C
2C
0C
1C
15
1C
40
2F
15
2E
21
0E
20
18
22
41
2E
14
2D
23
10
23
18
1F
42
2D
14
2B
1E
DB
C8
CB
18
37
2A
FF
05
03
16
2B
21
1D
47
32
13
2A
1B
10
17
13
18
4C
3B
19
3D
2C
EF
E2
EB
E5
D6
E0
EC
DE
E7
EF
E2
ED
E2
C6
D6
EB
D8
DF
13
1C
15
19
38
30
18
31
29
0B
21
19
20
48
35
18
36
24
19
2F
22
26
4C
39
14
32
24
28
4E
3D
13
1D
1E
04
F6
01
EE
CE
D2
12
0F
04
2A
40
33
0E
23
25
1D
32
29
0D
21
10
15
29
20
24
4B
39
1B
37
2A
F1
D7
E6
E3
D2
DD
EB
D8
E3
17
20
16
1C
39
2C
13
2B
1B
F6
EB
F3
E9
CE
D8
EC
D5
E3
0B
17
12
1E
42
32
1A
3C
2E
0E
21
1C
1E
41
31
13
29
1F
11
20
19
1F
3E
2C
13
2B
1E
0A
22
15
18
42
31
14
32
27
F1
E1
EC
E2
C5
D5
EC
D9
E2
14
29
23
1E
44
34
16
2F
25
F3
0D
F8
CB
2F
FE
D3
2D
F7
0F
24
1B
1E
44
32
15
33
24
17
2F
22
27
42
2F
1D
35
28
11
24
18
20
4D
3B
16
37
2A
12
24
1A
1E
45
33
18
36
29
17
2F
22
25
45
33
15
29
1E
F1
E5
F0
E4
D2
DF
ED
E0
E7
10
20
15
1E
43
2E
18
32
24
EB
E1
E9
E3
D4
E0
F4
E2
E8
EF
E3
1B
E1
D8
2F
E7
E9
37
10
22
17
1F
47
32
17
32
24
F0
E2
EA
E2
D1
DA
EC
DE
E7
E9
DD
DE
DD
D9
D9
E9
DD
E3
0B
1F
16
21
42
31
19
33
23
15
24
1D
1F
46
37
1C
37
26
ED
E1
E6
E5
CF
DE
F0
E1
E6
F7
EC
EF
EA
D2
DC
E2
D0
D7
EB
E0
E6
E0
CB
D3
EE
DA
DE
F4
F6
F2
DA
E5
D2
E4
EB
CE
F0
E2
EC
E6
D0
D7
EB
DA
E1
18
27
1E
26
4E
39
19
36
26
F4
E3
E8
E0
BC
D4
ED
D3
E2
F6
EB
F0
EC
DC
E0
EB
D5
DF
13
29
1C
22
48
36
15
31
27
F3
DF
E8
E3
C3
D3
EB
D2
E1
13
28
1C
23
49
33
17
2D
22
0E
2C
23
1F
44
33
11
2C
21
0F
25
1B
22
44
31
17
32
24
EB
DD
E2
DF
CC
D7
E6
DA
E3
F1
E1
EA
E3
C8
D7
EA
D8
E1
14
2B
1C
24
47
31
14
2E
20
15
24
19
1E
3D
30
14
2B
1D
08
FD
FB
F1
D8
D6
EA
B1
BD
F8
E3
E8
EB
C9
D8
ED
D8
E0
EF
DE
E7
DE
C5
D9
E9
D7
E3
13
2C
22
22
47
34
11
2C
1E
EF
E3
EB
DD
C5
D4
E8
D4
E1
EC
DD
E8
E2
D0
DD
EA
DD
EA
ED
E1
E5
E2
D2
DD
E8
DD
DD
F8
E6
EB
E2
C8
D6
ED
DB
E5
10
26
1C
1E
4F
3D
16
36
2A
F5
E8
ED
E2
C3
D2
ED
CC
DC
EB
D1
DA
DF
D2
DB
EB
E0
E7
F1
E1
E7
E4
C7
D1
EC
D8
E0
0E
1E
15
1B
3B
28
10
28
1C
EC
E2
E3
E4
D2
D9
EF
E1
E7
EE
E2
EB
E2
C9
D4
ED
DA
E4
16
24
1C
1F
48
37
15
34
22
F0
DF
ED
E5
BF
D2
EA
D1
DD
11
24
1B
27
4A
35
1A
34
25
F1
E1
EB
E7
D2
DB
EE
E2
E9
0B
1E
17
1D
3C
32
1B
3B
31
F2
E7
F0
E4
C5
DB
ED
D4
E5
1A
2B
1F
2A
52
3A
1F
39
2B
EE
DC
E4
E2
C7
D5
ED
DC
EB
F4
E3
EC
E7
C3
D2
E9
D2
DE
12
26
1D
21
43
2E
12
2E
1E
F5
E3
EA
E9
CF
DA
EF
D6
DF
12
2F
1F
1F
46
33
15
27
20
EF
DF
EA
E5
C1
D1
EC
D5
E4
EC
DD
E5
E1
C5
D4
E9
DB
E6
43
0B
E3
66
FC
C6
52
0C
DA
14
29
1F
21
4C
34
14
32
22
F0
E7
EC
E7
C5
D1
EC
D4
DF
10
27
1B
20
46
33
14
32
26
F1
E1
EC
E5
C5
D5
EE
D5
E1
12
20
19
20
46
36
17
38
2B
14
2D
23
25
46
34
12
25
1E
1F
35
20
33
4F
31
20
35
21
10
1C
10
21
45
2F
18
33
26
13
27
20
28
43
31
1B
2E
1E
F4
E3
E9
E5
C7
D7
EC
D8
E3
F3
E4
EB
E2
C0
D1
EB
CE
DC
F2
E1
EB
E3
C9
D6
EE
D7
E1
1A
2A
1E
21
48
36
14
2F
28
EB
38
27
16
4F
42
1D
42
32
F2
DD
E8
DF
BB
CC
E3
CB
D8
ED
E3
EA
E8
D0
DA
EF
DD
E3
F6
E5
EB
E2
C8
D9
E7
D0
E0
1B
31
20
28
55
3F
19
38
25
0F
21
1C
20
42
35
16
2E
22
10
25
19
23
50
36
18
34
26
09
1C
15
1C
3C
2C
14
2F
24
1D
28
1D
2C
4B
33
20
32
21
F6
E2
EA
E2
BD
D0
EC
D2
DE
FC
C1
CC
07
4C
3B
F9
08
07
13
26
1C
22
4D
38
16
31
22
EC
DE
E6
E3
C9
D8
ED
D5
E2
12
26
1E
21
4A
37
19
34
24
EE
DF
E6
E6
CE
D3
E8
D4
DA
12
24
16
20
49
35
17
34
27
F5
DF
EA
E6
CD
D6
EF
DC
E3
E7
DE
E2
DB
CE
D5
E7
D7
E0
14
2E
25
27
48
34
16
34
28
F1
E1
EA
E3
C9
D5
E9
D7
E1
12
29
1D
23
4C
39
18
34
26
EF
DD
E6
DE
C3
D5
E9
D2
E0
10
27
1A
23
4B
34
1A
38
27
14
28
1D
27
44
2F
18
31
21
F3
DF
EA
E6
CA
D5
E7
DA
E4
12
24
1E
26
4E
3D
1A
38
27
12
28
1C
24
4F
39
17
37
2A
0C
20
16
1D
47
34
16
37
25
0C
22
19
17
3C
2F
0F
2C
25
EB
D8
E1
DC
C1
CE
E7
D2
DD
EC
DA
E6
DF
C2
D4
EA
D7
E1
F5
E4
ED
E8
CB
DA
ED
D6
E1
12
22
19
27
4A
32
1C
37
25
EA
DA
DF
E1
D2
D3
F0
DE
E3
08
17
13
1A
3F
32
17
2F
24
E8
D7
E3
E3
C9
D6
EA
D7
E2
13
29
1D
23
4F
3B
1C
38
27
1B
2A
1E
19
45
34
19
2C
1D
17
2B
1F
1A
4D
3B
1D
39
28
10
26
1C
1C
41
30
10
2A
1E
F7
71
48
56
66
37
0D
FF
1A
F2
E1
EA
E2
D1
DD
F1
E1
ED
13
29
1D
21
48
31
16
32
20
EC
DE
E4
E2
CE
D9
ED
DD
E6
10
20
18
22
40
2F
16
2D
24
FE
0C
0C
F7
03
0C
F9
F7
0B
F1
DF
EA
E1
C5
D6
E9
D4
E1
F1
E9
EB
E4
DA
DF
EC
DF
E1
0C
27
19
1C
4A
35
15
31
24
F1
E4
ED
E6
C9
D7
EC
D5
DD
0F
25
1B
1C
40
2C
13
2C
20
11
28
1D
26
48
34
18
33
26
28
47
35
26
3C
27
02
F8
F9
13
29
1C
21
3C
2F
14
26
1C
F3
DC
E3
E5
C4
D2
EF
D0
DD
F4
E4
EB
E7
CC
D9
EE
D9
E1
10
29
19
23
47
31
14
30
23
EF
DF
E9
E2
CD
DD
ED
DE
EC
F4
DA
E5
E6
BE
D3
ED
DA
E6
0E
1F
18
1A
46
34
14
32
24
EF
DF
E6
E1
C3
D3
ED
D6
E1
E7
D9
E3
E1
C3
D6
F1
DE
E5
13
29
1C
25
42
33
17
30
24
15
1A
13
27
4C
3A
20
45
32
0B
1F
12
21
45
2E
15
31
24
F3
DF
E9
E8
D5
DC
ED
D8
E1
F2
E0
EC
E2
CD
D7
EA
DD
E1
11
24
1A
23
4B
38
1C
3A
2A
EE
E3
E5
E9
DE
DC
EA
DD
DF
F4
E4
EA
E9
CF
DA
EE
DA
E0
0F
2C
1F
24
47
33
16
28
1F
F3
E2
E7
E8
CB
DA
ED
D9
E4
EE
DB
E7
E3
BD
CE
EC
D1
E4
11
20
15
21
40
2D
16
2F
21
0A
19
10
20
3B
2D
1A
31
25
F3
E2
E8
E7
D4
D8
ED
D6
E0
0F
24
1B
23
4A
34
18
32
26
ED
E1
E9
EA
D7
DC
EB
DC
E0
