02
01
F1
2E
26
B5
FD
FD
DF
0B
4B
1B
04
C5
FC
FD
F3
F7
FB
01
FB
08
35
16
FB
13
02
03
FD
00
F1
DD
DE
F2
00
F1
07
06
04
05
36
10
07
0B
05
F8
F9
F5
F6
E9
ED
F6
ED
F5
FE
C4
F3
ED
54
05
FB
1E
05
F2
F8
F5
FF
D7
F2
ED
F8
F3
01
0D
05
13
C0
F6
01
E8
F1
0B
21
0F
FE
DA
F6
F7
CF
ED
FD
07
FE
07
AD
FD
04
F7
04
05
F0
E3
ED
EE
F2
EC
EC
05
FB
EE
F4
F1
FA
F3
F9
F3
F8
00
03
12
FA
EB
2A
04
15
1B
0C
2D
14
18
E0
1C
FC
EA
FC
FF
F7
FA
1F
3A
F4
F9
F1
FD
06
06
05
FF
42
10
01
F9
FD
04
F0
02
ED
5E
FF
01
0A
05
00
F5
E9
1F
20
B3
08
04
EC
F3
F7
08
D4
10
34
F1
02
20
03
FF
04
01
35
0B
04
11
08
FF
00
FF
FA
43
08
FD
09
FF
0D
14
D4
F3
30
1F
07
F2
0D
F5
F6
F2
F6
F2
F2
F6
F9
F1
0A
F0
06
05
45
15
09
E7
00
01
13
F8
13
5F
12
F6
17
02
01
3A
07
FF
F2
FA
FE
F9
FC
08
FD
05
FD
3D
0B
06
09
07
FB
EF
F9
EB
F0
E8
FA
EF
F8
FE
F5
05
EF
12
3B
01
F6
01
08
E5
07
10
D6
12
0B
DF
08
EE
F4
12
F9
EA
60
F4
E4
10
FF
01
FF
FF
3D
0B
FE
07
FE
FD
15
01
20
A1
0A
FE
20
05
02
F8
02
02
34
0C
01
0F
04
FF
FB
02
EC
C8
E4
F9
FD
F9
FE
F6
F8
FE
4C
0E
FD
11
FF
D8
05
2A
C2
F9
2F
FE
F9
F2
00
01
03
FD
37
0D
04
14
09
0E
FD
0C
04
2F
0E
02
10
04
04
F9
00
F9
4A
0A
FF
04
FF
E0
FA
04
CD
1D
26
E8
FF
07
00
FA
FF
F5
CF
E8
03
4F
0D
F9
F1
F1
02
E3
F4
F7
F9
F6
FA
E5
FC
DC
7A
00
F9
F5
FF
E9
C0
E0
F8
1A
FE
05
05
02
03
07
00
01
39
09
05
FB
05
F0
D0
E9
EF
23
F4
F6
F5
F8
F6
F1
EC
03
F1
E9
F6
F1
EF
08
00
07
0B
27
0E
07
12
0A
02
F7
01
E8
61
F8
00
EE
FF
05
28
12
F3
3A
FA
01
E6
FC
02
F8
F8
00
08
35
02
FB
19
03
0F
04
FF
3D
0B
04
07
05
04
08
05
FB
2F
0A
05
05
03
FF
FC
F9
12
BA
F7
FE
ED
F5
FC
E2
F3
FD
44
0C
00
F1
FC
04
FC
05
F8
4A
0C
02
0D
06
15
F7
F7
4B
F2
00
19
EC
F9
02
F5
FD
0D
BD
FF
06
EC
04
06
FC
04
FC
3B
0E
02
10
07
F6
F2
F0
01
E4
F8
FA
E8
F5
FD
04
FE
03
CC
F2
F9
ED
F7
F9
1D
14
DD
40
0D
EF
D9
EF
02
04
03
02
40
0D
02
0B
04
06
FC
FA
36
19
CA
24
E2
EA
0E
4B
1F
F3
05
F4
03
FA
02
FE
EB
FA
FB
E5
F0
07
52
12
02
02
03
FC
3D
0A
03
0E
09
05
EE
02
FD
BD
EC
03
E8
FF
FD
08
0B
2F
0E
FB
14
06
00
FC
F9
09
FD
52
0E
07
07
03
01
04
01
FC
AD
F2
FD
FB
FC
F6
F1
F1
FC
E4
FB
F0
E5
EB
EE
02
EF
04
D5
F6
F0
FC
F2
F8
09
FA
F8
08
F9
01
3F
0F
10
15
05
FC
18
1D
02
00
19
04
FE
04
FB
3F
0B
03
12
0A
F9
EC
F4
F8
D4
E7
FC
0F
00
03
F9
00
FF
34
13
FB
14
FF
01
FE
02
FC
3A
0A
08
0F
0C
FD
02
06
04
4D
18
0B
07
FD
0B
F8
01
14
2E
F1
D2
1E
0A
0B
18
02
1A
1D
E0
12
16
08
FF
E4
FE
FA
3D
11
FD
15
04
FF
FD
02
FA
3F
0E
FF
03
00
EF
FA
EC
FA
F4
FA
F0
FF
EF
F7
F6
F6
F9
EC
F5
F0
EC
F0
01
FD
04
04
40
1B
01
17
0A
FF
FD
FD
F8
4A
06
00
10
07
FC
06
FD
12
31
03
07
04
04
05
FC
03
FB
48
0D
03
03
06
FC
F8
FB
F8
4B
0A
FF
09
FF
05
12
08
F6
4E
06
FD
E9
F7
FF
07
0D
F6
4B
14
08
FC
FC
F6
EA
ED
E8
06
EC
EE
E8
E8
10
ED
FD
46
0B
C6
FA
08
FC
08
F0
05
09
F3
01
0E
37
16
04
F2
02
FC
49
08
03
0E
05
FF
FA
00
F7
4D
0B
FF
05
FE
04
F9
03
01
43
09
06
FD
03
08
42
11
FE
D1
F3
01
EC
F8
FE
FA
FE
EF
F1
ED
F0
F3
F0
F8
F3
FF
F4
D7
F2
00
F2
F1
02
0D
08
FF
39
07
FB
FB
FC
FA
F0
F8
F5
D7
E8
F8
ED
F8
F7
EC
F8
F4
E3
F0
FE
EF
F8
07
0A
07
FD
51
0B
05
FE
05
FF
FB
00
FE
4B
12
02
0B
08
FE
F3
FB
F8
E3
F3
F9
F1
F8
FC
0E
01
F4
CA
F1
00
ED
FB
07
F3
05
F7
3B
01
09
08
0B
08
F4
08
F6
9E
DF
00
EB
0C
00
22
09
13
C8
E9
01
EE
F5
04
0D
04
0C
5C
14
FE
14
FE
F3
E9
E8
FE
D5
F0
0D
49
24
05
F7
03
F6
60
07
06
07
00
F7
FF
F5
F7
E9
F3
F3
F0
EE
04
F1
01
DF
D7
DC
FF
1D
07
06
F9
F1
2F
F3
D3
0D
13
FF
E3
FE
17
1E
35
FB
09
F3
01
FD
EC
F6
F4
D8
ED
F9
F4
F8
FB
EE
F9
F8
CB
F4
FF
ED
FA
04
FE
FD
FB
47
08
F8
0F
FC
F9
C5
ED
E4
5D
FC
F5
22
FD
09
0B
FC
32
C9
F8
11
F3
01
02
2D
09
00
CC
F3
F4
EE
F3
26
01
F8
4B
0F
CB
FC
DF
FB
0D
01
FB
29
DD
00
21
09
F9
FE
00
FD
04
C1
F3
FE
F0
FA
0F
0B
0E
21
C9
19
09
18
10
FE
F6
01
FF
3D
12
02
17
06
03
F8
FE
FC
39
0E
03
0C
07
EC
F0
FE
C6
2C
2B
F2
03
05
F5
01
F6
F2
EC
EF
F9
E7
EF
04
FC
F5
5D
28
98
10
F7
FC
0C
1F
0E
09
D5
F5
FE
E9
F3
FF
FF
FD
FB
D1
EE
F9
F1
F5
00
01
03
F8
49
0D
FF
FF
FE
01
FC
05
FB
45
10
00
04
02
F8
F5
F6
F6
F3
F3
F5
F1
EE
F4
F7
F0
F1
F8
F2
F3
F6
EF
FF
F5
FA
F5
4F
0C
FE
12
FE
05
FD
07
00
43
0F
03
0C
00
E5
ED
05
F2
E9
ED
0A
F1
E5
00
4E
08
0F
E8
00
F6
D5
F0
01
F5
FD
F3
67
03
04
FE
00
02
F8
0E
F6
24
1B
07
0D
11
05
0C
0A
09
36
1C
FB
F3
FC
F8
F1
F8
F8
5D
0D
FE
0D
02
F9
FD
F0
F5
E8
F0
FB
EE
F8
FE
EB
F8
FF
26
08
09
27
13
F9
F1
F8
F7
E9
F0
F7
F7
F7
08
FC
07
FA
3E
0C
01
05
03
08
00
00
0E
13
35
09
01
0D
08
00
FD
05
4F
F5
FC
03
03
04
E9
08
20
B7
22
05
F5
08
03
EE
F9
F6
C2
EC
FF
E4
FF
FB
F3
FC
E9
F2
E6
FE
EB
FC
03
F5
03
00
BA
F5
05
EC
FF
0C
F5
FD
48
F0
F4
14
EA
FE
FF
FD
02
FE
BB
F7
01
F6
01
0C
0B
01
19
33
EF
FF
EF
00
FD
04
FF
00
C0
F3
FB
E7
F8
F2
E4
10
DF
E4
30
ED
F1
0D
01
F0
FE
FB
59
04
07
FB
F2
00
F3
01
F4
4B
08
02
0B
05
03
01
FB
3B
29
A0
16
07
DD
FE
0E
00
FA
57
09
06
FE
04
FA
EB
F4
EF
F0
F0
F9
EE
F7
04
FC
06
05
45
14
02
F0
FE
02
F2
01
F3
60
03
02
03
03
00
FA
FE
F4
54
07
02
FE
03
FA
F6
F7
ED
14
EA
F3
E6
EC
F7
F4
F6
F4
F2
F2
F4
F7
EC
08
F2
05
F7
32
02
01
18
06
03
25
0A
14
A4
FC
FE
EA
F7
07
08
07
F3
E0
E7
10
47
1A
01
FB
02
FB
4C
08
03
02
03
02
22
19
1F
0C
E8
1D
F2
FD
FF
F8
FD
FB
41
0B
02
09
08
02
F6
03
DC
0B
2F
F0
ED
33
F9
EA
F4
F3
EC
F1
F4
F2
F4
FD
F4
00
F0
BA
EA
02
EC
FE
FF
07
01
0B
2E
16
FF
0D
FD
00
F6
FE
F2
58
FF
FC
0A
FB
0B
2B
17
04
EF
00
FF
00
FF
03
F4
02
00
3F
0D
02
10
07
FB
F3
F6
FA
3C
0E
05
22
0B
00
FA
FF
FB
39
09
04
0A
04
01
F6
FE
F4
4C
02
08
0B
09
FB
F2
04
E4
6B
11
FC
04
06
F5
FF
FA
FB
F4
F8
F2
F4
EA
FF
02
FE
0F
30
1A
FE
14
09
F7
FC
F7
FF
DD
F0
F7
EF
F7
FE
F3
FC
F9
50
09
00
09
00
FC
FF
FD
F8
D4
EB
FA
EB
F3
F4
F9
F5
F7
E6
EE
F3
F2
EE
03
FB
01
FD
3F
17
01
13
06
FC
05
FB
FE
C2
F3
FA
F1
F7
F8
F8
F6
FA
E7
F5
F2
F9
F3
F2
E1
ED
F8
E1
EE
11
36
17
F4
FE
F9
EE
F9
EF
F1
EE
EF
01
B9
F5
02
34
0F
FD
14
01
04
FC
0C
00
4D
01
06
14
FD
08
18
0C
0B
1D
10
05
E1
FF
0C
F3
EB
3B
1D
AF
23
0D
EA
16
22
1C
13
96
FA
0B
F9
0B
03
F2
00
F1
61
04
FF
04
FE
03
F9
02
02
2D
0E
01
19
0A
02
FD
04
F7
40
0A
04
02
FF
FC
06
FD
09
43
13
FE
16
02
08
0A
02
2D
1A
E8
11
FD
06
FE
FA
FE
F7
4E
10
FF
FE
04
F6
FB
F7
02
DE
FA
F0
FD
F0
F5
ED
F1
F1
EF
E9
F5
FE
F6
F5
03
08
D3
67
0E
EB
E6
F5
04
18
08
FF
2B
07
FD
EE
F7
EE
0A
01
D3
2B
08
E0
1E
FF
02
03
04
FE
4C
0F
FD
FC
FF
F9
D1
F3
DA
7F
00
FF
05
06
FD
F9
FB
FA
4C
0A
03
0E
03
07
F7
01
FB
5B
11
06
07
05
F6
E7
F5
ED
49
09
F6
11
08
01
E7
FA
FD
61
11
04
E4
F6
F2
02
F4
FB
DD
F2
F0
F6
F4
04
FB
02
FA
43
12
03
08
05
F0
F4
F8
ED
F2
F8
ED
F3
FD
01
FE
02
FB
3D
0C
FD
07
00
FB
FE
F9
FE
3A
0E
FB
14
FD
04
FE
01
FB
41
0B
07
03
05
07
EC
01
F1
50
06
03
05
04
00
F7
FD
02
C8
F5
FD
EE
FD
02
0B
03
03
30
11
01
0E
FE
F8
15
03
ED
31
F4
DD
D0
E1
FC
F3
FA
E0
65
E2
05
EB
FB
00
2E
09
0A
26
10
05
EE
FF
06
10
08
08
51
15
06
10
06
07
08
0A
E1
C1
D3
08
E2
0F
06
05
03
01
43
11
00
05
0D
F9
F8
FD
08
41
12
FD
04
02
FF
08
00
F1
44
FE
FD
0C
02
FE
09
05
FA
41
08
05
F7
04
18
2F
1E
10
CC
F2
05
F2
F6
EC
EF
E9
F7
DC
EF
FC
02
FD
00
DE
FA
E9
57
07
01
0C
0B
FC
12
FF
FA
CF
F0
FA
F1
F5
02
FD
02
F8
5A
08
02
ED
FF
F6
06
F8
EF
E2
EA
EB
F7
ED
F3
FA
ED
F8
EF
F1
F4
F4
F7
01
07
FB
FA
49
E7
01
13
F3
09
FE
08
04
3D
11
0A
06
0A
F3
C8
F3
ED
56
03
F9
22
0C
FC
F3
F6
F4
DF
F1
F6
F5
F6
F2
03
F2
FE
E4
F9
F8
FA
F6
02
F5
FF
F8
5D
04
04
06
05
FE
F5
FF
F9
44
0E
02
09
08
FB
F3
F8
F2
F5
F0
F6
EC
F4
E5
17
08
08
3A
EF
0A
FD
05
1B
F8
F1
FF
41
F3
F0
F8
20
01
F2
FF
F4
48
0D
01
0C
02
03
FC
04
F7
4E
0C
FD
F6
FA
FF
F0
02
E1
77
FD
FE
E6
F9
01
05
03
04
43
12
00
0E
03
11
FF
EE
29
DB
E3
0F
13
F2
06
20
0C
00
29
0B
00
F6
FB
FF
F1
FD
F3
E4
EB
F8
EE
F5
0E
46
1A
05
DC
FC
02
E2
FA
09
F7
04
F1
BE
E9
04
E8
FE
F5
F5
ED
01
EA
EA
05
F0
E4
00
00
FF
EE
E4
E9
F2
FB
F1
F7
EF
F5
F6
ED
F5
F1
ED
F1
00
FC
00
FE
3D
0B
FE
04
00
04
F2
04
E5
6F
02
02
FB
FF
F2
F9
EE
FB
F0
F6
F6
EC
F3
FC
E5
F1
ED
32
08
FE
38
10
06
FA
01
01
3A
13
03
0F
05
EA
CA
F6
F7
E7
F3
1C
53
17
F4
F3
F1
F2
FA
F0
F7
F4
F4
FD
F5
FC
04
40
0D
02
13
04
01
08
06
F8
53
05
FC
FB
FA
01
05
04
07
34
17
02
13
07
09
09
0C
F4
51
01
FD
EC
F8
05
0F
00
06
59
1B
03
12
03
07
0B
FE
FE
4A
FA
FB
F9
07
01
FA
FF
FE
4A
0B
01
0C
01
FF
F4
FC
FE
3C
07
01
04
02
EE
DD
E9
FC
DE
FC
01
0E
04
01
F7
01
FE
42
0B
06
0C
09
08
00
07
01
3C
0F
02
FC
01
FD
F4
F7
F7
E6
F0
FD
E6
F8
F7
C2
DF
00
14
0C
FB
FD
FC
FC
F9
FD
F1
53
0C
FA
08
01
0D
F8
F7
45
D5
E6
0E
01
F4
FF
E5
0D
20
28
E8
21
0F
F2
F0
07
0C
D0
1D
18
EC
05
0F
FE
06
FE
01
48
10
03
08
00
FC
04
FD
03
C5
F8
06
3B
13
0B
12
10
1E
D1
14
0E
02
0F
FE
FE
02
F8
49
0B
02
0F
09
FE
EF
FC
F1
5E
05
FD
08
03
EC
DF
EB
FB
33
0E
01
0E
04
05
FB
01
01
43
0A
06
06
02
0B
19
00
00
41
01
FD
05
05
F2
F2
EE
F0
FE
F2
F1
F5
F1
11
ED
E7
20
32
CF
19
FB
EB
00
F5
00
03
37
0F
02
1E
05
02
F2
FE
00
3A
09
05
0E
08
0F
1D
11
FF
15
04
0F
0D
11
00
04
02
04
39
11
02
03
01
0A
04
01
FC
4B
0A
FE
0E
0A
F3
D6
EC
FA
E5
F9
17
43
19
FA
EE
18
F4
3D
08
1D
05
EA
09
DC
07
02
AC
FD
0A
E4
07
03
EE
03
F1
5A
0A
01
0E
07
00
F5
01
F5
69
08
02
02
03
06
2A
0D
0D
15
11
FC
F4
FB
FC
06
FD
FE
E5
FA
FA
5D
06
FC
F8
FD
F1
CC
EE
FE
F3
FE
01
F8
FC
03
3A
13
03
0C
07
01
F9
0D
0A
4C
05
07
FC
FD
FC
F9
FE
FA
45
0E
00
0A
06
F4
F6
F3
EF
F8
EC
F5
EE
F1
08
FF
FD
FB
49
14
06
F9
01
FB
E8
F1
F3
FD
E8
F6
F2
F5
05
08
06
F1
37
07
FD
05
FB
04
F6
04
E4
7A
02
FF
E1
FB
F9
16
FC
0B
36
15
FC
07
FD
00
F5
F7
F6
CF
E7
F5
E4
F3
08
F8
04
F8
68
08
06
06
06
09
0D
0A
FA
41
09
FF
EA
F6
01
0F
03
F4
CD
37
EE
EF
01
09
05
08
01
34
09
06
12
09
FB
FC
FC
F1
EB
EB
ED
EF
F0
F5
F4
F6
F6
F3
F5
F5
F7
F1
FE
F7
FB
F9
C3
EC
FE
ED
FB
12
3A
17
F5
DD
F3
F9
0A
FA
FB
E9
FB
E6
6F
0E
FB
0A
08
FE
EB
FD
ED
68
03
FB
04
FD
FC
DF
FB
E7
60
02
00
0B
07
FD
F8
F6
F7
D7
ED
F5
EF
02
FF
F7
00
F7
DC
E9
FA
E8
F6
03
15
03
04
9E
FB
FF
17
03
08
E1
FF
DF
62
EF
02
F7
FC
FB
FB
FC
FD
36
0B
FD
0D
05
02
F9
04
FE
3F
0A
01
0B
03
FC
FB
F8
F1
D9
EE
FC
ED
F8
FE
FF
00
1D
B6
31
01
FB
05
FC
F0
F9
F5
E5
F0
F6
ED
F3
04
FA
0E
E0
6B
11
04
FD
05
F3
FA
0D
CD
E8
61
F1
FC
12
0C
09
01
0A
3F
08
FC
0E
19
F9
00
FB
05
D0
F5
FB
F7
F8
F6
25
FC
E9
46
EB
06
E5
07
EE
FB
EE
F4
D2
EF
0D
1F
1B
03
05
10
01
34
16
12
14
F7
07
16
0F
F5
3F
07
04
F1
FF
FD
F3
F9
F9
EB
F1
F7
F7
F4
01
EA
01
F1
50
0B
00
0B
08
F2
F7
F4
F1
F1
EC
FA
F3
F7
F8
F8
FA
FD
C8
EC
FF
F8
FB
02
05
06
F9
49
0C
05
0F
06
F4
11
0B
E1
F4
44
F9
D7
11
FE
F4
FE
0D
FE
0B
04
37
0E
0E
1F
14
1F
99
0A
0C
F9
09
03
01
03
04
34
12
01
0D
06
14
E3
EF
28
F3
E2
17
EC
E9
00
FA
FD
02
2C
0D
FF
0E
05
01
E3
FC
E1
7F
03
FC
02
FD
06
FA
02
FF
45
0F
04
09
05
02
EF
FD
FD
3D
0D
05
11
0A
00
FD
01
FD
40
0B
04
0E
01
FF
F9
03
F9
4D
03
03
03
06
03
F9
01
FD
42
08
02
10
03
FC
EF
FA
FA
DD
F1
08
5C
1A
E6
D9
F9
0E
F1
2C
10
18
FD
FB
EB
F9
FB
54
04
FD
FE
FD
F5
03
F8
F9
D2
F0
FA
F5
F4
F8
F0
F5
F4
F3
EE
F9
F6
F9
F9
F7
FD
06
D9
2B
FE
0B
1F
01
00
FD
0C
40
00
FF
FB
07
06
04
F7
05
4D
FF
03
09
0E
EB
F7
EA
00
EC
F7
E9
F7
E9
FF
F8
26
D1
0A
47
FC
E5
FE
