01
00
01
03
FE
01
01
FD
FF
01
FF
01
02
FD
00
01
FD
FF
FE
FE
FF
FF
FD
FF
FE
FD
FE
FB
FE
02
0B
21
04
F0
E8
FD
FA
05
00
17
40
09
E3
CC
F9
FF
FF
02
04
0F
00
FB
F3
00
F7
08
FF
DD
3F
E5
C6
4F
E6
F6
10
FC
B9
73
D2
A5
7F
D7
FE
FE
03
EF
20
F1
E8
25
F2
00
FC
07
05
11
E8
02
1B
E3
FF
FA
07
04
2D
CB
04
38
C3
FF
FE
02
04
07
FA
00
08
F5
FA
02
02
01
F9
FA
0A
F7
E6
02
03
FF
06
EE
EA
11
EE
D4
00
02
FD
FF
FB
FB
02
FB
F7
0E
0E
EB
0B
38
15
F2
35
39
01
F4
00
FD
EB
F3
FE
EF
F3
F4
FB
14
FD
DE
F6
0E
DF
D7
FE
FE
00
27
F4
EE
0B
F5
F9
FB
FF
02
4F
E9
D8
15
EB
F8
01
01
00
14
FA
F6
05
FC
FE
02
FE
F6
FF
07
13
FF
0D
1F
FE
F8
F0
01
10
20
01
1E
33
FF
FE
FC
00
01
09
02
06
0C
04
04
F5
F0
3B
D3
02
3E
C5
FD
0E
EE
F5
5D
B1
01
5A
AC
04
FF
FF
F6
22
E4
01
22
DF
00
00
00
00
00
00
00
00
00
00
00
00
00
00
00
00
00
00
00
00
00
00
00
00
00
00
00
FB
F1
F8
EC
EA
F8
02
FF
FA
15
19
19
05
0D
17
16
1D
10
02
F3
EB
EB
E3
E6
FC
FA
F1
F8
02
05
03
08
FE
F8
1A
14
00
05
FF
01
0C
FB
F5
25
25
FF
00
00
02
02
FD
F6
0F
0B
F2
E5
F9
15
1C
07
FC
FC
02
E5
C8
EE
2B
38
0E
F6
F7
FF
FB
F5
FD
09
0C
02
FE
FE
02
29
02
01
07
FA
00
02
00
FE
32
07
04
01
FC
05
FC
00
FD
17
F9
FC
F4
F9
00
02
09
FD
00
00
00
00
00
00
00
00
00
00
00
00
00
00
00
00
00
00
00
00
00
00
00
00
00
00
00
00
00
00
00
00
00
00
00
00
00
00
00
00
00
00
00
00
00
00
00
00
00
00
00
00
00
00
00
00
00
00
01
02
00
00
00
00
00
01
00
01
03
00
00
00
00
00
00
00
00
02
00
FF
FF
00
00
00
00
00
00
00
00
00
00
00
00
00
00
00
00
00
FF
00
00
00
00
00
00
00
00
00
05
FF
FD
FE
00
03
FB
07
10
02
FE
F7
FF
0A
03
FA
12
15
01
01
FC
FE
FE
02
FF
01
0D
01
EE
EA
ED
D8
D3
F6
E8
E4
0B
0A
08
07
06
05
0B
07
04
F6
08
0A
07
24
27
01
17
15
FF
E4
00
02
F2
FF
09
08
0B
ED
E2
F5
F8
F8
F9
F6
03
FC
11
F4
0B
05
F5
00
01
02
03
F5
F9
17
15
E7
FC
F6
05
F9
F6
F3
28
19
CF
FA
F5
FF
F4
F9
00
09
0E
F2
02
F7
0B
F7
06
12
0E
1E
20
11
F3
FE
19
E9
DA
E2
F5
DA
CF
E2
D1
E4
F7
17
1C
26
3C
26
0A
0F
10
00
00
00
00
00
00
00
00
00
00
00
00
00
00
00
00
00
00
00
00
00
01
00
00
00
00
00
05
06
01
FF
F9
F6
FD
01
09
0B
FF
EF
05
F3
E9
05
07
10
F3
F2
E1
FE
F8
EB
F6
01
03
01
03
FE
F6
1B
31
08
E4
D3
03
05
01
EF
2D
54
0D
CC
AE
04
FE
FE
FA
0D
18
05
F0
ED
FF
05
FB
04
F9
F8
01
FB
EB
05
03
FF
06
EA
EE
0C
F2
E3
FC
06
08
01
00
00
01
01
F2
11
05
FD
ED
F5
0C
12
12
02
13
F0
F1
C5
BE
E8
15
0E
F5
09
06
01
F3
01
0A
0D
12
FC
02
06
0F
07
07
0C
03
F3
FA
FD
FB
FE
04
F9
FF
09
F5
05
F7
F9
F6
F6
EA
EC
FD
E9
F6
01
00
01
03
FC
F9
0C
FD
F3
04
01
04
03
F6
F3
0E
FA
EF
01
02
07
05
FE
FD
0D
FB
F1
E8
04
1B
16
3F
42
22
2D
0F
FE
F4
F2
F1
E4
DE
EE
E3
E2
16
08
F2
00
EE
E8
E9
EE
0A
00
01
FE
F9
00
0A
FD
02
10
02
01
FE
FF
04
0F
03
06
15
FE
FD
F5
FC
02
05
FF
04
09
