FE
01
02
FF
FD
06
00
02
02
02
00
02
0A
24
07
0A
FA
0A
07
FD
E8
1B
0A
F6
0C
08
FB
F7
F7
FB
F6
F4
F5
FD
F1
FF
EF
03
0A
DE
06
26
F2
01
0C
F4
0C
0A
D8
1F
0E
FA
EC
04
F7
00
07
0B
D6
16
07
1D
0F
FF
01
01
02
34
02
02
00
01
F6
0C
EA
10
2C
E5
FE
06
EE
14
24
06
07
E4
F6
F3
00
F9
FE
F4
FC
F4
FB
F3
01
E7
00
00
F0
0C
15
EC
E5
17
1D
FC
03
06
05
2A
F4
FC
04
10
04
01
F0
01
ED
F8
EE
FD
F0
FE
F1
F6
F3
F4
F2
F4
F7
F5
F8
FA
0D
FC
00
29
0D
FE
0E
00
0D
FD
F5
23
D5
FA
0E
17
04
04
05
04
02
2D
03
04
FC
06
0F
ED
E1
FF
09
23
05
F5
04
0B
1F
10
FE
DA
0A
F9
F7
FC
02
1F
09
1D
F2
18
FC
F6
00
F6
FB
FC
04
E3
FF
0C
1F
0E
05
06
FC
0A
13
05
0C
0F
0A
02
07
01
0D
01
0D
02
15
00
FF
F3
FB
2D
0F
C9
12
05
F3
00
F5
FF
F8
EF
F6
FE
F1
FA
FB
00
FF
08
0B
25
05
0A
01
04
04
01
FD
15
F9
F5
D0
F6
08
19
0E
EC
EA
1A
FD
F2
06
ED
F1
00
F9
F5
F2
FB
F2
F4
F9
F7
F5
F0
F7
F0
F2
EF
F2
08
1D
F3
FA
F5
27
F7
FC
04
02
0A
06
0B
1A
05
04
04
09
FE
0A
FF
03
1B
04
03
02
01
F4
D8
EC
04
24
E3
FB
01
F6
F8
FA
F8
F6
E7
F6
F8
FC
F8
04
09
04
0D
D1
0D
0E
0C
10
F6
F8
F6
F5
E8
F8
F9
FA
F8
FB
F5
06
F9
D6
11
0A
17
0F
F9
F4
FA
F6
F7
F4
F6
EF
F4
F9
FB
F7
F8
ED
F5
FC
F6
F8
10
F2
F7
2E
E7
F3
0E
05
F4
FC
14
00
16
1F
10
F9
D7
F0
F9
07
FC
FD
2A
FE
EF
D7
EB
FE
F2
FF
F5
ED
F6
FA
F0
F7
01
01
05
15
1B
05
05
07
00
F3
E5
EA
06
30
F9
F7
07
F8
EE
DE
FD
03
FE
00
13
26
11
02
0E
03
06
20
0A
03
0B
03
02
F2
01
03
DE
06
0D
1C
0E
F9
1C
1B
07
0D
0E
DF
EE
FF
FA
0A
0A
1A
10
FC
09
F7
00
01
F6
02
F9
E1
F4
FE
F6
FE
07
16
09
18
24
13
FF
0E
FC
04
04
FF
0B
29
0D
FD
0B
FE
FC
F7
FD
F4
EA
F3
FB
F0
F8
04
F7
F6
1C
F0
F3
04
1E
0B
F6
FA
F8
F7
F4
F7
FD
F5
FA
06
02
FB
0F
08
05
0A
18
08
F5
F2
F8
F3
1F
F3
F5
F8
F7
F5
F6
01
FB
D4
24
03
1F
0C
0B
09
05
D8
0E
D3
FF
0D
FB
E3
0D
E5
FA
57
FA
E6
03
EA
04
FA
1B
F9
E1
11
02
02
1D
02
F1
0A
08
F1
10
06
21
08
05
F4
03
1B
D4
10
0D
FA
FB
15
15
17
F7
E0
FC
04
F5
F9
F9
F4
FB
F7
FA
F6
FB
F5
F9
05
25
03
FE
09
FE
0A
07
09
04
FA
07
08
E5
0F
0C
1D
10
F2
EB
F4
F2
40
EF
FE
F1
FA
00
14
0A
12
17
F8
06
F4
ED
F0
0D
00
D0
23
31
FA
0C
FE
F4
FE
F5
F6
2A
F1
F6
F6
F3
03
0B
FA
0A
19
13
E7
DE
F1
12
22
03
0F
F9
EE
01
E8
00
FD
F8
FD
09
EB
FF
0D
26
0C
FD
03
09
FA
EA
21
05
18
08
01
0F
06
FA
EC
1E
00
04
17
00
06
01
08
22
05
01
03
04
1F
08
03
2D
00
E6
0D
F1
E5
01
FE
08
FC
E8
16
06
15
13
0D
13
0F
0A
E1
0C
06
F1
05
F8
41
11
EF
DE
FB
09
FC
08
FA
0C
FA
0F
0E
0F
01
12
00
F4
F2
FF
09
0D
1E
19
FE
FB
FE
FF
1A
FA
E8
26
04
FC
FF
00
DE
F7
20
00
21
02
D5
01
06
EB
02
05
28
07
01
04
03
02
F0
04
0C
EB
14
09
24
05
04
10
07
15
1C
ED
02
EB
EA
F9
18
F3
F4
13
F0
19
DD
0F
0B
02
1E
FF
FF
1C
02
FD
FF
E1
F8
E5
08
55
06
E4
F9
E9
00
1A
01
15
FE
0A
FD
FF
FD
FE
1D
FF
1E
06
EF
FD
FF
02
06
03
05
04
09
03
07
08
04
08
F5
00
0E
FA
0B
09
12
08
FA
F0
0F
03
FB
13
0E
1C
0F
F7
F7
F5
F2
FC
F4
F8
F5
FA
12
00
F4
11
1B
DB
F7
F2
F4
F4
08
02
D7
25
22
E9
01
0A
FF
02
FE
FE
09
26
03
0A
FF
F5
F5
F1
F4
24
F2
F4
F6
F5
FF
F8
FC
F5
F1
F1
FC
F7
FA
FD
04
FC
07
24
06
FF
06
00
FA
F3
F8
F8
E8
FB
F4
FA
F5
F8
F7
F8
F5
2E
F6
FD
FB
FE
00
0B
09
F3
D1
19
02
15
0A
02
0B
FD
1C
C0
1A
01
FE
04
FE
DF
01
21
FE
1D
0B
E6
FF
FB
F7
12
FF
F8
31
FA
FA
07
F9
D3
F6
F7
29
F9
FC
0A
FA
EF
EB
F1
02
05
FC
05
35
0B
04
0A
02
01
24
03
05
03
06
07
23
05
1B
E0
00
06
F1
F8
E3
EB
F9
F9
05
19
08
18
1C
0C
13
1B
F8
EB
07
FF
F3
03
0A
0D
0C
0F
E7
0E
0C
17
0C
01
05
00
0B
2F
0C
02
09
04
FA
0C
FC
0F
13
0B
01
09
03
FF
F2
00
F4
D6
F6
FC
FA
FB
01
0A
03
08
26
0B
01
0F
04
F5
EE
F8
0B
28
0D
FF
06
00
FA
F1
FC
FA
23
F8
FB
DB
FD
FE
EB
10
03
D0
22
F7
F1
17
06
0C
00
11
2A
0B
02
0B
04
08
F7
F7
10
08
26
E5
F4
F3
0D
14
02
19
DC
F8
0C
F4
FA
EE
F9
F0
F7
1F
FC
F7
ED
F7
0A
2F
11
F3
FA
FF
F4
F5
F7
07
03
F4
F1
F7
F1
F0
EF
FA
FF
FB
FC
FE
02
FF
09
19
09
04
07
03
05
27
01
04
04
04
EF
FA
F3
00
25
FD
F1
E4
F3
F3
FC
F2
F5
FD
F1
F5
FF
F6
08
03
09
06
02
02
0E
12
0D
FD
E1
FC
11
2B
15
02
E8
FE
02
E8
F4
1E
0C
EB
04
07
08
0E
29
03
D9
00
13
10
F0
EF
EE
F6
EF
F3
12
F2
EF
F0
F3
06
FC
0D
F7
F9
2A
FF
F8
05
FE
1E
01
1A
08
F0
06
E5
F1
FF
E8
F6
EE
09
EE
F4
F1
F6
FA
FC
FC
F4
F9
F0
FA
F4
F8
06
0B
04
FE
16
04
07
19
03
01
06
02
04
28
07
04
06
04
FC
F9
FB
F5
DB
F9
FC
FC
F9
F0
E4
01
30
EB
EF
F1
F9
FC
01
02
01
FF
FF
FE
FF
FF
FE
09
22
06
F6
CC
F7
05
27
03
FF
04
FE
08
22
07
F8
13
FC
F8
F6
F5
F4
0F
F9
F5
F8
F3
F2
F9
F1
F6
04
FC
F3
F3
EC
04
D8
0D
DF
24
0A
03
13
FF
02
01
01
E9
E6
E4
FF
FB
03
00
10
00
01
04
02
FF
FE
FB
FA
FB
09
00
FD
32
F9
F8
01
FD
F4
F9
15
FF
E5
02
18
0B
E6
DC
F1
03
1F
07
01
06
06
07
02
FF
0E
21
E9
06
11
01
0C
16
0B
0A
D7
0F
FD
F7
00
FC
FC
12
E9
2A
F1
07
11
E9
04
0F
F1
13
02
E4
EF
F3
00
06
16
05
EA
F4
1E
F6
01
06
04
07
03
03
1B
05
03
07
02
ED
E9
00
F1
11
1C
06
19
FE
EF
FC
F8
F7
F4
F5
FD
F3
F4
FD
12
0C
F9
FD
24
00
EE
11
FE
EC
0F
F7
E2
33
02
F5
16
FA
EE
F7
F0
19
ED
F8
F3
F3
06
08
06
05
0C
00
09
1A
0A
F3
E7
03
04
FB
EA
02
FB
E4
06
06
04
FF
01
02
12
1C
0D
FB
F4
FA
F1
01
F3
FA
F0
FB
FB
FB
14
F8
F6
2A
F2
F6
0A
0F
14
00
1D
F6
EB
03
E9
F6
06
27
05
EF
E2
20
FE
EF
01
08
03
07
06
1E
03
0B
08
08
06
18
11
EE
04
12
F3
F0
00
09
22
0A
00
0B
02
04
00
03
05
0C
05
06
1B
07
FB
09
02
00
00
FF
FF
0A
04
01
01
FE
01
06
07
FA
05
F6
06
27
06
FF
27
02
02
E2
13
FA
EB
FA
11
0C
0F
0D
0A
09
09
09
08
00
05
01
06
22
05
00
06
01
04
2D
06
F3
00
F2
08
16
0B
06
F6
F2
00
FD
E9
F9
DF
F9
15
03
06
0C
FD
01
0D
1B
0D
F9
FD
F7
FB
E5
FA
F8
FB
F7
F3
F4
F9
F2
FB
EF
FA
F5
00
F6
F0
F6
F1
08
F6
F5
EF
F6
07
FE
01
03
1C
0D
FE
EC
09
FE
FA
FD
FD
EA
FC
FC
FC
F8
F2
F4
F5
F4
00
F0
F6
EF
F9
07
0E
03
1A
EC
F2
13
04
00
05
03
07
06
D0
0C
09
1D
0A
0B
1A
0C
10
D7
03
06
F5
FC
F8
F6
F8
F5
F2
F4
FC
F7
FA
E8
F6
1C
F6
0B
FE
1D
01
E2
14
22
14
F0
DE
F1
FF
FF
FC
FC
0D
E5
16
20
E4
19
01
04
05
05
02
03
21
06
07
FF
06
E1
EA
F6
E2
1E
0D
F7
0C
08
01
F3
00
0D
F2
0B
0D
19
0D
F9
E2
F3
E5
FB
0C
EF
05
03
05
01
06
0A
1D
08
07
16
04
0D
17
0C
0F
F1
0A
07
F1
01
01
0B
0E
F6
E7
20
00
07
0B
FC
07
FB
01
27
00
EF
DF
EF
FF
06
FF
06
26
04
02
01
00
FD
F5
00
F2
F7
F2
FA
EE
FB
01
04
02
FD
1C
FA
05
12
06
04
F2
FC
1A
0D
FA
0B
17
07
07
FD
09
02
00
FD
10
1F
0E
EE
FE
EC
FA
44
FC
F0
FC
F3
05
FF
06
2D
F7
FD
01
06
FC
04
1D
04
EE
F6
E6
02
1B
FD
F6
01
F7
E9
FA
EF
FE
EE
07
02
D6
FF
0D
14
0D
FE
D8
FC
F7
EE
00
E6
0C
E4
FC
F5
FB
15
10
FF
11
E6
E1
F4
02
0E
02
02
01
E0
1E
07
EB
00
05
FF
1E
03
FB
2D
0A
F7
E1
01
FA
F5
FB
F7
F1
F5
FB
F4
F7
01
F2
EB
F2
FA
F6
F5
FA
FE
F6
FE
F4
FA
0F
FE
F2
F4
F3
FB
FA
FC
FA
F4
FB
F9
F3
F8
0C
F6
FB
1E
0F
11
0A
FE
0A
04
0A
00
24
05
03
0D
F9
0D
02
00
03
04
1C
04
FF
07
01
E6
01
E6
08
3E
09
E4
07
E6
00
F4
F7
1B
19
DE
FD
FD
F9
00
06
02
03
23
03
03
FD
03
03
F8
05
F5
B3
F8
15
21
23
FD
23
01
15
0F
F5
05
EC
FE
02
00
FD
F5
35
E5
F8
FE
01
06
06
02
00
2F
03
06
F9
06
FE
F2
00
F6
ED
FC
FC
F3
FD
FE
F1
F9
EF
00
F1
F9
F2
FB
05
F7
FA
0D
24
09
F2
EF
0B
F4
F3
01
FF
EC
18
09
17
0D
E8
F2
03
F4
32
FA
04
04
07
02
04
F4
16
24
E2
02
F4
F7
EE
E9
F2
07
11
0A
08
1E
01
08
07
07
06
0F
03
07
FF
04
29
FA
29
FB
81
F9
28
F8
28
EA
0A
03
DE
17
21
03
FF
09
09
FB
0A
ED
E1
37
FE
FA
06
F8
F7
FC
F3
02
EF
FD
EB
FD
FA
F0
DA
09
21
FF
FF
05
02
29
1A
FF
06
DB
F9
F5
FD
FD
F0
0D
FC
E9
18
F5
E7
F7
F1
EF
ED
F6
F2
F5
F2
EF
F4
EF
FB
11
F4
01
2E
FC
EF
D0
F0
F2
E5
07
FF
31
FF
05
FC
F5
FF
16
FD
10
17
0D
01
0A
FD
00
0A
04
26
FC
F2
03
0A
02
0A
0A
06
06
2E
05
08
01
06
03
E3
02
EC
06
EE
FD
E5
FF
FD
01
FD
F8
EB
FE
09
24
0C
0B
37
FB
06
0E
F9
F8
D6
FA
F4
F6
F5
F4
FC
F6
F5
F7
F4
FE
F6
00
03
EC
0D
0C
1E
0E
F6
F4
F5
F4
FB
F3
F9
F8
F9
01
F9
07
0F
D9
F0
23
14
02
F9
19
F7
F0
2A
F4
F6
18
FB
FE
E1
08
15
1A
E2
06
11
0B
01
08
0F
FA
DD
27
FD
0B
07
FD
05
02
04
15
17
FE
15
F6
01
01
01
FF
0A
08
FF
02
04
F5
F5
F4
EF
32
F1
F0
F3
F0
F7
F9
FB
08
28
05
EF
D8
EF
01
0D
03
03
24
08
06
00
06
F7
F9
0F
04
E3
32
FB
ED
0B
FD
F8
01
1A
E9
0D
09
17
0F
11
18
10
0A
E8
0B
07
E5
06
FC
FE
F9
E6
23
E9
FC
F6
FD
08
0A
05
EC
1D
0E
F9
F9
09
FB
F9
F9
F9
03
F6
FD
E8
FC
10
0A
0D
0F
12
0A
04
05
06
08
14
06
0E
16
04
06
02
00
04
01
06
07
E1
25
F8
FD
0C
03
F3
05
0A
09
0E
00
25
FF
09
F4
FD
1D
06
04
04
19
FF
01
14
FF
0E
0D
0C
FF
07
FD
F3
F6
FF
EA
16
0A
00
1D
FB
FB
F5
F8
F7
F1
FA
FA
FE
F8
08
E8
0A
09
25
FE
F5
D7
F2
07
F9
0C
0A
D5
0D
10
11
11
E8
02
08
E3
31
F6
E9
05
0A
07
F7
FB
2B
E9
F6
0D
F9
04
03
05
F9
E5
32
E8
F0
02
06
EF
E7
F2
09
0A
11
08
17
0E
F6
0A
F7
F6
31
00
FD
0D
05
0D
0D
0C
0A
CE
09
0D
09
0D
EC
DC
F5
F5
1D
12
FE
0A
1C
FE
0A
FE
07
26
07
FE
08
FC
F4
E8
DB
07
1D
FC
0D
18
06
0F
FB
0F
03
CA
04
13
0B
18
09
23
0D
FF
EE
F2
F6
04
F9
04
0B
02
08
23
03
09
09
09
06
FF
07
02
26
03
07
0B
04
FA
04
06
E9
2A
01
EF
ED
FC
05
0E
08
03
21
05
00
0A
03
F8
F1
F8
EF
F9
F0
FD
F7
FA
06
17
01
05
14
00
FD
F2
FD
08
2A
03
01
0D
06
0A
EF
0D
05
0A
00
FB
29
16
08
0A
00
F0
F8
F5
FC
05
F7
F6
F6
F3
F4
E2
F0
16
0E
FB
1D
0B
02
FE
00
FE
09
08
0C
FE
28
01
0B
21
09
0E
EE
09
FC
ED
FE
FD
09
FD
09
2A
0C
03
0B
01
FD
F1
FC
F8
F0
FB
08
28
0F
F8
F6
FB
F6
FF
F4
FA
F4
FE
05
00
0A
0A
C3
0D
0B
07
0D
06
12
03
1F
00
EF
0E
0C
02
F6
EF
F7
0C
2A
08
F8
04
FA
FB
E7
EC
0F
25
DF
00
05
F7
F2
FD
F3
FC
00
FE
F4
FB
F1
F7
F6
F9
F3
FB
F2
F9
F8
FA
FE
05
FA
0B
19
0A
02
0C
04
FF
06
03
FE
F6
23
00
05
0E
FD
F0
01
07
F0
09
0C
22
07
1D
12
F5
1E
08
E8
04
05
E8
19
1F
EF
09
0B
ED
F5
F5
EC
04
13
19
FC
EE
19
F9
FE
03
0E
EE
F9
07
21
ED
00
15
FE
12
01
FF
1C
E2
FC
11
F9
05
FC
EE
ED
08
FF
E4
F7
F5
FE
F9
DB
F3
00
29
04
07
27
04
F0
FC
F1
F8
1B
F7
F2
F4
F7
F6
F5
FE
F8
F0
F5
FC
F7
FD
0E
08
F6
07
14
13
F2
0F
10
08
FF
FF
25
E2
FB
0C
0B
FF
FC
EC
F9
EC
F3
F0
FC
E9
FA
FE
08
00
DE
35
FF
EE
FF
01
0A
12
07
09
08
08
03
0D
00
0C
15
0C
16
02
15
07
F2
02
F8
E9
02
E8
F1
EB
F8
F7
FC
08
F7
FF
0B
DD
05
0E
12
0D
07
F9
F9
3A
F5
F1
0D
FD
FF
F5
F9
19
0B
C4
27
F7
F5
15
FA
F7
F9
F2
FB
F2
FB
F8
FA
05
06
FB
02
25
EC
F4
DF
EB
10
1B
0C
0D
DD
0E
04
F9
03
F6
16
F8
F3
1D
EF
F2
14
FB
F6
F3
F6
F6
EB
F6
F4
F3
F6
E8
DD
FD
11
0B
03
03
23
0C
00
FF
00
03
F5
02
06
2D
01
FD
0C
F4
E3
37
E7
F9
06
03
1B
05
05
13
DE
F6
0C
F3
FC
01
10
FC
03
28
05
02
0B
FC
EA
EE
FB
F3
11
0B
FD
0C
28
FA
F1
FF
F4
1D
E1
FA
E2
0D
FE
FD
FD
F0
E8
EE
FA
F1
FA
F2
FB
F7
F7
FD
F7
FB
F3
FA
0C
1D
09
14
E2
0C
04
F7
01
EE
FF
F0
FB
25
03
EB
FE
E9
FF
09
FE
0D
2B
0B
03
0E
04
F9
F5
F9
F4
F6
F8
F6
F7
F7
09
F9
F9
20
ED
FB
07
19
01
03
0D
01
1B
09
13
09
15
0B
FF
FF
01
F9
F1
26
FA
06
17
06
0D
02
18
1D
15
07
0E
02
07
0B
F5
E9
D0
EE
0A
1D
18
02
09
18
DD
18
1E
E8
06
FC
EE
EF
FE
EC
04
EA
FE
02
F4
FC
D2
FA
00
12
0B
05
28
FF
0E
15
0D
16
3E
1A
06
18
F1
F7
F5
F9
F8
E5
FA
F5
F6
F2
02
03
FE
13
1B
FA
0F
11
05
19
F4
F4
2F
DF
FE
0A
FC
FB
0B
09
0A
08
BE
06
09
09
09
FD
F6
00
0A
29
09
F4
EC
F5
FE
EE
EA
0D
15
EF
0B
15
F9
0C
17
11
09
E6
05
01
F7
00
F9
F3
F8
F7
EA
FB
FC
F4
FC
FD
00
03
0A
25
11
00
0B
FE
FC
F6
FB
F1
DD
F4
05
34
02
0A
F9
FC
15
EB
F7
26
0D
FB
FF
08
FA
F1
2B
0C
E5
E1
FB
