FC
CC
13
F2
C9
FE
E1
E0
F1
16
1D
13
26
05
DC
1A
E7
FF
15
0C
F8
22
25
DE
F7
E9
15
FD
DA
F8
1D
12
03
1E
00
26
F8
F5
20
D9
CE
D9
23
D5
29
D4
F1
E9
E6
DD
24
03
27
17
DA
E6
1F
DE
2D
EB
2B
1A
06
0D
14
10
FD
E0
18
F9
1B
03
25
EA
E6
2B
07
FB
44
20
22
28
D2
FA
EB
18
F8
EC
07
FD
FE
33
EB
09
16
E4
00
13
03
26
F3
EB
12
0D
43
CD
19
0D
22
09
F1
F0
F5
11
EC
DA
00
01
06
D2
11
D6
0F
FB
FA
DA
FE
14
0F
0C
0B
D0
E8
EC
06
18
F5
06
F8
FD
02
31
18
01
05
E8
F0
3C
01
28
F9
08
1B
F0
0C
14
EE
0B
ED
2C
1A
38
02
FD
EF
02
D6
F1
12
41
22
EA
EA
07
00
1D
00
17
CA
06
25
EE
E7
D4
F9
F7
0A
10
1A
CA
08
0C
1E
19
E0
0E
D9
E1
20
1B
01
39
07
F2
F4
07
03
F7
04
F1
1D
EA
06
F7
CD
10
2F
00
08
E3
DB
16
FA
F9
E7
0F
00
E5
E7
F2
25
C3
FF
DA
0B
FD
DE
DC
FA
08
EE
E9
07
FF
13
22
F9
EF
FD
F9
DD
00
08
C1
FC
0A
11
EE
CD
F6
EA
DC
0A
0E
F3
DA
0A
F9
18
F3
F4
E8
E9
E1
2A
DA
F5
D8
F8
07
F0
F8
FE
F2
F0
D3
06
E4
2F
EE
06
1C
24
ED
40
DB
03
F5
DA
02
B8
02
27
F8
0D
12
33
F5
1A
10
00
03
11
E7
07
17
29
06
24
F7
13
1C
ED
F3
DA
F1
1C
ED
2A
F7
F0
E4
DF
0A
04
10
30
2F
E4
00
F7
F1
F0
EB
DB
EF
13
20
1A
38
D1
0F
1A
CE
DB
B2
E1
F0
F2
0D
DA
E0
D2
E3
DF
0F
06
00
FD
00
02
28
0A
03
06
F7
03
F8
E4
18
01
E9
E7
2C
DE
FE
11
14
09
14
F3
09
11
08
27
ED
07
2A
07
21
0D
F9
DC
19
ED
D8
0C
1E
11
2D
D6
FA
EF
10
2F
00
E4
F1
28
E6
22
23
38
F3
ED
F0
13
10
03
23
00
DF
F9
BE
03
0E
D8
C5
2F
1B
D0
E6
DA
1F
1E
F7
05
F5
E5
D4
EE
0A
F0
30
FD
FC
05
DC
F7
06
01
1E
08
07
D9
FD
14
02
EA
F8
07
0A
CA
3C
13
02
EA
0F
EB
0E
FE
DF
24
01
CE
CF
F9
F6
E4
FD
D9
16
07
21
FB
2B
28
11
E0
2C
17
F0
E2
22
0A
D9
0C
F6
C5
07
3A
09
FA
FA
EE
E8
CF
0E
F6
FC
08
2D
FB
02
EE
12
30
F2
06
1B
04
FB
DA
D7
0C
07
AD
23
D7
33
FC
F4
1B
11
C8
DB
1C
E6
D0
EF
09
18
BE
F0
EA
1A
09
F2
1F
EC
FB
07
EA
0B
EC
1F
25
03
EB
0B
ED
15
F1
E5
FA
E0
36
DC
00
06
E8
FC
F7
DD
2E
0C
04
E4
29
11
E9
F3
25
2B
FE
0B
EF
06
EA
2E
11
2E
E7
FC
F3
1A
21
D3
03
E6
F8
D8
FD
FB
E1
1D
16
23
EE
02
00
FE
01
11
F7
03
1B
2C
F7
ED
F7
09
21
EE
1B
18
FE
F6
0B
13
E3
F4
C8
1B
FD
F3
08
05
0B
F8
02
CA
CB
F8
E4
E7
02
07
DF
E5
ED
E0
0E
DE
E9
05
FF
06
E9
4B
C2
35
F1
FB
13
1A
03
EB
F3
EE
1B
FA
F1
E7
21
DF
F6
D8
F6
FD
04
FD
F1
FE
FD
C3
F8
3C
10
F9
10
25
18
F7
F4
E6
FF
0A
F3
1B
F2
FE
D0
FA
1F
05
05
02
F6
FC
2D
3B
13
FA
E2
EC
F2
11
1D
34
F1
03
FD
EF
30
06
DC
1B
F1
FF
EC
FA
0B
08
E6
19
0B
F7
09
03
26
FD
F8
29
01
11
F5
FC
E6
EE
08
03
22
03
1C
FA
CA
E4
47
FD
05
E7
1F
26
DD
E9
1A
2A
17
CD
EB
F9
05
1D
E6
16
C7
01
07
04
06
E2
F2
03
E2
05
0F
EE
EC
0C
F9
0D
14
F4
FD
FA
CE
E9
05
FF
F1
01
2C
0C
F7
E6
D2
0A
DA
F4
E0
17
F6
F7
28
16
F7
D2
F3
2D
FF
30
F1
E3
10
F4
FA
07
19
CF
11
12
22
0A
E7
F6
E1
F3
FC
06
0D
22
2A
24
1D
21
DF
F5
17
FB
17
16
FA
07
12
12
F8
02
F2
E0
14
ED
09
FF
F1
00
F2
0A
16
09
0C
F9
EB
F0
03
1C
1A
C8
2A
12
F1
F1
03
03
02
F2
FA
08
2F
F9
03
F8
F0
16
C8
CF
DC
31
FC
FC
2A
09
1A
FC
1B
F9
0E
26
0A
E5
12
FA
0C
F2
3D
FE
29
E1
F6
FE
B7
EB
03
01
D3
F0
18
1F
0B
FB
2F
ED
14
B7
FB
FE
E8
F7
E5
1F
E1
14
FA
1D
DA
00
FF
EA
0B
3C
E2
F3
E4
1A
13
DF
FB
E8
FB
16
FC
44
1F
DF
1C
FD
FE
FF
DA
0A
E7
33
FE
00
11
3F
21
DE
06
1D
29
1C
C1
14
37
2C
0D
D8
94
C5
09
F0
0B
DA
01
F4
E7
2B
D6
1B
F7
CF
1C
29
0F
E7
E5
D5
10
07
E4
CE
E8
EB
04
01
2B
04
0C
D1
D0
EE
21
FB
EF
C9
F9
15
EF
CA
11
E0
36
13
1B
FE
F6
0C
F0
0A
CF
CF
00
F5
EB
2C
16
3A
EC
FD
F4
F9
32
E5
C9
F4
2E
0E
06
FD
06
D4
11
F5
15
0D
FD
0D
13
EB
27
07
2C
23
FD
0D
18
02
0B
F0
1B
16
DE
FC
F5
F2
FD
02
01
17
E3
C3
E8
F3
0C
F5
FB
05
08
20
FD
E9
F7
16
E5
EF
09
10
17
3D
1C
14
FA
00
EF
F4
2B
03
25
F3
05
08
02
C4
EC
DD
F1
00
CC
05
E3
03
07
D9
01
DD
0C
E6
C2
04
CA
DC
15
25
FB
F4
03
FD
C6
D2
F3
E8
F6
07
F2
18
F3
1D
F8
08
04
04
EB
02
05
0E
0A
FB
F7
F1
F4
1C
F6
14
FE
FE
0E
FF
F0
15
E9
09
D6
06
08
09
E7
03
DA
23
05
0B
ED
1A
1C
F1
D1
1B
F5
06
00
28
01
F6
FD
FB
BB
1C
D4
F4
E4
E3
0B
01
39
F0
F7
14
12
E8
0A
26
F8
19
07
FE
0A
14
0B
F4
11
FD
FC
E6
F7
DF
FA
08
11
0C
02
E8
E5
24
06
ED
F8
03
0A
FE
1E
06
F7
05
FD
2C
19
17
03
01
0A
E1
34
02
FC
F5
F1
DC
F9
E2
F8
1E
15
02
0C
0A
19
FB
E5
F4
C0
1B
18
FD
3E
09
FE
FC
17
DF
FD
FD
D0
2C
27
0C
F1
12
D9
21
B0
E2
EF
09
D8
FE
FC
06
07
F9
FD
03
EC
F7
22
0A
D6
E7
06
09
20
F8
C8
E6
0F
2E
15
F3
0C
FB
23
D3
F0
15
FB
FA
FB
FF
05
F0
07
DE
11
FF
2B
D4
13
F7
24
02
F1
DB
E4
01
32
FD
E9
DB
FB
FC
EF
2E
02
11
EB
FD
E7
19
03
F2
03
14
06
0B
F9
0F
F5
FF
CD
C5
EA
0E
15
13
3E
18
05
10
F7
F7
0B
FC
17
0E
0A
E1
35
05
21
09
0D
1E
F6
0C
FF
07
07
27
DC
03
EA
E1
0C
14
12
01
FD
FB
14
F4
E9
F1
E6
EF
F0
03
F7
F3
0C
15
16
22
E8
13
0E
01
1E
DB
FB
0A
FA
F8
FF
0C
20
07
10
E2
35
04
EB
17
13
11
F6
12
14
F5
0E
15
02
36
1C
18
27
E5
0C
15
ED
EF
E6
14
00
23
02
09
EA
CA
F3
0D
20
06
31
EC
34
F5
FB
DC
11
06
09
32
F6
DE
F1
F8
FD
E0
2B
D4
07
25
07
12
1C
EB
E1
00
EA
11
F7
02
02
F0
0E
0D
40
0A
27
0E
F9
F3
11
FD
34
06
0D
FA
F9
13
22
17
15
00
E5
02
02
CD
0A
FB
FD
0D
F0
24
15
01
E1
EA
00
E1
0E
21
00
02
FB
13
F3
FD
EA
E3
D9
FC
21
12
3E
23
11
E4
24
0F
0C
05
E7
01
1A
F3
FD
FB
C1
EE
D3
07
07
F7
07
04
E5
1A
23
0C
D2
F5
CA
16
31
ED
DE
08
F6
09
1D
08
20
C1
CD
08
C0
ED
11
F5
F4
E8
09
00
FA
FC
1B
FD
DF
23
06
EE
E8
D5
FF
06
05
CE
01
FD
DA
EA
0A
33
09
04
FD
F7
F1
11
F8
16
0F
20
07
02
E0
11
1A
FD
FB
00
1A
41
00
F8
FA
E4
EF
FA
F6
E4
01
17
FA
14
0D
E3
09
E9
E8
F3
1B
11
FE
EE
3A
E1
17
05
F9
11
D3
DB
0F
FF
EB
27
E2
00
EB
2D
1D
0A
28
E0
18
0B
F4
E4
01
CB
D2
01
12
0C
1A
0B
1A
E9
EF
2D
F2
EB
3D
1E
EC
04
EC
20
FB
F1
19
25
E7
EF
F2
FA
E9
F8
E6
F2
0E
F1
01
11
05
FF
0B
0A
0B
02
06
E7
09
23
E9
01
E7
C7
E7
0E
0E
E6
0E
F6
E0
00
0A
33
19
15
08
07
12
FE
07
03
25
1A
00
ED
FF
08
D1
F0
08
06
F9
05
23
14
F5
E7
DF
19
15
1D
57
FC
AC
21
3E
10
04
F7
16
08
02
EE
07
E7
C8
1A
04
FC
17
02
00
01
20
0E
07
DF
13
F9
0F
F8
20
E0
11
2A
F4
E7
FB
17
19
00
01
F3
1C
FF
FB
F3
FE
FC
FE
F5
14
ED
04
19
05
15
E0
18
0C
0A
F4
DE
E6
F9
02
FF
FA
04
E6
F6
E9
11
1A
FA
F3
FB
F7
07
05
FC
E1
02
01
22
00
F6
16
18
D8
FB
29
08
EF
03
D8
2B
00
12
E4
F6
F3
02
C5
02
EA
0B
F1
EC
E2
0D
EC
0D
0D
DD
01
20
F0
0D
2B
1D
DC
0A
F8
FD
EA
02
0B
02
FB
0B
09
0D
17
D6
0E
DF
0D
F1
E9
EB
11
EF
04
02
04
FC
F8
FD
22
E5
05
13
29
09
0E
03
2A
00
FF
F4
12
0E
01
20
16
01
FC
F5
F0
E8
0A
05
2F
F1
05
F4
19
18
F2
37
0D
12
0E
02
0A
1B
F8
FB
1B
FE
E4
11
01
11
08
26
E7
F4
F4
22
11
E4
4A
0A
0F
E7
0B
FA
F8
DE
09
FC
DE
EC
FA
D1
00
0E
E9
F9
0C
23
FE
19
0A
0A
E8
1D
FC
14
E5
FB
0D
14
E9
0B
0A
0A
F6
2A
0C
04
05
00
09
F0
DB
2B
EF
EC
01
21
E7
1F
FE
16
09
E7
D9
FB
FE
1C
1A
16
FF
DB
F0
18
01
D2
04
FD
14
23
12
1A
08
EA
D1
EB
C6
FA
39
F3
E7
FF
30
D8
E9
FA
02
0B
FA
F0
07
F0
05
F9
E0
02
E3
D4
08
F2
25
14
FD
FD
04
F9
0B
00
0E
FF
06
F0
F9
FF
F3
EC
35
1A
0E
FC
25
0B
13
25
E0
EE
F5
EA
FF
06
F0
34
11
05
23
1E
0E
18
EF
22
FB
E2
1A
EF
E2
EB
DF
1A
06
06
E4
1D
E3
FD
0C
F6
FF
08
1D
1D
EF
39
02
F6
EF
08
FF
1E
EF
11
06
11
10
08
EC
F8
F5
0B
0C
E8
FF
ED
27
DA
F0
EB
0F
0B
F5
00
0B
0B
02
12
EB
11
CF
06
14
03
F2
21
21
EE
DA
FC
DD
0D
FE
2E
FA
F8
0F
E5
0D
F5
1E
14
F8
00
20
0B
F3
FC
0C
09
F8
08
DE
E0
F5
04
01
11
03
E7
2C
14
F5
33
FE
2B
01
01
04
08
01
2E
DA
09
00
BB
0B
DF
F4
F0
25
0A
01
1A
10
17
2F
E5
19
FB
00
F2
F8
08
03
2C
03
DD
E0
07
18
FF
C0
12
EB
F7
08
22
F5
DD
F1
EB
F3
FC
00
10
0F
DB
E2
E3
E7
32
EF
13
0E
27
DF
22
06
E6
F8
12
18
F1
FA
E4
FE
FA
F2
EC
C9
0B
27
E6
2E
EF
EC
E8
37
00
DF
00
F2
16
DF
03
0F
E2
F4
A3
E6
0C
0F
CD
0A
1B
D8
F1
F3
04
E5
D3
11
16
EA
20
F3
FF
09
25
0E
07
E1
18
0B
0E
F8
FE
01
0D
F1
09
B1
1F
E2
18
F1
EB
28
2A
F8
03
F4
01
F5
12
DC
22
DB
35
15
E9
F4
08
FC
01
FD
13
D8
0B
1B
FB
F4
F5
DC
06
C4
E2
03
1C
FA
E8
11
E9
1B
20
FF
15
0A
1A
F0
F5
F2
FD
01
EF
0B
0D
13
05
04
F5
1D
E3
00
DB
06
3C
02
E3
02
F1
F4
04
0F
15
FA
29
13
D0
0B
F9
0B
D6
FC
0D
1D
FD
19
F0
CC
F8
06
D3
0E
03
13
F5
E0
05
EE
EA
07
07
EB
13
F7
DE
F0
08
FA
E1
F0
F1
E3
FF
F9
1A
EC
0A
F9
F3
15
15
02
00
05
16
27
EF
09
0A
DD
1A
17
06
0F
FE
FC
13
F3
E9
01
34
13
E8
23
F3
F4
E3
DD
12
0F
12
F4
F7
2F
10
D2
FC
D6
0A
0C
E8
E1
F7
ED
0C
04
EF
1A
01
EC
28
2C
28
F0
FC
CF
1A
F2
E7
04
01
FE
EA
27
0B
1C
FA
FF
F3
11
ED
14
0F
28
DD
EC
F8
0C
FE
0D
F3
E2
0A
DC
08
F9
EC
DE
E0
06
FD
0A
FB
F6
E2
09
11
20
DC
0E
21
1F
10
0E
02
D6
17
0C
12
01
EE
27
D3
13
D9
1D
0D
09
DA
01
00
23
F7
20
E4
F7
24
1C
F1
17
FF
FF
03
18
EB
E9
BF
F5
00
1B
F5
B3
01
FF
CD
DE
E5
0A
0A
09
0B
18
E4
D9
27
06
11
CE
13
FD
F6
D8
F4
F2
09
09
06
14
C3
1C
F4
0C
FF
16
34
F3
1A
E2
0C
2D
28
C2
00
1C
EE
49
EE
FA
01
12
25
04
F2
E5
D4
03
0A
1C
F6
22
0D
CD
E0
DE
EC
E3
01
EE
12
E1
2E
FD
15
FE
1E
0D
E5
01
FD
16
F8
17
47
E0
D2
F1
23
F8
3D
2B
F9
EA
E7
07
F5
C5
E2
E2
15
1E
F4
01
FD
18
1C
02
FA
13
25
03
F1
F2
D7
DC
0C
10
F5
15
0C
F1
F8
EF
DE
10
1B
14
DC
0C
27
1A
E4
EC
12
E5
0A
FF
2B
0B
EE
1B
24
BD
F2
FC
04
E4
E8
D8
07
11
E0
F9
07
F5
0B
FB
FD
F0
DB
F1
ED
03
03
07
1D
01
07
F8
1A
FD
0C
F6
F8
29
F6
0D
1B
30
17
ED
FE
CE
EC
0E
F9
1A
0A
D9
FD
2A
F2
1C
09
CA
F9
F6
28
06
05
02
D7
07
00
FE
05
F8
25
EC
EE
F1
01
EE
3F
16
F9
FB
F8
F2
F2
04
FE
10
F9
F7
18
A5
0E
27
19
25
0A
EE
16
EA
E8
FD
1D
F1
1F
3B
3C
E6
DE
D6
36
0F
00
FB
F5
15
E3
F6
08
F4
1F
19
EA
08
DC
19
06
1D
F7
21
E7
0C
D6
32
E6
F2
C3
1F
08
E1
09
FD
05
0F
1E
00
EF
12
FD
F9
1D
26
F4
15
10
D2
EA
2B
E3
12
E3
00
0E
C5
07
D9
FE
0B
2A
01
FF
0D
EC
1D
04
03
14
22
08
FA
21
F3
EF
F2
1F
0D
F9
4E
0E
14
02
04
E9
F2
0D
0E
03
EB
CE
F3
EB
03
03
15
00
FF
F8
F1
3B
4C
FD
15
F7
0D
EA
FF
1B
D2
02
18
E3
25
11
F5
07
17
B9
07
F8
44
05
03
04
FB
01
EC
1F
E8
EE
31
41
08
FA
0D
19
EA
0A
D0
EA
04
0B
02
07
FF
F0
F4
02
EC
FD
03
E7
0B
FE
0C
E9
05
F3
E6
CE
24
DA
0A
0A
D8
FC
00
EC
D4
FC
CF
0C
2F
18
FD
EB
EC
E0
F3
CA
DC
20
FC
FE
F5
10
EB
04
FB
DA
10
DB
DE
E6
00
0B
D2
35
C8
E3
0E
F2
EB
08
11
FB
E8
F8
11
1A
FD
1D
18
E1
03
10
02
E9
C7
FB
22
02
1C
EE
DF
05
E0
F2
0A
03
2C
D7
F1
07
25
16
CB
07
FE
EE
10
FF
FD
E8
FA
18
0F
F2
E6
28
E8
F1
FB
FF
13
27
F9
05
1D
0B
E1
DC
F7
DB
FC
0B
EE
12
EB
05
15
04
E7
01
F2
04
27
0A
EA
08
C2
02
EB
06
01
F0
08
22
16
F3
F3
EB
F0
24
D4
18
01
CF
33
E2
F0
40
EA
0E
E5
05
0A
13
F7
1C
F6
14
DB
D9
E1
F6
11
FE
16
EF
02
0E
28
F1
EA
F2
01
03
E4
14
17
FD
0C
1A
09
24
F3
FB
F3
09
25
0F
E9
0A
F5
DA
1D
EA
11
F8
EE
F8
D4
F3
1C
30
12
05
17
0D
16
DF
08
EA
F8
08
FF
F6
37
FC
E6
E3
F3
06
EF
FD
48
FB
08
44
10
EE
08
00
15
05
D1
27
F9
14
18
E6
27
F3
1C
D9
00
10
06
EE
1D
0C
21
02
FA
05
2C
D2
C5
D4
E1
1E
25
F8
0A
EE
EA
FB
1A
18
0F
0E
18
21
E7
E3
0C
F4
25
22
CB
E6
10
21
F3
07
11
C6
2E
09
F5
0C
16
FB
38
FA
DE
F8
0C
F7
08
22
F9
37
1B
E2
F9
CE
FC
F4
E9
F4
01
E2
06
05
05
D5
F3
0F
22
38
10
E3
F8
0A
DE
04
0E
E4
FF
0B
E7
E0
07
F7
16
2A
F3
0B
14
0C
0A
0A
F4
DE
FD
26
F5
26
F8
08
F4
F2
D7
EE
FB
F9
09
0C
35
1D
25
E5
11
02
0A
DF
D8
ED
05
11
19
19
0F
11
E5
04
FF
0A
04
E9
DE
1F
E2
F3
E9
03
22
04
46
11
F7
E4
1E
04
E5
0B
46
BF
FB
13
0D
07
EF
1A
25
12
F4
E3
EF
0C
E4
2E
FC
05
E4
18
F4
03
D6
EB
EE
EE
F4
FE
09
10
21
EF
E3
E2
F7
11
F9
17
11
01
0B
0B
F6
D7
E5
F0
B8
1C
16
F6
FB
11
19
E2
F1
ED
0A
F4
05
E1
17
F1
F8
DE
E0
D4
23
E6
C9
FF
05
F6
02
15
E3
FE
0C
E4
32
0D
00
DC
0E
ED
2D
F8
C3
10
11
3C
EE
F2
FB
11
E2
FF
2B
36
F9
DD
11
FC
DD
F3
F0
F3
CA
06
00
34
0B
06
F6
FF
16
31
10
17
EC
DA
E0
06
D9
FD
FE
1C
0E
14
0B
11
08
04
09
E8
05
00
E5
05
DE
12
FC
EC
30
05
02
1C
17
03
03
FD
20
FF
FB
16
07
FF
E5
1B
01
DE
C9
28
F9
04
D8
C7
0C
1A
F6
04
0B
E4
EA
EC
D9
FA
EB
18
F7
EE
F4
B4
15
19
27
DD
10
FC
24
FD
12
EA
F2
1D
E1
E2
13
FE
22
1A
22
E0
18
FA
FD
E5
FA
25
F0
02
FE
07
02
02
21
F4
F8
EC
E8
15
01
03
0A
1A
CB
F0
F1
0D
03
50
2C
0F
0F
0D
03
0B
FF
EF
F1
ED
FB
33
E3
FB
14
05
19
DD
18
16
12
16
11
0F
FC
05
08
26
FC
1B
02
47
14
0F
ED
09
FA
0C
0C
FD
F3
14
EE
08
0D
FF
22
E3
F6
FC
14
09
26
0C
E1
F7
EA
0D
E2
12
12
17
E1
1B
F7
F8
EC
F8
31
01
CB
F2
FD
02
E6
F1
E8
13
19
14
24
FD
F3
01
FD
0E
EE
0F
EB
28
1F
03
04
E0
17
2A
DE
D9
FC
F3
D7
E8
1E
0E
F5
0A
05
14
07
00
E7
05
18
FD
F1
1C
FC
E8
1A
FD
D1
FB
15
EA
08
01
00
DE
14
D5
0C
02
01
00
2D
07
0F
E8
FE
F9
20
F4
E2
F7
DC
11
06
E9
C9
01
0B
EF
00
E6
1F
01
17
F5
15
1C
05
F9
F0
13
F6
23
D1
DC
17
FD
29
11
14
F8
E2
19
12
ED
17
E6
F6
F3
00
05
F3
13
23
D5
DC
18
D7
DF
F8
F5
1E
22
1B
DD
FB
F6
D8
09
23
E8
FC
DA
BE
EE
F6
1B
F6
11
FD
08
CB
0C
26
15
F3
18
02
E5
16
E8
01
0A
1F
1E
F4
03
04
0E
E3
D5
F5
D4
17
13
B3
FD
FC
EB
3A
00
16
F5
11
0C
06
06
11
04
CF
EE
F7
E2
EC
19
1B
DA
2F
14
EC
E3
0E
05
0B
09
04
0D
08
1C
0E
07
FF
22
1F
ED
F5
08
4D
EE
E4
DB
0E
EE
D5
1D
13
14
03
15
0D
F7
02
D4
26
DD
1C
10
E5
08
2D
F1
E3
F7
DA
DB
12
F4
05
04
E2
35
24
FD
EE
05
E5
E9
00
09
E2
0A
0C
FC
E7
0E
0C
14
16
E6
FC
22
16
0B
23
0F
08
DF
F4
2F
0C
C3
DF
28
F5
1C
0A
F4
E3
13
A3
0A
FB
0A
20
12
CD
0D
F8
33
34
EE
02
E1
F2
0F
2C
02
F9
EE
F8
23
FF
FE
DC
11
E3
EB
D1
35
F2
04
2A
11
F5
C3
EE
D9
09
CF
EF
D4
23
2F
1A
C5
01
0F
EE
15
E1
EB
12
09
06
09
03
DF
F5
06
CF
0C
2B
31
EE
FF
E9
09
15
E1
F8
FC
F3
13
0A
1A
23
08
FE
1E
0C
FE
20
D4
F8
E1
E3
D4
DE
C6
03
F6
17
D8
33
E2
01
CE
F8
E7
E8
04
F1
DF
0C
19
F3
FE
FB
02
00
01
05
01
D8
20
30
FB
00
27
15
26
FB
BD
13
FC
F9
1F
F5
10
02
24
FF
03
DC
08
FA
07
10
10
F6
07
BF
0D
07
00
DA
D1
07
F9
FD
FB
E9
F8
D5
0F
FF
20
0F
C7
FB
EF
12
06
D4
14
12
EC
D3
FC
15
09
D4
DC
0E
02
10
F0
F3
29
D8
FD
09
13
16
02
D3
07
11
17
27
FF
E8
F4
ED
13
F6
15
0D
E8
04
26
02
D9
F5
F0
0C
F6
E3
1F
0D
0F
E2
F9
C9
E5
27
FF
E2
E9
EF
1E
03
DF
27
FE
D3
1E
0E
0A
05
D1
FA
F2
01
04
DF
18
02
F5
13
F2
18
F7
21
E9
F3
0B
EC
F0
0D
E5
0C
29
16
03
EC
EC
F2
EF
FF
11
19
02
E0
C6
FF
D1
FF
11
F6
F3
F0
F3
07
02
F1
E2
F6
22
F6
B3
19
F2
15
11
F9
25
F4
1A
23
11
FD
B4
DE
0E
FD
01
13
14
18
FC
06
ED
FA
F9
C2
B1
F0
E8
1D
0C
01
D3
BD
15
E0
D9
F6
1F
EE
FC
29
F0
0A
14
F8
FD
F3
2E
FE
E0
19
0C
B5
DC
F6
11
E7
11
22
D3
F9
ED
CE
E8
D4
FD
05
F7
E0
31
0D
EE
11
26
1E
01
E7
16
1E
06
F2
20
FE
01
0F
20
DF
03
F4
14
00
E6
07
12
11
08
D7
13
28
C4
F3
EC
FA
FA
D9
2C
3D
16
0E
02
D5
E0
E9
F0
EE
03
09
E9
F0
11
E4
0A
B3
D8
F1
18
E1
E8
E5
F5
13
D8
F7
1B
D6
02
E8
15
20
16
28
EA
11
2A
12
DA
F6
DF
F6
F8
00
39
0E
04
0E
0B
1F
AC
EE
30
F4
27
EB
05
1C
E9
FF
F7
3E
10
11
01
ED
E6
22
E4
05
D7
FF
05
E7
17
0E
EF
28
F9
E3
0F
12
1B
F9
05
17
F1
FD
EA
12
C2
E6
23
13
F5
F5
E7
EC
D4
1C
EB
29
D2
CB
EA
0D
F8
CF
0E
F2
13
EB
02
0F
D9
0F
09
E3
F6
15
26
F5
DF
EB
ED
E6
F1
12
04
15
DC
12
0E
D9
FC
FE
ED
F3
DD
0E
E0
16
FD
FB
19
19
E3
FB
19
FB
1F
E0
F0
E2
FE
E2
E9
02
1D
EE
0B
06
01
0E
05
1A
FA
0C
00
D1
20
D2
09
CF
2E
FC
F4
17
DF
CB
0D
F4
E1
17
06
14
2A
F9
ED
26
0D
2B
D0
11
F9
07
0F
11
F3
11
1A
1E
D6
3F
ED
00
F3
0D
17
E6
2A
11
FF
0E
F1
D9
FB
FB
00
D2
0F
E7
3B
24
06
FA
ED
07
FB
26
FF
0C
0F
0A
FB
0A
E2
1A
08
D5
11
1B
F1
08
FB
F4
40
FE
13
E6
DE
E0
14
03
19
15
0A
0C
08
CB
E7
FB
F6
01
09
08
05
32
0A
0A
19
0E
08
F1
0A
0B
F1
0C
14
EA
E3
02
2A
FE
D7
F7
FC
DF
0B
D5
FC
E7
12
EA
E0
D8
F2
16
44
F7
FD
02
F2
12
01
02
0C
29
0F
0B
34
E6
02
1C
E2
F8
FD
1A
16
FA
E1
06
0A
16
20
0B
F4
FF
D8
CD
16
0B
01
12
24
03
01
FB
01
F1
07
FD
FD
EE
B9
1D
E7
07
33
E2
F2
0B
0F
06
F9
EE
E0
F6
F4
B0
EE
12
0C
02
06
17
EF
E5
00
04
E9
E8
F1
EA
F7
05
2B
F0
00
99
FE
13
17
F9
DF
DF
D8
02
EE
F6
E1
FF
02
1D
03
ED
F1
FB
F1
12
F8
EC
03
29
39
1D
15
25
D6
14
03
33
3F
22
16
E6
1F
F1
F9
1D
F9
FF
EA
18
EF
0E
20
06
E8
15
FC
17
04
20
CC
FA
C9
26
F1
F3
00
DF
0E
09
0B
05
15
FF
12
DE
FE
0D
00
03
18
27
09
F8
EB
09
03
08
30
20
FB
00
F1
1C
CE
2B
F0
07
08
FF
07
FF
0A
06
17
EC
0A
D0
06
F8
E4
C3
0A
BC
F5
D6
02
09
21
F4
FD
EC
03
DB
EA
FD
EA
F1
02
0C
02
04
E0
EF
21
F4
0E
F4
04
1B
E6
FD
F8
14
FF
E5
F0
F8
18
0A
10
04
0C
F5
14
28
06
F4
09
17
17
F3
CE
0E
1F
F2
FF
EB
F1
19
E0
04
2F
18
0A
F2
01
00
FE
0D
0E
ED
03
2B
EB
16
F4
DA
D0
0A
FC
15
15
38
FF
07
4B
FF
10
F2
03
0B
F5
F9
0E
F1
F8
07
EF
E1
04
FA
01
E7
E0
F5
00
2A
F9
E5
15
12
0B
0F
26
0B
F3
10
03
28
20
F0
06
0E
18
14
F8
19
0B
F8
12
0F
04
02
03
1A
00
04
0D
FD
F0
21
E7
E0
DE
E1
05
12
32
E6
F2
27
03
E5
FE
F8
03
E1
ED
28
E1
F9
F8
1F
D5
16
17
18
E9
FB
02
25
E8
F8
DC
03
2F
06
08
FA
FE
11
05
01
0A
17
DE
F7
FF
F3
17
F7
06
0B
EB
E3
ED
F9
22
EA
14
F4
0A
FF
E5
E5
02
20
1D
E0
0F
19
37
01
F7
DD
27
DC
EB
1F
1C
F9
0F
23
09
E4
02
F5
FA
0D
23
1F
FE
06
28
E0
05
E8
FF
F5
F8
06
03
17
F0
22
C2
E3
0D
25
03
D9
E3
02
2F
08
11
0F
14
F6
0C
15
25
E7
18
0E
E4
09
05
E6
08
03
FB
FC
01
FD
D7
ED
20
3F
C8
0A
0C
F8
17
F2
13
00
02
03
28
01
CE
ED
24
F0
FD
06
13
FF
DC
0A
D4
C2
F6
D8
D4
FD
03
08
09
12
EE
09
38
11
2D
FE
00
3C
CD
F2
E7
ED
EB
F9
01
F8
CF
0B
1C
1A
F6
3E
17
0A
19
EF
EC
0C
EE
02
F0
E2
18
0B
01
2D
0B
2A
09
07
F2
F8
BC
F2
FB
F2
13
EC
CA
10
08
FD
D5
FD
0C
EB
13
10
D2
22
EA
F5
1A
30
1B
29
0E
FB
FC
22
04
FA
EB
08
F0
EB
E9
03
FD
E0
18
08
03
FD
00
02
F5
0F
38
14
06
DD
26
00
F9
14
D6
FA
09
F9
EC
11
0D
E9
EB
0C
DF
C9
EA
2A
4B
13
07
00
0E
10
01
15
DC
E3
DE
EC
F0
15
1C
FF
F8
18
DD
E3
FB
45
22
C6
30
19
FC
04
F0
15
19
DD
11
0E
0C
14
CA
11
03
D6
08
D4
10
F9
FE
E2
E2
16
FC
0B
16
16
F4
08
BC
F4
F5
EA
12
1D
00
14
15
FE
FD
39
FA
00
81
13
01
07
06
E6
1C
29
09
F8
05
FA
F6
08
EB
06
DF
E8
17
1F
1B
0F
09
13
0E
EF
E5
40
19
E3
FA
1F
12
08
22
E9
27
2A
0F
10
01
27
EE
E7
F6
01
04
16
E5
01
19
EE
01
01
0B
F6
1B
F2
E5
CD
28
EA
09
E5
D0
1E
FE
B9
FA
D2
24
FF
F2
11
E1
02
F2
01
15
2D
26
E2
E7
E5
F4
FD
03
15
2A
F2
EC
04
E7
25
E0
FA
FB
FF
FE
0A
DF
D8
DB
0B
0F
14
E9
19
F5
01
15
15
01
30
F7
FF
03
0A
F7
FD
F6
E8
EE
0C
17
F5
DE
E4
33
20
EF
F6
EA
08
EF
08
FD
F3
2D
F8
DA
14
30
E9
F1
30
1D
09
E1
09
04
FD
10
0C
01
02
DE
E2
2E
DA
0D
21
F5
F6
EC
02
0A
BE
FA
25
F4
06
2A
DE
F3
1D
16
24
E7
E7
F3
F0
2B
13
22
12
FC
F4
FD
C8
12
E1
12
FA
11
28
E5
F0
16
1F
16
E1
13
C5
E3
F8
17
07
0A
DA
23
0B
03
FF
21
0B
EF
EF
DF
F2
DB
09
0C
27
E2
E0
07
22
E7
11
11
CD
FC
EE
F9
46
EA
04
EE
3B
F3
FF
06
F5
07
EA
F2
19
15
27
0E
EA
22
22
E8
22
21
36
E6
D1
FE
F4
12
F5
F6
12
04
F8
4D
D8
2C
C1
E0
19
FA
0B
D5
25
14
DC
D9
2D
0E
D2
F7
0D
B7
25
1D
F6
FD
24
E5
5C
F8
1C
11
DE
44
17
FE
F4
20
05
F1
D6
0E
2B
F6
F2
E0
05
F3
E7
EB
18
09
22
22
F5
FA
D3
FD
03
04
1A
E7
02
0E
F9
05
04
01
07
E3
EA
19
0B
0B
04
EC
03
FA
24
18
1A
08
EF
EA
EE
12
1E
EF
F2
57
34
0C
EC
F1
F2
D2
FE
05
FC
E0
F7
C3
FA
F9
CA
08
BE
F8
03
DC
2D
2C
DB
ED
16
26
1C
18
08
0F
EA
1B
0D
E9
2F
FC
1A
2C
12
22
E9
EE
0A
F7
16
07
0C
E1
2C
2B
16
16
E2
1A
F4
0B
01
11
F9
10
F4
07
0D
0D
EC
39
E2
07
07
E6
FA
24
E8
18
E7
DF
FC
ED
FB
1A
ED
F4
D8
02
E8
06
19
DA
1C
08
2C
29
16
FE
20
D4
F7
11
12
14
F4
F5
1C
3D
F3
E0
04
1A
02
E7
C4
FF
1E
10
FE
01
FB
03
F4
0E
1D
14
14
E2
16
FB
DD
01
FD
E2
F0
FD
1B
1B
26
EE
F3
09
01
F5
FB
14
FD
32
E4
25
F8
03
00
00
00
E7
F0
0D
06
FB
F4
F1
04
F3
06
0F
12
F8
FD
C9
04
F8
F3
D6
FA
30
02
16
FE
F5
22
06
05
DA
E6
ED
0D
0E
0E
21
0E
ED
EE
E9
F7
15
ED
04
EB
F8
FA
29
03
29
06
04
E9
DE
32
09
04
E9
D6
D6
EE
FB
21
CF
1A
FB
EC
03
19
10
F4
FA
1B
26
FE
00
01
EE
17
EC
F1
12
01
1D
0C
F4
FA
24
EB
13
18
26
EE
E5
14
22
24
0A
1F
10
38
03
0D
F1
37
29
DE
1B
20
23
10
FD
DC
07
42
05
F7
09
0A
21
02
F0
DB
FF
ED
16
00
E1
EC
29
FA
0E
2A
F8
07
47
0B
1C
FC
EB
24
CF
DD
D3
06
E9
02
DC
EE
00
27
09
F3
0D
29
DA
0D
24
0D
04
09
E5
FD
14
E7
EC
ED
12
14
E2
F0
06
EE
F9
F3
EC
D8
F7
11
F9
F8
F7
1A
EF
0E
19
13
04
D9
23
43
16
23
ED
0B
FC
09
03
FE
EB
D9
F4
F4
FF
FB
FB
0B
EB
02
F7
02
22
F7
F5
17
12
24
2D
1C
F8
13
09
F3
1F
28
F5
BC
FF
D7
06
E8
03
F1
FD
F6
F7
F3
14
02
20
27
E6
28
F4
F2
1C
FA
ED
FD
E0
EA
DF
F7
0E
19
DD
CE
01
F6
F7
BC
25
E5
0D
0F
F8
F6
0B
06
01
18
03
EA
FF
13
FD
0D
DE
F9
21
04
0C
FA
EB
EF
1D
0B
D3
05
F6
DF
D5
43
14
1A
EC
14
EC
CB
09
03
E2
03
0F
1C
FD
FB
0C
CD
F2
D1
F0
03
05
EB
EC
0A
F9
11
20
F0
F0
F6
1C
07
0F
29
28
1A
3F
BA
EF
19
F7
CE
F6
31
F8
CB
10
EA
E6
E9
11
12
18
FB
1B
18
E4
06
D4
E6
FD
FD
18
09
F2
0C
26
0C
1A
42
04
EB
05
25
13
0E
1B
1A
02
13
B6
F0
F4
01
00
D4
FA
FF
B7
0F
DB
0A
F5
FC
0D
13
02
E4
07
C7
10
C7
1A
EB
E2
18
25
1E
03
E2
0E
FD
FA
DC
2B
F7
E5
DD
0C
E3
EE
F2
28
F8
10
F3
2D
F0
EF
02
FB
ED
06
08
0C
F5
0E
0A
2D
F8
E7
0A
E6
E5
F1
F1
FC
C5
F9
E8
E0
17
EA
F6
F2
15
01
03
2B
18
FA
08
F2
E4
EC
00
16
06
DD
F2
EE
EE
15
20
30
31
03
DB
42
D1
1C
F2
15
D2
E6
FD
F9
FF
20
FC
FF
D0
16
16
19
F8
0A
0D
F7
17
08
E1
FC
00
3A
F4
EA
00
05
F6
FB
F6
FF
EB
3D
DD
E2
E2
19
F2
F8
C9
1D
0B
F4
F2
1D
17
EE
FE
EE
0E
08
1B
13
EC
F2
2C
FB
05
21
1B
DE
29
FC
F4
0C
F0
E7
0D
FB
16
E5
0F
16
EB
F5
EF
F6
EB
01
09
C4
04
EB
0B
D7
EC
1C
07
D5
0C
E4
EA
F4
05
DE
E8
EA
16
0E
DC
30
DF
FA
12
2C
1A
FF
14
24
06
E3
EF
ED
E4
EF
0F
E2
FF
32
EE
C4
F3
E8
16
EF
D6
0D
D0
DB
02
E9
DB
C3
EA
1A
DE
D3
EA
11
0B
E0
DE
16
FE
C5
20
F3
1D
E1
15
E0
F6
02
26
E8
17
FD
1D
01
EB
F2
FE
E7
04
DF
F3
B4
EC
E1
15
0A
DD
F4
FA
EC
EE
EE
06
26
D3
E8
F1
00
20
EF
26
FD
F2
1F
17
E6
06
09
F5
F7
ED
FB
01
0B
1E
F5
1F
0D
EB
18
F5
E5
12
0E
07
DB
0A
FF
F3
09
DF
F9
FE
E2
35
0D
04
F5
00
FD
04
EE
ED
13
06
24
37
F6
FD
DD
16
2E
2A
FA
F6
13
21
04
1E
1A
C7
34
F4
F8
F7
04
F9
FC
08
0B
F5
13
0D
2A
EC
ED
F6
0D
31
E4
29
0B
33
01
2B
D6
E2
F8
F8
FC
0A
1C
11
0F
07
26
06
20
F7
16
D7
E8
14
D7
E3
1D
D6
DC
11
03
CE
EF
E1
E9
0B
14
ED
00
0B
09
2B
FF
FA
DB
F0
FC
CD
1C
F3
EA
FF
0C
08
FC
1C
3B
EC
FA
D7
0A
F0
11
CF
06
FE
0B
EF
F9
13
17
0A
D0
CB
16
09
16
E5
09
F7
F5
F9
0E
ED
FD
F3
EC
28
11
E1
E6
FD
09
FE
01
EF
12
1D
04
EA
11
F8
FD
10
F9
F4
FB
04
11
EE
E2
C8
E9
1A
19
C9
DD
E7
F8
11
F6
F7
11
D9
14
0E
E1
09
FA
ED
0F
EF
10
03
F0
EE
05
FB
EF
05
06
01
21
EC
10
00
12
3A
0D
FE
E4
FC
1C
0B
FC
13
11
32
17
F5
DD
02
E2
DA
F7
27
14
FF
F7
09
CD
D8
F7
FE
E6
0A
FF
14
E5
35
D4
04
CB
ED
03
F6
EB
24
FC
F9
E8
F9
0D
DA
05
F8
DF
ED
F8
02
CA
E3
0C
0F
E7
11
EB
F3
E3
F5
25
E0
04
3E
18
F3
F9
E9
03
1C
F8
EE
27
13
DF
24
B7
F1
1A
09
FD
F6
E0
0A
14
F1
C5
DC
E1
F4
0B
03
0F
E0
0F
27
03
E6
FB
0B
D3
26
E7
1F
01
F8
E3
08
0A
F1
DD
E3
15
0E
F0
E1
1E
D9
F3
E9
EE
CD
2C
D0
F5
F7
F2
22
F5
07
F6
1C
12
00
F5
FE
08
E7
E5
FB
17
0C
01
0A
19
04
22
F1
1C
D5
FA
ED
41
06
1E
F1
D6
E0
05
09
DA
DC
EE
04
F6
F6
FC
11
F6
EF
00
22
E8
0E
F7
11
E2
1A
EC
F7
0C
2C
06
05
9C
18
ED
F0
12
D7
CE
E9
E2
1E
14
04
F8
02
20
0B
15
14
C4
F0
0F
17
11
0B
F7
1A
0D
DD
1F
01
23
EE
F6
E8
17
14
19
16
16
01
2B
38
16
FE
08
EB
03
F3
33
19
02
1F
05
FC
0B
EB
00
02
0B
21
D4
1E
EC
E9
0D
04
FD
0F
24
1D
01
07
26
E7
F3
19
DF
13
09
0E
21
FD
23
FE
01
FF
0D
F4
0F
E7
03
FD
2E
37
13
4D
1C
18
AB
E0
02
0C
F1
FF
FC
FF
F7
2A
E6
1B
DE
FA
E1
FF
F6
1E
11
24
FC
DB
15
1C
E2
2A
E8
E2
FB
F4
0C
1E
04
0B
D8
BC
0C
0B
00
FC
F9
ED
FA
1B
F2
F7
0B
F7
02
F1
E6
0B
0B
1B
2F
F2
18
0B
09
F7
DD
EC
FD
FF
11
EC
C9
01
25
F1
FB
0C
08
0B
1B
0D
2B
F7
1C
EE
E0
2B
2A
11
0F
04
18
F2
FB
E1
04
E1
DE
EB
07
C5
0F
0A
11
EE
FA
00
1B
D4
02
F6
E3
00
FD
E9
F0
E3
D7
27
E0
34
05
04
0B
0C
F8
1A
C8
0B
07
0A
F6
FA
03
FC
F4
E6
02
03
11
05
1C
DC
ED
FF
2D
0C
08
0A
1B
1A
0E
FF
D7
F9
02
F6
F7
E8
09
08
01
26
13
10
15
F4
FA
ED
0B
0E
EA
07
E4
FE
FF
F4
E7
04
0C
0A
06
D6
12
20
0D
D4
FD
E9
E2
0D
FE
13
00
12
0A
F0
BF
FA
0C
D5
E4
0E
20
14
ED
FC
0E
11
13
01
F1
FA
1F
FB
06
01
0D
DF
04
0B
22
F9
EF
24
2C
14
0B
10
F4
FA
03
1C
FA
E7
E2
FA
00
1A
B7
EF
EB
13
02
F6
02
E2
E7
23
FD
DA
0C
FE
ED
04
02
14
06
E4
13
F3
E7
58
10
1F
08
F2
EA
F6
0B
FC
1A
FE
2E
00
EB
FA
19
1F
F5
F7
09
00
19
D8
15
C2
E9
FB
FC
0C
1A
0D
F3
F1
CC
DD
14
DC
ED
12
05
F4
08
FF
0B
06
0D
D7
E7
D5
DC
39
FB
16
07
0D
FE
11
FB
E2
04
23
E7
ED
18
12
37
D2
16
F2
E2
F0
18
34
F9
0A
C2
AF
13
00
0D
37
03
EA
F6
F1
08
01
E7
26
22
12
DD
02
E5
E8
D6
F5
E6
EE
F9
FB
18
F5
F6
F7
E7
B8
00
0D
18
1D
D1
05
07
E2
FB
FF
01
D0
02
2B
28
F2
FA
30
0D
02
F6
28
09
F5
FE
2A
1B
09
F7
49
22
D4
E9
C8
04
F7
D1
F7
1F
C0
FD
EE
E5
0C
10
F3
F8
01
FD
DE
F4
EC
27
EB
13
05
D9
F0
0F
F7
01
FB
11
13
13
18
06
0F
E0
26
FD
0F
E5
18
F3
F6
36
FB
06
3A
19
F7
DD
FF
0A
01
0D
FC
E7
F8
06
03
FB
35
FB
0C
35
01
DF
0B
E1
E2
F6
1B
F2
3B
11
14
03
1F
39
F1
09
14
22
02
FF
D7
FC
03
CD
EF
FB
24
19
EA
F4
0D
F7
1C
01
DB
0F
FD
FA
DD
E6
0F
F2
FC
06
FA
FA
E0
EF
33
FE
06
ED
DE
05
F2
10
DE
FC
11
D9
16
0C
04
F3
1F
05
1D
F5
04
FE
03
1C
EB
00
FC
C9
31
FB
C9
D5
F6
DB
04
FC
00
02
F7
1C
E0
F0
FE
03
F7
35
D9
EB
EE
11
08
0A
30
00
1B
D6
07
CF
FD
03
E8
D2
EC
FF
03
DA
E7
12
FB
0F
1A
08
16
FF
FC
40
FD
04
05
19
F4
ED
F8
0A
FF
D8
FE
E7
E7
04
01
07
F2
01
D7
F5
25
EF
10
FB
09
F3
0D
FE
FE
26
28
DB
D4
EF
D8
D1
FD
EC
F3
F3
00
FA
04
2A
03
DB
06
0F
05
F4
1F
F1
04
07
1D
09
CD
16
E2
17
FE
E1
1B
DA
15
1F
0A
FF
F9
0A
12
FD
E9
EF
E9
18
D7
E3
01
02
09
18
FA
DD
E7
13
01
E8
01
08
F3
F7
02
16
E3
01
0B
CD
0C
0E
3D
07
11
B8
10
08
06
DD
FD
FD
08
D8
EF
DC
0D
FB
11
00
0A
F1
F9
FB
26
E8
0C
15
23
E3
06
4C
E9
F8
00
05
15
DB
0F
FE
00
FF
09
F6
18
14
2D
F6
27
F6
F5
28
F6
30
F1
17
06
02
1A
0D
13
00
0C
E1
EA
E3
F3
E9
12
E9
EE
2C
05
EE
D6
1D
E6
18
05
1F
18
1C
FF
FE
C9
01
E1
D3
E3
05
D5
02
00
AE
D3
12
02
D0
FD
18
00
06
36
16
F6
C7
F8
2A
10
15
13
02
03
04
E3
E7
1A
E9
26
F5
F9
03
0F
F0
D1
26
E3
35
E2
05
F9
00
0D
EB
17
28
12
0A
1B
0E
DA
13
FF
FB
E5
F0
EE
04
F4
02
09
EC
08
10
DF
1A
ED
DE
1C
E9
D5
14
1E
31
E9
E7
EA
E7
05
05
20
15
DD
D8
1E
00
0D
03
09
E6
E7
2E
09
12
CC
11
07
18
1C
1B
FD
FE
EB
04
FE
EB
23
2D
19
12
28
F8
F2
F5
EA
09
01
13
F5
D3
0B
CE
DC
14
0F
FB
F1
F4
11
1C
1E
06
E5
FE
03
FF
EF
EB
F8
F4
0B
F1
17
E5
1F
22
14
11
14
1B
00
0B
E9
E0
0A
01
F8
05
10
DD
15
16
E8
FD
10
E7
20
F3
F3
0E
F1
10
FE
1C
E9
01
FD
F9
E1
0E
00
F1
F8
0B
E9
C9
F2
06
06
CE
2B
EA
3C
FC
41
F1
F3
00
18
22
ED
FA
1B
13
F5
B9
15
EB
F5
F8
F8
27
EF
F4
F7
0B
04
E0
0C
E0
EE
16
0C
08
FD
F8
01
FC
FF
E8
26
F6
01
0C
F4
FD
09
DD
0C
14
E9
F9
EE
F6
D6
D2
02
06
F2
24
0F
0D
ED
0B
08
01
06
FB
00
0C
37
D5
FF
00
07
19
ED
E5
12
C9
CF
11
06
E5
EB
D5
F1
17
F6
12
2A
EA
DB
E1
EE
05
E5
EE
35
D0
F3
FF
15
FB
23
21
DA
E3
F7
0D
D6
D3
FE
FC
F3
1F
28
EF
F3
0E
02
0A
0D
05
F1
14
06
31
FE
22
0D
03
15
D8
F8
36
19
06
0F
02
17
01
09
1B
16
02
FF
FF
FC
EE
2F
25
04
F7
EB
22
EE
FE
0B
F6
F2
EE
FB
18
D9
DD
FD
EC
01
F5
21
E0
EF
EB
F9
00
28
10
F3
0F
EF
F2
D5
24
1F
0B
0D
1C
1F
FB
EB
16
FE
0E
1A
00
FB
F0
0B
04
DC
05
FF
03
E8
07
11
E7
FF
E3
DD
00
1C
C7
E0
0A
07
10
E1
E2
32
FD
F0
18
F9
DE
F9
1B
F4
DC
EC
FD
F3
28
D5
EA
09
24
FF
DA
1D
F1
11
03
24
0B
05
EF
23
E1
0E
0D
FD
1E
29
04
FC
00
32
FC
03
EF
E3
0F
CB
D0
EA
09
03
F0
CB
FA
F5
02
FC
F7
15
13
0F
F4
F9
09
FA
FC
E5
F7
24
E6
E9
CD
02
DA
CF
02
FF
E0
11
E9
01
11
12
FE
F3
F8
E4
E7
FF
DC
D6
0F
DF
06
1E
19
FD
0C
25
0A
F2
D9
F5
23
D8
EE
F9
0B
F2
F8
2F
12
21
21
13
05
04
0E
EC
20
35
FB
FD
04
09
F1
C9
EC
36
0F
F9
08
F0
2D
E3
07
EF
DE
19
C6
02
03
DD
DA
E1
E5
12
03
F2
18
EA
FF
25
ED
EE
07
08
1D
DE
42
EB
F3
E7
FE
E1
0F
0E
02
E5
F1
01
0D
0C
21
F8
EF
F8
18
F5
1C
0A
1F
0F
02
08
24
E9
FA
05
F8
FC
0D
B1
1A
E3
F4
DA
F6
23
F2
FB
16
31
EF
02
CD
40
19
21
00
16
FE
14
E6
0B
1B
D5
C0
0B
00
FF
06
E7
FB
04
F6
BA
F2
ED
F4
08
F8
F4
F3
07
D1
12
EF
F1
E9
1D
FF
E1
03
DD
CF
D0
09
01
41
07
E4
D8
05
09
06
1E
F7
2E
FD
15
14
1D
1A
05
EE
E1
09
2F
0E
EB
24
CB
FF
FD
FA
FA
E9
0D
DF
DD
D4
EC
E8
00
E5
F8
05
0A
EF
0F
06
CD
1A
43
D7
04
F7
EB
FF
06
0E
1F
FC
07
15
FC
D7
0D
00
FD
15
0F
DC
E1
EE
C4
FF
2A
E5
F3
27
BB
FA
EB
05
FD
19
ED
0F
20
F8
E3
E0
17
EF
E6
03
23
F6
ED
EB
F5
F0
ED
FB
2A
E4
12
E9
16
0A
FE
10
27
05
05
E7
F0
F1
1C
13
DF
F9
EA
04
F3
EE
0B
08
1F
FE
D4
ED
09
0E
E0
22
DF
17
0E
0B
F0
BD
09
F0
E8
04
11
FA
1A
0B
25
FA
DC
33
00
14
E4
03
DF
D9
20
D0
11
BB
08
FD
FD
1C
07
19
1C
17
E7
F5
3E
F4
11
FD
D5
18
1C
FC
08
12
37
22
F7
08
F6
F7
DA
FC
E9
FB
26
0E
F0
02
E1
E3
FB
FD
42
F0
D9
24
28
01
27
0F
F5
06
D4
0B
FC
ED
C2
E3
F9
FF
E3
DD
4F
F0
38
F4
F4
E8
E3
0F
02
E9
E8
F3
0F
07
0D
06
F7
C3
0C
DE
06
06
0A
15
F6
00
2E
16
10
12
11
0A
E9
0A
32
21
07
11
14
1B
D9
FC
0B
13
25
25
FF
22
F5
01
09
2B
08
29
B5
17
11
1B
07
0C
07
07
28
B7
14
1B
DC
12
16
FF
04
C7
F5
E2
0E
29
11
01
18
E4
0B
12
E1
FF
44
D2
FB
EB
EF
F7
09
FF
FF
12
CD
30
0B
E4
39
FF
1B
FA
12
09
DC
21
F4
2D
E7
F1
F9
18
EC
DF
F2
FD
09
F6
EF
16
1C
1C
08
F4
1B
F5
05
F8
D2
04
24
FA
27
0E
16
5B
42
17
1E
0C
C5
B7
15
DB
0D
24
F2
E7
F3
CA
FE
14
0E
F9
FA
3B
08
F1
E0
E3
29
21
EF
DC
E4
EE
0F
F4
08
03
36
08
D4
FD
12
05
12
00
34
09
0F
11
08
14
FE
ED
D3
00
30
28
F6
04
05
FA
E5
1E
09
F0
F9
03
13
EE
37
01
09
F7
0A
1C
20
EA
D2
E0
1C
F0
1C
1A
20
F4
E8
14
0D
19
08
16
EF
0B
F9
E8
EC
FE
1C
0C
0D
19
F0
28
F0
22
E5
02
00
E3
29
FB
0A
03
FE
E5
FE
17
16
F9
FA
06
DC
04
15
FA
14
1E
E9
F3
D5
2A
F9
D1
DE
F4
04
22
D7
23
DB
E5
03
18
13
F8
E1
0C
14
FD
2E
12
F1
1A
08
05
FB
F5
DF
EE
F7
E4
EF
D8
F5
F5
09
FB
1F
F7
E1
30
D0
CD
18
0C
E3
F5
12
BD
F0
EF
D8
FE
1D
06
06
08
1C
04
E7
D2
DA
0C
E9
EE
18
FC
12
F2
EA
CA
19
F0
F1
D4
02
E9
F3
11
0D
18
21
18
11
10
25
F7
01
DB
F6
0D
C5
F7
16
E0
E7
57
0D
2C
27
FC
FF
10
D4
F8
FB
E9
EE
F6
EB
EF
45
19
F6
3B
0F
F6
FB
C6
32
10
22
E6
FE
DB
10
F2
99
03
F5
F0
F9
12
02
34
10
1F
E2
05
F6
1C
0E
EB
FE
1F
01
F6
08
29
E9
21
25
F9
29
FD
08
16
06
16
0D
E5
12
DE
2F
05
14
F5
02
D8
2F
14
07
03
26
1D
F5
13
F1
0E
11
18
DC
1B
1F
F6
19
16
DA
F7
F1
E7
2A
F0
11
FA
F7
FA
1B
DE
D3
07
DC
0C
F3
05
0B
EC
EF
FF
C5
E4
12
12
15
18
05
0A
FC
19
1C
15
0A
0E
CA
EA
EF
FD
09
E6
32
42
E2
CF
CD
12
04
4B
F5
E8
07
17
20
FF
1D
F1
EB
0E
FB
FD
E7
06
0B
05
38
00
08
26
1B
EC
F9
FF
14
27
08
1E
01
14
FB
14
0C
BE
FF
D8
2D
E2
EB
F2
19
E4
FE
EA
FD
E5
F2
ED
E7
1B
EE
00
FD
FB
FE
DD
0C
EC
FA
F2
17
18
06
E2
DF
E8
DD
EF
16
0B
21
F2
0D
24
07
16
C6
1D
14
E5
E7
08
15
12
01
E4
E1
1E
E3
2C
11
13
F4
14
C4
15
05
08
15
2C
06
22
E6
EB
E9
07
E9
13
F0
07
08
F9
00
FE
1E
FB
1A
FE
07
23
03
F9
13
14
0C
06
E0
1F
06
FC
B4
D7
EA
13
2F
EE
10
07
18
FC
21
12
E7
20
0B
FB
E6
E1
0F
E6
05
F7
CC
F9
1D
D6
EC
10
06
6E
FC
E1
E9
13
0D
E0
0D
11
F5
00
FD
E1
E5
E7
D0
03
17
ED
0D
E6
15
1C
F5
DF
09
ED
D1
FE
15
2A
06
FE
E7
F5
E7
FC
0D
FE
F7
FE
0F
0F
05
FD
D6
16
FC
F1
E7
FF
30
EF
E2
1F
EE
EB
0A
ED
DC
20
DE
23
E0
F7
FD
0E
D3
EF
D6
01
12
F5
EC
14
F5
00
E2
FA
E7
FD
FC
19
0D
F7
20
D6
EC
ED
EF
20
F7
0D
2A
08
ED
23
19
CA
C2
E4
02
0F
25
04
04
F7
00
EA
E9
2A
1F
F7
04
FC
E4
E1
CC
E2
F4
E8
EB
C3
23
03
F5
FD
10
24
E8
D6
2A
02
F4
1D
F1
08
DC
06
D9
F4
16
FC
1F
18
DB
0A
27
1B
03
B7
27
D9
0A
F8
F0
F9
0E
D3
26
27
F1
25
E8
0B
E0
E1
12
FA
E2
27
FA
15
05
F5
E4
0E
02
C2
D4
F5
05
30
00
F2
FE
C8
0B
F6
0C
38
22
19
03
F8
0E
EF
0A
26
12
02
0E
49
D5
14
24
F0
FC
FF
F5
F3
F6
F7
E8
DE
22
0D
03
FA
FC
03
0D
EF
FA
2C
C7
E0
08
FF
20
FD
ED
28
F4
E9
27
FC
E9
F9
F9
E8
E3
D2
E1
F8
FE
F2
03
D5
0C
0C
28
FA
06
BB
D2
00
0A
F0
DC
CE
02
15
FC
F8
E9
07
06
CC
E5
07
F1
EE
03
EC
F0
F0
F5
3A
08
0A
E6
FD
01
23
F8
06
E6
CE
0C
0D
01
FF
F2
F1
E2
EE
2E
E1
23
15
DE
1F
DE
E4
CC
FC
1C
F0
D5
24
F5
15
D4
F4
FB
1E
E8
12
18
27
FB
0E
E5
EF
01
1B
18
13
E3
A6
B3
37
DA
0A
FA
23
E7
FF
D9
11
11
E3
2D
23
F7
0B
0D
0B
0F
06
D7
EB
02
FD
06
FD
CB
F3
06
C4
25
1B
E6
1E
3A
EF
0A
13
05
10
06
F1
08
EB
09
F7
25
13
E8
FE
09
10
FA
0B
EE
02
0C
FE
21
01
F3
FE
01
D7
0F
D0
EE
EE
E5
C2
09
14
EC
16
00
09
18
0A
EB
FC
17
E7
EB
11
F6
09
FD
EB
FA
EE
FA
0B
FC
01
FD
E2
07
F4
0F
0A
16
E2
14
01
09
E6
1F
FD
1C
09
EA
37
17
F7
1A
06
C4
15
F4
14
FB
10
E7
F4
0E
F8
F2
F2
E8
10
08
EA
1D
05
11
EF
E9
FA
EB
17
FD
F5
20
2C
F2
30
05
3D
08
F5
D0
F7
1E
11
0B
1F
3B
28
10
CB
20
D5
D8
FE
EA
F5
0F
D9
EB
30
10
E5
F2
F7
FB
E7
EA
CD
E8
E4
00
09
F9
D3
FF
DA
04
E8
17
EB
FA
18
DD
F7
F4
13
EB
F5
B0
FC
11
05
2A
FA
FC
E6
DC
05
FD
EF
EF
CD
F9
14
EA
04
E9
F0
F9
D5
1E
F3
F2
0F
EE
1E
16
12
F6
FA
04
01
23
ED
0A
D7
FD
1D
F8
D9
FF
FA
DC
0E
F5
22
F7
1B
15
F0
EC
1D
0D
39
05
F1
12
EC
34
EE
2C
ED
23
27
FE
EF
13
F2
21
0D
1E
FD
2B
1C
F9
CC
EE
F9
F0
FD
11
06
F4
03
22
D8
FB
EE
F9
FC
11
EE
EC
06
05
F0
D3
1B
F4
D2
F0
10
1A
05
01
D1
E5
CA
E9
02
1C
34
15
0A
DE
ED
EA
08
E9
0F
18
FC
04
21
16
12
10
22
1A
2C
FF
08
02
10
FC
16
47
DA
FB
0D
C8
D5
FC
0D
00
17
01
F0
05
03
09
04
FD
09
F4
24
10
FB
FC
11
F5
F6
3B
15
08
ED
0E
32
06
E0
08
08
28
16
FA
00
2A
F3
D1
1D
FB
10
02
10
E8
0F
03
DF
F5
28
10
FD
F9
08
06
02
08
05
F7
04
0C
1D
F3
FA
07
1A
F0
35
10
F3
06
17
F0
2A
F0
F4
16
E5
05
FC
FC
D0
F1
FF
0C
04
D7
FB
FC
0E
32
D6
EB
03
F9
1E
EF
21
02
01
02
27
17
F1
F8
F5
1A
EE
1A
FC
1F
E0
FE
20
1F
04
FA
E8
F9
F6
37
03
21
02
F4
01
17
1E
0C
25
01
F1
F5
24
F5
26
18
1C
FC
19
D0
EB
05
FF
18
02
00
FD
0C
02
3F
05
F1
1A
EF
E8
F0
18
EF
F8
22
E6
06
10
D7
0E
F9
24
D4
02
1C
E2
FA
0E
F8
F8
2A
E5
E6
F9
1A
F0
20
01
F7
C7
1E
F2
21
F7
F9
31
F5
F3
02
F8
12
F5
CE
FE
0B
02
FC
DE
F9
E4
2A
00
FF
0E
F3
F9
E2
E8
2C
F1
21
D4
06
FA
D2
00
05
EA
10
F7
17
F4
F3
02
03
EE
CE
FF
F4
0E
E9
D7
F9
F6
FA
E4
08
E4
19
ED
25
0C
1F
F3
D3
EA
F2
39
07
02
22
14
FA
13
F0
0A
2F
0E
D4
17
10
FC
F0
0D
34
2B
0C
05
1B
F1
06
44
03
02
CD
0B
D1
DB
D3
0E
FD
E1
19
A9
01
1E
F5
0B
07
3B
43
0D
FC
FA
F0
00
F9
E6
D6
FC
F2
E5
0F
02
02
D0
00
10
EB
E8
01
F4
29
DB
12
EB
08
16
F8
0D
DD
1A
FE
E9
0F
12
F2
EB
0F
D0
F9
F8
06
0F
24
D9
04
F8
D6
E7
F2
C8
EA
F4
1B
FD
00
EB
FD
13
E4
05
EB
02
07
16
2D
F0
F3
06
0F
ED
EE
0B
22
FD
18
00
D8
DF
27
FF
F0
19
0B
FB
2B
0D
F8
34
00
E1
24
09
C6
E8
0C
E9
F9
FA
2D
D8
34
2B
0F
06
0C
D9
11
05
F0
0C
06
F1
12
17
E3
DB
2D
08
46
1F
03
F2
FC
21
1A
06
18
EA
06
33
E3
19
0D
FB
F9
FE
CA
ED
07
02
06
00
F8
13
E3
04
2C
00
11
0C
D0
01
28
F3
CC
F0
0E
10
F3
34
FB
0B
1C
17
1E
ED
14
D2
19
FF
EB
0B
D2
CA
F0
BB
22
DB
FA
05
EE
FE
06
E4
EE
F4
0B
E7
05
ED
02
00
EF
27
0D
0A
23
D0
FE
E7
08
FC
0F
E4
01
F8
D2
09
FB
28
E7
02
03
1F
0A
03
1B
F1
35
25
E4
16
12
F0
1F
FB
D4
09
2B
E9
06
02
E5
07
E1
DE
F0
B6
13
07
28
12
1D
1D
28
E3
FA
F0
EC
15
08
00
0E
E8
18
DE
DC
11
1E
0E
1E
EC
DA
E3
FB
F2
1C
F6
F0
F4
E5
06
D1
E5
EC
14
ED
E5
F8
09
F8
05
04
F3
01
12
E8
03
0C
DA
F7
D3
E1
1A
0D
1D
19
FE
1D
0D
E7
20
00
15
02
FF
EF
E2
DA
0D
29
D7
12
EB
DC
FF
ED
16
20
ED
0A
18
C4
06
DF
F8
EA
10
D4
F5
0F
F9
00
23
07
EC
11
18
FB
0C
E1
19
ED
E5
2A
E3
02
00
FD
03
C8
1C
EF
FE
13
11
F1
D2
09
EA
F5
19
FA
ED
01
04
09
0D
20
00
00
FD
2B
F9
F0
18
18
FB
19
16
0A
F0
03
FF
E1
02
1C
06
14
D9
ED
26
10
F4
E8
04
06
02
FE
10
CA
D1
ED
06
ED
02
35
11
09
15
2D
15
1C
17
CC
0F
DF
E7
FB
E9
08
01
F3
F8
EF
DD
22
2D
22
11
14
08
0B
13
C1
06
2E
D9
05
EE
09
13
E0
D2
00
D8
1E
D6
F0
08
1F
CC
E0
0F
CD
AE
F2
F9
15
E6
16
FD
E7
FD
17
14
00
02
03
05
FF
F5
1C
ED
E8
E7
F8
1F
B0
0D
25
FE
16
0C
1E
07
02
1C
18
FB
FE
EF
04
DF
11
FE
ED
F6
02
31
FC
F2
DB
05
F7
0E
E5
0A
16
EE
E9
D8
1A
1B
03
2E
FF
FC
C4
FF
08
00
34
02
D9
0B
13
FD
F5
08
13
DE
16
02
1E
08
F7
F5
27
EA
38
2B
E8
EF
FE
FD
14
05
04
FE
D3
08
2B
0F
E4
E1
FC
F5
17
0A
0B
1F
2C
F5
07
09
08
11
15
D7
03
E9
03
04
10
D1
F0
06
05
08
F0
13
FD
DE
09
E1
30
C1
F7
F3
21
FF
16
F2
18
07
F6
07
14
FA
FB
28
19
DD
FA
FE
0F
07
22
E3
24
0C
E4
C9
08
06
4B
04
F6
00
13
EB
08
21
E4
33
DA
0D
02
F2
0C
10
0A
DB
CC
EC
0E
FA
15
FD
34
EA
1C
F1
04
E9
E8
22
16
EF
0B
E5
06
10
D3
DB
EE
00
0A
09
FB
C4
FB
F5
0E
0E
D6
FB
FE
E6
EE
F3
0D
0C
D3
D8
EA
ED
D7
FD
F9
08
0A
FF
FB
0C
0C
EE
06
E2
10
DF
FE
ED
03
0C
DF
D8
14
25
FC
DC
D1
F5
0F
FE
F7
F9
19
EA
22
04
EA
E4
12
EE
D9
FC
FA
12
06
07
08
E8
23
1F
FF
AC
22
06
00
D8
02
09
0C
F0
28
22
05
06
09
07
E3
0D
29
00
2D
FC
1E
35
F1
F4
FC
16
00
EA
E7
DB
20
A4
FD
16
04
18
E3
11
D5
06
21
FC
00
DD
00
1E
00
BC
00
02
F6
30
C9
F2
01
19
FB
E1
25
EF
18
04
22
01
02
EC
22
19
FC
F3
02
1C
1C
F5
0C
F0
D6
0B
13
1E
17
FD
FC
17
01
20
10
05
EB
D6
D6
CD
E4
00
F1
10
13
3A
32
F7
0B
23
ED
EB
F6
FD
01
D3
1B
00
D9
1E
01
2A
E2
FE
0F
16
02
19
02
F6
18
F7
5A
0E
0C
24
13
F6
0C
0E
00
FF
09
FD
D7
F7
1C
06
F1
EA
FE
0B
09
FA
F5
37
01
0B
31
10
FA
EC
20
06
20
36
EC
01
0F
2D
F9
D2
04
E8
DB
10
F3
31
EC
F8
01
16
1E
2B
FC
D3
16
F8
D2
13
E7
0F
3C
0B
EC
E9
36
06
EB
22
12
11
CE
FA
14
BA
05
F6
11
F9
EA
24
01
EA
F0
0B
D2
F7
0C
F9
14
08
26
05
E0
EC
27
29
03
05
0B
03
E2
0C
31
0C
E8
11
EA
0F
E1
25
E1
D2
05
15
F5
44
F5
29
FD
FB
0E
2C
E8
E2
F7
D2
16
D4
03
1F
0C
15
22
F2
E2
DF
FB
D9
32
00
17
C8
F7
FB
E6
03
EB
0B
20
FD
FC
C8
FA
D0
FB
FA
F8
04
02
0A
F2
E7
DB
1D
05
03
F1
16
13
F9
CD
EB
20
F9
FB
F4
09
09
0A
25
D2
FA
FC
F7
30
F0
07
1D
01
0E
EF
18
0E
09
2B
D7
23
07
E3
04
D4
01
06
E1
40
F9
09
F6
CF
F4
02
01
00
2D
3A
13
EB
F2
F5
11
E5
C9
08
EF
F8
0A
05
F0
0E
FF
15
FA
00
E7
EC
03
03
EB
ED
EF
F6
E7
CA
F8
09
07
18
19
19
EF
19
ED
16
28
CA
16
F6
FA
E0
FD
1A
2A
E0
F3
F6
EE
16
0C
00
E4
09
FC
FB
FB
06
03
E3
FE
F9
04
E7
0B
10
F6
0B
13
FD
EE
20
F6
F8
19
EB
EA
F8
F8
13
0B
DB
FF
41
DC
17
EB
F8
29
EC
08
08
04
B9
CA
11
01
CF
25
ED
0B
F0
1A
15
03
EA
0F
12
E0
08
E6
EB
D2
EE
F9
09
31
0B
EE
26
C7
00
C9
EB
EF
DC
F6
12
DD
F6
D4
DC
EE
E5
EE
0F
B9
04
1A
E4
FE
02
08
D0
DA
1E
FC
0B
E4
10
EC
DA
0D
FF
FB
E3
F3
0B
DB
05
F9
2D
1B
09
19
E6
BE
00
06
08
02
FA
06
F8
D1
E7
F6
F6
09
E4
27
EC
F5
0E
07
1C
EE
EF
F2
F2
2D
00
EE
07
FF
FE
E8
04
08
DD
10
16
32
2C
0D
07
16
EE
EC
F2
F8
04
FB
47
0D
F5
F6
D4
E6
FC
D9
08
0F
22
FB
02
1A
E2
E6
F6
DC
DA
0C
04
F6
27
F8
06
13
04
37
04
16
20
0C
1E
E5
0C
20
BE
01
DC
FD
F2
19
DC
E2
EE
14
FC
13
EB
E8
1A
DD
E6
C9
0B
15
E5
1C
4B
08
D5
F8
25
07
F0
12
0E
D5
D8
46
0B
EB
C9
34
01
E7
F2
F1
D5
F4
D9
F5
F5
DA
F8
FF
F7
00
03
F0
09
DD
C7
EA
07
1D
DD
12
F5
E8
09
13
00
06
FD
D1
10
F4
E6
EE
DE
F7
E8
17
13
F9
F8
EE
C7
E7
00
11
F8
2F
E1
EF
16
20
07
D6
03
0A
1A
F9
F4
13
10
CB
D5
F8
EE
E2
DD
06
DF
F3
1C
08
D9
F8
FD
17
0E
02
FD
DA
14
FF
F7
EB
F9
D5
11
0E
37
13
DD
FE
14
FA
FF
03
F4
13
13
CF
D2
FE
0D
FF
EE
FC
FF
F1
BA
12
F8
37
F0
18
CF
D8
01
DF
FE
E8
D4
CE
E4
F0
03
E7
D1
10
EB
E7
F7
FB
FF
00
E4
14
D1
EF
F6
F5
EE
28
F0
1A
D4
E9
DB
FD
0B
0A
FF
1F
2E
1A
0B
F1
C3
12
06
C8
CD
DD
F2
09
05
18
CB
FD
02
F3
FC
D4
20
17
06
05
11
FE
04
2B
1E
03
C7
EB
E2
03
34
00
DD
F6
FD
13
0D
F6
F4
08
FF
D3
FC
CE
EC
01
DF
E8
14
CB
1D
CB
DE
01
F2
E5
08
0C
E8
FF
1D
F7
40
DA
1A
F5
07
EA
E6
EA
01
11
F8
E8
FA
0C
DF
0B
10
09
E3
17
2F
C9
FA
D5
00
06
FA
0A
26
FC
D9
00
03
0A
14
13
2B
3D
05
E9
FA
11
11
FF
F8
E5
FA
0E
04
F7
EC
E3
11
18
F3
08
E6
F2
02
F8
22
E4
29
27
13
F3
19
FD
0C
F0
00
D5
FD
11
09
F0
FE
F8
FB
E3
1D
17
12
D6
F7
1B
2A
0D
20
F8
E5
1C
F2
1C
DA
0E
DE
0C
0D
06
F9
DB
E3
F6
00
27
EE
D9
F4
CD
00
F8
E6
12
D6
1C
DE
FD
25
F4
0E
F8
55
0E
39
E5
F8
11
FD
25
F7
ED
08
0E
1C
F5
2B
E4
E5
E9
FB
07
E4
29
F3
05
D3
06
1A
F8
C6
FE
0F
47
F9
D2
EC
0F
07
FC
FB
26
06
1D
20
E1
0D
CE
F7
F3
FD
E1
F1
F2
33
F6
15
FE
FF
EA
0D
22
ED
0D
02
F6
05
DE
DC
14
F4
FD
EA
13
E7
07
E6
D7
AF
09
14
D7
1B
1D
03
04
FB
FE
F4
EF
0B
FE
F6
E4
04
EB
D5
13
02
0F
E0
1A
24
0E
EC
01
10
12
0D
15
02
08
EC
15
0F
DA
FA
0E
12
FA
05
FF
BA
FA
F6
CA
17
16
09
17
EC
14
21
F7
04
20
13
F7
F4
ED
DE
E9
E7
0A
2B
04
1D
1B
CC
F9
D6
05
CE
16
FC
E4
02
01
DF
FE
FA
00
DE
F7
04
0A
FF
FF
08
02
F5
EF
22
00
05
26
FE
DA
20
01
12
F5
02
EA
E0
0D
F6
10
0F
F9
26
0B
FA
0D
22
5D
F7
FD
31
1F
E6
FD
E5
03
DB
24
F6
F3
E4
F3
F8
F7
E2
E5
03
F1
FC
05
03
2B
E9
E3
10
02
02
04
B9
EA
F8
11
01
0E
01
F6
12
1E
E2
E5
D2
19
09
C3
1C
F0
1C
08
0E
00
F7
F2
18
E1
18
F8
D7
17
17
F2
F0
F8
07
BF
0A
0A
12
F5
FA
52
18
20
09
EE
BC
21
EE
BA
2A
FE
0F
E4
2F
EF
E2
FA
F1
1A
DB
F4
E7
11
FB
39
2B
DC
FC
EA
39
18
DF
ED
09
00
FC
1D
F8
06
E8
D1
EC
FC
DD
12
22
0A
10
F9
FB
E2
FC
FF
27
0F
12
1C
08
28
0E
14
D3
28
03
04
D7
EA
25
F7
F9
10
F4
F0
C4
33
05
F7
10
1D
DA
E9
CD
D2
FB
FC
F8
26
04
FE
E8
41
09
14
15
E3
F4
18
2C
FC
14
FE
04
12
13
EE
F5
25
CB
DA
E8
0B
20
22
FE
2A
FB
04
EF
2F
0B
F3
FD
FC
D3
E6
0C
EA
01
F4
F0
F8
F2
F8
05
13
04
F7
17
39
05
FA
1D
3B
DE
36
0B
07
06
3F
E3
E9
FB
23
2E
06
D4
E2
01
1E
1E
F6
EC
0D
EE
12
EA
F3
08
FF
FC
0D
F1
06
0A
0F
FF
04
E6
DE
E9
F1
F7
DE
11
11
1A
03
F3
F8
F8
24
16
33
D5
D7
18
34
E3
09
10
EA
F7
12
1F
D9
09
CE
FE
00
06
F1
0E
1B
EC
14
17
FB
DD
EA
22
08
FE
19
09
2B
F7
F7
0B
FD
02
E4
08
F3
1F
F1
EE
27
FE
FB
19
04
18
0F
1A
01
E3
16
0F
0A
DA
EA
F2
F6
F7
03
17
EB
D4
F4
D4
F0
F5
1B
FA
FF
05
00
DC
00
03
E5
55
19
02
FC
F5
2F
3F
04
F3
EE
E6
DE
29
02
28
05
2B
0C
EC
F5
15
FE
20
08
D5
0D
F7
E0
D8
F7
F8
E4
05
FA
DE
14
DF
E5
FE
ED
06
E5
31
12
29
07
E6
09
40
0A
E7
0B
ED
1A
17
26
0A
06
13
1C
04
09
10
FF
D4
07
40
E9
F3
1F
2E
14
1F
0F
00
DF
0C
02
EC
FA
9A
22
D1
EA
41
0D
C5
1C
F2
1F
20
15
E4
0E
12
2E
E8
02
1C
03
F9
DB
EB
F9
11
CA
30
F0
D2
D2
01
25
E8
F4
05
F0
0E
DF
11
13
0F
FE
E9
E6
1A
3C
EA
10
F6
E7
FF
1D
1C
FB
FA
14
DE
F7
09
0E
F6
F9
FA
EB
17
20
F2
C6
26
1E
E4
12
19
41
F8
1C
23
09
0D
FD
09
23
02
31
F9
1B
EC
03
E6
E7
E7
0A
0D
01
1B
27
11
EC
FE
F0
ED
EB
09
F1
FF
09
F5
1D
21
11
FC
05
1E
04
EB
0E
E8
21
D0
C8
09
E2
01
27
0D
EE
E2
EF
15
FE
0D
FE
03
05
1D
E6
16
FC
20
02
0D
E0
F7
0C
08
C2
F2
04
16
EE
EB
06
F0
E3
2D
0F
F2
F8
26
01
FD
E6
0A
0A
00
E2
FF
FD
EC
04
EC
0D
2B
27
21
1B
01
EB
07
FF
09
1B
12
17
FE
FD
0F
30
FA
28
E2
E3
20
06
0C
1C
1D
EF
E4
FF
18
34
0F
F0
03
FD
18
E2
4F
DD
26
04
13
02
18
F7
25
0D
F2
F1
C0
FB
F7
0F
F6
03
01
F7
FE
05
F0
E3
ED
23
17
FE
ED
E2
EC
E7
F7
DC
FA
EA
13
06
0C
F5
F3
12
F2
18
04
00
19
F5
0D
E9
EE
EC
F6
39
42
0E
F9
FF
DF
FA
03
F2
FE
E8
E2
DB
FD
10
F4
FF
06
D2
F0
15
02
32
E6
FF
F3
C8
28
F6
FB
F2
F9
05
07
B4
1A
D2
40
ED
FF
F3
E2
0B
01
0E
0F
FB
D7
14
DF
09
1B
11
25
07
02
DB
D5
FA
EB
E5
10
EF
DA
17
F1
0C
07
0A
03
FD
F6
FD
FE
ED
1B
00
1F
28
DD
E3
2C
37
FD
0E
05
08
0B
04
F7
EA
07
04
F2
E0
0B
DB
EE
EE
E0
12
04
F2
08
13
08
0E
F3
F5
C7
29
0B
EB
2D
0C
D1
0E
06
E3
14
E3
E9
1A
F7
1E
23
04
18
18
D6
00
D6
F1
FC
E3
29
34
E6
F9
10
FD
FF
0A
04
F8
04
04
E7
ED
E8
FB
EF
0D
00
F5
D3
E1
15
2A
23
DE
38
04
02
ED
F1
FD
06
08
D5
22
E4
17
16
FC
EF
1D
E9
23
1B
12
08
01
FA
09
03
11
0B
F7
ED
04
FC
F2
ED
FC
1F
FD
F2
F3
09
17
EF
E3
E4
D4
16
F8
18
1E
04
F9
10
F6
15
02
1B
F8
23
BF
BF
06
D3
02
00
39
03
E2
E9
1F
EF
18
04
FC
F6
EE
15
1E
06
2E
EE
F2
13
EF
06
FE
1E
09
F8
19
34
18
FC
03
25
E4
08
E5
BC
DF
26
01
DF
F8
06
F6
F9
F6
0B
36
E8
F9
F4
1F
F3
00
16
15
F6
FE
09
FE
F9
15
03
F8
1D
01
F6
01
09
1B
31
E6
F3
E7
DB
DF
02
25
ED
ED
29
07
12
FB
EE
E9
12
D8
F0
EE
CC
E1
F4
FA
0D
FE
BA
D6
1E
EB
06
C9
EA
D1
EF
04
17
D7
1C
D9
00
DA
F7
D4
06
F8
EA
EF
DD
E9
FE
0B
F3
FD
C2
F0
01
06
01
FB
EE
0E
08
EE
2B
19
E2
FE
27
14
F2
10
29
41
2C
42
08
C3
10
04
30
02
DD
F6
04
02
2E
20
07
F3
22
23
F6
EE
DB
F1
FA
FD
F4
F0
2F
1E
EB
F8
F4
06
31
DD
D7
17
0A
00
0E
15
13
F8
DA
F1
F8
E4
07
05
20
00
D0
FA
E4
CD
E0
DB
03
25
12
F2
08
F1
09
F7
18
28
27
28
E4
FA
01
DA
D8
CB
1F
01
F9
24
04
12
11
FE
07
20
0A
D1
3E
38
17
0A
E8
05
F6
FE
18
3A
E1
3B
F7
09
E9
34
FF
24
F7
0E
EC
18
C8
FF
FC
E3
EC
18
E4
14
F2
0A
1A
01
18
06
18
25
1F
EC
1A
26
21
02
D8
EC
EE
12
17
E8
D9
1B
DF
1E
14
08
23
F6
1F
00
1C
03
E7
04
12
DB
EC
FF
24
FD
04
F7
D9
CA
EF
07
02
26
FC
0C
F8
1C
32
13
FC
EC
07
0D
F2
1E
28
00
D8
B9
F2
06
46
D7
25
17
2B
CF
15
C6
DF
0D
FA
EB
DB
10
06
FB
D5
FF
26
E5
FC
1A
F9
1D
2A
F3
24
F0
FA
09
28
DA
F4
D2
0D
E3
DF
0C
F2
0C
06
0D
02
FB
0E
00
0B
13
EF
14
F5
02
17
FC
C8
EF
0A
17
16
F8
17
27
19
53
00
F6
1F
0C
F9
3B
29
F9
17
EB
E6
F3
0E
03
D1
10
08
11
1B
15
04
11
2D
09
D6
0E
19
20
13
18
F8
18
F5
05
E8
EE
06
F3
F6
29
D1
E6
FD
0E
EF
EF
E8
C6
06
FD
27
F2
E6
F8
17
03
EF
10
F4
EB
2B
F5
E5
1E
02
FE
F2
17
42
E0
F7
12
14
ED
14
0D
E7
FB
ED
1C
0D
F3
D1
E8
E8
EB
EA
FB
12
FF
11
04
21
06
E6
EC
F0
F5
EE
20
17
BB
08
23
E9
F9
00
0D
04
22
02
EA
F3
FE
F8
03
D6
02
F6
D8
E2
30
DC
08
22
E2
E0
F6
09
DD
F4
FF
ED
FD
DB
21
F7
13
E6
1F
0A
2D
E0
0E
FA
3D
04
EE
FF
FD
06
07
EE
E3
09
35
2F
12
27
F2
11
F3
22
2D
FC
37
F6
EC
3E
40
1C
0E
05
17
DA
12
F5
F4
E9
FC
17
10
36
16
10
E5
47
17
29
F0
D4
FA
E9
17
27
1F
01
1F
26
3C
E8
32
11
1F
0A
07
28
0B
F0
EF
14
EB
09
CF
06
F1
22
EC
E4
AD
DB
05
07
D8
C9
1E
EA
E6
DA
2D
04
FE
03
41
03
1C
ED
F5
1B
11
DD
C0
FA
1A
2A
1F
F7
00
30
F0
02
29
F3
0E
1D
FF
02
D6
F2
0B
EE
05
2E
0D
18
26
02
F6
16
FD
20
F5
09
BE
ED
E3
17
0C
01
15
ED
17
E5
07
F7
1F
DC
D4
F0
DD
1F
FE
17
07
01
E6
17
F1
D8
28
01
E9
D2
44
FE
F4
DE
16
2E
20
F7
EA
E5
18
F3
24
2C
EB
F8
FE
FD
03
DF
08
0B
1D
05
DB
E5
F3
2A
19
0A
2C
DA
29
F7
11
D9
04
18
0B
11
FE
FF
12
F2
19
F5
EA
D7
FB
FE
0E
ED
10
F8
DE
13
F8
04
E5
26
02
D5
0E
1A
2D
23
17
F6
DD
FD
DF
0C
F2
CF
17
EC
0D
0D
EB
F3
ED
14
00
E1
CB
0E
FE
01
EB
0C
FD
D1
FD
E7
10
D4
F8
16
0A
F9
EB
13
ED
0E
16
EE
07
F5
FD
08
E6
16
D8
1D
24
FD
01
ED
22
FF
F8
1D
F2
03
F9
EB
FE
19
17
FB
F1
F0
1A
05
05
F6
00
02
E0
07
09
02
1E
17
CC
0A
01
E2
0A
EB
D6
13
16
E7
DE
03
FF
F9
10
1D
36
05
04
FA
55
FB
D7
ED
ED
1B
1D
FB
22
26
E5
1C
F1
F4
F6
F2
CC
F0
04
1F
CE
25
EF
23
1A
FE
17
CA
F0
29
1B
03
30
D9
12
2E
13
0F
F7
10
16
18
F4
0F
BF
F0
FA
1A
DA
F9
00
06
13
26
E1
F2
03
17
ED
1D
04
F0
FA
1A
B8
FE
1A
FF
2C
10
EC
22
F5
2E
FC
42
1B
05
1D
D8
22
16
ED
06
12
13
02
00
27
0B
03
E6
02
0B
01
19
2F
D0
F1
F3
EF
FA
E6
16
29
06
03
F0
01
F6
E2
F6
0F
18
DE
25
26
FE
0E
F9
07
E7
DB
21
0F
FD
19
F4
2B
D7
13
09
12
F8
FC
E8
0E
01
EF
20
12
29
EF
EE
EF
14
CB
E1
17
DE
15
1C
22
1E
01
09
23
F2
2E
EA
10
FB
02
FA
07
2A
FA
EB
31
FF
25
E0
E4
EB
B7
25
2E
30
1A
0B
03
F8
04
1C
CE
24
12
20
02
0E
13
0B
DB
0B
E9
F3
33
F3
EE
FE
0A
13
07
43
07
3F
F5
21
0C
01
FD
F7
2E
20
32
03
42
FD
21
24
36
EB
F0
13
01
F1
10
09
10
D5
E0
27
F0
F7
FA
16
05
EA
03
0C
27
25
1C
F7
18
19
0B
16
10
0E
39
0A
F9
F8
05
00
E4
FD
24
DF
02
EB
E5
FB
00
3F
1F
F3
E9
E7
02
19
15
F9
26
DE
E8
F8
00
1B
D3
EE
EA
F1
E8
F4
D8
F8
D1
EC
F4
E2
F5
EB
2F
EC
19
0E
F9
3D
D1
01
10
EC
18
06
10
0F
DE
F5
E9
01
E6
FF
11
F9
4C
03
D2
03
E1
FD
15
F1
E6
F5
EA
F4
E5
F6
00
C7
0A
27
28
18
E6
29
00
F4
E6
28
04
D2
16
DD
FB
12
18
2E
17
BB
12
1B
16
FA
FC
16
07
18
F4
03
11
FC
F3
16
D3
F5
F3
07
CA
14
1D
00
ED
EA
EE
17
1C
F5
CA
17
2B
15
0D
EF
E9
E0
10
22
11
13
F8
FD
EB
D3
05
10
F5
08
07
01
0F
D3
F0
DD
0B
09
FD
0D
F4
C9
EB
1C
E9
D4
F7
40
1D
0F
1E
DF
01
F5
F6
2F
DC
DD
09
13
FC
35
EB
0B
06
E0
21
FC
ED
3B
14
08
13
F8
08
E2
ED
0F
06
0C
06
07
02
FF
EE
FF
D5
F7
35
F1
00
18
FD
E7
0D
07
17
D4
11
28
DF
F0
DB
0E
E5
19
EF
CB
02
F7
DB
ED
20
01
15
15
08
13
CF
23
EF
16
EB
15
E7
DE
E7
FA
15
FB
F7
D4
0A
3E
DD
03
E9
08
E5
03
E5
F8
27
0E
E6
0A
05
01
D4
F2
01
FA
DA
3B
0B
CE
35
0C
F7
EF
F4
E2
FA
04
0C
05
1C
0E
05
FF
0A
08
E6
00
EE
FA
04
2B
00
F8
FF
FA
05
E9
F4
18
FE
05
30
F9
1E
05
E0
F4
28
10
EF
04
F8
E9
08
F8
19
0D
04
1E
F8
10
1C
E7
FD
DF
F4
03
EC
EB
1A
FD
0C
C1
29
FF
F4
D7
02
FD
07
38
0E
01
EF
F8
EF
FB
F7
FB
08
03
4B
07
10
F6
10
08
43
0F
FF
F8
F7
FD
05
FB
F9
01
1B
0F
1A
20
2E
ED
0D
E4
06
06
04
F0
09
1F
D9
08
09
EC
FC
FA
17
26
FF
F5
0E
00
16
F7
05
0F
27
14
FE
03
01
FE
02
E7
40
01
D7
06
00
D8
EB
FC
EC
F0
ED
08
21
F4
EC
21
29
F8
EB
35
E9
FE
F8
EE
0B
09
F2
22
BD
D3
09
16
F4
E8
F5
18
08
18
12
03
D2
FE
FF
14
2D
CB
C4
41
0A
E7
12
20
1A
ED
1A
1A
ED
15
0F
E8
FE
2A
0D
2D
22
10
37
FA
EB
ED
2D
07
FD
E6
2F
02
17
1B
24
08
2C
E9
0D
DC
F7
FC
00
FB
F2
06
20
20
1B
11
DB
DB
F3
F9
ED
06
00
F4
18
1B
FF
ED
2E
FD
E6
FF
F7
0A
E4
ED
1D
E3
20
01
05
F5
E8
F3
F2
DE
32
03
0F
F1
F2
09
F2
D5
CE
E1
3D
F0
21
12
FE
00
15
FB
06
0C
FC
07
E6
0E
07
D6
DC
FA
E3
BC
15
19
F9
27
2F
01
05
09
0E
31
E2
DF
E5
F8
07
FB
D9
45
03
ED
F1
08
EF
01
1E
D9
EB
EB
04
02
FE
CB
F7
BA
FF
03
09
12
EE
04
39
F1
E5
43
20
F0
FF
23
F6
03
24
EF
1A
0C
E1
FD
14
EB
12
F4
11
F2
19
16
E9
09
E7
FA
DC
D7
14
0A
07
13
07
FD
EC
EB
FD
F3
EA
D3
03
23
F9
05
05
1F
4E
E7
13
35
FE
25
1F
02
09
0E
DB
EA
00
20
D2
BE
FE
FB
F8
E0
D7
26
11
F2
E0
DD
DF
01
E2
EA
0A
22
07
FD
1A
FE
F1
0E
04
EF
02
DC
F7
FA
14
E1
0B
19
FF
DB
C7
45
EC
0E
34
13
FE
FB
1C
FC
27
BE
1A
EC
00
FE
F8
B6
0C
08
DC
EC
09
17
DB
E9
F0
E6
08
F6
FB
03
FF
10
E5
25
F4
EC
D2
DF
3E
07
ED
10
11
CC
17
FF
05
25
D5
CF
1E
15
F5
CA
26
0D
EE
F5
03
D5
F9
F8
ED
30
16
13
03
F1
FC
34
00
DD
23
09
F0
F4
29
F3
0A
E5
F0
0B
2A
0D
EC
C1
09
DA
E5
0F
0D
27
C3
FB
F9
0F
12
D2
EE
16
F2
25
E9
1C
1A
E3
07
F6
0B
29
07
F7
17
25
0D
00
DB
F1
F3
FF
E8
13
2A
FA
F4
F4
E6
E9
ED
EE
FC
F0
13
F6
14
37
04
FD
00
1C
01
FF
17
EF
DD
EB
0B
DF
ED
E7
0F
D7
FC
28
FB
03
0E
34
F0
09
0B
E5
08
03
F7
E2
1E
F2
01
F6
48
D8
1D
F4
0D
12
FD
FB
FA
FC
DB
FB
E2
E9
07
F2
2B
13
E1
48
FB
09
21
02
09
29
1A
11
01
E4
0C
0F
3D
F4
02
09
16
15
00
0C
20
EA
D3
1E
FF
FB
17
F3
FC
11
E9
FF
CB
50
09
19
FD
2B
F6
FD
06
EA
15
F7
1D
DE
08
07
FC
E2
31
DD
04
08
22
F5
1D
10
F4
08
17
F4
07
FA
FD
E2
FC
0F
2F
F9
C8
0E
FD
0D
DB
EA
DB
07
F1
1D
ED
F5
29
FA
25
EC
03
C9
43
F5
02
13
10
FE
E8
07
FF
F5
02
06
05
13
FC
ED
25
E8
04
F4
41
E6
0A
04
F9
F0
03
CF
D6
F5
19
DA
0E
EE
0B
F1
F8
EB
A0
0A
1C
0E
F6
1C
EC
37
15
C4
11
EA
FF
F6
2D
1D
EA
DE
E3
30
E6
E0
E7
EF
FA
E1
EA
17
F6
03
1A
F8
0C
0C
F9
0B
31
EA
36
1D
1E
FE
C7
0B
F0
03
FD
0C
C6
EA
FE
03
FD
D0
FA
F2
1E
2B
14
16
EB
FC
0B
F3
F3
07
02
1D
0C
25
1C
FD
01
03
20
EE
F3
00
F9
13
F4
FB
F3
08
0A
10
04
EE
23
D9
E4
E7
FA
F2
0A
0C
EA
F3
E7
E0
D8
EF
0A
F7
FD
0C
07
00
0B
DD
0A
F3
DE
13
0A
D0
E8
E8
11
EC
E0
F0
F6
04
F7
10
DA
35
F0
10
04
EF
16
02
18
FA
F0
D6
24
11
14
0E
EA
FB
FC
FF
27
F8
24
09
FC
F7
EB
1A
13
D5
0C
FB
EC
FF
E9
EB
FF
F2
16
37
EC
FF
E9
11
FD
F8
DA
07
FC
4B
0E
1B
F4
1A
02
0C
02
D8
E9
F4
FB
DB
0D
15
08
FF
EF
DE
E4
1E
09
D1
FB
F1
F5
0D
03
12
E6
CA
39
E0
EC
0A
F9
3D
F7
18
0B
FD
07
E1
D9
17
EA
11
06
0D
19
17
E8
16
0F
F0
E1
F1
C8
0F
25
F6
11
CF
03
CD
1A
20
FB
E6
29
FC
EC
00
DF
10
48
E3
2A
E2
07
DB
E3
E1
E5
28
03
F1
03
FC
02
07
10
D1
10
E3
1E
07
F9
08
D5
0B
F9
14
0E
0F
E0
F8
13
06
FD
1F
DF
2D
0A
E5
10
03
19
FE
03
15
F3
04
06
F6
14
D7
24
F5
DB
EF
06
F3
FD
EC
0E
0C
29
E5
24
39
D8
F8
F1
EC
FB
FE
F9
EA
EF
09
DF
07
24
FF
E8
EF
F9
F7
E2
06
05
43
DC
1C
02
1E
F3
FB
DD
26
DC
E4
05
F5
06
15
F2
1A
05
F5
E0
FC
DE
E1
25
0D
F0
F8
D9
F4
1F
FC
E8
F8
F7
E8
F4
E4
34
1B
FF
EB
DB
0E
11
02
00
FA
FB
04
0D
23
25
D3
29
EC
F4
11
E4
1A
0F
ED
E5
0C
00
F8
FC
09
D0
07
E4
11
DB
F8
0E
E6
FC
14
F7
EF
F1
20
EC
D2
02
0B
04
E0
FE
0A
E0
13
01
00
12
FC
D3
FA
0D
EA
1E
09
06
10
1E
13
54
F0
E8
F9
24
D7
ED
E1
D9
02
0C
12
28
F2
16
EA
22
01
25
0C
F2
F5
F3
E2
20
05
FC
29
FC
ED
E8
0C
FC
FB
03
00
E5
0A
CA
CB
E4
F7
E0
EA
40
D0
F7
EB
F6
F9
F7
09
DA
1C
04
10
F2
CA
00
49
08
D1
04
E9
F1
1A
CE
07
07
11
F4
04
26
14
FD
1E
C8
16
06
EA
0C
E0
DE
FF
DD
D7
00
D1
21
05
FC
08
20
EE
E4
0F
F7
F3
0C
0F
09
FC
3D
DF
FF
06
EE
02
1D
12
EF
22
FC
E8
ED
0A
23
16
DA
E8
F4
01
EF
05
04
1B
F7
10
10
CF
F7
ED
FB
08
08
04
F6
EE
09
07
03
DE
0C
FC
0F
FD
0D
EF
01
02
1B
F9
FE
FA
F7
E1
21
ED
0B
04
0C
E5
1E
04
DE
C5
01
0A
F3
E4
12
FA
FA
14
F8
30
F0
08
D7
21
EB
FD
FB
0A
07
E1
08
10
ED
F0
DD
14
1D
F7
04
43
09
E6
FE
EB
1A
FE
F1
F7
1E
1C
E9
0E
21
04
EB
FD
01
00
EC
01
16
EA
20
F6
EB
16
E3
F3
FB
F1
03
FC
06
CE
CC
08
10
DD
E0
F2
25
23
FC
EF
EC
03
EA
22
FC
EF
00
F8
D8
29
2E
19
10
FF
C9
DD
F2
0C
F4
1F
D5
43
06
44
0C
01
00
EB
28
0F
E6
EC
15
F2
22
1A
04
D8
D8
14
EE
06
E9
0D
F9
01
17
DE
16
1E
F1
39
F9
FB
05
22
0B
E0
D8
0D
11
F6
11
F3
04
03
F9
3E
ED
18
0D
E7
07
24
1F
F2
0B
FF
E1
12
FF
F4
F9
DD
14
34
18
D7
E5
FD
03
EB
18
EF
34
E4
C9
FF
00
15
EB
F5
E2
0B
29
49
1D
10
E8
D4
06
F5
F8
24
36
1C
0B
03
E9
FC
04
18
DC
16
F5
CE
02
10
F3
ED
36
0A
E8
18
21
DA
DB
08
F4
01
F0
26
1A
D4
0A
26
0C
01
E5
E2
FB
CA
16
DF
ED
EB
E5
EB
E7
03
B7
1B
14
1A
F4
01
D4
02
08
08
15
EC
CB
09
F6
10
DF
F1
2C
28
0A
28
F0
02
FD
FE
1D
12
F9
E7
F3
1C
03
DE
0E
10
18
08
10
CA
05
15
01
EF
DE
07
11
07
0F
F7
22
05
F0
12
E1
0E
10
F1
0E
F7
08
EC
07
0C
09
F4
26
E3
F7
F4
15
F1
0A
0D
03
DF
25
15
DF
03
F5
F3
F8
F6
E1
04
F5
D9
F7
CE
DD
24
E4
DF
12
28
02
F7
F6
DB
ED
13
FE
06
05
E2
0A
47
17
FE
B9
F5
CB
0D
29
F6
0B
F8
1B
E3
FA
FE
10
06
F0
E8
EE
0A
DC
A4
12
05
08
E4
FE
08
EB
E7
2B
EF
09
F5
0A
14
E9
D0
15
01
00
DE
05
07
FF
0A
1D
15
10
E4
0F
10
FF
01
FE
09
CE
2D
21
F9
13
EB
F3
10
D6
04
F9
16
EB
29
C9
EA
FD
12
F2
FC
FA
16
EB
02
37
ED
E8
EA
F1
DD
E3
F5
0E
F7
FE
F4
F8
E9
EE
27
F4
0A
E3
FD
00
EA
08
F2
03
05
F2
1C
FA
0A
E3
01
F9
FB
1C
00
06
08
D9
08
E6
F2
08
10
F8
10
14
13
F8
FD
04
F2
09
13
17
F0
18
25
0F
D6
0C
07
04
E6
EF
06
02
12
2C
EA
13
16
00
07
02
00
FA
04
2F
03
F0
05
08
14
07
E1
F8
01
0A
FE
F6
0B
01
16
F9
FE
E6
08
05
FA
17
DE
0C
D3
16
E6
01
10
07
F3
0E
F3
2B
EE
18
17
15
0A
03
0D
0F
37
04
41
0C
FB
FA
D9
08
06
EF
2A
02
14
ED
1C
02
FC
16
F6
F4
F5
FA
EF
00
F9
1B
EC
2F
ED
1C
16
0E
06
F9
2A
0C
ED
FB
0F
11
F8
E0
1D
12
07
EC
E5
F2
0C
19
3C
1C
FD
FC
15
FC
1A
EB
23
E2
0D
D8
10
1F
DD
E6
2C
18
EC
E1
F0
25
D9
07
D8
27
F7
F7
1E
F3
09
04
0A
EA
10
F6
13
03
FC
0D
1D
2B
E2
2C
ED
1B
F8
0D
0A
FB
E4
DD
03
D5
23
03
12
32
FC
11
14
06
EF
E8
E9
E2
EB
02
DD
02
0A
0C
E9
F1
EC
FD
F5
FF
E6
05
08
0C
05
03
04
DA
EF
E7
F2
EB
C7
26
EE
06
DD
06
EE
14
2E
2C
0F
D2
0B
DB
21
EB
0A
E1
39
3D
05
0F
19
29
0B
06
FA
F2
E1
E8
EC
07
0A
FD
F6
07
FC
2A
EC
F4
03
53
13
F9
04
17
E5
1D
EB
17
10
09
E3
2C
05
0D
0A
FC
0D
F7
FF
11
13
EB
0B
14
15
FD
FF
04
D7
23
12
F6
3C
11
FF
20
D7
07
FD
0A
E6
0B
21
FD
01
10
07
12
0B
07
EA
1B
27
3C
EC
F6
00
17
FE
12
04
11
EE
01
F5
12
0E
F8
10
30
02
F0
DD
0C
04
1F
F4
06
18
23
E4
E1
F1
F0
0E
11
FA
20
33
FD
EB
00
07
2B
F5
32
1C
ED
0B
08
01
0F
F4
0F
FE
1A
D5
F9
D1
FB
F2
DE
07
04
DD
F9
0D
0F
05
E7
01
07
F6
F3
02
AB
3F
0F
F3
FF
0A
F1
F0
F7
ED
12
2E
0B
00
18
02
FB
22
22
04
F2
FD
EF
3A
03
FD
1D
08
EF
15
15
FD
F3
E7
FF
FC
FA
05
1C
E4
03
03
DF
11
10
FB
D1
23
F4
0E
0F
09
0C
14
F9
D2
EA
00
F8
F1
C5
0B
29
E0
10
0B
35
06
13
F2
2E
1F
27
07
01
06
F7
D1
E3
0A
26
F0
0D
EC
EE
EE
EA
E3
47
E9
19
26
E2
EE
02
FF
07
E2
03
20
1B
29
04
F3
1B
06
0C
F6
5D
E1
F4
F9
14
19
01
EB
F4
EE
F5
2A
D8
09
02
0F
23
F9
F3
FB
DC
E6
0F
E4
00
0F
D6
F7
ED
17
ED
FD
F0
FE
08
14
E3
FD
19
E3
E0
EE
F9
F8
F4
01
1B
F0
32
FA
D4
D8
35
2C
FD
11
D9
41
EF
09
00
14
12
06
EA
E9
EE
F8
F1
FE
10
15
DF
15
09
12
DE
19
01
0E
FD
0F
F8
10
0B
EF
2A
33
2B
F2
FD
E1
03
D7
F3
CF
FF
19
E8
F1
F3
FC
EA
F5
DB
10
1E
01
FB
F2
E6
1C
F5
F9
E3
05
F6
EC
1E
04
1D
16
0B
E3
EE
FF
FE
09
08
FF
09
21
FE
DE
E0
FF
43
F5
F4
FF
24
09
07
CA
DA
27
12
E3
FE
E3
FC
E5
F2
FB
08
E0
0D
1B
13
EA
D5
05
0F
EE
31
1C
F5
DC
C3
FB
1A
F3
FF
0F
0C
D0
F5
14
13
E5
EC
0C
02
EB
14
30
FD
FE
EE
0F
09
F0
DA
F9
F1
E8
DD
BF
EF
FD
00
1D
1F
2D
09
F1
05
02
EE
F4
02
ED
FB
35
E2
16
E9
21
06
0C
F6
E4
C8
DA
23
07
E7
DB
E6
E3
FE
F5
00
FB
F4
17
DB
2C
EB
E9
0B
0A
EF
E8
0E
F6
E2
E8
00
0A
FC
03
E0
FF
F5
EA
12
25
0C
0D
EE
FD
0D
1B
E3
F8
05
F8
EC
F4
F8
00
FD
27
18
EE
05
DD
0D
36
1C
F1
10
F4
FD
FD
08
0A
0C
1A
D5
F6
E4
19
24
02
02
E8
EC
E6
10
ED
DE
FE
FB
11
CD
F0
11
0B
FE
0A
07
F1
19
04
12
15
F1
F0
10
1C
11
1E
F8
EB
02
23
17
0D
C4
30
F8
24
0A
F4
09
03
1C
2B
E0
F2
1B
E4
E7
06
1D
11
EB
FA
EF
27
09
E8
1F
FA
FC
C6
1F
00
33
04
E7
F2
01
E9
F0
18
05
27
FE
FF
E1
D1
FB
B4
20
DF
E1
FD
03
32
16
F6
0E
08
E1
FB
10
19
1D
E2
E0
FF
F6
03
04
FC
10
EB
1D
F9
FC
FD
E5
00
D0
17
D8
F9
E9
04
FD
0A
FA
F8
E4
FE
F3
1B
16
F5
DC
31
10
00
D2
F1
FF
13
F8
41
13
04
12
EC
07
E7
F8
E4
11
D3
17
EC
0D
25
FC
1F
F0
DB
17
FF
FB
F8
DB
04
17
E9
0A
04
16
DD
FF
F6
2B
FC
DF
F6
C1
EF
F1
05
FF
20
D0
C9
E8
E7
35
0A
FB
F9
EC
0E
21
D2
D5
05
0F
09
CB
14
CB
15
04
19
20
F7
C2
E1
0A
03
00
03
EC
D3
E4
D8
13
D1
FB
F3
F5
EF
FE
10
01
1C
0B
F2
F4
2B
E9
FE
11
32
08
09
4C
FE
1D
E2
D3
EE
18
0B
01
C4
DD
E1
15
10
F8
05
DE
E0
F5
1C
D8
15
E4
D7
FB
0F
1C
E5
FC
0D
FF
0E
1A
D2
00
F8
1F
1F
0A
30
01
2B
E1
16
E7
08
05
28
F2
EF
0A
F8
20
F9
1A
FE
E5
19
14
03
E9
06
FB
05
FD
11
EA
05
E1
1A
09
13
F8
FC
00
08
D3
EF
06
F3
E8
05
DA
1B
3B
EC
02
FF
09
E5
E2
07
3D
25
08
DC
FC
11
28
F2
10
11
16
ED
0C
00
1A
FC
00
07
EE
0A
1E
F2
FE
FC
14
FA
18
0D
FA
15
FB
EB
C0
0A
10
BD
01
0B
FE
07
0F
F0
EA
1E
F9
02
E5
09
29
EB
D3
04
0F
05
D7
EE
0F
FA
0E
23
EF
FB
DB
F6
01
FA
0A
FB
08
FF
18
03
F2
F2
EF
0A
35
DC
E3
12
D3
E7
28
F8
ED
FC
F5
EA
FE
07
D6
E5
F8
07
EA
FB
09
44
12
02
D5
11
2D
F4
F3
F2
FA
F8
0F
EC
F9
DA
02
02
0C
EE
0F
DE
F7
44
1A
13
09
00
DD
FE
16
F8
03
E3
E4
E3
17
FF
0F
CE
0B
F4
16
38
17
F5
FE
EC
F6
01
F8
F2
05
1F
31
07
FC
F2
FF
FB
F3
F5
0A
FD
E1
BD
14
04
CB
FD
EE
BD
11
02
F7
F2
12
0A
E3
E9
D6
06
D7
E6
27
F8
F3
10
D2
E2
EE
23
06
1E
16
E4
ED
14
FD
E2
F6
EB
F1
32
E2
3B
EC
0A
E8
FD
21
0C
40
FA
F0
E4
DD
02
AE
E8
E7
ED
0A
F7
FF
EE
FE
F0
F3
F7
15
E4
11
26
12
06
35
F4
F2
03
07
E0
DF
ED
F7
E1
EB
EF
E9
CD
D3
2C
F6
F8
F8
EC
D2
0C
F1
09
F6
F5
11
24
13
ED
43
B3
11
35
0B
22
1C
12
FF
0D
2D
11
EE
FD
EF
E8
1E
DD
0B
26
F4
E7
0B
0A
ED
1A
1E
0D
FF
DE
EA
0A
E2
19
19
FF
FB
12
1E
2C
E1
0F
22
1A
E5
E0
00
EC
10
0C
E9
DC
13
F8
F0
F8
F5
E7
10
0C
ED
F9
F9
FA
F0
10
E7
FA
FE
EF
0E
11
FF
FA
E8
16
FE
10
FE
CE
E1
12
16
E2
C6
16
28
F6
F9
E3
FC
0B
00
BA
20
FD
EC
E9
EC
DE
E4
0B
27
0C
F0
E6
E6
DF
F5
1A
01
10
FE
FF
21
D5
E0
12
0D
E2
FB
F9
EB
E8
0F
06
E1
05
E5
01
33
F0
1F
45
3A
BD
F7
1C
00
FF
03
FE
EC
F1
F2
D5
03
0A
C3
02
0D
15
05
E6
F2
D0
13
1B
23
FD
0A
F1
FD
00
F0
07
00
14
35
0E
FD
03
10
CB
D8
07
04
1A
2B
11
F1
DA
EE
F8
12
DC
0F
00
0B
0B
FB
0F
18
E0
F8
23
DB
F8
29
16
DC
0F
F6
02
1B
E9
DB
DF
EB
20
0F
24
18
05
DA
03
15
EE
23
FC
38
F9
37
3E
0F
E0
F4
04
04
E5
17
FB
00
C5
F6
09
00
FC
14
BB
F5
E4
FC
EF
14
11
C7
DB
E9
04
24
ED
0C
18
F5
2C
03
FD
FB
DC
19
04
12
00
05
DF
01
06
09
F8
09
ED
07
B6
34
F8
1C
01
D6
E8
10
EF
F6
29
FD
0A
FC
DB
F2
FE
F4
10
EF
F2
05
F8
0F
1F
F6
F0
07
31
1C
29
EA
02
07
FD
F8
F4
07
0C
03
23
FC
FF
F9
01
0D
00
FA
05
26
DD
39
1F
24
FC
EB
00
00
09
0C
2E
FC
D7
EE
ED
F9
EF
F1
35
13
1F
F9
0D
FF
0D
03
23
14
22
1B
DE
0B
F9
C2
2B
F7
FA
EF
FD
02
16
E5
09
FC
FC
1B
21
EC
F5
18
23
12
06
E3
02
07
EA
07
FE
D8
F2
02
06
0F
23
0C
12
ED
EC
F1
21
F7
EC
E2
0F
14
00
FB
E1
00
FE
FA
1B
F8
03
17
F8
19
1A
0E
18
0F
CC
17
0C
24
E4
F0
FF
12
0D
E6
FA
F1
05
F2
10
02
20
EC
04
14
0B
13
FF
FD
FB
F3
0D
1A
E6
FC
05
05
FA
16
24
FE
FB
21
CB
FF
E9
DE
00
F2
0E
11
F7
F6
EC
F8
FB
0E
00
43
15
F6
F9
04
01
F8
EF
F1
12
22
28
FB
E9
FF
E7
F2
1C
EB
11
1C
F9
29
FA
DF
F2
DC
0F
15
EA
13
3D
1D
F6
F3
0C
26
DF
EE
00
FA
DD
F4
FC
08
E6
F8
2C
03
F0
1E
0B
E5
EE
C2
FC
1C
E9
D5
EE
D8
20
14
FD
0D
E7
04
2D
03
F1
EF
D2
17
E3
0F
0B
E1
04
09
15
20
05
15
E3
17
0D
FA
FF
F5
1D
01
F7
FD
1E
E8
EE
26
F3
EA
0E
ED
0E
DE
F6
22
20
0C
0F
25
EF
15
DE
30
0E
15
03
07
06
BA
31
02
1C
F8
14
16
22
FA
D4
FA
D9
E3
F6
FE
0E
2D
D9
19
1E
20
D8
E4
EC
DD
F1
10
00
03
07
0A
FF
FD
03
EB
F1
F6
27
F3
07
0B
EB
FE
FA
18
09
13
07
10
E9
14
04
1F
03
F8
15
16
E6
14
32
EA
D3
12
DD
03
FF
63
05
00
C1
EE
16
0A
27
05
F9
00
0D
10
EF
16
F9
05
02
E3
19
FE
18
01
F3
11
F9
FC
05
F1
17
10
EA
E6
FB
FD
ED
04
CF
DE
25
F8
F6
F0
15
2C
E7
11
F1
17
F7
11
F0
10
F8
26
0A
0D
0B
ED
17
13
16
F0
EC
CF
11
04
36
FC
FD
16
F2
0B
FD
EE
10
FD
3E
0A
13
1E
E8
EF
F4
3C
1E
2D
34
F3
ED
24
F4
17
13
2B
0A
1A
07
3A
EE
13
F3
13
EC
EC
13
03
F8
EA
04
0A
E1
00
1B
FC
2F
D7
E9
F0
F0
DD
0D
1B
E4
0C
E0
E2
E9
DD
CF
08
0D
FC
31
FB
28
CC
F4
EA
E1
07
08
01
24
E9
03
FD
E8
00
DB
F8
03
EC
F4
F6
F0
FD
EE
07
FF
01
10
EF
05
41
E5
DE
F7
EE
1D
20
06
FA
35
1E
22
05
23
0A
EE
FD
FF
ED
F2
F0
25
DF
23
EE
E4
06
F6
17
D3
01
2A
11
02
DD
E2
FA
E0
08
F7
E4
F3
2B
01
02
29
19
E7
E8
15
F7
E5
12
1E
FF
16
0B
FB
FF
0D
38
F9
09
09
FD
06
D9
ED
10
03
D6
06
21
F9
0D
27
FE
01
DA
0A
15
08
01
FB
CA
E2
0B
40
07
F5
00
05
2B
1B
13
0D
F9
F4
BA
E4
01
FD
0B
DD
D7
00
14
11
FD
FF
E7
04
2F
30
F8
DB
1D
2F
02
FF
EF
02
EE
03
19
26
19
01
27
13
0B
1C
16
DC
EC
11
E3
11
07
F6
1D
41
26
13
06
03
07
FA
19
3E
30
0F
FD
F1
02
2D
E5
02
F4
FC
37
FE
FF
EC
FC
27
FF
F4
F8
1D
21
09
E8
DE
06
D9
FA
0C
07
FB
E1
E4
FB
EF
07
FE
02
07
DC
0A
20
05
DC
09
19
14
0A
F9
C9
00
34
34
12
11
F1
CA
FF
DD
0D
15
FC
E0
17
1F
14
03
EB
02
24
C9
1A
D8
06
12
E5
F0
E3
11
0D
EA
0C
07
EC
10
0C
27
04
07
07
E3
E2
1B
FC
12
05
EF
FE
F3
C3
F2
03
FB
F0
F1
D3
02
3F
14
31
1B
FC
0F
0F
06
FE
DA
00
EF
FC
03
FE
1E
ED
11
F9
B8
DC
03
E0
DD
1C
F7
27
10
19
03
06
32
DC
E5
E4
07
00
33
25
DF
03
FD
1D
21
11
F5
1D
F6
0B
FA
FD
10
12
05
E1
04
D3
3C
DB
0D
0F
1F
FB
C2
23
02
0B
0A
FD
02
DF
03
F5
DF
F7
17
10
E4
25
FC
01
12
B6
09
E6
EE
F9
1F
E7
F5
12
12
ED
00
FF
1C
DE
FE
1C
2A
13
F2
EB
27
DD
F8
BA
2E
FD
C0
11
09
13
FB
F5
0B
27
C7
02
0F
ED
EC
16
0B
EC
04
26
FB
1D
26
02
E9
FA
0E
FF
F6
12
F1
0A
19
F6
F7
03
0D
D5
07
EC
F0
F1
0E
06
D7
0E
0D
11
20
FF
07
05
00
04
F5
DE
01
0F
1B
F9
ED
F6
06
22
1B
26
28
1F
E1
1A
D9
0C
27
18
34
10
02
F3
04
DC
F8
EE
26
2B
E6
ED
F0
FB
F7
06
1F
FA
21
11
0A
DE
05
1D
06
DB
01
FA
03
16
F6
CA
DF
15
06
07
C9
DE
EF
F4
F2
F8
E4
08
06
E9
D2
EE
FC
EE
09
1B
44
D0
04
FF
36
1B
D6
FB
D8
F1
1B
02
3C
28
00
3E
0C
04
0D
EF
DD
41
32
00
FA
0E
03
D6
33
20
27
EA
05
F8
E4
F3
EF
FE
D7
01
EB
EE
07
F3
14
E1
01
55
09
FF
1A
22
03
F7
0B
FA
27
15
0B
F5
FE
1D
E9
E0
20
25
0E
2C
F3
2F
EA
FA
1E
FD
28
0D
DF
03
1B
FC
E7
EF
F4
F6
FE
DC
DE
EC
F2
D4
02
0C
00
FC
D5
02
B7
FF
21
F0
2D
0A
F0
02
05
F1
12
20
DA
3A
F8
DF
FE
E1
F7
E2
2B
F8
17
29
12
0C
E6
0F
DD
1F
00
FD
21
17
07
03
FA
3F
FF
11
EE
FF
07
29
FB
11
15
10
FB
DD
EB
08
10
F1
F3
0D
F5
01
09
FE
D6
0A
FD
10
04
D7
26
F9
29
E4
F8
F3
2C
32
04
22
0F
07
0A
F1
F3
FE
FD
0C
DC
1A
0A
01
1D
1D
ED
04
15
15
FF
18
18
20
02
E6
FC
DF
E2
05
E8
04
F6
12
E3
02
E4
03
FC
FD
05
23
18
F0
F9
11
02
F1
E9
06
15
15
E2
D3
D9
F2
1E
FD
F5
21
F7
0F
EB
11
15
F5
23
03
E6
0F
F3
13
0F
09
1B
34
00
08
22
04
E6
DA
02
12
1D
0D
F8
08
10
F9
DC
0F
21
F5
FB
DF
01
FD
13
FF
D1
07
03
0A
DB
FA
27
E1
D7
F9
20
03
11
C8
0E
01
21
F3
23
FF
FB
0B
0C
02
12
FD
10
0B
33
ED
21
04
32
15
E7
FA
E6
09
F5
F7
01
28
F3
E2
1B
F6
ED
F5
0A
D5
25
05
FC
EA
1B
F1
00
24
E1
06
EC
19
DC
07
D4
0C
FD
29
E4
EF
EE
EF
06
03
FA
02
12
F5
04
DB
F6
18
27
E8
07
3B
14
F2
E3
F2
23
DD
2A
2B
FE
CD
17
14
EA
EE
2F
D5
1B
28
FF
CB
FD
EF
F2
22
24
00
12
03
35
FF
FF
33
FA
01
3F
DA
06
24
18
F3
24
31
E5
CF
F3
09
38
FC
F0
FF
06
2B
07
17
F4
22
F0
DF
F1
F6
F1
F5
EC
DE
09
2A
E8
20
15
F1
FA
1E
05
1E
02
0E
19
E9
F7
09
F9
1B
F1
11
03
CC
0D
02
15
E9
25
23
D3
0B
FA
E6
D9
ED
13
06
05
ED
27
0A
25
18
F7
DA
2B
24
42
E0
EC
0C
D5
25
0A
08
15
00
F0
19
CC
08
12
F5
F9
1F
01
08
EC
1C
EB
D4
E8
FC
14
FC
E1
23
0C
00
EA
11
1A
F8
42
C9
08
07
1C
F7
02
1C
05
08
0A
F9
08
25
E0
F0
12
E9
0E
02
EA
DA
DD
FC
EE
06
F3
E3
08
06
F5
D5
EA
E7
2A
C8
0D
1C
F7
36
F5
16
10
1A
EB
32
10
E0
04
04
E0
FC
DC
CA
F6
04
07
E3
FC
BD
D2
02
FE
08
1E
06
F8
13
1A
F8
EA
0F
E4
EB
12
24
32
14
0F
F2
0F
1C
1F
0B
26
03
E3
E3
26
06
03
DA
EC
ED
EA
13
DC
09
DF
16
E7
C5
F9
F2
44
06
EC
12
1A
F1
06
09
0D
28
EF
E8
EA
19
E3
EA
EE
04
E0
32
F7
0D
26
2C
E4
0A
22
FA
FC
DD
F9
DE
2D
FA
0D
EB
EA
1F
FF
0E
0F
06
13
E8
FE
05
DE
2F
FF
EE
0D
FC
FA
18
F0
EE
07
EB
09
10
FB
39
F7
0C
30
FF
03
17
FC
D7
FE
2A
20
FE
FA
FB
2E
F9
26
E2
09
F0
1F
32
EB
E9
F3
ED
F8
E3
E4
1B
00
E6
FE
C8
04
E6
02
F3
DE
06
00
FC
0D
F6
07
0C
F2
30
04
19
19
ED
2E
FE
F3
1E
15
FB
1A
15
DE
01
1E
F3
22
00
09
DD
EF
01
02
F0
F8
E7
09
33
18
F5
26
1C
DA
22
ED
34
F6
02
F9
E7
FF
E9
08
DB
C2
E0
0C
1D
28
09
0C
EB
EE
E4
E6
01
FF
D4
FC
F7
3F
EF
03
13
F8
CD
FD
F3
07
01
CC
D4
FA
1A
1D
0D
F4
F3
FF
EE
0A
16
E0
F6
12
D4
05
EE
DF
C4
F0
EA
17
FE
D7
1D
12
09
06
F7
E7
03
01
04
22
03
FF
00
B8
01
F4
F7
25
07
E0
18
08
17
EB
F4
E3
E4
F8
2A
F6
0F
E8
FB
25
E1
03
E9
08
FC
01
12
0C
1C
05
E7
E6
EA
1E
05
F3
00
EE
F9
08
12
DA
F4
F3
E2
C9
D1
0B
CE
08
0D
E5
09
E2
E2
F8
EC
17
F9
0C
FE
0C
07
D4
08
03
38
16
12
E3
F6
ED
FB
1D
02
1A
12
0C
C9
E8
22
20
19
10
E3
00
DE
FC
1D
F5
07
21
F8
FB
E7
E3
E3
F7
19
0D
F8
F0
31
D0
1C
1F
ED
08
D9
F3
C9
FB
11
16
EE
E8
FE
21
E9
EC
0B
17
F2
0E
F0
14
07
EB
01
ED
F9
09
E1
20
01
04
F2
E3
FB
E6
03
E1
F9
D7
10
E7
F9
E1
08
F0
F4
D9
21
EB
02
FB
E6
F2
12
DE
FD
10
1A
0B
B7
F7
FD
03
F0
16
17
FF
0F
F2
13
D4
FB
CE
0F
05
E3
F3
1A
00
EA
02
01
C1
07
F8
EF
08
EF
13
12
FF
F2
05
FB
1C
16
E2
0D
20
02
25
EB
1C
15
12
EE
C9
FF
20
D2
F0
E2
FA
E8
E3
ED
DD
0B
03
FC
FA
07
24
CA
E7
EB
00
20
43
DB
F4
00
F8
0D
C8
F9
F2
06
1F
04
DA
0A
06
F1
E6
FB
E9
D5
F1
EC
F6
FF
E2
10
1D
E2
2F
DF
F5
FC
ED
FC
F0
ED
06
01
0B
FA
09
01
EC
17
F9
1E
F7
F6
F2
FA
10
F9
21
16
DC
07
F6
0E
FE
DE
21
EC
1E
1D
E0
F9
DA
1B
BF
1B
07
00
E0
D9
F5
18
F6
F8
24
E1
F0
EF
08
FC
4F
F7
E6
08
3A
F3
28
09
19
09
03
04
2E
28
F1
F5
0A
E5
FE
0B
D3
EC
22
F2
D8
1B
FF
07
12
F0
E1
E5
05
26
E6
ED
D3
F6
13
06
D3
06
EA
0A
2F
18
F2
08
17
EC
F3
F1
30
1B
17
E0
1A
E3
1D
01
0E
F3
F9
0D
E3
0E
C6
21
08
05
0D
15
1E
ED
4A
08
0B
03
FD
F1
40
14
ED
18
04
1E
3D
26
E0
EC
EF
F7
14
21
2A
02
13
06
FA
0C
EA
0F
D2
08
07
FC
FE
E3
16
F3
EB
F8
D5
01
04
FB
FD
F6
17
F2
F0
18
E9
FB
F5
FF
06
F1
08
03
1A
F2
F8
DE
34
12
15
E9
0C
FC
05
08
01
F4
07
EF
16
00
09
0D
EB
DE
01
09
F6
C7
22
F8
F6
EE
0F
1B
0D
02
F3
14
12
3B
28
F2
0E
F0
07
EE
C5
D9
26
0D
10
00
01
17
D3
16
17
23
CA
01
2D
F1
16
F5
EA
09
29
EF
0C
CF
0A
0B
F3
01
FA
DA
26
09
F2
F5
26
FF
08
12
C9
05
C0
1B
2B
FD
DF
05
01
D9
00
FC
F8
CD
ED
13
25
13
E5
10
11
F8
17
E0
E6
EC
F2
07
F3
EF
DD
E8
12
51
F2
1E
31
D7
15
04
05
11
DD
F4
FE
E5
33
00
34
F3
E1
15
1A
F0
F9
FF
1C
EA
13
D9
16
EA
E2
00
33
A3
2D
1E
FF
ED
D5
10
F0
F3
FE
2D
0E
1F
25
1F
39
05
0C
0D
0E
ED
F0
EF
18
FB
D0
39
1A
09
E4
D6
2B
0A
0A
FE
DB
FA
F1
EA
04
06
06
F2
01
EA
26
F8
0F
0F
ED
EC
FF
13
1F
32
18
FB
EB
06
E4
21
FD
0B
FC
F6
FA
15
08
0C
E4
E8
18
F7
27
19
F7
08
32
F3
D4
3F
1F
36
DE
E5
10
07
10
E1
0D
DF
FC
F0
F7
0E
DA
20
FA
03
00
0F
13
C8
02
F9
0B
FE
03
2A
05
04
DF
F8
EC
12
2C
FE
09
D8
F7
F2
E7
0A
0F
0D
EA
D4
33
03
28
09
12
02
01
0F
0C
2D
22
06
E0
F6
F6
0A
FA
F7
FE
C4
FD
F0
DA
E3
0D
EB
F5
FE
E2
C4
ED
E7
E9
F6
F3
06
13
FF
BD
F7
00
E2
C3
C0
2E
1F
E5
D8
08
FB
14
FF
16
F6
FF
D0
1D
EB
F4
01
E2
FD
F7
FE
22
0E
11
05
33
DD
E4
E6
06
14
EA
28
0C
16
51
14
18
DF
E5
20
D4
07
0E
24
06
FD
26
EB
E8
EC
32
E0
FC
00
16
16
2A
F3
F7
10
0F
32
F1
39
3A
37
FA
11
12
26
E7
E6
18
F4
04
24
0F
15
08
22
DC
10
C7
F7
1D
DB
E9
13
ED
27
00
3C
E2
18
DC
F6
EB
04
EA
22
00
07
D1
CF
27
07
0B
00
0E
F5
0A
21
F9
F2
20
29
0F
38
21
F7
F7
12
F9
3D
08
02
E8
EA
D6
1C
E9
F1
F7
E6
F7
23
F5
ED
F0
EA
07
F5
1D
D8
01
F3
03
D8
06
1F
06
23
0E
FD
FE
EA
03
FC
2C
FB
1B
06
03
EC
C9
04
EA
F2
E5
EE
09
02
00
CF
F2
0E
F1
EF
0F
EF
0E
EC
11
DB
23
FC
13
0E
0C
E6
14
0A
EA
DD
07
FC
FA
02
01
F0
07
0C
03
07
ED
E6
01
24
FC
17
04
D7
03
ED
04
FA
FE
ED
1F
0B
13
09
04
18
DA
AE
06
D6
0E
00
F9
E6
1D
F2
F4
0E
ED
EC
DD
11
F3
FF
F7
09
FC
E6
F7
EA
EB
07
0C
05
ED
17
20
F5
EC
03
EA
12
F7
29
1D
14
29
20
E4
BE
04
FC
FA
1F
2E
DB
E0
07
FC
FA
EA
0E
CE
0F
F6
2B
F5
28
F7
11
FD
F8
04
F7
13
F5
F8
19
EE
00
E7
0C
1F
FA
F4
08
E8
F4
DB
E7
F0
0F
03
04
FA
F4
05
00
E3
E9
07
FB
E7
EA
F0
EB
E6
04
EE
22
E7
05
FC
05
0F
F7
FF
32
23
E0
F3
2C
16
1B
F2
16
0F
0D
E0
18
26
19
D6
E8
E8
09
ED
16
0F
2A
17
CF
F8
06
E8
1E
E7
E7
19
00
0B
E9
F7
FB
F0
E4
04
0A
F3
FD
0A
FA
EF
14
F9
23
01
CF
08
FF
EF
CD
F4
01
01
F3
04
EF
FD
E2
0D
EB
02
07
16
09
E4
11
1F
29
E1
FE
E8
12
06
F6
E7
25
E0
01
F2
F8
FA
D2
05
DD
00
F7
F5
0D
E4
25
EE
0F
EB
DB
F0
08
E3
E0
21
E1
10
F5
F5
FC
15
FF
16
10
DE
0C
09
34
12
33
14
F6
05
CA
F9
20
FE
EE
00
08
1D
F4
F6
FA
DF
F4
19
EA
DF
1A
01
00
0D
EC
0A
F5
F8
CF
07
15
0B
1A
10
F0
19
17
00
1A
EC
1F
05
20
DE
F2
FC
D5
04
02
08
20
FD
D9
2A
D6
F2
F8
E0
EA
ED
D7
16
1F
01
03
FC
E4
C9
03
11
E1
11
F4
1F
F6
F0
F1
15
02
E5
F8
DD
EF
E9
F4
E1
30
18
FA
C6
C3
F6
E0
16
C8
F2
02
22
F6
00
EE
FF
E5
F9
21
27
02
10
28
F4
AE
2C
15
FA
ED
F4
11
0F
09
F0
00
D9
03
C1
CA
DF
0E
1E
D7
03
21
14
10
09
21
18
00
FC
F1
E4
EA
01
FF
2A
24
23
2A
12
C7
1F
E9
F8
FC
1F
0A
FD
EF
03
04
F3
EE
0E
E5
F0
08
EE
D0
0E
0F
E4
01
0F
0F
26
E1
E7
E2
FF
CB
F4
DF
09
FB
D6
F0
04
04
08
04
FD
F0
EE
EA
E8
17
D8
E1
E2
E3
FD
02
00
08
E9
E1
13
02
DE
1C
B9
0D
ED
FE
DF
F9
EE
D3
1C
0B
15
0F
DB
E7
F6
EC
FF
03
1E
03
F4
1F
0D
FB
08
18
1A
22
28
FB
31
00
1B
E4
03
05
0D
03
F6
F0
E8
13
F5
0C
0D
0D
06
02
D9
FD
FA
EE
DE
EA
29
E9
FD
FF
14
E5
FA
FC
0B
0E
F5
F7
16
1C
0F
1B
15
0E
FF
DB
CF
31
08
EE
F5
21
21
03
F1
F2
15
DB
F7
17
FB
11
20
C8
F7
F2
D5
08
DB
F2
FD
2A
E8
F9
05
F8
1D
FA
01
DD
DF
22
0E
FA
04
FF
0E
E1
19
D8
DC
0B
F8
8F
FB
EC
E2
0C
02
11
1B
F7
0B
F9
13
16
0A
10
06
03
BE
0A
E0
EA
07
25
FB
0F
F9
04
0E
E3
11
1A
12
23
2E
05
01
FF
0E
10
11
ED
1D
18
13
0B
DA
0D
02
2E
FB
2B
1E
FF
FA
0F
FF
E8
FD
17
FA
EE
F7
FC
0E
DC
15
E9
05
BD
FD
CC
0B
15
F5
26
2D
22
02
E2
00
02
D7
D9
EB
E9
F7
06
FA
0A
D4
E5
FC
37
03
03
F5
E8
C3
FC
EB
05
ED
01
F7
F1
16
E8
05
02
E2
37
FF
15
FA
0B
4B
35
F5
10
F6
E1
F8
DA
2C
0C
FB
03
D4
FA
12
E9
FD
0E
C7
F5
F6
0A
F7
BB
09
F7
DF
CB
2C
DD
FC
ED
FE
E2
0C
0A
18
2B
F7
F7
B7
1F
10
01
22
EF
F4
06
F6
E7
FE
14
08
F1
21
10
16
23
0D
E1
0C
D5
FA
EC
09
02
EC
BF
DB
0D
01
01
FE
F6
00
E4
EE
BA
11
11
0C
0D
02
2D
1E
0F
DE
1A
0D
0F
02
0A
00
12
06
FE
FC
1F
E8
DA
11
24
0D
06
EE
1C
F5
E4
01
1D
08
EC
04
0E
F4
FF
EC
0A
F2
02
0E
DB
F3
23
E6
F5
FE
06
0E
D8
0C
0A
0D
1E
0F
E0
0B
F7
DA
09
DF
F4
1A
DF
FB
F4
DF
04
F5
25
F0
ED
EE
FE
25
0C
17
F9
FA
04
0A
F4
F2
13
F7
15
E4
D9
CE
01
17
30
05
F9
F4
F9
00
C6
F7
0A
F8
E6
D8
0C
FA
F5
F5
F5
F3
DC
33
E1
FF
16
00
FA
DD
2A
DD
02
22
16
06
03
FB
FB
FF
EA
1A
E7
06
E2
3E
F8
3D
DA
F5
DB
F8
04
FF
07
F9
F8
24
0E
FA
03
06
06
17
D5
F1
FA
28
0A
FE
CE
F8
EB
F9
22
03
F5
13
06
0F
0C
FF
F4
E5
F7
00
00
1E
F5
10
2E
BE
18
F0
13
DA
19
E7
DF
1C
06
D9
FD
EB
0B
24
11
09
09
F8
F3
E9
FF
25
F2
E4
10
F8
09
05
30
03
FC
DF
F5
FC
F1
EE
EB
EE
E8
17
BB
F1
03
30
17
2A
F8
4E
D8
0B
F2
E1
FC
27
E8
FD
EF
FD
F8
06
1F
10
F6
17
01
D4
FA
11
2A
FD
0F
D0
00
D1
F6
F5
EF
19
F1
5A
16
EC
DF
09
F0
FC
05
07
1E
00
18
25
18
32
F1
06
E0
26
F1
EA
0C
17
FB
DB
E5
24
FB
E3
DA
15
F2
DE
D3
FD
FF
08
10
25
F3
0B
F6
FC
09
55
F6
08
31
05
FF
16
F6
F2
F8
F6
E0
2C
07
D2
06
E9
04
06
0D
1A
20
02
EB
08
0F
CE
1A
1D
F9
F9
F8
1B
F8
15
F3
EA
10
26
E1
E1
DB
12
C3
06
1C
E0
F6
FD
F4
13
F6
E8
E9
F0
FA
25
09
FE
F5
FC
10
F0
F6
DE
02
E0
1D
1A
1C
EF
3E
0D
DF
F2
F6
0D
11
E1
F3
14
06
25
E7
EE
23
EC
F1
09
1B
1D
EB
13
25
15
EB
2B
26
CB
E8
DB
D8
16
29
01
1C
0A
1C
32
01
3D
D2
F7
01
FD
1D
DA
0C
D8
F9
06
0C
E3
EC
E9
12
0F
23
0B
DB
09
E2
12
F3
06
F0
09
11
1E
DA
F9
F8
E5
F2
ED
EC
02
D7
06
F3
08
05
DA
06
2B
D0
14
18
E9
D9
1E
BE
16
05
30
E0
04
EE
DE
06
03
11
EC
FE
FE
08
1E
15
13
01
FC
DD
19
D5
0C
F4
17
FD
20
DA
14
05
ED
EF
02
C4
EB
0E
43
1E
F0
0D
21
1D
35
D8
F2
06
FC
0C
20
07
CA
E0
F3
F0
D8
FA
ED
EE
FA
ED
03
15
F7
3C
DB
09
25
1F
08
EF
EF
00
10
03
DE
1C
11
F5
E4
0E
27
F8
FE
1B
1F
E2
29
13
18
34
28
EB
EC
05
FA
F4
EE
FF
FA
E5
0B
03
04
05
F0
F4
E7
DF
FE
00
D6
0F
FF
26
0B
F6
C4
E8
FC
02
EB
EA
F8
F7
E2
F4
0C
14
04
1A
F5
F6
07
07
09
1D
FB
1D
D3
F1
0E
FB
F4
11
F6
0E
F5
07
07
FC
1C
00
F0
14
F7
ED
1E
09
22
E1
F1
EA
F7
E5
D3
08
21
EA
2C
F6
08
04
F9
FB
0E
F0
FE
F1
17
17
04
1B
16
0E
FA
DE
F0
28
07
46
21
E6
F4
E2
B7
22
1B
F3
07
E1
FA
03
F3
FF
F8
11
06
27
E8
09
E5
FF
30
DD
F8
D8
38
04
F2
0B
D2
EC
EA
0E
F6
C9
F5
06
10
17
E4
00
F3
16
30
E8
DD
28
11
D8
FB
08
19
0D
01
E9
E8
0C
CE
09
DE
10
0A
F9
F1
D7
0F
02
F6
1E
F9
F1
0D
1A
F5
FE
F7
12
1F
E9
1A
03
E0
BF
F5
05
DE
FE
E9
13
2B
08
F4
FF
F1
13
21
FC
F5
E2
11
FF
02
1B
FC
FB
F0
FF
01
FA
1C
EA
F5
1F
F3
06
17
E4
0F
05
FE
F0
FE
0B
ED
20
2F
10
C7
09
FD
F7
CE
EB
F3
F1
FD
FE
DD
1C
42
FB
E9
41
24
D8
08
09
56
FF
18
25
CB
03
EF
E2
1C
21
14
F7
DC
F9
12
D8
05
09
F7
EE
FB
F2
DE
43
1B
17
F6
FD
EC
0B
0D
20
F7
F4
09
CC
10
05
11
E6
0D
03
05
D9
1F
E5
14
18
F0
0E
12
F2
E0
25
1A
0B
F2
0B
FA
DE
05
0E
0A
F5
DC
DE
22
17
D7
1D
0D
E1
0E
D2
DE
11
D3
FA
CA
22
11
E8
1B
FB
1C
E8
EC
04
FD
08
1A
2C
0D
F4
DE
CF
02
F1
12
03
F8
07
FD
0F
F2
FD
ED
DB
EC
D9
09
08
F4
0F
0E
FC
01
06
FE
07
F9
F3
D7
FE
D3
FB
D8
F9
26
27
3A
03
13
F6
FB
09
0A
23
11
F9
FF
E6
DE
DF
1C
10
E6
21
36
12
D8
CF
06
07
04
FC
16
F3
17
17
00
F2
D7
24
24
00
EC
FF
E4
21
24
1B
D6
13
3F
16
E2
1C
F2
04
F4
14
0D
1C
EF
17
E8
03
EE
03
01
13
22
E2
1F
E8
C8
F4
EB
25
0A
FA
00
17
EE
E1
CB
EA
0A
2C
01
FD
FD
FC
18
09
02
02
E8
03
E6
0C
03
F5
28
1E
E3
DB
02
1A
F7
D0
23
27
0B
FA
F2
FA
03
ED
EE
27
08
F6
EF
EF
F4
15
F7
F4
E1
0D
0F
F3
DF
23
F8
1A
03
13
02
05
ED
FF
22
06
F8
0C
E9
F4
06
05
F2
00
11
ED
EB
07
18
06
0A
DE
FB
D3
FF
07
3B
25
E7
E7
F2
11
15
F2
03
09
F9
00
11
0B
23
E2
FD
01
E5
E9
E8
F4
1E
1B
EB
16
DA
26
14
D1
09
EB
09
23
F4
F9
09
04
0A
01
E4
FC
EA
2C
13
CA
FC
DF
F2
FD
1B
FA
1D
F9
05
1C
F1
24
E2
21
1A
01
F3
FC
FA
E1
D7
D6
E4
FC
00
03
FA
F4
E3
2C
13
F4
FE
F2
23
27
22
F5
E7
D7
1C
F8
05
1A
0D
12
0C
FE
CE
31
47
EC
EF
F7
F6
FA
EC
FE
E1
02
C8
EB
17
0C
F9
DE
DF
15
E6
47
C9
F1
0B
12
1B
F7
06
E6
3E
F1
0B
F3
E9
F8
04
0A
1D
F7
03
E8
18
15
FD
FA
0F
12
05
17
DF
F8
11
1D
11
E5
17
02
ED
00
0A
D6
F1
F2
0D
00
02
10
FD
FB
E6
00
0F
FC
14
E3
EC
EF
FB
F5
0A
EF
08
05
09
DA
F2
28
EF
02
03
FA
0D
05
D5
E7
F0
22
07
27
FA
27
F5
FE
1C
E4
36
00
0E
F3
0A
D6
0D
19
09
05
EA
24
F7
F4
FF
FA
14
F9
05
D6
EA
E9
FB
F0
E9
0B
FB
01
E0
2B
14
EE
F0
FC
47
E7
68
0A
0D
40
26
01
04
07
F1
4D
E3
FF
DA
0A
0F
FE
ED
EF
E4
0A
FA
23
E0
1A
FE
24
23
FC
D8
07
EB
F7
FB
14
E2
FB
04
0D
31
01
07
0D
0B
D9
06
FD
01
EA
09
E2
01
F9
F4
DE
F0
08
DF
FB
F0
0D
E2
FB
32
29
0D
FB
F4
F0
E3
2B
15
1B
09
01
0A
F2
21
15
05
24
E9
24
D2
00
ED
EE
1D
DB
E0
17
0E
EE
E0
18
18
07
CC
D0
E0
2F
23
F8
17
14
D0
EC
26
04
15
09
13
EF
CF
1B
18
0E
E8
FE
15
E9
0C
09
EA
10
E8
E0
FF
F3
FD
FF
3C
EE
1A
00
11
D9
C8
0C
22
0F
1B
FE
21
01
F7
0D
09
0C
F2
F3
F5
F9
43
22
F3
34
10
0B
EA
2F
04
F8
E1
0B
00
F5
D8
EB
E5
F1
02
F9
22
1C
F5
07
F2
D3
F6
F6
0B
21
F7
E5
EB
03
24
E9
28
22
D1
F9
F9
10
12
FB
38
FE
EA
F8
FA
0F
EA
F7
15
EC
F6
0D
E6
0B
32
01
0F
B2
ED
14
0F
ED
FA
FF
20
20
F4
0B
05
E6
E3
19
03
15
F4
2F
04
E8
F3
04
14
24
32
0A
FE
00
22
02
F7
FB
EE
EF
01
F2
15
F9
D1
20
21
03
F6
02
F3
F8
04
0A
E5
FA
02
20
FF
29
07
ED
22
FF
F2
F4
01
0F
CD
F6
01
15
2C
03
02
FA
EF
08
15
0D
EE
14
15
FD
F9
ED
0C
F8
FD
29
12
CE
EA
38
EE
10
F2
41
0E
DE
EE
FA
1D
01
E7
FD
EC
22
0C
06
FF
16
1A
E9
ED
1B
2A
1E
FF
0D
E8
0A
F0
F5
0E
07
03
06
00
1C
1D
0F
1C
1A
FD
ED
DD
07
24
0E
C7
EE
F5
08
FF
33
07
FA
F7
23
FC
2A
FB
02
00
18
D3
02
07
D9
E3
F0
00
1C
EB
0D
C7
01
D8
F6
EA
DE
04
FF
F5
EC
08
EF
FB
CA
D2
FE
F9
F8
11
01
FE
16
F5
DC
F4
00
08
06
08
26
0B
ED
C2
22
F8
FB
1A
45
06
FC
18
ED
02
1B
CF
E2
EE
0A
09
23
EA
EA
DC
0B
2C
FC
07
EB
0E
10
FB
05
2C
37
E2
F1
E7
00
17
06
F9
28
02
F3
D9
1D
DE
E6
25
0A
DE
03
DE
0E
F8
19
E4
03
E6
24
02
09
10
17
E7
0F
2B
FF
F6
1F
09
0F
10
FB
05
0D
F7
DA
DC
F3
FA
0E
FE
EB
1B
FB
D0
06
00
06
0B
F7
F9
D1
0E
FC
41
BF
0F
FC
26
F9
DE
F7
F0
06
F0
F3
10
29
D5
F2
F7
F9
E5
EA
EE
16
03
00
27
04
F6
04
F1
EB
EB
EB
1D
15
C6
EE
13
06
F3
DE
B6
E3
F5
14
08
08
F9
F6
1C
0E
06
F6
06
F0
F5
08
DB
14
1D
12
EC
0D
07
23
15
1A
26
28
01
D4
E2
0E
04
20
DB
17
F9
02
FA
08
1A
E7
15
F0
05
07
01
E4
FD
F6
10
16
C2
11
1A
1A
0F
E8
00
F0
28
02
04
E7
33
F4
FC
11
41
02
04
01
F9
0C
F6
09
FD
FC
F8
13
09
08
0F
EC
FE
08
E6
E5
17
20
21
EC
01
CC
03
E3
F3
06
0F
E6
1F
16
19
14
05
F9
F3
24
E9
0F
14
EB
12
01
FF
EA
E2
1C
18
F9
26
DC
18
05
0B
10
ED
23
FD
04
0B
01
28
07
1E
F8
45
0D
EE
04
ED
1A
0C
F8
06
24
FE
1B
D5
35
E4
1D
09
EE
E8
FB
05
1E
F7
DA
F8
07
EF
EB
E4
EA
47
E3
E3
FF
F2
05
10
10
25
F6
E7
ED
FF
2D
F3
E2
E2
01
ED
1D
0C
19
15
19
13
28
0A
0B
0A
13
0F
08
CF
F9
F5
1D
18
53
1D
0C
05
FB
0E
0D
0A
FB
DC
10
11
E6
CB
16
F2
0E
1B
F4
DD
13
01
11
F7
02
DB
BE
2D
D6
27
0B
08
13
22
38
E6
1B
32
E4
0C
0A
03
0D
F6
12
E0
FD
F9
FA
15
06
0D
12
F1
E3
EB
F9
EB
30
08
1E
E9
15
DA
EA
15
12
0E
FA
22
13
13
FD
FA
08
F6
00
02
06
FE
01
17
F3
F9
FA
03
03
EF
06
FD
1C
F7
C9
D8
E1
FD
07
0C
0A
2C
DA
0A
0F
02
00
04
0A
ED
32
14
26
06
F3
02
07
18
1B
01
FC
0F
D9
0C
F6
EA
EE
22
E9
F6
FD
FF
E5
CF
21
16
EF
F8
EA
13
42
F9
06
F3
13
F3
D3
A9
F8
BB
2F
25
02
12
F4
0B
28
21
D5
F8
E9
1B
E7
F2
0C
E7
DF
0F
00
02
1B
32
EB
FF
1F
E3
00
B1
45
F1
DB
25
14
F2
FB
05
A6
0A
E7
F4
FD
07
07
24
F8
F8
EB
09
40
0E
06
15
EF
EE
0C
2D
F4
07
02
F9
0F
C0
C3
FE
E3
C9
0C
03
FC
DD
E6
01
26
0D
FF
1D
FD
F9
F4
F0
10
1E
FD
10
19
E0
FB
16
E7
02
F9
05
07
D7
EA
07
F2
02
1E
2C
19
12
0C
07
E3
F6
E1
E9
EA
20
21
23
FC
E5
23
24
F0
CE
D7
F2
E3
13
F7
F6
03
20
FD
12
05
1B
F9
E6
F2
2C
25
FC
E4
1B
3C
0D
21
E7
FC
1D
DE
09
31
03
E4
FD
22
FC
D4
EA
DF
E5
18
D8
F1
03
E5
13
23
14
0F
F9
E1
08
07
33
28
0A
03
EC
F0
03
0B
F7
00
EB
F6
F3
F7
DF
0A
0F
4A
2E
DD
05
1F
FA
04
F2
F1
F0
FD
B7
E0
1E
FE
E4
01
F7
EB
F4
24
C4
FF
E5
E7
BE
F3
F4
D6
E4
0A
1E
03
EC
12
0B
F6
0F
EC
F4
D7
12
ED
E9
0D
21
14
FC
10
FD
1A
2D
F2
CA
05
11
EB
0D
FF
FC
13
D7
EA
22
3E
D0
1C
D5
2D
F3
04
E7
E4
07
F3
23
12
00
FF
E6
1F
D9
DF
11
18
33
DB
F7
EF
0C
EA
41
1E
0A
14
CD
F0
F1
F4
F8
FD
F1
35
FD
18
F4
5F
F4
2A
08
EA
F4
17
0F
E1
15
0D
06
17
0A
0B
E8
FA
00
16
12
FD
24
D9
EB
01
28
EE
0D
2C
0C
1C
0D
EA
0A
06
04
19
E1
00
FD
07
05
D8
1E
13
15
EB
EB
F8
23
25
1A
E1
E6
E9
F5
25
E3
2A
1A
17
D4
ED
02
F8
C3
28
2B
F6
10
00
CF
1A
13
EE
E7
E8
07
E5
F7
14
BE
1F
F2
E2
14
05
0B
06
F1
CD
E2
E2
E1
18
0D
01
F3
F9
C5
F1
EE
EA
00
32
05
D2
25
EE
13
F7
31
E5
EF
29
0A
34
07
0C
50
1D
1C
03
F2
2B
DB
FC
F6
0E
FC
F4
05
FB
E9
02
36
0A
FE
15
FF
F5
F6
F2
21
39
0B
FA
F5
FB
F0
DE
03
F7
FF
10
F4
39
24
01
FB
1E
F5
DB
0B
FF
CB
22
08
EF
1D
DE
12
F2
EC
CA
2A
FA
F8
0A
F3
11
CB
04
13
BC
F0
14
F6
EC
F7
10
05
EE
0A
29
37
21
D5
F3
05
00
DD
27
F7
EB
F8
18
03
2D
06
11
0D
01
05
1D
07
FF
FA
FB
2A
1F
24
37
15
00
F0
E5
ED
D8
E7
DA
05
D6
ED
01
04
1D
21
02
1F
FC
F4
F9
21
0B
18
EF
EC
24
CD
21
D2
EA
28
4D
13
02
FB
E5
D0
F1
20
E8
E6
EF
30
24
09
F7
FE
F4
02
D6
0C
F6
DD
27
08
F7
04
E0
28
32
E8
14
16
04
29
0D
1D
FF
07
FC
1C
03
20
0A
17
E7
D7
10
3E
10
0B
F0
1C
D9
24
05
FF
21
F6
D9
F7
F4
E7
ED
0A
EF
10
EA
11
FD
0D
F7
31
F8
F5
04
E8
0C
06
ED
02
17
F8
FD
00
DF
F6
19
1A
1E
F7
FD
EF
22
13
01
E4
03
32
FB
0E
D1
03
FE
CD
03
27
F3
EC
F1
05
0A
01
E6
C8
0E
02
FB
17
0B
E9
DB
D5
25
04
0E
F4
F8
1E
FB
08
07
0A
E9
20
FE
E6
F3
15
26
EE
1C
0F
13
E6
2D
33
0D
13
F4
E2
E3
F8
EE
00
07
16
00
E4
1D
0C
00
01
FB
07
0E
05
08
0F
0F
F4
1C
E8
F3
F6
E4
00
F8
34
2A
F9
FF
E4
14
C9
E8
EB
F7
13
0F
13
13
25
EF
DA
F6
FC
D8
25
05
EE
08
0C
0E
0E
F0
E8
EB
DF
DB
09
E8
EB
F8
21
F3
DF
F4
04
FB
1B
F8
F6
FD
06
55
FC
16
11
0F
11
FC
EC
F5
09
0C
C4
EC
0C
FA
E1
0C
0C
21
FB
FF
FD
0A
00
09
31
0E
0E
28
F9
F1
2C
0F
20
24
F2
F8
39
15
F7
4D
FD
F7
0D
F5
F0
D1
0C
07
FB
E3
E8
F5
FC
E9
0B
F6
F0
0E
FD
E8
F5
09
0B
09
E6
F0
FD
F9
01
FD
37
F3
F9
FA
F3
F8
46
C9
02
04
DD
17
F7
D9
03
06
F2
0D
C4
C5
28
23
DF
14
07
05
0F
06
ED
FF
E0
03
03
F3
E4
EA
04
D2
07
EA
F9
15
40
EE
0E
05
00
CB
00
EA
D7
03
FD
ED
FF
24
D9
E9
18
12
FD
04
D6
FA
E3
00
FD
0E
E9
09
0A
13
F7
D8
E2
F7
2D
14
07
16
F1
00
E7
04
01
07
E3
D4
09
ED
E9
0F
FB
CE
FD
F5
2F
F8
28
E3
18
FA
02
F9
0A
06
F4
F0
15
FA
07
E5
DF
02
FD
05
10
2B
E1
EA
EA
0B
0F
FE
F8
2A
F6
EF
02
0E
F5
DB
E9
28
1D
09
F5
F4
03
10
F7
D4
07
FD
11
0E
EC
F6
F1
09
23
E3
04
19
F4
D3
06
F5
1B
F8
F9
0F
F8
EB
1E
26
06
E7
F0
FC
F0
E1
15
17
F5
25
EE
08
E8
D1
FF
E6
30
19
FC
D5
D6
FB
01
00
D9
08
13
F5
E8
12
EB
F1
CC
36
28
EC
FD
14
29
EC
FF
15
17
04
1A
2C
02
05
F0
FD
16
15
27
35
FD
11
47
0E
31
D7
0D
21
10
F1
05
FB
FC
F3
DE
4A
06
FB
F8
FF
01
F0
FF
05
04
22
F0
0E
12
E9
26
CE
18
30
FE
33
EB
0D
03
F0
08
14
11
FD
19
20
05
FB
19
09
20
02
F4
E7
FD
EE
26
01
FC
13
F0
1F
EE
E8
DF
13
1C
F6
0B
2A
E6
FB
F2
F0
F9
F8
2F
D4
0E
F0
EE
10
15
FE
13
CD
13
0D
F0
0E
23
F4
06
02
06
03
17
15
D4
E7
F6
0A
0F
1B
20
FA
16
2C
14
28
13
04
EF
39
0F
1B
EB
F2
1C
05
EF
17
20
1C
00
17
FE
FA
07
0B
07
F2
19
0D
1E
0C
EE
3C
D4
01
BE
01
20
E6
0D
06
F8
23
23
E8
0D
02
EA
EE
F6
FE
03
D7
FC
08
EB
07
