F0
01
0C
F6
F1
0F
F1
EF
FA
05
EE
FE
12
1E
00
1A
02
F9
13
0F
00
1B
07
F0
1B
03
0A
F9
0B
16
02
21
F5
E6
F2
06
03
13
1B
DB
EF
06
ED
09
F9
18
27
F8
F9
F6
06
EB
0E
EB
E9
F0
FA
27
EC
1F
17
04
10
E6
1E
07
E5
06
21
0B
0D
01
F0
F0
FA
FC
E5
10
09
F5
F7
02
01
18
02
08
FA
EF
02
25
DE
FD
FE
F1
FF
D4
F1
FB
ED
FF
E1
E8
07
0C
08
0A
F8
05
E8
09
22
FE
05
09
08
DC
EA
10
03
02
FA
F9
09
0E
03
01
FD
F6
0C
F7
03
FA
11
06
1E
28
03
02
FB
E5
01
14
F4
F7
F4
FF
E9
25
03
13
FC
F9
F8
F3
01
1D
FB
1B
EC
21
0E
F6
EF
E6
FC
F3
0D
F2
ED
F0
1E
EC
27
E5
02
03
1E
F8
E8
FE
15
03
E9
DB
06
10
EC
1D
11
EB
1A
FC
FB
E2
FE
10
EA
F2
1E
EC
F7
FB
0E
EE
01
10
14
00
08
01
27
FA
FF
F1
02
DE
FC
FE
FE
1A
14
ED
D2
ED
EF
0A
0D
D2
FF
FA
EB
EE
FD
00
FB
DC
1E
0A
F4
F5
09
EE
00
F3
FA
FA
FA
E8
E7
EE
04
CF
01
26
08
16
E6
00
EB
F7
15
E8
E8
27
04
FA
0F
EB
FC
E6
DB
22
04
24
0B
FB
10
DA
CE
D9
11
D7
08
0C
F9
0E
0E
EC
E7
05
E4
02
10
EF
FF
F2
22
F3
16
00
ED
05
0B
F4
0C
EF
E6
00
28
F4
0E
E7
00
21
08
D6
EB
12
09
02
F0
F1
FE
FC
25
11
17
E9
FD
F9
16
1F
FA
CD
00
1D
EA
18
1A
06
09
07
F9
14
E6
11
20
20
F5
03
03
BE
F9
2F
01
CB
07
ED
19
F6
1C
0C
0B
F9
17
F0
06
EB
DA
19
04
17
FB
F4
20
FC
02
EA
18
19
00
F2
F3
FA
05
04
FE
23
CD
15
FB
F1
E9
09
09
15
F5
D8
FB
19
10
0D
D4
12
FE
F3
04
16
20
FF
04
E6
EC
EC
F4
19
FE
DE
FA
E5
FF
F3
0E
03
F2
00
F3
03
05
05
22
04
13
1D
FD
13
1A
D5
01
09
04
08
E4
E8
29
06
0C
F4
13
EC
F4
F5
06
36
0A
0C
DB
F2
04
03
06
15
08
03
F3
13
FE
F3
E7
13
F3
20
0B
E1
13
DF
00
F7
F1
FB
F5
F9
DA
E0
FE
1A
0E
F6
0C
E4
E9
F4
00
E4
EA
06
1C
00
01
32
13
0A
F1
03
13
1A
F4
0B
DC
F7
E5
E1
F9
E0
E7
05
06
15
F8
1A
F3
18
10
0B
FA
E7
FE
F0
E8
D4
18
19
09
01
EE
E9
19
09
15
09
FA
DD
F4
F2
FE
1E
15
EC
F6
03
FC
ED
F0
EA
FC
0F
00
0C
FB
F2
E8
DC
F9
FE
F9
05
01
08
FD
21
FB
FF
0B
FA
13
FD
0C
FD
04
EF
22
11
F8
DB
F7
FD
F3
1C
0C
0D
14
F4
E8
06
0A
EC
FC
E6
FA
0B
1B
0C
EA
F2
D5
1B
FA
05
1D
E7
EE
03
F7
F6
F0
18
F6
07
F9
0F
0F
FC
EA
11
0B
05
FF
E0
06
F4
EC
ED
FA
12
EF
00
F8
FF
08
FB
DD
05
F4
E8
02
05
07
27
1F
FE
09
03
0D
E7
0A
07
EF
05
FB
DE
FD
30
F0
E4
F4
FB
F3
08
03
18
E2
F6
17
FE
FE
17
1E
E1
E9
F9
08
05
17
EE
04
ED
08
D9
05
15
1E
04
FB
F3
0A
22
04
F3
E3
01
0F
07
DF
00
03
F0
13
00
F1
F9
06
1D
29
F1
DF
F7
0D
00
02
E8
0A
E5
FA
CA
EA
02
1F
FE
0C
F6
0E
10
0A
2C
F1
00
FB
F7
0D
14
06
01
F6
ED
1B
1C
F0
04
DE
FA
F1
EB
F0
00
F8
05
EB
0F
0F
F8
F1
FF
FA
00
15
04
1C
01
0D
EC
13
F6
17
F8
07
F9
F4
F0
F7
F9
10
F5
1D
F0
20
ED
FD
DD
EF
0B
0A
FF
FC
F4
1F
F5
13
FC
00
26
FC
32
F9
FC
E7
EF
EC
FC
F0
07
F8
F0
EA
16
F3
0E
F3
04
34
00
DD
10
FE
30
00
13
EC
E0
F1
13
F6
E8
18
E8
02
EC
F9
EE
F5
00
F2
FC
ED
F7
03
F1
F1
01
F8
12
F0
F7
E9
16
EA
EE
01
06
0A
EE
1F
01
D5
06
05
03
E6
00
1A
08
08
F6
DA
F1
16
23
D7
1C
FC
04
04
0B
F0
01
F7
FF
FA
F5
13
F3
FF
07
16
D9
14
E8
04
07
0A
F9
F1
0C
08
10
1C
F4
16
E3
08
0B
15
0C
F2
E0
E4
FD
00
09
07
19
EF
E1
13
FC
F9
EB
00
05
FC
0D
09
22
F2
22
20
FB
0C
FB
1B
32
FB
FC
F7
FC
F7
EB
1E
05
FF
EA
F6
ED
FB
05
11
0A
F9
06
DA
E4
EC
FB
EC
0D
F5
19
16
D8
F6
EE
08
11
09
F0
10
FF
D7
F6
FC
FE
F6
0E
05
E0
0C
F3
00
EC
1B
1F
2A
0B
23
08
08
FA
0E
21
17
EA
F7
06
C7
06
FC
26
E6
16
22
09
0C
09
D6
FE
0F
13
0D
05
01
EA
F3
08
E7
F7
0E
F2
F0
F3
DF
0A
25
F3
F6
03
F8
F9
F8
E3
EA
EE
11
FA
15
2F
14
F8
18
08
F2
FE
06
FD
EC
FA
01
18
10
F4
F4
0A
E8
05
FC
06
E8
F9
12
FF
E2
FF
F5
D4
05
08
01
0E
0C
F0
EB
F8
03
FF
E8
20
08
F0
F0
EA
F4
22
0F
D8
0C
E1
F3
F3
12
FD
0C
0D
E2
0F
F7
1A
05
D9
09
DD
E3
ED
F7
04
03
F3
F5
ED
FD
07
10
14
FD
09
11
1E
13
FC
FD
F5
CB
13
E7
F2
1F
0B
F7
13
F9
D7
E3
0E
F2
E9
F5
FA
FC
0D
EA
06
0D
2D
F2
EF
09
F6
1B
18
F4
FA
E3
2E
26
E4
FA
E2
1B
04
00
FD
2A
0E
08
FD
11
D2
11
ED
02
F3
09
03
0D
00
00
ED
0B
E4
E8
03
0B
02
FB
1D
13
DD
F8
EA
16
14
F6
F2
F2
0D
12
F9
14
04
E5
F5
FE
E5
F9
0C
F2
13
EA
DC
11
FA
15
FB
0F
FA
05
11
0E
01
E0
F5
04
04
22
EB
F5
04
03
2B
C5
F9
01
F0
0F
FE
FC
E5
24
CA
0F
0F
02
F9
E9
0B
09
FE
E5
F6
F8
16
DC
0E
ED
0C
EF
14
F4
26
E1
09
0A
07
ED
0C
FC
27
E1
09
45
08
E5
08
E8
F4
1A
DC
1A
EC
05
FA
FB
08
0F
08
FC
0A
02
E2
0A
26
50
FB
02
D4
06
13
0C
00
0F
10
EF
F7
04
0B
F6
20
02
E7
01
03
EB
18
EC
FC
16
F2
4E
F9
07
F6
CE
19
F8
1E
2D
02
07
06
0D
0D
09
E4
07
18
F1
E3
0D
11
F5
2A
10
F4
F5
12
06
00
F9
F5
FB
32
01
1B
F8
F9
09
FF
05
DE
C0
FC
C3
FD
F3
FD
1A
FF
F1
C4
F4
F6
2A
0B
13
F8
13
F2
26
0D
FB
0C
EC
FD
17
05
ED
F4
04
1D
F8
C8
C9
08
FB
17
06
E2
D3
EE
1E
C3
0A
1E
01
EB
05
1F
3C
FB
FA
DF
0A
03
F4
03
02
FF
26
D3
14
EC
EA
0C
FE
D9
FB
EE
F6
E2
14
B7
1B
1D
0A
27
26
ED
18
D9
F5
FF
BE
FC
13
03
38
E1
15
12
07
DE
07
E5
FF
E6
0F
FE
E9
F6
EB
C8
EC
0D
04
00
FA
01
D9
14
1E
0E
2D
F5
22
D1
05
04
F7
03
FF
01
0D
BC
07
E9
09
DC
0E
FA
F2
E6
0A
03
00
CC
13
27
B8
0D
01
0C
CF
BE
37
09
EF
1F
F9
0A
14
DA
19
F8
16
08
EC
2A
DF
2A
E7
11
01
D6
02
04
F7
F1
F8
FB
F9
12
01
0D
1F
0D
EE
F9
05
04
07
F4
FE
0E
0E
02
05
F9
11
09
E5
1E
15
F6
1C
F3
FF
15
DB
1E
08
1D
FD
F3
F9
FF
16
F9
F1
30
0B
0D
1D
F1
E5
F5
00
08
1F
14
01
19
04
19
14
08
00
0B
E0
02
FC
FC
24
0E
E6
F1
1C
00
F9
F0
FE
1F
00
D8
E0
17
06
07
D4
1B
0F
1D
0C
01
20
FA
11
20
FC
F2
F4
0A
18
1D
02
23
1E
10
12
F4
1C
13
0F
DC
EC
FB
05
F1
15
0D
FE
04
00
E5
EA
0E
01
EC
0C
F5
16
F6
01
FC
0B
0B
31
FB
F7
0D
04
DE
18
FA
F3
0B
0D
F5
08
F9
FE
FB
16
FF
19
DC
E3
E3
0D
EB
DC
F1
0A
04
F9
20
FC
E2
0D
E9
FD
E8
F8
EF
0F
ED
F9
08
EF
0A
0E
FA
15
01
0E
FE
12
14
01
E1
04
E5
EC
F3
FE
0A
EF
04
ED
0E
F1
EE
14
CF
F3
02
04
E7
F3
FC
11
E3
22
0B
E9
F0
28
F3
F1
FA
EF
02
EE
F1
F1
E6
28
21
F9
F6
EF
EB
E5
0B
02
ED
DB
01
FB
ED
09
0D
0B
06
EE
0F
05
F0
05
17
06
E2
FB
F1
F3
F3
F2
F6
05
FC
03
1E
F7
1D
F4
15
09
E9
F3
FF
00
D4
23
11
F7
F3
2B
13
FC
0A
0A
F7
0C
CA
1A
20
F0
1C
01
16
F2
F6
1F
ED
F1
FE
1C
F7
FA
18
0A
26
01
FB
30
07
FF
E5
C8
36
19
F5
F3
FC
14
0F
E7
F2
09
FD
26
21
EC
FC
F8
E7
F2
E0
F9
19
E5
FD
F6
17
10
06
0C
F4
FF
02
1F
13
EF
15
18
E1
14
06
08
F9
F4
14
2A
F1
F8
08
EF
FB
07
F2
24
FA
FB
F2
09
FA
06
EC
E2
0E
FD
FD
EB
04
DF
1F
02
04
ED
2B
00
EB
FE
10
05
FF
19
02
F7
E4
F2
E4
07
EE
E0
F2
F4
FF
11
EE
F6
0F
F5
E7
1D
D8
F9
22
DC
25
E3
EE
EE
01
FD
05
0F
F9
0E
1B
01
E4
E8
13
10
22
F1
04
FA
19
F4
24
F2
04
FD
F3
0E
EA
F4
F5
FA
18
FF
04
1D
0A
06
21
D9
1D
0B
F9
FB
F4
D9
26
08
F1
F4
F1
20
0B
20
21
08
28
F5
E9
22
18
03
02
28
FD
06
07
1F
22
00
DB
F2
04
16
05
FB
0D
E0
FD
0C
01
F1
13
0B
02
0A
00
ED
13
20
FA
25
0D
F0
EC
15
18
1A
23
E9
14
00
19
FD
FE
15
F3
FE
EB
FC
09
F6
F5
EF
F4
EE
01
DA
E3
07
FE
03
F7
F5
09
EE
E5
F6
00
E2
F9
F9
F9
F8
03
02
17
F7
1C
0E
EF
FA
12
FC
10
F7
E8
09
F4
1F
F9
11
0A
23
0F
0E
F6
0E
1E
F8
EE
FF
08
10
F5
16
E0
0D
18
17
D3
FF
F5
09
23
E8
F6
00
F4
09
DD
19
07
08
0C
11
EE
F5
20
CC
0D
EE
1A
15
F2
E6
F4
E5
03
F8
F0
0A
FC
F7
FD
DD
ED
1B
F6
02
05
01
F1
FB
04
10
15
E6
01
E6
F3
1F
2D
2A
01
04
D8
24
0C
00
F1
16
04
12
12
21
F5
08
04
F5
FF
DD
09
09
F5
1C
F6
F4
1A
19
FB
EC
12
FF
08
07
06
07
FB
01
08
16
1F
F0
1C
0D
1D
F6
EA
F9
06
00
0D
0D
F9
06
E8
06
EB
05
07
0C
0B
07
DB
F8
F0
FF
F7
1B
F5
DF
17
ED
1C
E9
14
F4
E9
EC
FE
F3
10
ED
F9
D6
08
EB
F5
FC
0D
F0
E6
0A
FB
10
FF
FF
FD
F3
02
02
08
07
F7
1C
01
1D
FF
19
06
14
ED
ED
16
E5
04
06
FA
14
05
0F
06
02
F7
FC
06
F4
F2
FA
E7
F4
0E
10
03
05
F6
18
13
08
E9
FF
0C
FA
F4
01
03
05
F4
13
EF
FD
EC
FA
1F
E7
FD
FB
E4
07
0D
0E
06
F9
EE
04
F9
03
07
2B
02
E0
0B
08
DA
10
03
F7
F5
F1
C9
EA
07
11
E6
1C
E2
F1
EA
09
F0
08
F3
ED
02
1D
0F
14
F4
08
00
EF
2D
FB
F5
DA
F3
FE
1B
11
1A
15
01
01
F3
05
F3
17
FF
F4
02
F1
24
E9
F9
1D
0B
ED
CA
0C
2F
17
01
ED
13
F5
F0
FB
F4
04
21
11
06
05
EA
FB
ED
01
2A
E0
FB
E7
E7
F7
F8
F0
14
FE
04
F9
0A
E5
1D
16
FD
C3
0F
F6
FA
FB
04
01
01
08
10
23
FD
02
F2
E2
11
DC
08
E4
F5
FF
FC
21
13
F3
17
F8
1A
FA
FD
12
FD
F5
FE
1E
F6
F2
F8
F6
1F
FB
0D
07
09
16
F2
0E
E4
12
E8
06
E0
29
27
E1
08
1E
FF
05
EE
EA
14
FE
11
08
EE
FA
03
14
ED
0F
21
E4
07
01
EB
07
FC
00
15
08
F5
17
02
DD
FF
1C
0C
08
09
F7
1C
F3
0D
0E
1A
14
19
13
0A
23
05
F4
DF
EC
E0
0F
F3
F9
00
F3
03
FD
F1
E8
FA
F7
FF
11
FF
01
E4
EA
19
E7
06
FD
FF
18
0E
12
F1
28
F4
FC
09
3D
2F
0C
07
E8
05
05
EC
0B
EC
EF
24
1D
DF
F0
F1
23
22
0D
0E
00
0A
F7
07
EA
03
EB
00
E9
0A
C3
13
FE
11
FF
EB
D8
18
14
14
0F
0D
FA
FE
FE
FC
03
FA
32
FC
ED
10
F7
06
04
FF
F1
FB
13
FE
EA
18
E5
EF
11
F0
0A
F2
E9
F9
08
F6
F1
02
F9
FC
2B
1B
1B
F7
29
E5
FD
E9
FD
32
11
E1
E7
15
F8
F6
15
F2
16
0C
19
0A
11
19
EB
0D
1F
25
10
07
0A
08
21
05
F9
27
DC
FE
06
F3
E4
1E
19
00
01
05
D5
15
E3
04
2E
00
1A
FC
07
E5
E1
FA
0A
FF
23
F2
E0
EF
0E
0E
02
06
F9
E7
EB
1D
09
0F
E6
22
F6
13
0B
05
30
05
16
FC
0C
14
FC
0E
ED
E6
04
14
ED
06
01
19
36
01
1A
05
F7
F2
E7
10
16
15
F2
E8
13
0A
EF
01
05
DA
D6
F1
F0
E7
EE
E8
0D
ED
18
03
F3
F2
FC
CE
2B
0B
EF
0D
FC
F8
E4
0D
D9
F0
F4
F1
FF
0B
FD
E0
E0
F2
EE
03
FA
08
00
EF
DE
E0
01
F5
08
06
EA
1C
E5
F7
E7
06
01
07
F2
EC
EF
F2
14
00
03
F0
07
14
0F
E6
E5
DF
FF
10
F0
F9
E4
FC
1C
08
FF
F7
F7
18
F8
F3
EC
DD
F7
04
E6
02
09
08
18
FA
F1
FE
F1
FD
EF
05
22
13
FB
10
F2
EE
09
24
F2
ED
07
17
ED
0C
F6
FB
0C
F1
E5
EE
16
FA
EA
24
20
F6
F7
00
F2
2F
14
00
FD
04
09
11
09
E1
08
12
06
ED
ED
FD
E9
F9
EF
FD
05
21
23
F2
1D
F7
01
F3
12
25
1F
EB
FF
F1
14
05
05
2B
18
0B
0C
02
2F
02
13
14
25
08
07
E8
F5
F5
1F
0A
10
E9
13
E1
13
05
EC
01
EB
EC
17
00
F8
F1
00
E0
1F
06
0C
DD
FF
0F
E0
F6
F2
07
FD
12
16
0F
0A
F1
E1
0C
07
F1
FE
F2
15
F2
15
F0
02
0B
18
0F
F3
0D
19
0B
14
EB
FF
D7
F2
07
18
E7
F2
F6
F8
16
EF
F8
FA
EA
0A
09
0B
FE
08
18
F2
14
EC
FA
F7
ED
12
24
DE
27
21
EB
23
F9
02
FE
FE
FB
22
EC
0B
19
01
27
F7
07
F5
F3
01
1A
F4
F2
15
03
07
EE
0B
DB
E9
20
FA
0B
DE
24
0A
07
F4
20
F2
19
0F
ED
E9
05
F9
F8
01
06
EF
00
EF
16
0B
F3
D7
DC
F6
0A
08
19
F7
E9
13
FA
F9
02
10
F9
D6
E1
03
FD
04
D8
E2
18
02
01
F8
FD
1D
0F
1D
D7
06
F3
E2
EF
F5
01
21
EE
F7
FF
01
01
FB
EF
06
DA
0F
04
0A
ED
1E
02
0C
0D
EA
02
C7
01
ED
04
0D
01
03
10
FE
EF
FB
FD
07
DE
FF
10
E5
0F
22
13
00
01
20
F2
0B
03
F5
23
F2
F5
02
1C
FD
FF
15
03
FF
FC
26
07
23
F8
0F
21
F8
14
E8
11
18
1C
06
06
13
0D
FF
EE
02
0C
11
0E
FE
16
E3
24
08
E4
00
E5
F2
0C
F9
01
D0
1A
F7
F1
0A
F5
F8
16
FF
FF
12
30
11
F6
FA
29
FE
F5
14
D3
01
0B
0C
F2
E1
02
FF
F4
FD
DD
FD
13
02
DE
F6
FB
0F
CE
FF
0A
F7
04
0F
F9
01
0C
F6
0D
08
12
FC
33
FA
11
F8
D9
F2
F8
0A
04
0B
00
24
14
EF
F9
F5
18
FD
FF
F5
E9
37
05
0A
E7
F8
FE
E8
F2
2F
07
FE
02
E3
11
F3
10
F0
F8
CB
F0
05
10
0E
2F
0F
ED
EF
E2
22
EA
05
0E
3F
F7
07
12
FE
FC
03
F5
D5
FF
E8
41
EF
FF
21
FC
24
05
16
01
0E
09
FE
CD
F1
E0
02
FB
FA
F7
ED
E4
06
0D
EB
03
F8
0A
FD
E8
0F
44
33
08
04
03
03
0F
06
08
0B
16
EE
2C
0D
26
F8
09
01
01
F2
0A
12
F3
18
25
0B
0B
1E
F8
F2
0A
E6
03
05
DB
07
0A
21
0B
0C
E9
FC
F8
1A
37
06
FD
0E
07
0A
00
DE
F2
0D
28
F4
01
1B
2C
04
0D
E6
1F
30
07
F8
FC
01
3E
FC
FE
08
F2
0C
F6
02
CA
07
F4
11
02
17
D6
0E
17
FB
08
04
D9
FE
0B
EA
F0
15
03
11
F2
12
F9
17
0B
FD
0F
0C
D9
10
DC
EC
01
06
19
D3
F4
F2
06
11
17
FE
1F
F6
0C
04
32
F7
1A
F4
03
10
10
FB
09
08
E7
FA
DD
08
F6
0A
07
1E
ED
FC
FF
FE
DF
18
F6
19
29
EC
05
08
09
F5
02
10
05
0A
10
2B
0C
E7
16
F3
FF
DA
04
F0
F7
14
F8
FA
10
F7
ED
FF
F2
1A
EC
01
04
07
01
FD
0B
FD
0F
FE
0C
06
09
E7
F7
01
26
23
E5
0D
E4
1B
FB
FA
E1
1B
14
F8
09
06
FE
0F
FB
F4
21
23
EA
EF
F6
EB
FF
09
EE
0E
F2
23
FC
05
01
0D
FE
FC
DD
03
F5
08
F8
35
EB
24
09
0A
FB
02
D9
0D
E2
D9
F7
F7
05
05
02
02
10
00
1E
F5
0B
FC
EA
FB
14
FA
FF
15
23
F9
1A
FA
F6
F6
FD
EC
0E
05
19
0A
FF
21
03
05
1B
1C
0C
1B
0F
06
ED
04
FE
00
09
26
1A
F1
0B
F0
EA
02
FC
02
1D
E6
0D
F3
F3
DE
FB
E0
00
08
11
F2
EC
24
05
FE
F7
F4
EB
FC
E5
FC
FB
13
F0
F0
E3
04
02
E9
FF
F6
0C
13
0B
F6
0F
F5
ED
0C
1C
F4
14
FA
0B
1D
10
F1
0C
05
FD
FF
18
F6
D5
09
ED
EE
FA
01
CF
FE
15
FF
FA
0D
F8
01
F2
E8
EA
E3
0C
FE
FB
F3
08
06
F1
00
11
0A
18
E8
EB
F7
1F
F8
FC
13
07
22
FA
F4
0F
0F
0E
04
0A
FB
19
0A
0A
DB
00
10
2C
EF
F1
E1
02
EE
FB
07
E9
02
F3
10
EB
FB
FD
0B
0C
DD
F1
EC
D9
FB
09
17
11
15
DF
13
1E
12
09
F4
FC
07
02
F3
FD
F4
F0
1B
05
EA
EB
27
FD
DF
09
23
00
F2
18
15
06
2C
04
F6
08
08
11
08
F3
FF
19
0B
09
F7
ED
F9
2B
01
E3
0F
28
F7
FC
06
33
25
F3
19
07
06
03
0C
0C
03
06
F7
FE
06
F5
FD
F7
FC
02
00
E3
F7
24
F7
FE
0B
0A
2D
F7
ED
18
DE
FF
04
0D
FB
DB
02
FF
FB
F1
15
EE
1E
F3
E2
0E
0F
0F
F7
17
FD
01
E7
02
06
DD
F9
E8
08
DC
DC
FD
08
1E
F2
EF
06
E8
1F
0E
EE
FF
E4
0E
12
01
0B
11
F6
02
F0
2C
05
0A
0D
1F
D6
F6
E2
FD
FB
00
1F
06
06
F5
06
F9
DD
01
F2
05
2B
0D
EF
ED
0A
17
06
1E
01
0C
1E
15
F9
21
02
EC
00
0A
0C
06
ED
DB
FF
F6
FB
13
E8
E1
FF
1E
09
12
0C
19
03
FC
00
FA
15
EF
0A
FE
ED
FE
17
10
E4
F6
01
0E
E9
E7
1B
06
ED
EC
05
E1
1C
FE
2D
F3
DC
EB
FD
08
0A
07
E0
03
FA
10
ED
DE
FF
06
ED
03
14
FD
18
1A
EC
2C
0D
DD
F6
08
0C
08
E9
1A
16
1E
12
FA
0B
06
EB
09
FB
0E
05
EA
F6
0C
FF
02
E9
E8
2C
E9
FF
1B
F1
17
F4
C9
0C
F1
E5
F7
F5
07
FE
07
0F
F1
DC
0B
E8
1A
F6
16
F9
F9
F3
EE
C6
FB
0A
EE
04
F7
11
02
0A
EF
E6
01
05
E4
0A
06
1B
DC
1B
15
0D
2F
FF
E7
0F
FA
F6
0B
00
0B
11
BC
F8
F4
FE
06
CD
01
F1
00
F3
F3
0F
15
DD
F5
FF
08
FD
0D
3D
E8
F7
FB
F7
F6
E1
D4
FD
02
08
00
12
24
14
10
FA
F8
FE
32
04
06
1C
DB
05
0E
F3
FC
10
01
FA
08
0B
FF
E2
ED
EF
12
0E
E8
0C
23
FC
F5
F8
06
09
21
B7
0A
0F
1D
FC
1A
00
DF
11
EF
F7
03
F2
F2
01
EA
02
EA
12
F8
0A
03
F7
E8
14
08
28
FE
EF
DC
E0
DE
0C
05
21
F8
03
EE
05
09
F0
D5
09
F4
EC
E9
01
0D
13
F3
1E
22
1D
1C
17
06
FA
E7
0D
00
FC
EF
0A
21
FA
F1
04
0C
0A
03
E3
19
10
10
F3
E9
0D
0A
00
E3
0E
ED
FC
FE
0B
ED
11
2B
F5
14
03
01
0E
E3
DB
0C
FB
0E
07
F0
F7
FC
EA
FF
FA
07
EB
C6
07
2C
02
EA
F7
2D
F1
08
FB
FB
0E
F9
FA
E7
09
0C
03
1B
17
02
FB
F8
25
06
09
EA
FD
EF
F0
04
E9
E7
06
0E
02
25
07
F1
FE
E0
ED
08
09
07
22
E1
07
2B
18
F0
09
D7
EB
E2
12
02
10
E7
F3
0A
2C
FD
07
FA
F8
FC
16
FC
FC
D8
12
04
1E
F9
F0
F2
01
F1
0E
F9
13
09
01
10
E1
0F
12
1F
14
23
1B
FA
F1
D5
14
ED
08
ED
F2
0C
01
11
FB
17
F4
FE
08
F2
FE
F7
EE
29
F2
01
E0
19
FD
EA
FF
EE
0F
05
06
FB
FB
FF
03
F9
0C
F6
1F
EA
13
E3
EB
25
FA
0B
01
E6
10
E7
03
03
F4
1D
0D
01
02
04
13
FF
F3
0C
14
0A
0E
EB
01
00
09
E8
FD
0D
FA
0F
F0
05
F3
FE
13
E5
FD
03
0E
F2
EB
F7
F3
1C
F8
DE
0E
1B
F3
F7
FD
0F
F6
FC
2E
02
F6
F5
15
FE
D6
03
21
03
E5
FE
10
F6
E2
14
05
0E
1F
05
01
02
21
1E
FD
DC
F2
03
FA
E9
10
06
00
18
02
21
F6
09
0B
19
EA
0C
16
E0
F6
E8
F9
D4
EA
EE
EB
08
EA
03
FB
FE
18
0D
FA
0F
02
0D
05
00
2A
F5
EA
07
EB
10
08
F8
F8
02
E7
13
EF
EE
05
0C
FC
EE
FD
F2
F4
FB
F5
EA
F3
04
F9
F0
0B
18
28
12
E4
F9
04
FB
0A
08
FC
F9
07
C9
13
D9
15
09
F7
FC
05
FC
09
0B
F0
11
FF
0C
FD
14
F3
05
06
FF
04
F5
EC
24
E4
03
F2
2E
E8
F5
10
F0
FC
06
14
13
E2
F0
11
16
1B
38
FB
1C
05
0F
0F
05
26
22
01
DF
F6
F1
15
FD
EA
09
DC
E9
D9
05
EC
15
02
00
02
F6
23
F3
F4
0B
FD
E9
00
01
FF
15
02
20
EF
FD
E7
DB
E7
07
F0
06
FC
1F
F8
09
02
12
FC
06
F3
44
FA
FA
08
E5
F8
CA
0D
E5
0D
F0
06
0F
01
EE
1F
F4
F6
0E
DF
ED
18
18
FF
18
2A
E5
ED
18
D1
11
EE
0B
DF
03
F4
04
DF
F7
EB
F4
20
F1
D5
EF
E8
07
F8
D8
FF
E4
08
1B
FF
01
05
F0
20
00
EE
F0
10
EE
D8
2A
F1
F3
0E
FA
E6
FA
35
1B
02
08
D7
EE
EC
04
F2
05
FA
05
FD
EA
FD
EF
02
13
0C
24
E3
00
19
1F
EA
03
06
F7
E0
F7
DC
FB
D5
07
01
02
06
10
09
EA
D8
12
EF
FE
F2
22
E3
16
F8
FD
03
16
F6
2E
15
26
F1
01
F2
D8
25
E5
05
1B
EB
02
F7
FE
10
06
0D
05
19
03
05
0A
F8
03
08
FA
D5
FE
D1
30
E5
05
1A
F2
FE
12
00
1E
F9
02
10
FA
EE
0F
05
14
10
F3
D1
E4
01
01
00
F5
F0
0F
1E
13
0F
E8
1B
FC
ED
08
E9
FD
F8
04
21
DB
07
0A
F5
E7
02
01
15
F8
F8
F6
0E
F9
FB
0B
F9
1B
FA
E9
1F
09
F5
D1
00
0C
0F
0A
17
0E
01
FC
F1
01
17
ED
EF
F9
FB
30
F1
0E
15
11
06
F9
2B
03
1D
F1
20
07
1F
FC
E5
0C
FE
1C
F5
E3
DB
E1
ED
FE
F1
03
E7
05
F8
12
00
E4
ED
E6
F6
19
1E
28
14
3D
13
DA
00
0C
0D
05
34
05
F7
FC
16
F7
12
22
E2
0C
18
14
06
E8
E7
FA
EA
EA
10
03
F5
0D
FE
1C
EB
DF
FB
EA
23
DD
01
FD
0D
FC
04
01
09
07
0B
16
F5
F5
FD
13
F3
12
08
0B
15
FD
F5
03
04
10
07
28
F9
F9
E0
FF
F9
06
EA
06
3C
E3
32
09
E2
FE
E9
02
1C
FE
EC
D9
08
04
F1
17
FC
FA
0D
07
1E
FF
13
FC
0D
F4
17
F8
13
00
00
0A
D2
06
24
0E
F4
0C
F2
FD
0F
E9
00
EF
EE
03
0B
16
03
24
0E
EC
EA
0E
2E
E7
E5
F6
F0
30
1A
F7
0E
12
04
02
D8
FC
22
F4
FB
1C
03
10
D3
0A
EE
02
F9
E5
FC
08
FA
0F
EB
FA
FD
08
1F
E2
FF
09
02
FF
D9
FE
07
1B
14
10
03
E5
0C
D9
00
FB
F6
19
33
0D
3E
02
FE
04
FF
DA
F6
DD
E0
FF
FE
EE
F7
15
FB
F6
12
F3
08
FF
07
04
E1
01
F6
10
10
30
02
F7
EF
EE
0A
24
1B
2C
0B
E8
0B
F7
FB
F9
04
E8
F3
0A
F8
D4
04
05
FE
0C
FC
EE
F5
1D
15
EC
D4
EC
16
FE
FF
FA
04
19
FA
04
EE
F9
03
D3
E4
FB
F0
E8
FC
EE
DA
F3
00
E9
F4
DA
F3
F9
08
FD
37
FD
0A
0D
FB
D9
1C
33
03
43
04
FE
05
F5
09
03
E6
E5
03
1D
F8
E9
E4
0F
EF
1C
F7
FC
DD
18
13
EF
F2
DA
FA
08
1F
E5
0A
08
02
FE
0A
0C
F6
07
12
22
EC
1E
03
08
E7
D5
F6
0E
0C
ED
18
EE
11
F9
EB
EA
35
04
0C
DD
02
1D
FA
07
00
FC
FB
FB
2F
EE
04
31
16
0E
00
0D
0B
ED
EC
1F
CF
2B
ED
FA
DC
1B
FA
EF
0F
09
F0
23
ED
14
09
03
08
03
18
07
05
FE
18
CE
0C
ED
2F
F4
0F
08
FC
FE
09
37
B2
14
F3
07
F1
09
EE
DE
FB
19
FD
F7
14
05
19
F9
D6
F9
07
1C
FC
00
0E
02
F9
F5
D4
F4
FE
F4
00
FA
05
10
E9
0D
23
13
0F
E6
06
F2
ED
03
FC
CD
EE
FB
0A
08
F5
DC
04
F2
08
1A
F0
E2
02
01
E0
F1
FC
F1
26
29
E6
FE
F9
1E
2A
F9
05
0D
0E
FC
2B
21
D6
04
E1
07
E7
29
ED
16
12
EA
F5
F4
06
0C
F6
DE
00
EF
EA
05
DB
2C
F6
06
20
E6
E2
0B
14
FF
01
F6
05
01
FB
0D
EF
E1
F9
F6
F4
03
17
EC
06
DE
2A
01
17
F5
02
F0
EA
1A
04
FF
19
FA
03
F1
F3
0F
0E
EA
0B
25
FF
0F
FC
02
1C
EB
03
FF
06
FE
02
09
09
FD
0A
01
FE
05
F9
07
EE
14
FD
F5
EC
08
2E
1D
45
F4
17
D2
E1
FD
F7
EA
16
11
FD
0A
F4
F8
0C
FC
F9
07
0B
F6
F3
F8
FD
FF
E4
F1
14
E7
23
11
0E
FF
1B
F9
07
04
0B
F3
12
07
F8
E8
EE
FB
0A
FC
FD
0E
07
EE
17
E9
ED
EA
FB
ED
F9
2A
EA
0F
00
0D
FD
DA
00
E5
F8
F9
FB
06
FD
D8
F4
F9
20
18
03
DC
F8
E3
FC
F8
FC
FA
15
EE
01
1E
F1
E1
F3
F7
11
FE
EB
D8
03
F7
EE
1A
05
0F
F4
E3
FF
F1
19
15
0A
F8
F9
00
0C
F8
14
FF
19
ED
1A
EF
03
03
EB
E7
05
0D
F0
FC
06
19
13
02
19
F8
F3
14
D1
0F
05
04
F1
E2
04
DF
FB
E3
EE
01
1A
E4
22
FD
0A
15
18
0F
F5
28
0A
10
FD
04
06
F2
FE
08
28
FA
07
44
F5
F7
FF
11
FD
FA
FD
29
0B
FE
12
F5
F0
D3
0E
FF
C8
E4
18
10
04
FF
1F
0C
11
1A
FF
F2
D9
0F
26
03
F5
10
F2
DE
08
DE
00
00
F3
EB
19
14
EC
F0
F6
DA
F8
08
DD
0C
E2
08
03
0A
03
EE
FF
09
27
FF
0D
F5
18
07
02
F0
EF
FA
F3
F8
24
08
29
07
14
05
E2
FD
F8
F8
1E
0A
04
E9
FD
E0
1F
07
0F
E8
14
02
FD
F3
F8
F4
EF
F8
0A
21
FA
06
F8
07
0B
06
03
FD
10
13
F3
EF
04
28
FB
FF
F0
F7
0D
0E
FD
F8
FA
19
F3
14
0D
EE
F3
17
F6
FC
FB
23
F0
DE
FA
0A
0B
F2
08
FF
FA
F8
FA
1C
04
01
ED
F2
0F
1D
2D
E5
FF
1A
F0
08
1A
0C
0C
FE
04
FA
08
0B
F6
F7
14
EC
26
EE
08
F4
FB
DF
00
EB
33
0E
E9
FA
EE
F1
07
09
1D
1B
08
29
F5
F7
01
EA
EF
DF
14
F3
E5
0E
27
16
11
FE
FB
2C
17
02
16
DB
17
0A
B7
22
02
06
1D
0B
ED
E3
F9
02
0E
00
FB
EE
03
1F
FB
07
F9
15
09
14
0F
19
06
15
1B
FD
E8
F3
09
F7
08
34
F9
0E
E5
06
F8
0F
12
FE
FA
D7
12
23
F2
02
F9
03
F8
13
F8
CF
07
21
FB
16
0E
FB
ED
10
03
FD
0B
03
FD
31
DD
10
1B
FF
FA
04
0B
F2
F8
1F
02
FC
EC
FB
0C
EB
F2
22
F5
FD
12
02
37
F5
05
14
F3
05
01
12
05
08
E7
F7
F9
06
16
10
16
0F
ED
06
30
FC
EA
02
EC
05
F4
EF
05
11
DF
0C
04
09
33
15
06
0A
11
F9
FE
15
0B
03
DC
FA
0B
0F
E4
03
01
E5
15
00
ED
F5
F2
11
F2
E8
08
EA
05
00
F1
FF
08
03
09
D7
F3
EE
02
05
14
E7
09
19
0D
B7
FB
F8
0F
F8
10
F5
F1
EC
0C
0C
05
EB
02
F8
FA
09
11
FE
1A
19
05
FE
E2
02
15
FE
01
1A
FB
2C
DC
06
FC
13
02
E5
14
0B
F9
E2
FD
19
18
F5
FB
FB
02
FC
32
F4
13
F9
04
E9
22
0E
07
EF
F8
DE
00
17
F9
1D
0C
04
00
0F
0D
FF
06
0B
EB
01
F3
17
EF
CB
08
DE
0D
0B
F1
00
08
2C
01
1D
E2
FF
ED
FC
D6
F3
FC
0B
19
2E
EF
0D
EF
D3
F7
F1
FC
06
19
F1
13
20
F4
04
F3
02
00
EE
08
E0
0C
1B
14
F8
08
FA
14
40
FE
F0
01
EB
06
02
EE
05
F2
E9
DD
3E
0A
1D
18
FF
FE
E8
0E
E0
05
FB
EC
FE
F0
01
0D
F0
F8
00
07
FB
08
04
1E
F4
F2
06
0B
EB
F8
DC
01
06
01
11
22
F0
F5
FE
F4
0C
EF
F4
FA
23
1A
FE
0D
E7
0D
FB
F9
18
F1
20
F6
0D
D8
15
E9
07
0F
07
26
EE
ED
01
07
26
FE
FA
F6
FA
07
0D
1D
ED
10
F8
F7
F9
09
FD
FA
0C
20
0D
18
F3
FA
ED
14
05
D8
02
1B
15
F2
2E
09
F7
FD
08
FD
0B
F3
14
1E
F4
3D
EB
F4
11
1B
FC
01
F9
11
01
FF
08
03
FC
E5
DC
12
E5
E7
26
FC
F6
2A
F4
F9
E0
EA
12
2A
10
05
02
18
FE
EC
16
F5
2F
FB
16
EE
08
24
F9
18
0F
0A
01
12
EF
FA
D6
E9
FA
F2
07
11
FB
1A
0C
1B
00
0C
17
F6
0D
0C
F4
1A
F2
0C
07
01
D4
09
03
F7
0D
17
F8
1C
06
00
F9
D7
19
20
E0
FA
FF
FE
F0
1F
20
09
0D
12
F8
05
EB
0F
03
19
13
FA
17
09
E9
0C
2E
0C
13
08
0A
13
18
04
F6
E4
E2
FA
FA
02
07
EE
EA
01
14
F8
08
FB
E8
06
09
F3
12
F9
17
EA
06
EB
ED
F8
1A
09
FD
F1
E3
0C
F6
E9
FA
06
F1
03
F6
EF
EE
23
19
F2
00
F9
FD
FD
E2
08
02
EB
F9
00
E1
03
E4
EF
F0
F8
DC
25
0D
03
FA
DA
FB
F8
F1
19
0B
18
21
EA
15
E3
E6
10
F7
F2
18
F4
F2
12
FA
EC
F4
E4
FA
EE
0A
0A
EE
FF
F8
01
0F
0E
09
DA
07
2E
E3
04
E6
11
28
F9
0C
00
FA
12
F5
EF
1C
FF
0B
28
32
03
E6
16
C9
F7
EA
E5
E8
D5
05
CF
21
0E
E4
03
F1
05
04
03
03
0A
DF
06
EA
00
06
0C
CD
F8
F5
07
12
00
0F
EF
0D
F9
EC
EE
06
F2
33
F1
22
F7
14
15
12
FA
18
02
FB
EA
08
F1
0A
F8
F4
04
1A
DC
EF
DF
F5
EB
DE
ED
1D
1F
03
00
EF
F0
17
22
1B
EB
F9
FE
06
F7
EC
05
0D
05
F1
FF
E3
03
00
EF
16
E6
0C
03
E3
EC
1F
ED
28
F0
F7
FA
07
FE
22
01
FD
DF
1A
F2
E4
11
E0
CD
FF
F7
02
EB
DF
FD
06
EE
EA
20
18
00
EB
23
10
08
0A
FA
E4
0B
1A
03
2C
D7
09
0E
19
ED
D4
F8
F9
EB
0C
19
F7
05
FD
E9
FF
08
07
1E
19
F2
F9
06
02
03
F8
F0
19
19
16
1D
0E
17
F7
01
13
1F
EF
F8
F7
0B
FA
0D
0B
02
12
0F
E5
E9
0E
FA
DE
0C
D6
FE
E4
D9
E5
F5
09
08
F8
00
06
13
F0
0B
0B
25
08
EF
12
EE
F5
E6
E9
EC
D7
E9
16
10
12
10
F8
DD
EC
FB
0F
0A
18
05
FD
F5
E3
EE
08
0D
FE
13
01
08
20
E8
00
22
0C
10
12
07
22
17
FB
07
EB
13
05
1D
00
F4
F9
14
F5
0F
0D
EF
05
02
04
06
1A
EA
FB
F7
EE
F3
0A
03
2E
F0
18
F1
FF
06
12
16
FB
E5
FC
F6
D7
E3
04
D1
0F
1E
0D
06
D7
1F
16
DE
E8
07
E9
1C
13
F0
FA
E7
F6
00
08
11
FB
14
FE
0E
EA
10
F4
14
D1
EA
28
1F
03
08
17
0E
F1
23
FE
F4
C8
F2
22
F5
D9
FC
1D
DF
0D
F8
05
18
0C
00
FA
2A
0E
04
E1
0B
30
EE
EF
F5
FF
09
00
08
00
0B
F1
FA
F6
0E
02
FF
EE
FB
0F
F3
17
08
08
0B
15
F3
EF
16
E4
F9
F5
02
20
D6
02
10
F7
18
17
14
1F
DC
E4
1E
05
0E
FD
FA
07
F1
0F
FA
F9
04
03
10
0B
0D
2C
36
D1
F7
DC
0E
07
17
FF
1D
FF
0A
03
11
04
E7
FB
FB
F9
17
00
12
C7
03
01
FE
05
E5
06
09
18
16
19
E7
FF
FA
FF
FD
F4
05
FD
04
07
D5
E0
EE
05
05
FA
19
2D
01
1C
11
03
DB
E8
F8
08
0A
1D
E6
F1
12
20
E7
E9
12
EA
FB
05
11
FC
01
FF
14
F3
FE
F7
0E
10
F0
1D
00
F3
F1
EE
FB
1D
DB
E3
1E
F1
28
03
F9
11
00
0A
1D
21
FF
EF
ED
16
E0
18
0C
E3
0F
EE
0C
01
02
00
EC
06
EA
02
01
0E
15
05
F2
17
F3
08
E8
1C
FB
0D
F7
F3
14
16
12
05
E0
00
FC
02
0A
08
00
1B
1D
F6
0A
20
16
0B
05
06
F8
EB
EF
27
16
14
F3
F7
01
F1
F3
1A
0A
10
F6
E1
F3
D7
F9
1E
09
F7
0D
04
07
FB
F2
12
EB
E7
FB
05
F4
05
FA
FE
F6
E7
17
F9
F5
0B
08
27
E1
14
1A
08
0A
06
01
27
F9
F6
FF
0E
01
E4
F8
00
00
0F
1E
06
16
02
12
04
1D
F3
FC
EF
FB
FF
18
0D
E9
16
0E
14
FC
EB
01
19
F4
E5
04
FE
14
EA
20
FA
1B
03
02
0B
E8
1B
06
0C
FD
F4
F7
04
29
F7
F4
1C
05
F3
F7
21
08
1A
09
0E
E6
04
07
FD
E9
FB
F0
1B
EE
E4
01
0C
02
EC
04
05
F4
FA
EE
F5
1C
29
12
F3
F9
19
05
FC
F9
00
2E
F6
FD
06
32
12
F8
07
00
18
E4
01
1E
02
0D
0B
ED
F3
0B
13
0E
EB
F4
14
0A
00
0B
FA
08
1D
FB
FF
27
0F
06
F1
F8
E7
FD
2A
0E
09
18
02
05
02
F2
F4
02
09
EC
D9
E6
0F
E2
E4
E7
04
15
FC
06
16
07
EE
F8
0A
02
06
13
09
21
1C
11
14
06
F8
01
03
F4
FD
23
FB
0B
EE
06
10
F9
1A
0B
12
1C
15
EE
FF
E6
05
12
F1
F6
4F
F8
2C
28
0B
0E
0C
E1
2E
F8
17
14
F4
FB
E1
EB
ED
F5
F2
07
F2
19
F2
FF
1B
E8
01
07
EF
EA
10
EF
F6
FC
02
03
01
F1
1D
ED
FF
18
F5
03
0E
05
F4
ED
F5
07
F1
FD
0E
13
FB
2A
00
04
1F
07
18
EF
FB
F1
06
12
F1
0B
06
FC
38
1D
02
17
F2
39
FF
39
0E
2C
04
18
F9
0C
F8
01
E6
0F
F7
FC
10
08
1B
E6
01
03
EF
16
E3
00
EF
19
02
F8
F3
19
2A
0A
EB
FA
06
E4
0E
EB
F6
11
F9
21
F5
07
20
09
D7
FC
E0
0A
06
F7
EA
E7
0C
01
E8
EE
12
05
13
F5
09
10
F3
E9
F7
19
F5
11
E9
F3
F2
25
EC
FC
F7
F0
FC
FA
D4
F9
08
FE
0A
ED
14
0F
07
07
18
E1
F0
01
04
E6
F7
E4
FD
0B
E8
04
EA
06
15
ED
F9
F6
F9
24
FB
F6
10
0A
04
F7
F8
EE
FA
EA
F1
FC
CC
15
E7
02
0B
0D
E7
00
F0
03
EC
31
1B
F0
0C
E6
1A
E3
0C
FE
18
25
EC
F9
E3
0B
F1
0A
FC
0B
03
D8
FB
19
E7
03
1B
0D
12
08
F9
EB
1F
24
FA
0F
F9
0B
36
04
E7
F3
F4
F2
F9
16
F5
FB
0A
F1
E8
EC
0D
FF
F0
FF
0C
24
E2
F4
05
E2
DC
DC
DB
0B
08
E8
F3
FA
20
E0
0F
E8
03
03
F3
0F
1C
0A
F2
EC
23
F0
11
00
01
08
01
07
01
15
F6
F8
FA
F6
26
0C
16
06
FF
2C
F5
0F
F0
DF
03
EC
FD
EB
05
04
F5
01
EB
F9
EA
EE
E7
27
FC
04
EF
FC
EF
E7
17
0C
F4
0C
E4
F5
F1
0B
18
F1
E0
0B
05
EF
DB
FC
01
EE
E4
E5
13
05
2E
F7
F0
FF
FB
FF
E4
FD
01
F1
ED
DD
F9
08
06
0B
1C
F4
1D
15
FF
F4
11
F8
FC
FE
1E
F4
EC
EB
D0
FA
DB
EE
0D
F3
EF
F5
F6
FE
E7
0E
F1
EE
11
FC
F1
17
11
EB
0E
24
F5
0A
E9
DA
E8
0C
19
FB
04
E3
2C
F1
FA
EA
FE
04
17
F3
0D
08
2E
F1
07
1A
EF
00
10
F6
28
F9
08
F4
F3
02
E6
FF
FD
14
EC
0C
E4
03
15
EA
1E
0B
0B
FA
01
EA
EC
14
EF
10
CF
F0
05
FB
F7
FC
07
18
1E
E0
FC
0D
08
E9
D8
0C
F4
03
D6
06
01
F5
08
09
FE
19
16
03
F1
F7
FC
F3
07
FB
E9
EA
06
FF
01
02
2F
F0
1A
F2
EE
E9
EA
D9
F9
E4
F4
F5
F6
35
FD
F9
F9
F1
06
0F
EC
F6
E6
0A
02
EE
02
16
0A
EA
1C
11
FF
20
07
10
0D
06
27
02
E5
05
EE
F8
DD
09
FC
10
E5
E2
F4
05
FA
02
0A
F5
FE
F1
D4
F4
EE
02
03
E8
F3
E6
01
00
0E
DF
01
17
06
E8
13
FF
EB
00
1A
DB
16
08
17
F5
46
F4
16
1C
E9
E1
0A
13
0F
1B
E0
F9
17
F1
F8
EE
DE
E5
0A
DB
F6
07
04
FD
EA
12
FE
FD
F3
25
10
F1
F6
EC
04
0B
18
05
D3
1D
F2
04
00
D2
20
E4
F7
00
E8
F1
06
E0
EE
ED
1B
EA
F7
0E
04
07
1F
08
FD
D9
03
0E
FA
06
FC
2C
EE
09
DC
FF
0A
20
26
DE
EE
11
ED
C7
13
FB
FD
05
03
0F
FC
0E
07
0C
10
F9
E8
F8
08
0F
03
E3
19
13
E9
06
0D
E1
F6
0A
0D
1F
09
00
1A
F7
14
F3
15
F1
F7
E5
1D
19
F4
DD
F9
FF
0D
F5
F1
C1
E3
FF
F3
FB
08
E8
02
EC
DB
15
FC
00
00
00
F7
D8
FC
F2
F9
0D
FD
0B
F0
F2
EB
E9
07
EB
EE
F5
F9
0A
00
F7
FC
0E
0F
01
1B
F8
06
FE
E3
19
CA
0B
F9
08
FC
0C
FE
15
07
18
02
F9
13
02
FC
F6
14
11
0A
1C
DC
1C
FB
00
21
FA
FB
07
03
07
FB
0D
0C
09
05
0C
F2
EA
F4
EA
06
EC
EF
0F
01
0B
EA
26
EE
18
0C
F8
FA
19
F4
F2
00
1E
08
2D
16
17
01
08
F3
E6
F0
0E
F5
E9
08
19
F4
07
22
E4
06
EF
0E
F1
FD
11
FE
01
F3
F2
E1
F8
01
20
05
F2
08
14
0B
EE
11
1F
D8
0D
01
05
00
17
FA
F0
EF
0C
FE
FE
06
EB
FC
06
E0
2E
FB
FD
0E
F7
15
12
10
F9
FB
10
0A
1A
D0
24
DB
0E
EE
EF
FA
07
08
F5
FC
16
E5
DD
15
0E
EE
D6
12
05
06
2E
13
09
01
14
12
04
06
04
0E
0C
1A
07
00
FF
02
20
09
09
FD
16
05
02
FA
0D
FB
F6
F4
0B
14
07
FD
F6
F4
03
0F
0A
F9
EA
FC
14
EE
E9
02
0C
10
E7
F2
0B
19
0C
FE
FD
06
0D
F7
1C
16
E5
01
FC
03
F5
F1
FA
06
0E
F1
F8
E5
F4
DC
09
E4
F7
F5
0A
FB
02
05
01
06
F9
F0
EE
07
01
07
0A
E1
EA
08
12
0E
07
2F
E9
01
F2
E7
EA
0D
D7
03
1A
FB
F8
F3
DA
ED
02
1C
10
F9
E2
0B
14
18
0A
0D
FF
EC
14
FF
11
04
DA
09
F3
F0
EC
FB
D9
ED
F0
FF
0B
FF
E8
F9
EA
02
F2
F0
05
DD
DF
03
F5
11
0C
FD
F1
ED
0F
05
08
FB
10
0D
F6
08
24
07
E4
01
FC
02
22
06
F3
F6
17
1D
E7
FA
F7
10
02
F9
04
F2
FA
FB
0C
FE
FF
EC
D2
EA
F7
0D
FD
1A
03
02
13
F5
09
F4
07
03
07
08
00
01
0E
17
F8
DD
09
23
10
17
F1
F7
D8
F6
10
19
06
F5
22
0A
04
01
F3
ED
12
F7
EF
10
02
FD
1B
0C
EC
09
EE
E2
FC
2F
D4
EF
F0
13
FF
F7
08
09
21
EC
17
09
EC
0B
08
F3
FB
03
F1
06
0E
EB
08
F0
0A
24
F9
DE
18
06
EF
15
06
06
01
F8
F8
FC
03
1B
0A
B9
EB
03
09
F2
0E
20
11
F3
0E
04
F9
DE
09
10
F5
F8
FF
E7
EC
04
3B
00
F7
06
00
13
0B
13
FB
DC
2C
EB
01
F6
F7
0E
05
FF
0F
FF
FE
ED
F3
E7
0B
EF
E9
15
F2
EA
07
12
F6
F2
E9
F3
EB
0F
F7
03
0E
E2
F4
32
50
DD
1B
04
F8
F1
D3
BE
E0
E9
05
2B
02
F9
0B
E3
1E
FE
FC
D6
07
34
00
0B
03
F1
E2
27
F5
E6
EF
F5
09
08
F3
12
03
02
EE
F8
F3
29
F0
F7
11
F6
08
E8
02
FC
0A
F6
04
E5
12
F2
15
11
15
DE
27
F2
05
03
00
FE
0B
02
07
CE
EF
07
F1
11
01
05
0A
F6
0A
C9
2F
E9
06
E0
E9
FE
15
DE
F1
09
FE
F1
F7
E3
FF
12
07
EB
1E
F1
EA
04
FD
C9
00
F4
F4
04
19
D8
F0
FA
05
38
F6
FE
0B
FD
1C
16
06
19
F6
11
07
DC
E2
05
FA
1B
07
FB
FA
14
13
07
09
EB
13
FA
19
FE
03
26
14
EC
FE
E8
FE
FD
12
E4
0D
ED
3C
0C
FD
12
FC
08
FA
13
0E
E5
2F
EC
E6
05
FD
F5
F7
07
11
0D
11
F3
0B
14
0B
F5
17
FD
FA
F3
0D
13
FD
BC
E3
FC
F2
0D
10
00
09
08
20
0A
28
05
FD
28
17
FF
F8
F6
1A
23
E2
33
FE
1C
F2
10
47
EE
12
F3
FB
F9
00
06
FB
EC
ED
19
FF
F5
14
06
F2
C1
E1
FC
F0
1C
14
FB
FF
00
0A
E7
F9
0C
05
FF
01
07
04
10
E6
E0
18
EC
FF
E8
12
F6
F5
EB
D2
04
13
F7
08
01
FE
F3
F8
03
0D
10
FA
30
F4
F5
05
F5
FB
0C
EB
F8
FC
F7
0D
03
08
FC
E7
0A
0D
FA
EC
01
F8
FE
F1
0B
F4
FD
27
05
EE
14
F7
03
F3
F1
01
16
0C
03
07
F1
F3
EB
FC
21
09
16
0A
EE
FE
37
00
D8
FB
08
06
F7
28
10
13
01
1B
03
F2
E6
F9
09
F7
14
EB
17
12
F2
FB
05
F3
FF
0E
FB
03
EE
07
07
1C
F4
F0
08
FF
23
0F
1B
13
1D
FF
F5
F1
22
08
1A
1D
EB
F5
FF
09
28
E9
08
09
0D
12
EB
09
01
F2
0E
FC
F1
F0
F5
FD
0D
EE
08
05
16
10
0E
17
F2
04
05
00
0A
F9
03
0D
DF
2C
1E
15
E4
F5
FF
F7
04
F7
1B
F3
E4
06
0D
10
D2
02
23
19
07
F8
FE
F3
EB
0C
FC
1B
F0
05
F2
1D
07
F4
F5
17
EB
FE
FA
07
FB
F4
FD
F0
FC
12
02
04
1D
DF
0A
1A
1B
0A
FC
F3
F6
16
FD
12
06
FE
FC
1F
EE
F0
14
09
39
1D
06
0D
2C
1A
00
FD
FB
F8
E2
FC
FD
FB
FC
06
03
EB
0A
07
F7
1C
F4
FB
06
10
11
FD
E5
F7
E8
F4
EE
24
0E
16
05
FA
11
05
09
E8
F3
0E
F7
14
14
2B
24
0B
0A
F7
FC
25
FB
01
E0
0D
00
23
01
F4
F8
09
EE
06
FC
1B
01
DD
FD
FC
FA
0C
19
E7
E8
05
E6
F1
07
00
0A
12
10
0E
22
FE
FE
06
FE
E9
18
E6
02
CE
F0
FB
F0
01
12
25
FF
02
FB
E6
EC
05
0A
08
03
13
0F
15
00
0A
C7
FC
DE
BD
D2
F7
03
0D
08
09
03
DE
0B
19
06
E1
E8
D7
F7
17
0E
E5
FF
1B
01
EA
06
FD
EF
28
1E
1D
17
18
0C
EC
E0
04
FD
E9
01
E9
F3
0C
FA
1C
D4
E0
00
F6
F4
FA
E6
E2
0B
01
F4
F3
CC
00
11
0F
FD
12
15
FD
00
ED
1A
15
07
FE
28
0E
DE
EC
11
14
FC
F7
2C
F3
14
0F
F6
E9
25
F7
F6
EF
EF
09
0C
23
11
FB
25
1D
13
F1
F8
F9
03
FC
FF
00
1E
FB
10
F2
0A
F8
10
EC
06
F0
EF
F1
10
10
F8
29
FE
F7
05
0C
EA
D1
06
D7
04
FE
E4
12
F1
02
12
0F
05
02
E2
22
0C
F1
04
C5
FD
E9
F4
E7
05
12
E5
EC
04
1C
22
0B
F7
09
ED
09
16
CA
F3
14
09
06
17
11
07
DD
EA
09
1C
F1
FF
E1
08
09
09
F7
F8
1D
F4
0E
03
F1
DC
DD
F3
01
04
FD
03
05
F0
F1
EA
EF
DB
07
DE
03
FD
E3
F9
EA
0E
03
0C
01
FF
E9
E8
0E
FA
16
EE
04
FA
1D
1B
F1
F9
11
03
01
10
0B
F7
18
E5
E7
EF
03
E5
F4
21
DF
02
06
F7
11
DF
EE
06
FF
E9
FD
13
17
FF
E8
0A
E5
08
E1
E4
0C
F5
0C
08
00
00
21
EC
27
E5
07
14
1C
19
10
0A
FF
F7
11
F1
2B
02
FC
0D
EB
F5
31
F3
0F
01
E4
08
26
03
15
FA
F9
03
F1
FF
0C
14
FE
F6
F2
0B
11
FB
FC
14
FE
06
17
1F
FB
28
F6
F0
D7
FE
02
0B
FD
F2
FE
FC
FF
F7
05
0B
FC
FA
FF
06
EC
F8
0D
E0
F1
15
0E
01
EA
04
10
0B
02
21
23
0F
1A
EA
11
F7
F0
16
22
F6
28
05
08
30
E6
0F
FE
FD
13
25
F3
11
0A
01
F0
F9
10
07
F6
F1
F4
0A
03
F4
1C
F7
E9
07
F8
0D
E0
14
E0
1B
02
07
DB
F3
13
EC
F2
05
00
FA
04
13
C7
08
E8
06
F7
EE
FF
FF
F5
F9
FE
F5
00
F8
EC
EB
1E
F8
E2
23
10
04
08
19
F2
01
F3
25
12
F7
06
F4
28
10
0C
0F
03
0C
01
01
ED
ED
EB
0A
F1
09
28
07
DE
F1
28
12
1D
0F
0F
09
EB
FD
00
28
F4
01
12
16
F4
27
FC
27
EB
F5
0D
EF
E0
FB
15
0B
03
F1
F2
19
09
27
E7
03
0F
F5
F5
04
F9
02
06
FA
0F
D3
EA
FA
F7
21
0A
0A
FC
05
F0
FC
F8
23
EF
FC
07
12
14
DF
E8
02
FE
04
FE
FF
FB
14
F8
C1
0C
16
F9
18
FE
08
E4
0F
F2
FD
00
0E
FB
F1
13
16
0D
D9
F5
FA
05
F4
FA
DE
FF
FA
00
F1
F9
01
FD
04
F2
09
DF
06
F4
EA
0B
0E
F7
0B
03
E4
F2
FB
02
FD
15
E5
12
F9
E8
E9
F5
F7
08
F0
F1
09
FE
05
E5
0C
1A
07
EC
0C
FE
FD
F0
0A
0B
E5
1A
0A
11
DE
09
F4
FC
0E
13
E6
EC
F7
ED
09
EE
25
37
1D
11
24
DF
19
F4
1D
12
E9
FE
11
E2
08
18
04
03
DB
0A
18
F6
F9
34
02
08
05
04
0D
F1
11
0A
ED
15
F4
F4
0F
F4
02
F7
0E
0C
FB
FD
16
07
F5
13
FF
ED
04
FB
19
F0
26
FB
DF
14
E8
EB
F3
F6
1C
F2
03
EC
EF
08
03
FC
EA
20
0D
0C
1A
F7
0A
FD
EF
0E
0A
FD
29
17
1B
1C
E3
0F
F7
05
FF
02
E0
19
08
0D
E4
E9
F7
02
FB
FE
16
06
0D
16
F3
FB
03
FE
DE
10
EE
ED
32
1A
F7
05
0E
F8
1E
F2
05
F9
F3
F3
F9
08
11
11
07
E1
F4
FF
FB
00
FF
F8
EF
01
22
FE
FC
04
FD
F5
09
07
0C
0C
F2
FB
06
0D
F5
E9
EB
03
02
EF
1F
0F
0C
FB
E9
28
00
F7
05
FE
11
04
E5
F8
19
17
FD
EB
E5
0C
FE
F8
01
EB
05
FE
03
32
FC
EB
00
F8
EB
00
25
FD
FA
1A
01
03
04
E2
F8
FE
03
E6
E9
F8
23
E9
F5
03
35
F9
0C
07
13
F6
F8
DB
F2
0D
EF
E6
FA
0A
0B
17
EC
05
FD
0A
ED
12
08
01
22
F2
F1
D7
FA
16
0C
03
FB
02
08
12
EC
F3
EB
12
F9
0F
FB
03
E9
0E
FF
12
09
EB
08
12
FF
F6
EC
FB
10
0D
FD
DB
E3
EB
0C
F3
ED
1B
FC
08
11
00
DF
FB
F3
F8
F6
ED
F9
0C
1F
FD
F9
06
12
0C
19
08
F5
3A
E1
FB
FD
3E
E7
FC
EA
FE
BD
F2
28
EA
03
DA
2C
10
FA
CA
F0
02
07
F1
F4
07
F4
F7
EC
09
EE
FE
02
F8
05
09
02
F5
EB
16
02
FD
0D
F5
30
EF
0D
16
2B
FE
E4
11
F1
EE
25
04
0A
1E
03
0B
18
05
E5
01
FD
0E
08
F9
13
0A
E3
2C
26
0A
2A
FD
FE
E6
04
00
F6
1A
F5
EE
D9
08
FB
11
ED
F6
FC
FD
1A
F0
F9
D1
1E
0D
01
F2
FC
23
1C
FE
07
FB
03
F1
26
0A
0B
0B
02
1A
F9
09
06
18
09
09
02
04
06
05
E5
FC
E4
FB
0B
28
EA
28
05
18
F0
03
21
13
11
F7
0B
DA
E1
19
0E
06
F8
03
E4
F1
F8
1D
30
04
E6
09
23
F8
F8
06
FF
1A
EA
F5
1B
FD
F4
12
EC
D4
0D
F7
FA
0D
11
FA
F0
05
F1
FF
0E
F2
0E
01
02
FA
08
EF
20
D9
FF
16
F5
0D
F5
1D
05
F9
05
D3
F8
F8
F1
13
1E
F2
05
16
DA
EB
D7
DD
E0
08
11
FC
F0
0F
E0
E7
ED
22
F0
F1
FF
D9
E5
E9
18
1F
1C
FE
03
0E
16
EA
07
F5
14
0B
F4
09
FB
0C
F8
E1
09
23
01
33
E8
0A
26
F3
0B
0D
1C
F9
36
F1
FE
CE
F8
09
29
03
06
0A
02
20
11
E5
17
F8
0E
F6
DB
FC
E7
EF
07
01
F7
EE
07
0C
10
08
E8
F4
F6
F6
08
FA
E3
18
F9
06
17
09
DD
08
0D
01
15
03
FB
FF
05
07
E3
F4
E5
00
F5
20
E6
03
FD
0A
02
E4
03
F5
F2
F4
F2
0E
FF
0E
EA
D2
00
FF
F8
06
09
18
0A
10
F1
09
FC
FF
EA
D9
FD
FD
0E
06
FA
16
DE
20
08
FF
0D
0A
09
2B
E4
28
E1
0A
F7
DF
F4
FF
DD
FE
1E
F3
F8
E5
12
F8
F7
0B
01
07
0F
1F
F8
01
1A
09
FB
F6
0F
0C
DA
08
EA
09
FB
F7
0A
02
FA
F0
1D
03
04
E9
1D
E1
F9
0D
F7
0A
01
F0
08
F1
16
F2
F2
0D
12
E3
F3
EB
FE
09
1F
01
ED
19
FF
06
00
02
D7
F9
FF
EE
FB
FB
08
0D
15
E9
FD
F9
F6
F6
EF
11
06
0D
13
D9
05
EC
FD
F2
27
0E
F5
E7
D0
13
07
2C
05
10
E7
FC
02
28
EB
22
01
12
0A
EE
1E
10
F8
14
E6
CE
01
15
20
FD
0E
05
F7
03
02
00
0E
12
07
17
FA
13
10
CF
0B
0A
09
28
EB
12
EC
07
15
FC
07
09
05
F5
06
0E
15
24
27
EE
DF
F0
08
21
05
0B
F8
FF
F2
0E
F1
0B
08
F6
EA
D0
F6
01
EF
F2
14
11
07
E2
F7
EC
05
FE
FB
00
EF
0E
DA
F4
F9
00
F9
16
18
D8
F3
EE
FC
0C
10
0B
03
FA
23
F5
20
11
10
0D
F4
1E
E7
0C
F2
1B
F0
09
19
07
EC
0B
EE
F9
1D
F3
02
F3
10
FB
07
FD
F7
08
06
F9
1D
DA
FA
1F
09
01
15
FF
F5
FC
2A
08
16
FF
07
0F
03
EE
0F
05
FF
F9
F2
FD
07
26
05
FC
02
1B
05
04
F3
21
F4
01
01
02
0B
0F
FD
FE
04
DE
02
F6
1C
F1
08
E9
F9
0C
06
03
E8
07
0A
10
F6
EB
F4
EB
F3
0E
05
1D
FA
0D
F9
02
FE
F8
0D
F7
05
12
02
F0
12
06
21
11
D9
0F
DE
0F
10
05
F8
22
14
17
E4
08
0A
E2
E9
E9
F8
02
06
24
24
FE
E7
1E
00
FC
02
0E
07
04
EB
FF
08
02
EC
12
D1
0A
EE
F6
E0
E9
E8
FF
FA
07
0A
EE
04
0F
02
F4
F9
E1
09
03
10
17
20
F9
E3
1C
FD
01
FA
E3
3E
04
B8
08
14
F0
E6
FB
03
1D
F1
12
E6
07
15
10
F3
16
01
05
FA
DA
D5
14
F5
04
1F
0D
05
0F
FF
E7
F4
E5
0E
FA
0F
FC
FD
12
20
D6
0C
0D
10
FF
14
15
15
14
00
E9
1D
04
1D
16
EC
0E
15
07
15
FD
EE
0D
09
09
0C
09
DD
F7
DF
EF
21
05
F8
34
ED
14
26
41
20
09
02
0C
06
09
F4
00
01
C9
F8
02
FF
1A
1B
13
00
28
25
0D
EB
02
FA
03
F2
2C
F5
04
E8
1B
02
14
0D
FA
04
FC
04
E9
F6
FD
03
20
0D
13
0B
D6
25
F3
F9
1C
F2
C8
CC
F5
DC
DD
FD
D5
FB
E3
00
0D
FD
08
F6
F3
1A
0D
FD
D7
FD
F3
11
FC
10
F9
EA
DB
D9
F3
1F
D7
07
27
F8
E9
F5
FE
01
1A
F3
DF
18
F3
09
07
D3
E6
F3
2E
DF
2F
34
DF
F6
09
F6
1A
E6
E3
13
0C
0D
06
15
E0
F1
07
E6
C6
FA
C9
08
F5
04
2F
03
FB
E3
24
02
14
03
06
CA
10
07
0F
1F
18
EF
05
F6
F4
54
0D
1C
03
1A
FA
25
11
10
F8
F6
EF
08
19
D6
FB
0B
19
F2
ED
F3
03
35
F6
07
EE
23
0D
0E
0D
FE
07
FE
00
DB
EA
F7
F6
11
F8
F5
FD
F3
24
12
12
FD
DE
14
04
F5
02
F0
1B
FC
F8
EB
1C
16
0B
EF
02
1A
FF
0E
10
DB
12
01
19
07
FE
F8
05
01
F4
03
F5
F3
F8
01
F8
F8
00
14
13
DD
FF
03
1A
15
F6
0D
FA
1F
EF
FB
F4
07
FB
E4
06
1A
F9
28
F7
06
EF
01
12
F8
F0
FD
E9
EC
EE
F7
EF
EA
03
CF
03
F6
09
DC
12
28
F3
07
06
07
F2
F0
26
E7
01
32
1A
F4
0F
02
F9
E7
F9
05
F7
14
1C
12
FF
CF
10
FC
F4
E8
08
E2
26
09
10
1D
F4
F7
1C
10
09
09
0A
EF
F1
F9
EE
F0
D8
13
C3
B9
F8
11
EE
FB
28
1A
15
09
ED
F1
FE
EB
E5
EC
14
F4
E5
FF
F2
0C
0A
12
F5
FF
D6
FC
04
D8
08
1E
0B
1F
F8
1F
02
FC
18
F2
D8
13
E8
05
0C
FC
07
E0
C7
F9
EB
11
FC
D3
FF
F6
F3
02
F3
18
02
FE
EB
EA
02
1B
14
FE
08
0A
08
EF
0C
02
0E
F8
09
EE
1C
F8
F2
1B
FC
FF
F4
FE
F8
F7
FD
01
EC
EA
0B
CC
01
FA
1B
EE
26
02
01
01
EF
0D
E5
E6
03
E2
0D
14
10
FD
EE
1A
FF
05
0E
D8
17
F3
28
19
F0
00
D1
12
D4
20
18
20
E5
11
1E
D9
0B
04
FE
E6
00
E7
EF
13
FE
F8
0B
06
F6
1C
E1
19
E4
FF
FD
22
CD
EB
FC
01
13
02
F8
F7
00
FE
F0
F9
18
F0
FA
22
23
0F
0E
FF
0E
04
1D
0E
0D
00
0E
03
F7
FE
F0
FC
ED
FF
06
02
F9
F2
08
13
11
E9
04
21
EB
FC
EE
17
EE
02
05
0F
1E
00
05
04
EA
19
F0
06
1B
25
13
FE
0F
F1
2C
06
E5
FD
07
F0
F6
F0
EE
2A
EB
0F
D7
E3
FC
00
FA
17
EA
E9
1B
FD
09
08
08
FE
F9
FF
0C
F4
F4
EF
F6
FC
FE
F0
02
08
F7
FC
03
E3
08
0B
FD
F8
06
21
02
E9
23
03
EC
03
FE
1D
04
0F
21
11
18
EC
00
17
06
00
18
05
FE
EE
11
0B
0F
0F
27
28
0D
E2
05
FE
FF
FA
07
DF
08
EF
FF
12
06
D8
05
0D
F3
FF
FD
01
1C
EC
0D
09
EF
1F
05
03
26
05
F0
0F
07
11
F1
08
EC
FE
F6
F4
22
F8
1A
FF
05
04
11
01
0F
FB
02
F1
1B
F9
FC
DD
00
F8
EA
EC
10
DC
00
22
02
0F
05
F2
ED
FB
03
FE
EB
0A
FE
FC
C1
08
1B
04
04
ED
07
F8
1D
E1
FA
F7
EB
1A
EF
FF
F0
0D
DC
03
FB
FF
FB
03
FB
10
0D
01
CD
05
E3
14
0D
F4
DD
29
17
F8
0A
0F
F5
FE
06
ED
06
10
EE
E7
F4
1B
E5
F0
18
0E
09
0D
ED
14
F9
37
02
1B
0F
0A
06
FB
F8
F5
FF
EF
DF
FC
F2
F0
20
08
13
D9
E2
17
E6
0D
06
F4
F7
04
06
FC
ED
F7
0E
13
E4
0C
09
04
E2
F9
07
E6
0B
0C
06
00
0C
2C
FB
D9
E7
DB
08
06
FF
16
00
03
ED
10
FB
FA
04
E4
07
06
0E
EF
26
EE
F4
05
F3
F0
E1
0A
E6
DF
EE
12
1B
1E
1D
F9
07
0B
DA
1E
FF
ED
F4
FD
0A
0F
DB
FB
F7
EC
EC
05
16
FB
EC
0C
EB
DD
1B
FF
03
FD
EB
F5
2B
F3
08
E6
00
02
F8
F2
F5
FE
F9
23
FE
0B
EF
0B
DF
00
0C
05
C1
0E
13
0B
00
D6
F3
33
0C
08
0E
FC
14
F1
09
17
FB
06
22
EC
FA
F5
F4
0B
F4
05
FD
12
07
E9
35
EE
E9
FC
E6
DC
F2
00
03
EA
F8
02
06
E0
0E
18
19
E2
12
FA
09
0F
FC
0A
0D
06
DE
E3
E2
F8
FE
F2
EC
ED
DC
FD
29
01
07
F4
00
FD
F2
04
D1
0C
E9
06
11
ED
09
ED
07
FF
EF
E0
11
0B
F7
F3
17
05
07
06
F9
EF
11
14
0C
F4
0A
05
FF
F7
15
03
05
08
E8
23
F1
22
EE
E9
0F
11
17
E8
FB
FB
F5
05
0A
F3
0C
15
06
17
02
EA
F0
E0
D4
ED
03
FF
ED
26
F6
FC
06
F9
FB
05
FC
0D
06
F4
F4
E8
0D
1E
0F
F9
F9
10
05
26
1C
03
F3
1B
0D
F3
2B
03
03
EB
13
03
F7
E0
00
02
08
F8
EB
15
ED
15
F6
23
FC
F9
0B
DC
DC
0F
FA
01
F9
F9
11
1A
D0
D2
1C
1B
E8
06
04
FB
EC
07
11
EE
10
04
24
06
E9
FB
09
0D
DB
09
F0
19
02
06
1D
05
FE
1A
ED
22
EF
06
DD
07
16
CD
12
F4
12
EB
FE
E3
F8
01
F5
18
0D
FB
14
F6
0B
FF
F4
1C
07
F3
06
F4
22
09
0E
EA
EA
E3
03
FD
19
D7
F5
19
22
ED
FC
FF
16
F2
09
F1
E5
FA
0F
14
F7
18
0F
F3
11
2E
EA
23
F5
E9
15
ED
01
F9
F1
04
09
F3
F4
F0
02
E7
F4
06
FB
00
FA
06
02
0B
0E
EA
13
14
05
03
DA
00
FF
08
0F
FC
F6
F2
35
00
14
FF
F2
19
14
F8
EF
F1
0D
0A
1D
FF
F6
2C
20
1E
10
DA
01
1F
E4
1D
F3
11
E8
FB
E5
02
22
EF
EB
FD
1E
FC
F5
F5
E6
CB
19
0C
22
15
E9
E5
F1
0B
08
18
F9
04
2C
DA
CC
08
F7
F5
DD
EC
0A
E2
DD
EF
DF
FD
D9
1E
2B
12
FF
07
03
DF
02
08
12
28
27
14
0F
E9
E5
00
02
15
16
09
E0
08
04
0F
15
EB
0C
15
13
27
F2
FC
FC
D9
08
E7
F7
FA
EB
F4
EA
04
FD
03
F5
E3
12
F3
EB
16
03
18
F1
FE
EB
E0
EB
05
15
2A
17
16
1D
10
F0
07
34
07
F3
F9
01
F8
0C
20
08
16
FF
0D
26
FC
27
EF
2D
1D
F2
F4
28
F9
EE
E4
2D
FD
0E
0F
DE
FD
F6
07
00
00
0C
0C
0E
06
02
EC
07
F7
26
0F
FD
0A
2B
FB
09
F8
02
FB
F6
EC
06
02
02
17
14
0B
EA
FE
0B
F9
D8
E9
FB
F7
F9
2C
1B
0B
00
05
F7
F5
0B
00
12
FB
00
E3
05
08
FC
16
DA
0C
03
F5
ED
10
EB
08
0A
E6
EC
02
E4
0E
E4
09
EC
18
F8
2A
09
EF
FD
FC
0F
F3
F4
FA
DC
FF
F7
04
EE
08
24
24
0E
F5
10
F8
05
EE
0C
03
FF
F3
01
EC
FF
14
F5
02
0A
03
EC
DF
BC
F2
01
14
F7
02
EC
E6
E7
07
E9
E4
E1
09
28
06
E4
FF
E6
FB
E2
F4
08
08
00
03
F9
0C
12
CA
07
0F
F1
02
09
08
11
E6
F0
02
08
03
09
C4
09
01
0F
11
D0
0C
14
F1
1A
0A
EF
2A
F1
07
02
28
ED
12
EA
F0
07
E6
FE
0B
FD
F4
E9
0C
12
08
10
09
ED
0D
08
00
07
F9
20
0E
E5
F2
ED
10
10
F2
D8
F9
F8
13
D5
FD
F8
E2
FF
0A
EF
E7
03
FA
19
0B
E7
0A
DD
18
E7
F2
11
F0
09
13
FF
EB
F6
F0
1A
DD
0C
16
F6
03
1C
11
07
F8
FA
04
E5
35
F7
F4
14
E8
1A
04
0E
20
1B
11
E3
09
F5
00
D5
24
F9
00
0D
EB
D8
04
FB
F7
13
FD
0E
06
ED
F8
06
E9
06
E7
1F
BA
01
02
F1
06
FA
E7
07
36
F8
0A
16
05
14
F3
28
1F
FD
09
09
11
16
F2
16
0D
D0
05
F7
F0
F5
1A
05
2E
E1
12
0A
E6
FA
18
D7
18
F9
EC
F1
D9
F7
EE
F2
0A
FD
0D
08
E2
19
0F
C3
F9
FB
F3
0D
FA
0A
D5
EB
0B
0F
FD
FB
EC
F6
12
10
EE
FF
ED
EE
EC
DE
0A
FB
12
05
2F
F7
08
01
E7
05
0C
F2
03
10
FE
01
03
08
27
EE
EA
15
0D
26
01
FB
13
FC
09
EE
14
F2
0A
FC
0C
04
FE
0A
F2
E4
0C
0D
F3
16
03
00
FF
E8
02
E9
E1
F1
DE
FB
03
0F
D0
09
15
DF
FF
E6
EF
03
13
EC
08
21
05
19
0F
01
EA
D7
07
1F
F8
E7
F6
E6
EB
15
0A
14
06
DE
F5
FF
21
06
19
0C
0D
0D
36
F7
EE
FB
EA
06
06
E2
EE
F6
15
F5
05
EE
15
F4
F4
1B
01
EC
07
0B
F4
16
19
08
07
F1
47
F7
04
03
19
DE
E9
1C
11
09
05
1D
14
F8
F2
E5
18
EE
1D
00
F0
10
E2
FE
09
FF
24
20
FE
FA
EA
0E
02
ED
14
1D
07
FF
CB
22
AC
06
01
F5
F6
F7
F3
DA
FB
FD
EE
FE
FD
0E
0B
0C
FE
09
E9
08
F6
06
FE
2F
2C
FF
0C
EF
0F
1D
FA
E9
F6
FA
E3
EB
EE
FD
F3
EC
08
EE
17
0F
16
E8
22
09
05
F8
02
0D
ED
05
F6
1C
01
F3
19
F3
E1
09
25
1B
05
F9
FF
F5
DD
0C
ED
1C
DF
FA
00
02
F3
FC
EC
17
03
05
F4
C7
F4
F8
F4
21
0C
1B
F7
05
FD
E4
CF
1A
EC
03
FF
EC
16
03
16
1B
0F
15
03
18
EA
E1
2C
EA
F3
F2
07
05
FA
F3
14
1B
F0
15
D8
FC
16
F8
F5
D4
F1
FB
0E
E9
E3
18
F4
11
19
0D
23
F3
0E
FA
D5
04
E7
0A
F9
FF
17
12
DF
EC
F8
16
E9
0E
FE
1C
F5
EC
EF
15
F8
E2
1F
09
00
2B
04
0C
06
1D
15
F6
0F
12
1B
F0
F5
F8
E9
03
FB
0A
1B
FE
14
05
E8
EA
F7
07
F5
D8
0E
E2
21
09
E5
2F
08
14
24
0D
16
09
0F
E2
00
01
06
23
EA
11
11
FB
F5
F7
05
EC
F6
08
FF
1B
E1
C3
03
03
02
27
E0
02
FC
EA
F3
FC
02
F4
2C
05
FA
0C
12
07
14
EB
1C
F1
04
08
08
10
F6
DD
1A
EE
1D
FE
24
0A
00
08
0C
F5
18
00
02
FF
D8
10
09
01
17
0C
0F
03
F1
EC
F1
14
2C
F8
06
08
29
F9
EE
01
F7
14
0F
22
0C
01
00
03
EF
00
F8
E3
FC
FA
E3
F7
01
F7
1D
E9
F8
FF
05
EA
00
DA
F8
F9
FE
DE
FC
E3
10
0A
F3
13
05
DB
0D
FA
2A
DF
1D
30
06
14
FC
F2
09
19
06
09
15
04
E8
00
F8
15
F3
04
08
14
F0
FE
07
EB
E7
FD
08
F4
EE
FB
E3
F2
FC
11
11
FD
FA
12
03
F6
FF
F2
F3
DB
F3
F3
1C
F1
EC
F3
00
11
EB
08
0B
FB
D9
E8
F0
EB
07
FD
FC
FD
F7
FB
F3
08
E5
F9
EE
E5
11
FD
EF
FB
0D
05
22
F7
E5
F8
00
0A
F2
EA
FF
0B
0F
10
1A
E5
18
05
17
EE
F6
F7
2F
F4
01
03
0B
F0
F3
29
17
F9
F9
CF
1F
FF
0D
09
08
D9
FC
0C
09
D7
1B
27
13
E9
03
03
F0
1A
14
F8
15
F5
C2
0E
18
FA
E4
FF
F6
F7
03
26
11
E9
F3
E6
0D
FE
C2
D2
0A
02
E0
0E
16
10
F7
09
FF
23
E9
04
03
FC
03
1F
F1
00
0B
15
FB
0F
0F
FD
1E
E4
E0
25
05
F0
0A
03
07
E2
2F
E0
0F
F8
FD
FB
E8
19
E5
DD
19
00
EA
06
01
02
FB
01
24
EF
F9
D3
1B
ED
04
E4
F0
F8
F5
0F
07
FF
2B
ED
01
0C
FC
04
DE
2E
FA
EC
EC
2C
DA
0B
05
0B
17
06
F2
E5
12
FC
00
0A
E8
FE
FA
E6
D1
1E
FA
E5
01
FA
F7
02
E6
09
10
0B
05
0C
09
0B
F7
F4
0F
F4
00
1D
05
E5
E5
1A
15
00
03
00
FE
E2
05
FC
1A
EB
FD
F3
F0
15
F7
06
1B
E2
10
F4
0B
15
05
0C
F3
FE
E5
20
FB
03
05
14
11
F7
FF
D8
DD
F7
CE
0D
EB
FA
01
FE
FD
F7
F8
F9
FF
08
FA
10
F7
E7
0F
DF
04
03
F6
00
1A
FE
03
01
10
01
F2
2B
EA
F5
12
F8
04
F2
03
F6
0C
E1
08
C7
F5
FD
14
12
16
EE
DC
09
FB
12
19
E3
01
07
F4
00
F3
06
E3
F9
E8
EC
E7
E0
F4
EE
03
11
F2
00
E8
0E
F8
F8
09
F5
01
09
0E
F8
0E
01
F1
0D
DF
0E
EC
DE
DF
F5
E7
F9
E7
0D
03
11
01
35
02
F5
08
00
13
E5
D2
FA
13
FC
E5
10
23
F9
E3
DB
0F
04
EF
09
E4
F4
14
0D
16
1B
21
08
17
F4
04
EA
0D
EC
13
0D
ED
29
D8
04
ED
E7
0A
06
EC
F9
D4
0C
2F
0F
00
09
11
14
D7
05
00
E3
F8
FD
E4
1F
0C
02
02
0A
05
F2
FB
FE
EA
11
0B
16
F7
29
DB
07
F8
FB
1B
E8
F2
0D
0F
F5
F7
F9
F1
13
F7
17
FD
F4
11
1E
10
23
FA
16
3A
25
1C
F7
E1
D8
EC
25
EF
0F
F8
00
10
0F
1C
FB
FE
FF
ED
E3
EF
01
22
04
05
FF
F2
FB
EE
05
E3
F6
F9
01
EA
01
F3
00
03
EF
13
14
22
01
0B
08
D8
E0
F8
0A
19
10
07
03
1C
08
F9
E8
EF
DD
FB
0B
09
F9
0E
17
0F
13
BF
27
0A
13
2A
1F
E1
15
11
0F
08
E8
00
E7
F6
10
F8
29
F0
2A
F5
09
1B
14
01
0E
0E
1F
1D
FA
F6
05
03
FC
CC
01
FE
37
F1
F9
0B
14
04
00
0F
0E
E4
05
FF
F7
F3
0D
10
F8
ED
30
12
07
02
0A
E6
F6
04
F2
09
EA
FA
FB
07
0A
F3
16
04
21
08
07
E9
0E
FE
00
04
F0
04
FA
FE
FC
D5
FC
0A
04
FB
08
01
E2
FB
EE
26
F9
ED
0B
FB
07
0B
02
0F
0C
F7
08
09
06
06
01
FB
FF
05
F7
F6
F8
E6
04
00
F5
EB
18
01
10
0D
F7
07
21
F2
16
EA
EA
0E
09
F5
E9
F5
FC
08
EE
06
03
02
11
E3
14
0B
F7
24
0E
E3
FB
0C
0A
10
00
0B
F0
0D
07
EB
EF
1D
EE
1B
0B
F2
EB
04
14
FE
F9
1F
0F
0B
E6
E4
FE
01
0D
FB
F9
10
FD
0B
06
0A
00
05
24
FA
FD
0D
BC
F6
E8
E9
DE
02
E3
E1
FA
E4
0D
DF
20
09
00
16
F8
F6
0F
03
EE
EF
EA
EA
C7
06
FD
F4
EA
04
FA
FD
0C
08
13
E6
11
08
0D
F6
E9
11
CC
15
FD
15
FF
20
14
FC
03
EA
13
FA
FA
F7
02
08
E5
F6
F7
CD
08
13
0E
0D
27
F8
FC
F9
02
F9
23
1C
06
08
F5
FE
1B
FC
17
E8
14
1B
0D
DD
0B
FA
1F
EA
28
09
FB
08
03
1C
FC
1B
16
19
15
D8
F0
34
E4
0D
FA
EC
0B
09
09
0C
0A
EA
15
F6
F9
09
1A
F5
E2
FB
FC
E2
06
F0
03
E5
E7
05
F7
FE
02
E5
FF
D8
F0
1E
16
13
D4
05
29
0A
EE
10
16
E4
06
2C
FF
0F
EC
00
00
F8
F7
06
F5
0A
EB
00
F9
20
0A
0D
FC
24
0B
FD
05
FE
F7
03
17
0A
F0
E3
E2
28
00
0B
19
FE
0B
F6
08
F3
20
EA
03
F3
DC
EC
00
02
F6
06
00
1A
04
EA
F2
18
F2
E5
06
E8
07
FD
08
CB
39
F0
E9
04
03
05
F5
07
00
04
E2
F1
F4
0D
C3
F0
F1
FF
0B
18
05
07
09
EE
12
FF
0C
FD
F7
F4
26
11
0F
ED
FB
05
07
E7
28
EE
1D
01
E2
FD
EE
13
0D
E0
F4
0A
02
0F
14
CD
F5
03
FE
F3
0A
EF
EC
FD
03
0E
05
FE
F0
05
17
04
32
14
0D
0D
E3
0B
E6
11
02
DD
0E
09
0B
F5
3E
0C
E9
00
0A
EE
E7
F5
19
F9
0B
18
08
FA
0E
F9
02
15
FD
EF
00
03
13
0F
0A
33
01
19
00
E5
04
08
0E
FB
12
00
FC
16
F5
04
EC
E9
19
F5
06
F6
F9
0F
E6
F9
12
F9
E6
1E
F8
05
16
01
21
FA
FE
F5
0F
F8
E2
06
07
0C
FB
FE
FD
01
E7
FD
09
10
EC
0E
02
D7
05
C5
FF
FB
17
0B
1B
10
02
2C
09
F2
23
09
F5
C7
D1
F5
0A
E7
0A
D6
0F
0E
E4
E7
00
1B
11
F7
09
04
1F
FE
20
EA
02
05
11
F6
1B
FF
E6
C3
F4
00
17
EC
F2
EE
EC
0E
F7
18
E4
32
F2
16
19
04
FE
E9
EA
24
F5
09
10
FF
0E
EE
0C
DE
F3
02
FF
D0
FC
DD
16
06
FF
00
1B
F0
DC
F5
FE
ED
BE
09
08
FC
02
16
E5
04
FC
FF
21
0D
FC
1B
0F
14
E5
C2
E8
FF
0B
02
F7
F8
09
D9
03
F1
06
E7
08
E0
FD
03
FF
07
0E
09
E8
21
F8
F8
FA
08
EF
FB
0A
FE
F4
F7
0F
FF
1B
F6
07
EB
00
12
11
04
FF
07
18
03
18
03
00
08
E2
F8
ED
D7
1A
F6
EF
06
05
04
F2
1F
08
FE
02
1F
F2
F3
0D
0C
07
E0
1F
E1
00
F9
F3
F3
14
F7
FA
F9
03
D9
16
EA
03
F8
E6
10
F5
EA
FD
18
1F
F7
07
1A
E7
F1
00
DA
1B
01
F9
FF
00
FF
06
EF
F2
FD
21
0C
04
06
00
FA
F2
EA
03
06
26
FE
26
EC
F5
F4
EB
0D
F7
EC
00
F6
F3
FB
EC
05
F3
0D
FE
E6
F0
F7
0B
15
F3
07
16
ED
25
FB
FC
EC
01
0E
0C
10
F9
04
DD
0C
14
0E
E4
0C
FB
0A
FD
08
DC
FD
FC
0F
F8
0C
04
0B
EE
0C
FB
08
E7
E5
0C
03
02
06
DD
F6
2D
F6
0D
19
C7
E1
29
ED
F2
11
E9
D3
00
FF
FC
10
F1
F9
F5
FE
F3
1D
F7
F0
F8
00
F2
08
09
16
F0
06
D5
07
FE
0C
EC
F8
F3
20
17
F1
24
21
02
EE
ED
0F
08
FA
FC
CF
0C
DB
06
E6
0C
07
F0
16
EE
14
03
EC
E4
11
F3
1D
14
FD
F9
0B
1C
0E
F3
F8
D6
07
FF
01
DE
FB
FF
F3
0C
F8
02
05
0B
0C
F0
0B
D4
F7
0C
E8
1B
26
FE
04
15
06
E7
16
DE
EE
E9
09
C9
0A
01
F0
F5
09
F7
13
3D
1C
EF
08
FD
F0
2E
09
E8
0D
F0
F6
E4
FD
FA
0B
E5
0E
E1
FA
FF
FC
FD
FD
EB
0E
F0
18
0D
EE
19
EF
EE
0E
DC
1E
3C
12
11
EC
D5
D3
0C
F1
E4
00
02
19
FF
18
FB
14
F5
1E
FA
20
0F
F9
F6
F8
0A
F3
07
0B
EF
0B
F3
13
FA
F4
EE
F0
EA
20
10
F9
F2
0E
D4
DE
02
13
D3
24
08
05
18
18
02
F9
F0
16
F2
0A
F3
07
F0
1D
07
FC
FC
00
0C
F3
F9
16
1D
F7
FC
F9
0F
F7
FC
D5
19
07
F8
F2
01
F0
04
15
F7
F1
FC
0E
07
0C
03
0F
DF
FE
F0
26
F3
06
11
1D
04
3C
F4
10
FE
E6
00
F2
FC
E7
06
06
D6
09
0C
F5
F1
D3
F7
0F
F1
F7
10
10
F6
FE
FD
E4
F7
ED
0B
05
06
16
10
F8
14
29
EE
D3
FA
25
2E
F6
F3
FA
1A
03
0F
E9
CF
10
1C
FA
09
E6
15
E3
04
F8
17
1B
01
0C
03
08
F5
F4
F4
07
1F
19
0D
0D
D7
F2
F3
ED
F6
09
08
0D
FD
29
FD
00
F4
05
00
FE
D1
DA
DF
04
FE
25
02
26
F6
06
10
00
10
09
D6
3B
19
06
08
2A
F7
0A
E0
EE
FE
DB
06
07
F4
0F
08
11
01
E0
1C
3E
F1
19
11
02
00
F6
F6
E4
FC
F0
F2
EC
0F
0F
0B
F5
E5
10
E6
01
FF
12
FE
19
00
E7
EB
EF
06
06
0B
F9
17
E0
DF
00
FA
20
02
EF
EF
16
13
F1
1F
FE
08
08
11
27
00
F8
E3
F6
10
FB
F1
1C
EE
08
FA
FB
22
E7
0C
FD
F8
08
06
FC
FC
E3
00
01
11
03
EC
0F
D9
12
F1
28
13
F8
06
FD
07
FB
E4
D1
07
0A
1F
0D
F5
EE
1B
F5
DC
08
15
FC
EE
20
12
08
1A
04
FE
F1
05
EC
F4
F8
FC
FF
FD
F7
ED
AE
13
00
F0
E9
10
00
E3
E8
04
F0
08
0A
F5
FE
F3
FE
0F
F8
14
FB
FC
EB
FD
EE
FF
F8
E8
0F
02
EF
00
13
03
00
F3
D4
03
F8
D7
EC
23
13
17
00
E9
EF
0D
05
09
E8
27
2C
12
27
EF
22
E7
E9
EA
0D
16
1C
0E
16
19
13
0C
E9
1F
F3
12
EE
0B
EE
09
2E
01
0F
FA
FF
24
F9
E3
E4
EE
06
0D
EB
12
F0
F9
09
FF
FB
FE
F9
D3
13
0E
0F
D9
EC
18
F3
F5
03
12
FD
0E
17
FF
0E
1D
04
F2
13
F7
0E
14
F8
17
0A
E6
E6
08
10
19
0C
07
FC
10
03
F3
02
0C
0C
FC
E6
11
DE
F9
08
F4
F1
FF
16
0D
20
F1
F4
E9
00
20
FE
1D
FA
F0
FC
06
0E
CB
F4
E9
FB
F5
26
FE
E4
E5
F6
02
02
1C
F7
02
E2
0A
FD
EA
08
1F
0B
E5
06
14
01
E0
02
04
F9
E8
DE
26
F4
D2
17
00
13
05
0C
13
00
EF
EA
15
DF
10
E7
DF
0D
F3
F4
DA
03
2E
F8
E9
F2
09
06
14
2B
05
05
FB
18
FA
E2
DA
EF
05
E8
F6
0D
0F
01
F3
19
F2
F5
E3
EA
00
F7
ED
FB
11
F6
21
10
16
F6
09
DF
0B
F4
22
04
F9
03
F5
00
09
FA
EE
18
F5
E8
22
F1
F0
05
03
C7
DB
EE
1B
07
26
05
ED
E5
09
F1
E6
F5
DF
14
FF
0A
F2
F1
03
D6
0B
01
02
F7
E7
04
08
0E
0C
FF
0F
FC
E8
10
F7
01
FA
0B
27
17
09
E4
FD
F7
EA
10
DF
01
E6
FE
09
ED
03
EB
EF
FF
25
EE
08
23
0E
03
DF
14
00
28
D9
1E
03
FB
FF
C2
FE
F1
F1
26
0A
F2
F4
1B
41
F0
0A
33
F4
12
07
1B
29
FE
DB
FB
04
19
EC
13
F7
27
D1
11
EE
EC
11
15
E0
07
EE
1A
11
F1
06
EE
14
2A
0C
25
27
2A
FA
18
03
1F
E5
F5
0D
F5
C4
FF
04
09
F0
FD
1A
FA
FA
16
01
32
06
08
F0
03
05
11
3A
1C
FA
07
FD
05
09
23
FB
EB
F1
03
25
0D
EF
00
24
E9
EA
20
03
0E
E8
16
16
CB
1B
1A
F7
EC
07
03
E8
FC
D2
FA
00
04
0D
1B
FF
18
05
0A
09
F8
E7
1A
F8
1F
0A
FD
FC
15
1B
0C
2C
1F
FB
12
0C
DF
11
FC
F6
F6
F6
FC
FF
F4
12
09
E1
11
FC
01
0B
F4
EA
EF
15
07
03
03
03
13
0E
D4
1C
0E
0E
EE
FA
06
0B
40
F7
25
04
D9
30
E8
04
1A
ED
F3
1A
EC
FD
F8
07
0E
12
A5
EE
DF
FB
01
F4
1C
E9
2A
0A
14
29
0D
07
FF
0F
1B
FE
E7
0A
0C
22
2B
F4
E7
00
F8
FE
24
FF
1E
F9
06
07
1A
04
F4
14
1B
E5
FC
FB
F6
E9
09
F0
FD
EB
0A
EA
07
F8
1F
18
F9
F6
20
0D
CC
E4
FF
E1
F8
1D
E9
19
11
F2
FD
0C
05
E4
27
22
1E
19
03
F2
F1
13
F6
0A
07
E4
06
05
21
E9
EF
F1
FD
FC
E7
06
F5
DF
08
1A
1F
14
07
F4
F8
E0
F7
EB
EE
17
0C
12
05
FD
F2
F4
F3
FA
0A
0F
26
18
15
05
F6
EB
FE
2A
10
0F
01
03
01
FC
F2
07
F4
0D
FC
F9
DE
17
FB
F1
DC
EF
0F
F6
D4
01
F2
EF
18
EE
F3
FA
FC
EE
F7
E9
00
02
0E
FD
FD
FE
F7
0E
FB
14
FA
F7
F9
EC
19
0F
D0
0A
E1
0D
FE
E3
0B
05
E3
F8
08
F8
F8
18
F9
E4
02
1A
D9
0D
10
CD
FB
1C
F1
F7
14
01
04
E8
00
F4
17
11
05
01
F1
12
EF
F0
0E
0B
01
F1
F8
FE
FB
03
11
13
E6
06
01
00
EC
17
EE
F4
FA
1F
0F
0E
E0
00
22
F1
15
10
03
2C
ED
E8
07
0C
18
D2
04
04
05
04
F3
E7
14
05
04
FC
07
05
DE
0F
E0
E8
F8
FB
06
18
F5
EF
0A
13
D5
F7
18
FC
DA
F9
F5
D7
18
05
08
14
F5
0E
F4
EA
0E
01
19
E2
05
F8
2B
EC
0D
FB
C5
E9
01
F9
21
26
FF
0C
1C
E8
2A
EC
F3
0B
F8
E5
F7
03
0A
FD
F2
12
FF
20
ED
1D
F4
F9
18
FD
00
26
FA
1C
04
ED
F3
E9
04
D8
E5
15
FF
FE
10
17
2B
1F
F4
F5
02
E4
0B
05
05
01
11
16
F6
16
D9
F4
F7
B7
12
01
E0
FD
F1
06
E6
FD
F8
1A
0F
F4
F8
18
04
0A
E4
0D
17
04
FC
10
F9
F6
06
18
07
01
EC
05
0C
F6
10
1A
F4
F8
14
02
D0
F4
FE
FA
E9
08
18
06
FE
F5
23
14
01
02
06
05
09
08
08
F7
EB
F5
0A
FD
0A
13
14
1B
F8
1B
0F
06
03
F4
EC
05
23
19
DF
FE
0E
0C
EF
14
1C
01
F9
14
20
F7
15
DD
EB
D5
15
08
FF
09
F6
E1
00
18
33
E3
F8
09
EF
FD
01
01
F3
1C
F3
2F
FA
FC
3C
DE
F6
FE
07
00
F0
1C
0F
DA
10
07
EE
07
0B
10
00
F5
14
06
09
FC
19
DE
01
EB
1A
09
EF
0C
1E
F8
14
07
17
FF
FA
EC
06
ED
08
17
FB
FE
D8
EF
06
D9
FC
F7
E9
14
23
D8
D4
0E
FE
F3
0B
F7
03
F2
06
0F
04
06
18
ED
06
E1
FF
E5
E1
02
0B
06
0E
DC
F0
0A
0F
F1
1F
05
F6
F4
FC
E3
FD
02
FD
0B
FD
02
08
0B
1F
01
1C
0B
17
1C
03
11
08
04
22
F7
02
2D
FA
11
09
F2
03
F6
FE
FF
F4
04
02
05
14
E0
10
09
1B
00
F4
CA
F0
13
F2
00
FB
FE
F7
F9
05
0B
E8
F0
EB
08
04
0C
07
1A
05
E4
FA
FF
FB
0D
E5
01
DF
F1
F3
07
FD
0B
1A
08
FE
F8
01
08
EC
0B
E8
0F
03
F1
0D
0C
DF
02
0F
16
1D
05
F5
0E
18
04
03
16
1F
14
1F
09
F0
20
0A
02
09
FB
F2
03
F2
EE
44
DE
03
0D
F7
0E
0E
EB
FD
FE
DB
16
E4
08
3D
FE
F7
F1
0B
08
12
F4
0B
08
28
FD
D2
0C
EB
E4
F6
F4
FC
F5
14
22
F0
01
F3
F7
1B
FA
FA
00
12
DE
07
05
04
E6
01
21
E4
04
05
28
F2
E7
0B
15
FB
0E
03
DE
F5
F6
F6
03
14
FE
2D
F7
FA
0A
F2
F0
0C
EF
01
F3
F4
F4
F9
11
FD
00
05
16
05
F8
F9
E3
E6
E1
F8
F9
E6
FF
15
08
EC
F2
17
06
05
FE
02
ED
FA
02
F8
F1
18
EB
EE
09
D9
DA
26
0E
05
FF
F8
F2
E6
1B
0C
EC
F5
FE
F0
F5
F9
F5
0A
FC
C8
F8
F3
F2
F9
18
ED
26
02
E3
0F
0C
EB
14
05
F5
E8
D6
DF
0D
07
EE
FB
16
F9
0C
0A
EB
0F
12
EE
04
1F
27
0C
EF
12
03
F2
FC
1C
F0
0D
F0
00
06
ED
0A
08
FC
F1
09
14
F6
ED
0D
0F
05
EC
FE
FA
FB
F3
F4
EE
12
0C
08
F7
10
F4
21
10
12
FC
EF
F6
DE
07
18
08
F7
E9
EE
10
09
19
10
FF
F5
22
07
F6
0A
1D
0C
F2
31
F9
01
F2
F3
1B
F5
08
19
01
0B
ED
F2
F1
09
F8
0D
F9
04
07
EC
E1
0A
0D
C2
EF
0C
19
21
0C
EF
F1
15
01
FB
F5
05
26
ED
E9
FE
EB
FD
14
1A
04
FF
19
32
04
13
E6
06
00
07
EC
0D
ED
00
03
FE
FA
F7
F1
F7
F4
EA
18
F8
04
04
32
03
2E
F8
D3
E5
F5
F7
FA
F7
34
04
C1
02
0F
0F
01
FB
CF
F8
12
09
17
1B
19
07
19
05
2C
01
1D
05
13
03
F7
03
F8
1D
F6
0C
FC
F7
FD
22
0F
F2
01
26
01
12
0D
F1
F6
F9
10
EA
E1
F2
1B
F9
FC
14
D3
00
15
12
FF
F5
F7
1A
F1
24
04
F2
26
06
0F
11
0B
E4
E4
E6
D5
E1
02
F6
F2
E7
F3
02
06
00
FD
04
07
28
08
05
00
EB
F4
F7
18
CC
24
ED
0C
F2
12
19
2A
03
EB
1E
0E
0D
0B
FB
25
EA
09
05
F3
0B
EC
FD
04
01
FE
EE
00
06
0B
31
F7
13
FF
0F
01
E7
F2
F2
F6
02
02
29
FF
E4
13
0C
EB
02
F0
04
19
0C
03
F7
12
00
2F
FF
ED
0A
03
0B
17
FC
0C
1A
0B
E9
F4
DA
D8
09
FB
EF
E9
FA
06
EE
04
0D
02
0A
10
F4
F1
09
31
03
F2
14
15
FD
01
FB
03
F8
F6
F6
FD
FF
F4
F7
1C
ED
0B
0C
F5
FD
14
21
EF
F1
0B
ED
ED
25
F4
EC
24
E9
32
FC
0C
24
D6
0C
D9
06
04
14
EF
F9
00
EE
CA
19
F2
01
13
06
01
0B
18
08
0B
FB
FB
E3
20
03
F6
F8
F9
F3
1B
14
EA
02
C6
F3
F7
F0
FB
1E
F8
00
F6
08
E6
1E
3E
0E
0C
21
04
02
17
04
1E
1F
02
F9
F8
27
07
13
29
29
EE
0B
F5
F6
FA
DD
16
05
EB
12
04
D0
25
F9
21
EE
07
FD
0F
09
EF
F9
EC
EF
14
FC
12
E7
01
16
06
F8
F3
1C
EE
EC
F4
00
E5
FF
F0
F1
F4
13
F1
16
03
F7
D0
0B
D0
ED
ED
11
DA
F6
14
0C
02
FF
EF
12
D8
FB
F7
19
17
1F
D7
F2
12
29
00
F8
E7
F7
FF
1A
05
E6
02
F1
0F
0F
FA
0C
07
04
FD
05
01
FB
10
E6
ED
DE
0A
F3
D5
F1
F7
11
FE
E0
FC
E6
00
22
FB
06
E6
EC
07
F8
0C
14
F7
EC
E7
F0
1F
E5
E7
F9
0A
F8
F8
02
E8
01
05
0B
E3
14
F5
F2
F8
FB
EA
03
ED
DC
EF
0A
0D
0F
06
FF
15
02
19
DD
FA
F0
F5
0D
13
EF
01
FD
EE
02
FF
0C
1C
F8
03
FD
D9
F1
DB
02
F7
F6
07
EF
F5
F1
17
D6
10
06
08
11
EB
F6
FF
F5
1C
10
FE
F5
0D
DF
EC
03
B0
13
0C
08
19
14
FC
3B
04
11
27
EB
E9
FD
EC
2C
04
22
06
DA
FD
06
ED
05
0B
E6
E1
FF
0C
09
31
F8
F9
E8
FF
EB
F8
FD
22
DF
E1
03
07
FD
EC
ED
E4
00
09
08
FC
03
19
FA
EB
FD
E6
21
E3
04
1A
CF
FF
E7
1F
03
E0
DD
24
0C
18
1A
1B
DA
FE
02
1A
FB
10
16
F7
09
18
01
FA
DA
22
0B
0A
F2
16
EA
EE
F6
13
1B
02
04
15
0A
09
F6
C6
03
E6
E9
10
00
ED
FB
F2
FD
E5
FC
D3
F6
FE
02
FC
21
34
1B
F8
21
18
FC
18
11
14
E6
0F
11
05
F9
14
20
05
07
EF
07
E3
19
0B
21
FB
F6
F4
01
F0
FB
12
F6
E2
25
23
E4
FF
F2
0F
24
F9
08
F0
10
02
0C
15
23
11
D5
FF
1F
FE
2E
FC
E5
16
2B
25
F2
FF
FB
0B
10
E4
F3
FE
EA
07
FB
DA
F6
F8
11
10
D6
03
D3
10
D9
F5
FE
1B
E5
1A
F2
EF
19
F1
FA
0B
E8
FE
DB
F0
02
0A
F2
FA
FB
06
00
07
01
16
1B
F1
F0
03
25
FF
0D
ED
FD
06
0D
EE
34
ED
00
F0
06
FF
F2
F8
EE
F5
F7
0D
0A
04
17
F4
D7
FB
F0
EE
17
EA
F0
FA
E6
F6
1B
F1
00
03
F1
F8
16
FD
1A
11
23
FB
F4
EC
1C
FC
0D
25
05
14
1C
F9
FA
FD
2D
EF
F6
F7
FC
ED
0E
01
EA
1C
29
06
07
D8
EC
02
14
E8
08
01
0C
FA
0C
F8
12
EC
1A
07
23
04
0A
F9
FF
03
11
EC
EC
F9
0C
E4
24
FD
F9
09
1F
DB
F9
21
FD
1E
F3
19
22
F8
0F
10
FB
14
F0
F8
FB
DA
F2
F4
F0
FF
FC
1C
14
1B
F5
04
20
0C
21
F0
FC
F7
0E
04
FF
1A
E7
FD
F8
F1
C3
EB
DB
F7
EC
EA
05
F7
F9
FE
E4
DF
19
E4
F7
E8
FD
33
E8
1D
04
ED
FE
11
FB
E8
06
09
FE
FA
2B
31
08
F8
EE
04
FB
11
09
14
21
E1
01
E9
03
FE
E2
F3
04
F3
D0
03
F2
01
0F
EA
0E
20
FC
04
D8
F7
0E
EC
EE
F3
0F
0C
F6
FD
F6
F3
05
19
00
04
00
08
FA
FE
ED
0F
FA
F2
F7
09
1A
F8
30
FF
14
05
25
DE
DD
1D
F3
EE
E0
21
FA
E8
03
0C
1A
FA
F1
F3
EE
16
E4
FC
FF
F2
E4
FA
E5
06
0F
19
E0
05
E9
15
EA
F2
00
0C
EB
F7
EB
FE
03
EE
E1
00
F1
F6
E5
00
14
FD
FB
09
F0
1A
22
08
E3
C4
0D
F3
DD
01
F9
F8
0F
FF
08
CA
12
E6
EF
EE
08
01
FF
FF
DE
1D
0C
F4
EE
20
FF
07
FD
00
1E
17
15
F9
F1
FC
0F
F4
02
17
08
E3
EE
FF
07
F8
3B
F6
FA
04
0C
F9
0A
02
37
F8
E0
2A
1D
DC
00
08
F9
0B
05
01
F4
06
EC
27
E7
EB
2F
F4
09
01
0F
DD
FB
E5
08
33
F1
0A
E0
F8
FE
FC
F7
1A
10
D6
05
12
EA
E9
26
04
00
FB
F2
F8
02
F2
08
12
FF
0C
F7
F7
0E
0D
F8
01
0F
14
11
0A
EF
06
20
0F
E7
15
0E
15
02
0B
13
ED
E9
DF
07
17
DF
FC
FD
FE
E6
0D
F7
0B
17
17
1D
EF
FD
2A
11
03
0E
FC
02
0C
06
0D
03
F7
F5
F6
DA
05
FC
2B
F0
FC
D5
F7
21
F6
0E
06
FD
18
FB
14
15
F1
00
FA
01
0A
FC
FA
F9
FC
25
EA
EF
F2
07
0E
0F
F9
ED
FE
07
07
0B
04
F8
F8
2E
E8
CB
FC
0F
28
E1
0D
19
F0
F4
FF
10
F6
06
E2
0E
F8
EF
FD
EF
08
E4
0F
FF
D6
F0
ED
E8
F4
D7
10
EB
06
F2
15
21
1C
E6
F4
FD
12
0A
1B
F4
01
08
E6
03
E4
20
0E
C5
ED
04
FE
F7
FF
10
13
FD
48
FA
EB
EF
F9
E2
FE
F6
F0
12
04
ED
07
EB
24
FC
14
FB
08
FE
FD
FA
E0
03
E8
FA
F7
F9
0C
11
DD
D2
EB
E9
0C
EE
0A
FD
F6
0A
16
07
06
E5
FD
06
09
0A
EF
F4
0E
FE
FA
0B
1C
FF
F0
09
EE
18
0A
0A
22
F1
EC
14
1E
F1
EC
EE
FB
0C
FA
06
F5
1F
00
0D
FC
0A
18
EF
F5
F6
EC
1A
11
EB
03
22
12
F6
24
F3
DF
06
09
F4
12
12
F4
F4
FB
17
05
F7
09
3E
1C
07
07
22
05
10
0B
F4
1C
02
F1
27
03
09
14
18
26
21
F3
F1
F8
02
E9
01
07
F8
D4
00
07
16
D0
16
E7
19
0E
F4
EF
05
FD
F5
F9
0D
F1
0F
F2
04
F0
08
0F
18
DF
ED
01
1D
10
F2
DB
0D
21
F2
FA
EB
2A
F6
05
F1
FC
18
FE
FB
14
09
09
06
F7
07
0F
FF
FD
00
12
0E
F3
F8
D5
0F
0C
FD
ED
FF
E8
04
F5
18
0C
F5
F4
07
DA
F1
1B
F4
E3
09
27
F8
E0
0A
FA
0A
04
FE
D7
E3
19
0F
FB
03
FC
DE
10
00
F8
09
1F
F7
16
CB
00
02
06
F1
FA
02
0F
F3
00
F2
04
0E
F8
06
E6
0D
06
EF
05
EE
19
FB
D7
CA
0E
07
F5
D5
0B
03
0F
FB
F4
EB
FE
19
F5
01
01
08
FF
05
ED
13
16
03
14
0E
2A
FF
12
0E
08
06
FA
18
EC
F3
EB
1B
19
FF
0B
07
F6
DC
0B
F1
1E
E6
02
03
04
02
00
DA
FB
06
D3
07
15
FF
03
EC
11
F5
DA
21
01
0D
1F
FC
04
00
11
FE
E8
11
17
14
FD
CF
FE
0F
FB
09
FC
1B
06
DF
F4
FB
FA
D9
F7
E8
EC
EE
04
07
F1
0C
05
16
01
16
D6
0A
09
1A
ED
0D
F5
FB
25
05
14
0D
FF
25
F9
03
EB
EB
01
19
1A
D5
1C
07
04
EC
F1
FF
F4
01
17
21
EE
F0
20
02
0A
F0
03
ED
0B
E3
1F
00
16
F9
11
18
02
1A
0A
01
1D
3B
E3
EA
EF
F7
FA
FF
FE
F6
F4
FE
04
05
FE
1E
13
ED
F7
18
00
F0
F9
E0
F6
EE
0B
FA
E7
F3
10
11
0E
08
F5
06
03
09
13
FC
DF
10
01
05
12
F6
19
07
EC
1F
19
DC
08
0F
01
2E
FE
ED
F6
EF
E9
0C
FB
0C
1B
EB
14
FE
14
F5
00
0D
E7
19
F5
F6
13
E9
F9
09
DC
FB
FB
1F
03
14
1F
06
0D
EA
1A
14
E7
F8
22
17
20
EA
0B
F4
04
02
EF
0B
00
E7
09
0E
15
11
02
FD
0A
E9
E0
12
E5
EF
EE
03
18
06
F6
0B
10
14
12
00
EA
F2
0A
2F
F5
05
1F
21
25
F8
25
E5
1A
FE
00
F0
EF
F9
21
EE
06
17
00
1F
04
05
F1
F2
05
F0
F8
01
15
E2
FE
EC
02
F4
FB
FC
00
03
F5
F3
05
08
01
F7
ED
06
F4
23
F3
07
F3
15
EF
03
1F
0F
E0
FD
FB
04
F7
03
11
F6
F1
EF
EA
08
DB
0D
1B
FE
D6
F7
FE
E6
FF
F7
F3
FC
EC
FE
FC
07
18
09
04
EE
FB
E9
D7
DF
F2
0A
F8
FD
02
EF
1F
FC
F9
FF
D9
CA
FF
F7
14
05
F2
DC
F0
15
09
06
02
0F
FF
04
FC
F3
0A
16
06
1F
0A
FA
1D
07
0A
16
F7
EA
07
F1
0A
E8
DC
F1
FB
19
0D
F8
06
F2
F5
0B
04
ED
DC
11
E9
04
FD
22
22
E4
00
04
13
00
03
2F
12
0C
E4
EB
26
EC
FC
F0
04
14
01
04
07
FE
0E
12
17
F7
F9
04
CC
18
11
19
04
08
09
11
E8
F0
E5
E7
E8
E6
F2
E7
F0
EA
06
13
E9
FE
18
FE
E4
F9
0B
01
EC
F2
D9
DC
FA
F2
00
0A
F7
EF
14
E0
E9
F4
F8
1A
1F
EF
26
FA
EA
0F
F8
F2
F1
F8
E8
03
0A
F4
0A
E1
F0
0D
12
05
FE
EE
05
FD
DD
0C
0A
13
0D
0C
FB
1E
0A
1E
FD
FD
01
F9
F5
02
EE
FD
F3
F9
EA
2B
07
08
1E
DC
12
F1
F8
F6
03
F7
0C
1F
FA
03
E0
1F
DB
0A
F5
0C
06
0A
E6
D2
05
05
1E
EC
02
F9
EF
F8
10
F1
0A
31
F7
10
0E
FA
00
F4
2D
32
1C
EC
F3
07
F7
29
11
F6
EC
FA
FB
1B
EF
0F
E6
CE
FB
F2
F5
F3
13
0A
EA
0B
FD
EF
24
09
EA
17
E2
0A
35
FB
07
07
12
18
EC
F4
F5
F9
FF
09
EE
09
01
04
0A
F4
CA
FD
CA
0A
C3
F2
E9
25
F4
08
F8
F7
F0
07
15
05
16
FB
0A
14
E7
03
F5
0D
03
FE
F2
01
0E
11
FA
F7
18
24
14
06
11
FD
01
FC
12
04
08
F2
17
F1
23
E8
EE
F4
1E
C1
00
F3
E4
F0
0B
0F
F6
0E
16
E5
E4
19
01
2F
1B
12
21
1D
D6
22
07
13
DF
FE
08
19
07
03
E5
FA
F1
04
FC
F8
04
F6
0A
F4
08
FC
0F
D7
0C
DA
EE
E9
F7
23
FD
F0
0C
F8
07
04
DE
08
05
0E
14
13
0A
FC
0A
EE
26
F2
F6
FE
0E
FA
11
05
FC
0E
00
EB
E6
E4
28
FC
0D
F2
10
EE
E0
0A
11
FA
E2
01
F2
FC
E8
FE
F1
05
03
EB
0A
12
04
FD
E6
C8
1A
FB
E6
02
DC
F0
FE
FD
06
11
1E
11
23
F1
FF
EF
ED
F5
E7
FE
F9
0F
09
F1
F2
03
19
0A
F1
F9
20
E7
EA
0D
0C
00
FB
12
04
FC
E9
08
1A
0A
DD
05
FF
F6
10
FC
0C
F6
FD
0B
2E
BF
19
1C
F9
FB
F4
FF
2D
FB
0D
E8
1F
12
06
F5
F9
FD
DB
0D
FC
EA
FE
1C
0A
F1
08
06
F2
17
11
02
07
F5
07
EE
F8
F3
D4
F2
11
08
FA
FE
0D
FA
08
05
0E
02
21
03
F2
1F
0E
E6
F6
0D
CF
09
36
1E
10
05
0D
F8
FC
0D
FB
E9
FF
13
15
FF
FB
F1
0D
09
FB
F9
0D
F2
EB
09
21
FA
EB
0B
F4
0B
F6
19
2C
EF
F5
ED
13
FA
E4
F2
0B
0E
03
E4
13
F8
0C
F1
F0
EC
FF
23
E6
05
0F
08
F8
FA
01
06
05
F7
D8
EE
F1
1B
EF
15
F8
D8
14
FB
FC
06
00
F9
FC
05
01
F4
0F
03
FD
04
08
F5
F7
08
04
FD
18
F7
12
F4
F9
EC
FE
18
D6
FF
14
F1
22
E2
0A
09
F3
FD
0A
18
E2
EF
10
12
06
FB
0C
0E
0B
E6
0A
F3
16
10
E5
FB
39
25
F6
FA
1C
21
FD
F5
FD
07
F6
E5
0F
1C
10
FE
F7
0F
FD
03
DE
0F
FA
20
2E
FC
00
FD
01
31
12
E5
12
0A
0C
11
0B
F5
04
F9
FD
DA
37
F1
E4
0F
DE
E7
19
18
F7
F6
ED
E7
EF
03
02
00
FB
27
1A
07
F6
10
F8
00
DE
D6
EA
FD
06
17
F0
09
18
0E
08
DE
F5
2F
17
18
01
1E
F9
1D
EC
15
00
E5
37
FE
07
FC
F0
F0
08
0C
FB
F3
F4
11
F9
0B
00
0C
15
01
D6
FA
28
FB
29
20
04
15
29
13
F4
FD
19
11
0D
16
07
EC
EF
F2
E9
07
E7
0F
F6
E5
06
DE
05
21
0F
FD
FC
0A
29
F8
E1
C5
F4
F2
03
0D
FC
FB
F6
FE
04
F6
E1
F0
F1
05
CE
0E
05
F2
EB
1C
F5
07
F2
E9
02
09
02
E4
0E
FE
F3
ED
E2
FA
F3
05
F7
02
E7
F9
F6
FB
17
F2
D6
FC
29
F7
F9
FE
11
C8
0F
25
0D
0C
04
EE
F4
28
FB
E9
25
06
00
D6
FA
F8
28
F2
03
E6
04
32
20
0E
F5
0A
01
FF
07
F2
03
ED
0F
03
EE
13
0B
E7
E6
EB
03
FC
34
D4
E8
FE
1C
03
05
0F
DD
12
0D
FE
DD
07
0F
DB
05
18
0F
1F
E7
00
00
0D
1E
EB
26
0B
EF
02
F6
F2
18
0C
03
F1
C6
18
04
F4
D4
24
EE
14
19
11
0E
E6
00
FF
FC
08
E2
DC
1A
19
FC
FD
03
01
EF
F7
00
07
D6
1C
15
01
01
FA
F1
13
FC
F5
F6
F5
F4
0B
05
F8
DD
17
F4
02
11
F0
FE
CA
18
03
F7
10
03
D6
FF
16
15
12
CA
F8
F9
08
DB
0D
17
0F
1B
EF
E2
03
F4
F4
F7
0D
02
F7
F0
EB
01
F2
F4
FF
FB
15
E8
27
DD
13
05
EE
16
07
F7
0E
F5
13
F5
F3
18
E2
13
17
FF
F3
ED
FA
0B
08
FF
E8
F4
DE
04
13
33
EF
07
F6
0B
17
11
F5
F5
FF
F1
FF
00
09
1D
02
08
02
02
E4
14
F6
F7
F5
0F
03
E3
01
30
F5
E8
14
E3
ED
1C
27
38
0A
27
11
05
F7
F4
09
FE
FE
14
42
0A
01
F8
FF
F0
04
12
E8
E1
07
04
FD
E9
1E
F1
04
19
12
1A
F6
0C
F2
07
02
F9
E9
F2
E1
17
06
EC
00
EB
05
E9
FF
00
22
F5
19
EA
05
00
0D
EF
FD
00
E4
10
F2
01
25
05
0C
F9
16
05
EF
E5
E6
01
16
26
03
01
EB
04
EB
04
E4
0C
EE
EE
DD
E4
31
F8
F3
1B
06
0F
21
F3
F9
06
1E
EC
E8
FD
F5
F1
0B
20
F5
06
05
04
FE
09
DF
36
D9
F1
12
F9
FC
DA
08
EB
23
F7
08
F9
F3
03
FB
FC
10
01
14
1E
FB
F1
F8
E6
EB
16
F1
F8
04
01
F5
F6
08
E8
14
05
04
14
00
EC
F2
13
0D
FD
ED
19
FF
0B
EA
0F
E5
0D
F5
DB
16
04
16
07
E5
0A
EE
00
EA
08
FD
02
F0
F4
E5
0F
25
31
1E
CB
F4
05
F0
F5
16
E5
F5
0B
FB
E1
E1
FB
F8
07
21
02
EF
EB
EE
EF
EC
36
FC
FB
F2
0B
2F
E1
D6
17
F9
FA
38
00
F5
DB
E6
06
FA
0C
F7
EE
0B
FE
F1
09
EF
1B
14
1C
00
18
0A
FC
0C
07
DA
07
0C
FF
26
F0
05
FE
FE
16
FE
F2
F0
EC
0D
E5
02
D7
0C
03
04
0C
F0
2C
0A
06
F3
F2
03
12
11
12
08
11
13
E5
0A
06
17
07
0B
FD
EB
28
1B
2C
04
F1
15
13
0A
09
E4
0A
2E
E5
F6
BF
BC
03
FC
F9
08
02
F1
FA
FA
20
FF
05
05
E0
0F
FF
F0
F6
14
02
04
EA
1C
FE
EB
E6
11
F3
14
E0
FA
FA
0A
15
F3
EC
19
14
DC
01
00
FC
E8
E5
10
EC
F2
0D
07
0A
01
03
17
FC
02
ED
0E
EB
F4
E8
FF
0B
16
10
18
11
FA
0B
0B
FF
00
01
FE
0C
F0
B9
F5
09
E6
E5
EF
FC
FE
03
1F
FD
02
0D
F8
21
FA
F8
DB
05
0B
05
15
21
40
1E
13
0B
1B
02
0E
0C
1E
FB
F6
E4
03
D9
0E
2B
01
3A
12
19
08
F7
04
F1
16
00
F2
FE
FA
E1
F6
0F
1E
0C
1F
1C
FF
38
25
00
F6
06
12
D2
FD
F0
E1
1D
FE
05
E2
E4
07
0B
0C
0A
04
F6
02
DA
F9
F0
13
0A
D4
06
17
D5
25
20
DD
24
F3
DD
FB
DE
0A
26
0B
06
07
09
01
0C
F4
0C
F5
05
14
17
1D
F7
26
FA
12
0B
F4
16
F0
F9
E3
15
03
04
F5
FA
41
E0
D3
00
1A
12
FD
F9
07
06
09
FC
F5
FD
FB
05
16
C8
14
E1
26
02
01
F7
F2
CF
E6
05
FA
1A
FD
04
F3
E5
D7
EF
F4
19
FE
FB
07
21
11
F1
DD
3E
D1
03
03
F2
09
10
07
EB
0C
0C
DC
F9
01
EC
0F
0B
25
F9
12
09
03
47
1B
1B
CE
19
02
F4
FC
04
FF
F1
ED
E1
19
EF
1D
0A
F7
00
05
1E
ED
F7
E8
3C
E0
FE
0F
EE
01
1E
0B
0D
EF
C5
F2
E7
02
02
CC
F0
F3
DE
D9
F6
FF
0A
F0
0B
F3
ED
F0
F4
BE
D5
FE
15
0A
F7
1D
D2
31
07
09
E3
EC
FF
11
06
F5
F6
04
F8
14
09
DE
E5
15
E4
DD
18
11
E5
F4
E0
EC
13
0C
F6
F6
07
FA
E9
06
18
D4
F2
26
ED
0E
12
D4
1B
FF
04
FA
E8
EE
20
1F
13
F9
0F
CF
F6
E9
F8
22
EE
08
EC
FF
01
04
EC
22
FC
0D
FC
16
F1
EF
02
F9
FF
F5
0B
12
F3
16
F2
08
FF
04
18
00
F4
FB
E4
FC
F0
CF
DA
00
2C
F1
03
11
3F
0A
0D
FC
F2
02
E9
F9
02
E6
E4
D7
FF
03
06
15
F7
06
0B
2C
15
00
01
1C
00
16
0B
F6
E1
03
18
27
F2
16
01
01
FE
F1
E1
E7
EF
0B
12
FE
01
F4
00
01
1C
D7
0B
FA
F0
E8
F6
F9
F4
08
00
FD
F5
DD
07
04
1A
F2
17
F5
FC
EF
F3
D4
F8
06
E9
FC
FA
26
FD
12
00
F3
F7
01
FC
16
D0
02
F7
F0
1D
2A
0C
1A
FA
07
17
00
0C
0C
02
28
FE
E5
FA
FC
1A
EF
DE
0D
EF
0A
FA
F9
EE
27
13
09
DC
E9
07
F1
FA
36
0C
DD
F5
0C
E5
17
2B
EA
02
EA
0A
08
09
36
D2
F9
ED
FD
28
07
E0
17
F7
0B
00
F6
FC
19
10
FF
FF
13
1B
12
D5
07
05
FF
1C
F5
18
02
0A
03
0E
06
0F
01
0F
F4
14
02
F5
E1
FF
18
02
EC
0F
08
15
F4
03
0F
1C
FB
0E
FD
0D
22
F9
0A
02
F1
09
03
E0
EC
01
1B
D1
FB
FD
FB
30
FE
0C
EB
0A
13
18
10
F5
FD
FE
06
F3
1C
E6
0E
04
FF
F2
24
20
1A
16
FC
FC
F1
1B
16
0F
FD
E7
F8
0D
04
D5
0B
21
04
F7
EC
1C
0D
3E
F7
00
05
FE
F2
D7
F6
F3
F8
10
ED
09
FB
07
19
EE
ED
E1
0F
16
D7
F1
07
FC
0F
09
0E
DE
22
24
FC
05
DE
EC
F8
DB
E8
0C
D9
EC
00
18
EF
09
0F
08
F5
FE
ED
EF
18
F9
FD
F0
05
FC
FF
FD
0D
13
DB
E9
E6
0B
EC
E5
05
24
0B
02
EA
0B
19
FA
FA
F9
04
E4
F6
08
FB
0E
00
D0
E8
1A
0F
F8
EB
E6
EC
FD
DC
02
FD
FC
FB
FE
EC
EB
08
D1
19
07
13
EA
1A
EF
FF
15
15
36
0D
16
0D
01
05
09
F4
11
DE
0E
1A
0C
FD
14
E1
F4
FD
FE
09
F5
02
DB
06
ED
DD
F6
FB
DE
EC
11
F3
E9
1B
F0
08
FC
FC
13
EF
13
E7
04
01
06
1E
1D
15
FF
04
F7
F0
E6
11
07
F1
F8
1C
13
F3
2C
E9
F0
F1
01
10
DD
02
F0
FA
02
F7
09
F7
1E
06
00
D8
FB
03
FD
EF
02
F0
F3
02
00
0F
FA
04
FF
06
E6
E7
F3
ED
11
15
19
06
24
06
23
03
EB
12
0E
13
DE
FA
00
04
0C
DB
08
F8
11
16
08
FA
00
0E
F6
16
EE
21
F1
19
F6
E2
3A
02
FA
F4
04
1A
DC
FB
EE
05
F9
0A
0B
0B
18
0E
F9
50
03
FB
E8
07
EE
02
1C
25
15
DE
0B
09
0D
01
FE
18
FF
DE
14
15
08
F9
17
02
01
FF
E1
0B
E1
16
F4
01
0E
0B
10
15
C4
FB
13
FF
10
F1
27
15
EF
FD
08
F6
06
11
00
0A
0D
FB
ED
FB
0B
05
12
F9
DA
ED
0A
EF
F5
FD
EA
F3
2A
04
D8
00
10
1B
08
D6
0F
BA
10
F0
F0
0C
02
11
13
0E
F9
02
14
F6
EC
0E
03
FD
01
2F
F6
0A
EC
05
FF
0A
F5
05
FE
01
FF
F4
06
F1
FB
FF
F3
03
FC
FD
08
12
12
ED
01
07
08
DC
20
13
FA
FA
EC
F2
08
CD
11
F2
FF
E3
E4
0F
04
01
FC
E0
FB
F7
F6
13
0B
00
FD
02
11
F0
F7
EF
08
1F
FF
EF
10
18
FD
F2
EB
FD
DF
EC
FA
FA
F4
1E
FE
F3
E9
E3
E8
E9
0C
0C
0E
E5
FA
E2
13
F9
1E
08
0F
08
07
0A
D3
F6
07
FF
EA
FD
12
07
EB
1A
06
00
FE
F6
1F
E3
25
F9
01
07
FB
0F
F9
07
FA
ED
03
09
09
E9
01
11
FD
29
E9
EB
F7
DB
03
F1
F3
FB
02
F5
17
0D
DD
FB
E4
FE
13
09
FA
18
08
E8
1E
01
1D
1F
FB
03
01
13
04
06
E7
FF
0F
EB
F7
EC
0C
F4
11
14
11
12
0B
E3
F5
F9
26
F8
21
1F
1E
04
EA
0F
F3
FA
E5
21
EA
ED
00
FA
09
0E
E5
FB
FB
09
FE
EF
FC
DF
0E
1F
21
0E
20
0C
D8
19
DD
0A
F2
FF
10
F9
ED
EE
F0
1A
FB
13
20
EC
FA
12
E6
EE
F0
CB
0D
10
0B
D9
F4
01
F1
06
FD
0B
0C
16
FA
DB
FC
13
F3
EB
F9
F8
12
E3
EE
E0
FA
F3
F4
DF
E8
FD
22
02
1C
00
F1
13
FE
17
FA
EB
0D
EE
0C
FF
04
F8
0B
F1
E6
E0
FE
0A
F9
E5
E0
03
03
08
FB
E4
07
0A
31
F6
E9
C9
FC
EA
02
F4
F3
12
11
0A
E7
14
0A
E0
F3
ED
FA
F9
DB
F8
05
FF
EE
00
FA
28
09
0B
19
16
F3
06
E3
02
FE
0B
0C
F6
E4
FC
F3
F6
18
F6
EC
DF
26
0D
F6
14
F4
EB
F2
FC
15
EC
01
C9
15
F3
E9
08
F7
F0
D2
01
F7
F0
0E
F8
F9
08
1C
E7
D8
F5
23
0F
1D
06
F5
01
0D
FD
02
07
13
F6
0B
1D
EE
13
05
01
0A
05
ED
0E
F9
E4
F7
01
E1
E6
EE
16
F8
F6
FE
05
FD
00
1B
F7
E5
EB
09
F2
0B
FA
04
F7
FB
07
F9
17
0D
FE
FA
01
13
FB
FE
F9
06
05
E0
F7
F7
D6
1C
24
04
18
11
D9
FF
EB
10
F4
CA
FF
07
E3
1F
FF
E5
DF
FC
DE
02
F3
F3
F5
E6
FF
FF
00
E3
0A
FA
00
04
0D
06
00
01
10
10
FC
D7
0A
EE
1C
DB
FF
F3
FA
04
E6
08
DB
17
09
F6
ED
15
04
02
E9
F9
1E
F2
F6
F5
0F
F1
00
07
F2
0C
10
0C
05
0D
0E
ED
F2
F6
19
0B
ED
F7
F0
11
02
EA
E9
06
18
FC
E8
F9
FB
1C
F7
E2
F5
01
FF
0A
04
15
21
FD
12
F5
01
07
17
D8
10
EE
2F
F3
EF
FE
0B
F1
11
04
0A
31
08
13
0E
04
0F
04
23
1F
F6
FF
E4
17
0A
F2
FF
09
0A
F7
F8
F9
23
04
07
FE
F6
0F
10
CA
FC
E7
02
FB
01
EA
F5
01
0C
06
0F
13
06
DA
F7
07
D9
07
06
07
2B
E6
00
23
FF
03
19
1B
EA
14
1A
10
1A
D8
08
13
FE
12
11
10
1B
1F
E9
12
27
0C
2C
F2
00
E7
07
E1
07
F6
FC
F9
F5
F1
D7
FC
0F
FB
11
0A
07
FD
11
27
16
E1
0B
0E
FE
09
CB
05
05
F2
F5
EF
08
13
02
EB
0C
E7
D2
F6
0B
08
DC
F0
FA
15
09
03
DE
F2
05
EC
18
FB
00
0A
03
E1
1C
01
16
05
FF
F4
03
F4
13
F0
ED
F1
01
F5
01
F0
EE
F8
01
F3
EE
06
F7
EA
0F
FF
EB
EF
F2
FB
EA
FD
06
FE
0A
F8
FF
F5
F8
EB
26
EE
FD
E8
4D
F3
E5
ED
0E
1A
11
F5
FF
E7
DE
19
14
FA
FC
13
1E
13
01
0E
0D
E2
07
F5
FF
0B
08
FB
E6
F0
00
EF
FC
E7
F9
D2
0E
19
0A
ED
0C
EF
FD
0B
E9
12
FE
EB
02
0C
05
F2
16
F8
F9
02
1B
FF
16
1F
F8
0F
17
EE
01
01
07
10
EB
1B
E5
ED
FA
F3
F3
D0
0D
EC
0C
0B
FA
1A
E9
0F
E0
F3
F5
E1
EC
E1
0E
13
1C
0C
28
EF
08
F1
15
CE
FD
0E
07
1D
29
2E
F9
02
25
ED
E1
17
F9
FD
0D
19
EF
03
D3
FD
11
09
F8
2C
04
10
14
0B
1C
0A
02
12
0B
EB
DF
15
08
E5
F0
23
F8
02
FE
02
08
E9
03
08
23
EC
F1
0C
18
E3
0E
F3
05
F4
09
EA
00
F2
18
F1
F5
F5
06
FB
FD
FE
0F
07
F9
06
09
26
11
00
15
25
0F
04
E6
FA
02
06
16
EF
1E
EC
05
08
F5
26
08
F1
D8
E4
08
F1
12
E7
0B
FE
F2
05
12
F7
15
EF
0D
D5
E3
FD
14
1A
EA
0D
E0
09
00
FB
02
F3
3F
12
04
FC
07
D6
0C
EE
26
BB
FD
EB
FB
04
FC
0B
FF
E5
0F
0F
1B
1C
E6
F4
F7
F9
0A
EE
1A
FC
0E
13
F8
04
FA
E4
FC
F3
F7
10
F9
F9
EB
E6
E8
1D
EE
2C
FD
E9
19
08
08
24
12
03
06
EA
0A
0D
FA
08
E4
FF
1E
E3
FA
0A
F8
08
F5
F2
F2
06
0E
0D
E8
EC
0B
EF
08
0C
05
0C
1B
FE
F0
E9
04
FA
25
FB
E6
2B
E9
00
D5
EC
EB
F6
D5
FD
FF
EB
FB
19
FF
DE
2F
05
FF
F7
01
F7
D7
EC
F3
F7
FA
FD
0A
F9
F2
FF
DD
00
12
FE
05
1D
1E
17
00
1A
FB
EA
0C
15
FC
F8
FE
EA
05
13
F5
FF
0E
FA
D8
13
EA
17
F4
08
14
12
EE
FD
E3
FB
E2
E2
11
06
F8
F3
EC
C5
F6
EA
E9
CE
25
04
F2
23
FB
E8
04
DC
14
F7
04
FB
0D
19
01
11
0D
F4
1B
F9
BE
F9
14
06
05
30
FE
06
CD
EE
ED
05
DE
FB
32
1F
06
E0
CE
1D
19
EC
E8
08
ED
F9
E4
DD
0D
DD
1F
EA
EE
F6
D0
21
02
10
F0
EE
FF
09
06
F3
DC
03
04
1F
32
02
F1
FE
05
19
17
36
CD
04
1D
F6
EE
F2
0A
FF
0B
DD
E7
24
E0
ED
06
03
02
FA
FF
E7
0B
E8
00
FA
13
23
04
F4
1C
10
F5
E6
0D
04
F8
FE
F9
02
FB
F3
EA
F8
25
06
04
05
00
F8
06
0E
FE
FF
EC
08
F1
06
23
04
09
12
F7
F9
F2
03
F0
34
02
FD
04
04
DD
F5
09
D7
00
5B
E0
07
F9
FA
D4
E5
FF
06
01
CA
17
F9
01
0C
1E
00
17
1D
F3
F1
02
17
EF
0A
F4
16
E7
0E
F0
F5
06
DF
E4
07
04
F6
02
07
F2
10
F1
14
10
FE
F8
EE
07
FD
F0
F3
D7
0B
06
FC
FE
E6
02
FC
FC
2A
0F
15
07
F7
FA
D8
F2
00
11
16
02
1A
FB
01
13
F8
07
0C
07
F7
2B
14
D5
09
1B
2A
2B
F6
13
14
17
11
F9
EF
2E
E0
FA
1C
ED
F8
23
20
19
12
0A
0A
CF
FA
E9
F2
EB
05
D6
0E
DD
00
F5
ED
F1
20
EA
E1
06
01
F4
16
12
02
ED
F7
07
00
05
F4
E1
F4
0A
07
14
13
1E
DE
0B
EF
F7
F1
DD
0F
F8
0C
09
E6
EE
F3
E4
E8
11
FE
2E
ED
0A
E6
F1
02
ED
F3
E5
0C
13
F5
F1
FA
05
E6
F4
0A
E5
0D
FB
D6
04
04
F1
E1
03
05
0E
1B
F2
15
11
08
0E
E6
05
01
FA
13
06
F8
0A
20
FC
F8
2B
F6
00
FB
FF
03
20
2A
F9
FC
EF
F3
F2
09
FF
E7
01
FB
05
F2
0D
0E
FA
00
FF
1E
F4
E3
E2
F9
F0
0C
F6
E8
01
FF
00
13
1A
F8
E9
0A
12
00
20
16
EE
05
07
10
03
0E
EE
EF
23
03
06
0E
18
0A
0A
F1
12
F2
01
08
0C
E8
EF
13
01
ED
E4
0E
F6
11
0C
17
08
0C
07
0F
E9
04
E9
23
DA
F9
1D
0B
F3
27
0A
F4
1C
FF
FB
ED
EB
E8
FD
16
0E
F9
0D
04
FE
19
1B
FB
03
EF
02
F2
F5
F6
FA
E3
FB
11
F2
E7
FD
2A
0B
F4
FD
15
E3
F9
F4
EF
EB
F8
1B
0F
01
20
E2
09
EF
19
08
00
06
F9
24
F9
FF
14
1E
D3
D8
E5
F1
FC
09
0C
15
D4
10
E4
0F
08
0A
FF
11
12
F4
E7
06
F0
EE
F7
09
10
E2
F9
EA
F9
0F
ED
05
18
01
21
16
01
FC
1D
0D
F3
F2
16
10
EC
FF
24
EC
16
1F
14
F2
EC
FD
12
D8
0F
0C
EF
09
E2
D5
F1
FE
DE
FA
F0
FF
10
0B
02
F0
04
DE
00
E4
F3
17
0F
1E
03
15
02
12
12
02
F3
19
12
06
F0
1F
FE
01
DE
15
0E
F5
D8
FF
F9
E9
E9
16
DC
19
F8
0E
0D
2B
FD
06
F1
D9
0E
E1
F6
0D
FA
FD
14
01
15
F0
EF
FC
10
03
F2
FF
17
FC
1C
0B
F0
0C
E8
F6
0D
FB
1C
07
FA
EC
EC
EF
E3
FD
FC
05
FC
FD
F2
F5
12
F3
FD
14
ED
CC
48
30
29
12
F7
F6
F1
F7
08
07
08
FA
D6
F3
10
FA
C4
FC
EC
FF
F8
11
0D
00
0F
F3
31
EB
F2
15
0C
00
EB
07
02
FB
05
11
01
0E
FD
01
05
09
F9
EA
F2
F5
F7
E5
17
F4
17
E2
FC
EF
0C
2D
0D
00
02
08
19
E1
EA
16
FE
0B
06
FE
12
02
15
13
0C
17
F8
F8
08
F0
08
04
00
03
E3
FC
FA
12
04
17
F7
02
04
25
09
FF
CF
22
1B
FE
FF
F2
FC
15
D5
07
00
FE
F2
18
04
0C
0A
0F
1D
EE
03
EB
F0
F0
EF
01
14
F1
2A
05
ED
F7
F6
E5
0A
F9
00
F2
08
23
E8
F3
07
ED
02
26
06
D7
EC
01
06
E0
05
15
19
FF
04
05
E8
16
32
EB
F4
08
11
F6
14
F3
09
09
12
F0
E4
FA
F3
0D
F9
18
0C
F0
FA
0A
F4
FD
00
FA
FD
1A
F9
FB
FC
0C
FC
FF
0B
E2
27
0B
FE
23
E9
0D
03
EE
0E
06
0E
DD
06
20
EA
02
01
F0
EA
F5
FE
E6
16
0D
F4
F6
EC
0B
E3
13
FC
CF
FE
E4
F6
02
D6
EB
E1
04
0D
08
FB
ED
F1
09
04
F8
03
E3
DC
13
24
09
FD
F2
01
15
0F
FC
F8
C9
12
E8
D5
12
14
FB
F9
19
14
F5
19
0A
FB
F9
1C
02
01
27
E5
0F
03
08
06
00
ED
06
06
19
FD
E8
F1
FA
1C
FD
F9
0F
0C
ED
08
0C
05
D2
0B
00
F0
14
FB
07
EC
EA
F4
07
19
2C
15
FB
00
F7
E6
EE
DF
14
03
03
F6
D8
ED
F3
FC
01
08
EB
07
17
E1
E4
ED
09
E9
1B
FC
03
FD
00
0F
08
1A
F5
E4
0A
12
FB
16
E4
01
FA
00
01
FC
06
13
E2
11
E8
03
F6
09
09
F6
EC
0C
06
0E
0E
FD
0A
06
03
EE
0E
EB
EF
FF
00
FD
0E
F6
04
E3
15
F2
0A
0C
0E
F7
06
FD
09
BA
2F
00
EB
0B
FE
08
12
E2
2A
E6
02
E3
1B
E2
F7
F5
10
06
15
0C
1E
01
FD
0C
DA
EE
E2
08
D7
FE
08
F0
03
03
FC
F5
08
F4
06
CB
FB
FC
F2
FA
14
FC
05
0C
0D
07
FE
EE
3C
F3
04
1A
05
04
F3
E3
14
F2
F7
FF
FA
04
F5
23
E7
F7
07
05
E7
11
E3
FC
05
0A
F9
FE
F0
F2
17
0E
EF
EC
FB
E3
0C
D5
F0
FE
08
07
F0
22
FA
22
12
EE
D1
FD
19
09
FE
FF
F9
FA
F3
11
13
0D
33
15
08
04
11
DD
E6
E1
E2
11
FE
0A
EF
1E
0A
01
0C
29
DA
DE
05
17
F3
F9
04
F7
EF
FB
FC
11
F1
0C
18
0C
03
01
1C
F0
DE
00
CE
F8
FD
E3
DD
F8
28
F5
D9
00
DE
FE
0C
FF
15
0A
FE
FD
01
E7
13
F9
01
24
E5
09
00
1E
17
06
09
19
1E
03
0C
18
09
09
E1
ED
18
EA
08
13
04
11
F5
00
E5
FE
15
DF
07
F2
10
F6
1D
F1
E7
08
29
F3
08
11
02
28
CD
F4
E7
D1
1E
F5
FA
11
17
FE
EE
FF
0E
07
14
13
14
16
FE
06
10
FE
DE
EF
05
1A
DD
FD
12
04
F5
05
F9
02
02
E4
45
16
F6
F4
0B
20
F6
03
F5
F5
04
F9
03
EF
06
F3
05
F2
39
F1
33
0A
20
FB
E6
0D
E4
14
E9
1D
E3
F9
22
F1
E7
15
FA
10
E5
1B
34
F9
F8
22
07
26
F7
F8
15
07
E0
FB
FA
F4
1B
24
F2
09
FC
CA
EA
06
24
03
EA
15
D4
F3
22
20
F7
02
19
00
E1
1C
FF
FE
F3
EF
FF
ED
F2
FB
12
F4
01
14
08
0F
17
05
F1
FB
09
EB
0A
F9
23
E7
01
FA
FA
EF
02
2B
04
0A
EF
F5
11
06
23
F2
E6
0A
0C
E2
15
0C
FC
EC
17
D0
FA
FF
F2
15
F7
FC
11
E8
E6
11
09
FF
F6
16
00
40
09
2A
0E
0D
F5
18
DB
F7
17
FC
E6
E4
19
07
18
03
18
0D
0D
F1
E8
11
0A
02
1F
1F
E6
FD
FC
F3
0F
04
FB
DD
08
FB
F4
0E
FA
0B
FE
05
F8
00
00
FC
03
FE
01
0F
F3
1D
F7
05
0B
08
14
FE
10
07
F2
0E
23
F4
1F
01
0C
17
18
15
ED
EF
19
F7
28
0E
0E
0A
22
11
07
0E
F6
E7
01
1D
FF
18
08
FC
FF
F6
E7
EC
FC
07
17
03
02
03
05
15
1A
25
15
FF
E3
0F
FA
07
F2
F4
F1
E8
FC
EF
F4
E5
FA
FE
F5
F6
17
16
15
11
12
FD
FC
29
13
BC
29
10
23
F5
22
F7
E6
0A
FE
00
15
0D
FB
08
D7
00
F5
DE
EC
14
F6
FE
EA
F5
E7
07
01
FE
01
16
1D
02
DF
04
F3
1A
26
14
18
F6
11
FF
04
22
1B
1F
E8
00
FD
E8
F0
17
FB
F6
15
11
15
FC
0A
1F
09
F9
08
EB
23
F3
FC
F3
F2
06
11
14
20
EA
12
03
D8
EA
E1
1B
09
E7
09
0B
0A
27
FE
00
FA
16
F5
F7
F6
02
2D
0E
08
0A
1B
0A
1B
0F
03
20
09
20
10
EC
14
F8
2B
FC
F0
26
EC
0B
01
3B
E9
00
21
1B
10
DD
D8
F5
18
F7
01
FE
FC
1E
2C
F1
FD
F3
0A
0A
0C
1F
0A
02
F5
FD
E0
18
E0
FF
00
F2
F2
FF
17
E4
0C
19
F2
13
E5
0E
0B
FF
10
19
FE
F9
E5
06
E1
09
FF
E4
E1
E9
0A
F8
00
EF
F9
F9
1D
04
06
1B
05
00
F4
F6
04
F4
DA
02
FA
00
08
E6
0F
0C
F7
EC
F2
16
FC
24
24
02
09
01
06
FB
10
12
15
F5
E5
E0
1A
CF
02
FD
EE
FC
FC
F5
D5
E8
F0
F9
13
06
04
E2
FD
F0
11
1D
FF
00
00
2C
0D
15
06
FD
F7
15
07
F6
1C
ED
FD
0F
FD
F6
1D
F0
FD
EF
ED
EC
E8
FE
00
0D
F3
06
00
E3
FA
FE
23
1A
EF
0C
15
D0
24
06
05
E7
09
E8
14
F1
0B
C2
FB
05
03
F5
F0
E2
F9
0A
FC
DD
E4
ED
0E
F2
F9
FF
18
02
E4
05
01
E0
19
EF
00
F5
03
1A
F0
0F
E6
29
FD
20
F5
06
04
0C
E8
F6
E7
F7
06
E8
ED
EC
10
10
1D
11
04
FF
F4
CE
13
F5
0E
D7
ED
CB
F5
20
F9
FC
15
02
F2
F4
D4
D8
1B
00
09
D5
02
00
19
0A
F6
F9
D5
F5
E0
16
F6
2B
ED
01
09
F3
13
17
06
E8
D5
FC
EE
59
F3
F2
EE
E1
C5
D1
15
F9
E9
0B
F0
08
06
EF
0E
F4
13
2A
22
0D
1D
1E
15
DC
E4
0D
06
F3
03
01
E8
10
15
0A
E4
F0
02
0F
ED
F4
04
DB
1B
02
FD
E3
09
DE
1D
10
1F
08
09
FB
24
00
FC
03
23
F9
FA
E4
13
06
F6
13
17
27
F7
17
0B
E7
F4
04
27
0F
D9
0E
0A
0C
EC
E4
02
25
D8
ED
01
08
1C
F4
DD
09
FD
D0
16
FD
F5
D9
F4
E2
F9
F1
E2
25
DF
1F
16
02
F3
01
FA
30
0A
0A
09
01
FE
13
F5
03
F5
14
DB
03
14
07
0D
17
03
F8
30
2C
18
FD
05
EE
1A
01
F9
09
F9
09
EF
F6
E9
10
1E
FE
05
19
19
02
00
0E
1C
F5
EC
09
04
00
00
20
FC
05
E7
FB
F0
F0
F1
E5
F4
E4
10
0E
13
0F
EF
FB
FC
F8
05
14
01
2A
0C
F8
F7
FB
26
0D
19
0D
12
FC
FB
FB
19
E6
FE
0E
D7
EF
17
EB
1F
05
13
1B
06
F7
F8
1B
18
FB
F9
06
02
F5
F9
E1
FA
F0
0D
F4
FB
0C
0B
EC
07
FC
04
06
33
0C
EA
12
FB
0A
F2
F3
06
E0
DC
D6
D3
EC
0A
01
EB
BF
1E
10
0B
F3
ED
0F
05
F6
E9
09
14
06
03
00
DB
FF
0E
07
09
FA
04
1D
F5
1B
FE
EC
EE
0E
FF
25
F9
12
EF
D6
FF
29
0B
F5
14
F7
00
10
DA
F4
FD
23
F2
35
18
F2
EB
1A
FC
FC
0A
FA
1C
12
0C
10
FA
FF
1B
05
F0
2B
06
F4
E1
00
11
04
E8
FC
26
F2
F9
0B
CF
EC
0D
04
F2
F1
FA
01
11
0F
FA
10
EF
16
0D
FD
DA
00
0C
EE
00
1F
FC
F9
CF
ED
20
22
06
F5
F7
F5
EF
ED
DC
00
FF
F7
07
2A
0A
07
0B
E7
08
EF
11
0F
12
F6
03
EA
FB
2F
EC
0D
F0
E4
EE
EE
F9
06
FA
14
FF
10
E3
DF
F2
ED
FA
08
F0
FE
F9
16
18
FE
EE
FA
1F
FC
12
1C
10
00
EC
09
E6
0C
FB
08
16
0B
E0
0B
02
00
16
FE
FE
0B
0F
F9
0C
E9
E1
F9
0E
4F
F5
FF
34
00
18
05
02
EC
14
17
F9
05
22
F1
DC
FC
1C
FD
02
FB
FD
0B
0C
FE
D9
0F
0D
FD
FC
0B
F4
05
0F
07
07
00
10
F1
0C
EB
18
F7
0A
E7
DB
E7
0D
21
D1
FF
07
17
EC
F4
01
07
08
F4
BF
27
FC
10
00
2E
F7
01
0A
FD
03
FD
16
01
F1
05
E5
EF
00
FD
FF
01
08
FC
0E
F3
F2
FA
FE
EF
E8
E8
31
10
0C
FB
FD
07
F3
0E
E4
D7
13
01
04
EF
05
15
03
07
FF
F8
FC
F8
39
EB
0C
25
00
F9
1D
EB
0F
16
EB
FA
36
06
E4
19
EA
03
E0
FF
00
EF
15
ED
B2
1D
22
EF
07
F2
08
D6
00
09
FA
F6
10
26
F8
ED
0B
EB
F6
2A
17
E1
11
15
1B
0F
FD
F1
E8
04
15
18
0B
07
F6
06
F8
F1
00
21
F2
09
23
2B
E4
D6
F3
EB
F8
19
20
F4
02
FC
C5
EA
01
01
04
0B
F8
F5
B8
FA
DD
00
0B
1A
E5
02
04
F8
39
F2
FD
FF
FE
FC
01
05
0B
F7
E1
FD
F8
0B
FE
E5
10
07
11
F3
EB
F3
04
1E
08
F3
01
F8
0B
DC
11
F6
DF
ED
E0
F3
F2
0E
F7
FD
05
EE
18
0E
15
0A
16
10
06
0C
B5
F6
FD
FE
36
CA
FC
FA
EA
03
F0
01
FE
0E
D7
E5
E7
12
04
19
0F
EC
02
FB
F6
30
F6
01
29
FC
0E
11
0A
EB
DD
FB
ED
EB
EE
FB
FF
06
19
05
F7
EF
08
F3
12
08
31
EC
05
2F
D0
09
F5
19
10
47
0B
03
F8
04
E3
14
00
FA
F6
F1
D8
F8
20
F9
37
EC
0D
F1
E7
20
02
F2
DA
FC
0C
18
13
FC
1E
04
F7
EA
ED
ED
E8
0F
ED
1A
F8
F7
E9
07
E8
FE
18
EB
E4
08
D4
00
12
F7
FA
FC
EA
F8
F5
FE
0A
FA
E4
E9
13
F0
F9
05
52
04
02
EA
F2
E8
F7
0E
FA
E7
01
12
E4
3B
3E
FC
07
02
DC
F6
EC
07
11
E0
1C
05
01
0B
FA
F3
1A
EE
DE
14
21
01
E3
60
EC
EB
EF
02
12
0A
14
E7
3A
EF
18
04
00
F9
19
F9
F5
F3
E9
FB
0D
F2
FC
22
06
E7
F6
FD
F7
F3
05
F4
F4
ED
E8
C5
FD
FB
F4
EC
F1
02
0A
F7
07
FC
FA
07
EF
ED
0F
F9
10
ED
E9
06
0D
FD
F5
E8
F2
FF
DE
15
07
02
0B
12
02
FA
1F
10
08
08
0D
F8
01
0A
F0
BB
DE
22
1F
FC
0A
06
DE
FF
F3
04
F2
14
F6
F8
