FE
0E
ED
0F
EF
E5
15
07
F9
1B
20
0C
FE
23
F0
37
FD
F3
EC
E2
F1
07
F5
1E
DF
DC
01
E9
05
EF
2D
EE
E4
E6
E9
28
BA
E2
FE
F5
11
ED
04
12
0A
DD
F1
EC
F4
F7
EF
1C
05
E7
EC
E3
EE
29
F3
10
F4
0A
05
1E
04
F4
14
FF
06
CA
29
E9
05
F2
1F
F2
0D
20
03
0F
F8
FC
21
FA
01
28
14
0D
F2
C5
21
1A
FC
03
DC
F7
FE
F3
F2
EF
C6
01
2D
E6
E6
16
20
FF
29
FB
01
FB
0B
0F
D1
14
E3
E9
E9
C9
C6
F1
06
13
1A
F0
F3
32
EB
FA
07
FB
FC
F2
02
E7
FC
09
F7
16
CD
F4
1D
1C
FE
08
31
0F
1B
27
05
05
FC
11
F6
0B
FC
EB
0C
09
06
F5
25
F7
0A
05
14
FE
FE
F9
04
B3
E8
24
ED
13
08
E0
1E
22
15
15
F2
F8
F9
0D
21
07
0D
EB
DC
14
FF
F5
E0
FD
2D
01
05
F3
F4
D9
DE
E1
FA
ED
26
FE
01
F5
15
13
ED
EC
E0
0C
DE
F0
0E
07
15
F2
15
20
10
02
FA
E2
FC
F0
F3
F1
28
36
FD
06
DD
D4
F4
FD
0B
31
14
11
D3
F6
05
02
EE
FD
05
FC
08
06
E3
F3
D9
F3
F7
05
06
02
C0
FA
17
F7
0F
EA
17
20
06
E1
EC
F7
05
00
04
17
01
01
F4
FC
0D
E5
E6
DE
EC
0B
29
03
EF
12
21
F5
F2
F2
06
13
10
00
15
05
F9
0C
08
FB
C5
19
FA
0E
00
E3
E8
EA
1C
EB
F5
27
EE
1D
05
1A
EB
0E
13
EE
E4
05
E6
29
F6
F8
F7
17
E5
F3
1B
0B
F0
FA
ED
FD
FF
FC
05
E6
F1
09
12
1B
F9
14
09
2B
FE
07
F2
DE
FA
F5
D4
06
F1
1B
F5
19
09
08
0B
16
EE
FA
FC
F9
03
F2
FE
F2
CA
E5
11
00
D3
00
E0
E9
1B
E6
DB
09
FE
09
F8
25
E4
CE
1B
26
F9
31
0B
EE
0D
FB
00
0D
EF
F9
14
15
EA
16
08
E6
02
03
2B
00
14
12
C3
E9
1C
1D
EA
FD
34
2B
F7
D5
09
ED
F9
FF
07
06
F2
05
05
FB
13
00
F3
FC
F0
07
20
00
0C
FB
ED
06
DE
F9
0A
FC
14
10
EA
07
0D
13
00
06
09
04
04
1C
EA
ED
24
10
07
F9
09
23
03
17
F7
F3
DD
18
0A
28
F8
FB
05
E5
10
EC
23
15
31
07
FD
FC
12
37
E8
BB
06
FC
24
E0
F8
29
EE
0C
19
27
04
13
1C
20
23
32
F7
FB
03
FD
D8
E2
1D
2D
C5
03
E3
F8
CF
12
0B
03
DC
F5
EA
F5
D8
19
09
1B
DD
27
22
FA
11
06
ED
0B
01
F2
04
D1
24
DE
05
EA
F9
0D
43
DD
E6
0F
2D
F8
16
0B
F4
F9
03
F1
F6
14
2C
EF
17
EF
F9
0D
F1
0B
E0
FE
01
1A
07
CF
FA
F1
07
00
37
E1
F8
11
30
FD
FD
EC
FE
FD
15
0E
27
05
CA
F2
FE
CD
E9
1C
44
13
EB
08
08
02
0C
F2
F0
DC
18
DC
D0
18
2F
20
26
0D
D9
27
07
FD
13
F9
F6
01
01
09
1E
E1
E0
DA
03
01
25
11
0C
08
0C
0A
FD
22
0B
07
FB
F7
DE
EC
00
F4
03
13
E2
1D
0D
10
00
16
1D
F9
18
F6
12
16
EF
22
EF
22
10
14
FD
FB
F5
DC
C2
F2
C7
04
FA
DD
F1
1E
31
F4
FA
FE
07
FB
0E
14
17
04
24
0D
E0
ED
FC
F7
2B
07
F8
ED
04
19
07
F1
F1
F7
1A
2D
F3
06
F6
FB
F4
0C
12
09
FE
F1
08
CC
EE
05
06
F3
DA
E3
10
10
D1
E3
1B
22
0D
2C
15
18
E2
FF
FE
F3
04
07
E6
FA
15
0D
F9
E7
00
08
E2
F9
DF
FE
FE
1A
0C
F4
1C
F1
07
25
CC
ED
05
13
0F
FB
FE
F4
E8
FD
05
F3
E6
1C
EA
10
FF
DE
F2
27
1B
EC
18
0D
E5
F5
19
EB
16
0A
18
E3
17
17
FB
CB
29
30
08
17
FF
FF
0B
08
E7
00
01
30
D7
E0
08
25
11
03
BB
07
C0
D9
F8
0E
F7
01
E6
ED
FB
E2
01
0D
06
FC
FE
E5
FB
F5
F5
FF
0A
F3
F3
DC
E4
10
2E
D8
30
EF
E4
D4
0F
35
DA
E6
FD
CE
FC
04
07
DE
D2
0D
00
FF
C5
FF
F7
11
04
FA
D6
FE
FE
E8
0D
DC
04
FF
F7
DD
C8
1A
D9
1A
E5
FA
FA
FA
ED
E2
0B
00
0A
E8
E1
D9
08
F9
0A
21
03
FA
FE
04
1D
E8
1E
E8
ED
F2
1A
0B
EF
0F
04
21
E8
FD
EE
1E
06
05
12
FE
F0
EF
06
1F
E6
14
D6
EC
0A
F5
EF
0E
E8
F9
0C
26
05
FB
EB
EA
15
0C
00
E0
F9
0F
0F
FB
F4
FC
2F
FB
D6
EE
0D
D9
E2
04
25
20
1B
FD
05
F9
1A
EF
05
FA
06
20
29
09
04
EB
0E
10
F0
05
08
F4
27
0C
07
03
01
27
27
1E
07
09
FA
EE
09
FD
09
0E
FC
0D
1D
02
04
0F
05
10
D7
0E
F7
12
21
F8
17
08
01
E7
07
F7
F4
0F
E3
1E
F5
15
E8
18
05
EE
03
0D
FF
F8
3C
F9
11
E7
B8
E8
DA
E7
EE
F5
1B
F1
F4
F8
06
10
F3
0B
F6
01
F3
E9
0C
31
08
E4
0D
04
ED
0C
06
26
48
01
FE
FD
0C
19
E9
15
E3
41
03
E4
06
06
33
01
45
F8
D4
F9
FC
DE
E7
0C
0C
D7
F8
21
12
FF
F8
21
32
03
09
EA
0C
FB
25
12
0E
FE
DF
00
FC
BF
E5
07
F8
F3
1C
0C
17
F5
0C
0E
14
DE
DD
1C
15
E7
00
E8
FD
F7
09
F3
18
EF
08
27
03
08
EC
C6
EF
F2
F7
FD
09
F8
08
14
F7
06
1F
10
1B
0D
EB
09
FF
DC
2D
F1
F7
00
10
FD
06
40
F4
00
F5
02
DE
24
08
0C
15
EE
D4
0F
E5
12
16
FD
09
E5
0D
F6
11
E3
DE
F3
F4
FB
02
D2
FC
1A
1A
FB
15
D6
F1
09
E4
29
D7
27
1A
1C
DF
D7
E9
DE
25
19
FB
18
E0
0F
02
F8
EF
DD
1A
FF
01
1E
D1
15
F9
07
EB
2B
F0
23
F8
E4
E0
0B
E7
28
E8
28
E2
17
0A
FB
F6
C9
0A
08
EF
F7
05
ED
F0
E4
E8
40
2E
ED
FA
12
07
F5
D7
E6
DA
17
DD
23
0C
0B
FC
04
0C
E5
E8
F9
18
E4
0A
2E
FE
F5
FA
0D
15
04
16
01
EF
48
E5
EB
EF
E9
10
0F
D8
E3
09
FD
E8
DE
21
0A
0B
D5
01
E9
E4
F9
29
EA
EE
2B
04
FC
FA
17
EB
D6
09
FC
19
06
DD
FE
00
EC
19
09
F5
FB
F4
FF
FF
01
FC
1D
13
06
F5
14
FF
F5
F8
F3
2E
F1
EF
F2
FE
0F
1A
0C
FF
0D
F8
E2
EF
EE
FB
0F
F6
D9
DE
F0
FD
F3
03
23
00
E5
EA
19
E1
D8
FD
E4
EE
04
D1
08
2D
04
2F
EF
05
16
1A
0D
10
13
E3
F9
F0
F4
F2
EA
2B
F8
02
11
03
F1
24
DB
0B
13
DC
F6
FE
FB
00
04
02
F9
11
0D
FD
FA
08
04
08
FF
E7
F3
11
24
EC
F7
F3
F1
1F
14
00
0E
F9
EC
F8
07
FE
06
F2
F7
FC
09
CF
0C
2A
1B
F3
F8
05
FF
13
27
2B
E6
01
FA
0B
29
32
C9
FC
15
FF
16
FA
04
07
F5
13
FE
15
F6
FE
0F
0A
24
0A
F0
F1
12
EB
D9
E9
E5
F0
F7
1D
32
F3
02
E7
22
D5
11
00
22
F7
12
FC
F8
DC
ED
0A
FA
05
E1
FE
1D
02
03
FF
F4
FB
EE
F2
F0
DA
0C
D8
FA
F0
EA
02
00
FA
2C
FB
28
E2
41
58
23
F5
05
05
EC
01
1C
0F
FB
18
04
FC
FD
20
1C
0D
D9
D8
F1
0E
06
12
0E
21
00
05
F4
EE
10
F1
13
FE
0E
0F
E0
22
DA
CD
17
05
EF
F2
06
19
F2
DE
08
F1
DA
3D
05
1A
E0
FA
EE
01
06
05
0B
04
08
1F
E1
E4
E6
04
07
D8
E8
ED
E0
E2
0E
FB
ED
20
F2
31
FC
04
00
0C
F6
04
02
FE
EC
DE
F1
FF
E4
E8
12
0D
03
36
32
1B
3B
FB
19
FC
FE
DF
26
EB
F2
FF
18
07
1A
FD
0C
F5
11
EA
0B
FD
0B
17
E6
D4
F7
06
2F
11
F0
0A
08
E6
EB
F6
03
F4
F9
EF
14
14
25
EB
FE
FE
E4
05
03
D9
1C
23
EE
FC
0C
FB
10
1B
F7
FF
1D
11
02
05
CD
16
E4
F9
26
E0
1F
EC
DB
3F
F5
1F
E7
F9
FF
E6
0A
F7
F8
F2
15
01
10
07
F9
1A
09
1F
F2
08
E3
F3
02
FD
12
FB
1E
35
C9
26
1F
FB
20
DC
FB
C9
D5
FC
13
05
19
22
E6
1D
19
E5
19
08
2B
D5
E9
0A
19
CD
F3
03
F2
12
26
EC
1B
16
01
01
F5
17
DD
FE
0E
10
0A
FD
1F
F6
03
FB
2F
17
F6
04
EC
02
F8
FA
07
0C
09
E6
16
F8
20
FE
02
00
EF
18
F5
08
08
F0
DB
EF
F3
EA
12
29
FE
E9
08
0E
EF
19
F4
DD
F2
F3
FB
FB
1D
13
19
0A
D2
C8
F7
31
D3
F9
FE
E1
EE
06
E9
E7
ED
0B
11
0D
F3
01
1E
09
0C
C8
10
02
D5
06
1D
FD
DE
F9
03
F9
26
04
05
FA
FC
F6
F2
24
E7
17
02
E3
FA
F0
21
12
1E
FA
0B
01
F8
FA
EB
FC
07
D7
E7
F6
EF
0C
14
01
08
1E
E3
D4
EC
01
27
04
FE
05
04
09
09
0D
09
EA
FA
F5
0B
F1
0A
12
BB
17
E7
ED
E7
13
35
28
FF
D3
16
FC
03
E3
17
F6
0A
09
D2
F3
0A
01
12
D6
1D
0C
F9
D8
10
02
06
01
19
EF
F5
F8
EE
E1
F6
0B
F2
E5
08
EE
EB
FC
00
07
E9
E6
DE
60
EA
01
F8
21
0A
22
06
19
BF
06
BD
D6
FF
F9
1A
FF
F6
DB
10
32
E9
09
E4
1F
22
F0
18
16
0F
10
35
FA
EC
F0
0F
EB
1C
F2
F8
E9
F8
F2
05
04
06
F2
F7
0C
EA
E8
2D
02
02
03
1A
FC
FD
44
F3
12
D2
F6
E2
D8
FA
F9
FB
16
0C
F5
03
03
0D
F1
FB
11
FE
F1
00
17
31
FD
F1
26
EF
03
0F
00
0E
08
D7
FF
2F
2A
01
05
FA
F0
F9
EF
1A
EC
E5
19
06
03
E2
0B
FC
F5
F4
E9
1B
FC
F9
17
FE
EB
F7
DE
E3
D9
E5
0D
F2
30
1D
F2
E5
00
01
28
00
D8
EE
EE
EF
FF
FD
FB
F6
28
0F
F7
F5
1F
1E
24
12
1D
1D
C3
F1
19
1B
F8
E9
FF
E8
F4
07
F5
24
07
FF
10
0B
1B
FE
0C
D9
F7
F0
21
E3
26
EB
FD
FF
FD
DF
00
16
0A
00
F9
11
08
E5
27
11
D9
F9
F8
02
22
FA
09
F3
F2
13
27
0A
E7
F6
F6
E1
1E
3D
C2
F5
00
10
F4
1F
FE
EC
05
D9
28
1C
FE
12
21
01
01
06
F0
0A
E1
23
E2
06
23
15
14
0A
13
F0
1F
10
07
10
05
F4
16
F8
08
02
05
27
D3
1A
27
28
19
E6
E1
EC
02
ED
01
13
CD
D9
15
06
DF
29
DD
12
DD
D2
E3
FA
FB
1D
2C
11
F9
F9
DF
EF
04
F9
09
F2
E0
27
0C
06
F7
08
F9
E1
03
0B
10
14
F5
E5
FB
F9
1A
1F
15
0C
F9
04
F6
F3
07
DE
03
FE
EF
FA
0E
FF
0E
0A
08
E4
FA
F1
E5
32
F1
15
42
18
17
15
00
FE
F3
03
F2
05
F1
FB
09
FA
34
05
16
E8
0F
02
F8
15
02
FB
F7
F6
0E
10
C8
E2
F5
ED
03
05
10
F4
19
1C
0A
19
DA
10
C9
02
19
E9
10
FF
12
FF
0C
ED
D5
25
F3
36
F7
0D
F7
D4
28
0E
1D
27
30
D4
FE
05
1D
03
02
D9
FA
FD
0F
0C
0B
02
06
EC
FA
02
0E
30
1A
D9
49
2B
DF
F7
13
F3
FD
10
15
2F
EE
5A
16
F3
FF
1B
09
0D
EC
FA
E7
04
0A
18
EC
FB
F5
11
E2
FD
12
FF
0B
08
02
EB
F8
0A
FF
07
E7
FD
06
F6
F0
23
2F
18
FF
E3
F4
E4
F3
E2
28
FE
FC
D4
1F
10
FC
DF
CA
F8
F1
F0
17
23
16
F4
E1
0C
00
0B
28
D9
DF
D7
CE
11
12
1E
EB
00
06
0E
DE
F7
FB
E8
15
07
2A
E4
EB
02
F9
11
EB
12
E4
09
09
F8
E8
0A
04
FD
FA
07
FC
FF
10
E6
18
E3
F5
21
F7
F0
12
F3
DD
F6
F3
EA
F1
08
12
07
DD
0C
E1
15
F5
FD
F8
ED
0E
E3
0F
F0
11
01
0A
EA
FD
FB
F5
17
1F
06
FB
09
08
17
05
1D
00
FF
F2
04
E7
17
00
14
FD
F0
0E
F9
F3
C0
E3
F8
28
E7
DB
21
07
16
DF
1E
F3
0B
C5
E4
F8
2B
26
15
F1
00
0F
F5
1C
05
FD
E4
03
13
28
CE
FE
04
02
ED
0B
07
0B
0E
FA
E9
06
F9
24
1F
03
2B
25
2F
F2
11
F1
06
F2
EC
21
E7
01
2F
00
F0
21
19
F2
05
0E
25
06
0A
03
F5
02
2B
E9
FC
E8
E3
14
F4
FC
08
FB
1F
00
EB
20
EC
13
FF
15
E9
F8
F9
E2
0A
F9
36
EE
07
0F
18
01
04
0C
1C
02
F5
E3
F3
FC
EB
D8
DF
20
26
E3
15
09
04
04
E6
D6
FD
CB
05
13
19
FD
E7
0F
E6
E1
30
EA
1B
09
F6
02
F1
FA
08
09
14
DA
E9
E3
FD
1A
07
04
F5
F5
14
16
18
16
0C
E8
F7
25
F0
0B
1E
FE
0C
FF
04
D2
28
09
04
09
25
F3
E3
28
F9
EE
EE
EF
D4
F7
00
E5
07
F9
12
03
C6
EC
F0
00
05
F6
EB
F9
03
20
E0
E7
CF
03
12
ED
20
02
F5
0B
EA
D3
F8
EE
05
12
13
05
E7
0F
0A
11
C5
E0
E7
00
25
F3
F2
0B
FD
F5
02
F7
0F
0B
03
02
D9
04
0C
24
23
FB
06
1B
E7
FD
05
04
03
02
22
1D
D9
02
01
12
19
EB
FC
01
2E
C5
07
F4
D5
F6
00
0F
11
0D
D7
DE
02
3F
14
E9
F0
FB
1B
17
01
22
F9
12
13
1F
FC
0E
D7
EE
0C
DB
23
26
04
0A
ED
0D
06
1F
10
0C
05
F7
FD
DD
14
FD
11
DF
D2
E2
FD
0F
04
F5
11
E5
E8
F7
2D
09
EA
10
F0
F5
ED
0D
14
16
FA
07
11
F8
FD
1A
05
F0
FC
15
FE
E5
07
08
E5
0B
12
1A
21
D4
F1
FB
0A
05
FF
00
14
19
13
0F
F1
EA
DE
30
26
10
1B
D8
E3
FE
D4
0F
02
C0
14
0F
33
E9
00
02
F7
F4
E3
0B
00
DD
02
F8
DE
18
ED
D7
C5
27
E8
FC
38
03
0C
DA
FF
EB
F4
C4
0F
F8
1E
0E
F6
19
F9
F7
EB
3B
D2
F5
14
19
FD
E2
0B
0E
D7
F6
2D
2C
FE
D9
09
1E
F2
04
18
0A
CE
14
E9
E5
D9
13
F2
07
F9
1D
EE
EE
00
06
F0
EA
F5
E6
0C
FA
E1
03
0B
1D
01
21
0B
F8
13
EF
29
F9
03
E0
DB
FA
0F
13
E8
06
10
12
0B
11
F9
14
00
1C
21
DA
EB
E5
D1
FD
16
24
14
E5
E8
0C
04
20
09
05
0E
FC
C4
14
FE
FC
DE
02
0F
FC
F1
D0
20
D4
FA
02
F9
EB
04
20
F4
CB
07
DB
FE
C5
D8
F3
09
1C
C4
2D
F8
29
C8
01
24
FF
09
E3
27
0E
E2
18
04
0A
22
09
F7
21
1E
FC
EA
E1
F1
00
F1
2C
FC
0C
01
CC
F8
F6
D2
F9
0F
FD
FC
FE
0B
04
F5
F0
0D
1B
FA
F1
10
F8
DD
0C
0B
F8
0B
05
EC
D8
F2
F4
08
F1
D9
33
F2
04
2D
20
ED
DB
23
F8
FC
F7
28
10
FF
FC
17
FC
02
1F
E5
01
FD
1A
EF
0C
EF
FE
10
E1
DE
E5
3B
F6
05
07
F1
0A
F4
EB
DD
EE
14
FF
F9
F1
04
20
14
D5
1D
DD
1D
09
16
EA
0E
FD
00
FA
FA
EB
31
F3
1B
FC
02
E7
22
F1
22
06
FB
08
F8
FC
15
FC
E6
06
F7
E4
FD
F0
F9
06
01
06
28
07
06
E0
F9
F6
E9
22
F1
28
F7
FC
01
F4
F1
ED
02
EF
0A
F7
EB
F2
F8
E6
F7
DE
0F
05
01
FC
FF
F6
FE
FB
F1
02
14
F6
32
F3
FF
17
02
17
0C
01
00
F8
E7
00
FB
FC
23
00
19
15
04
FA
0A
11
E5
E9
EC
B2
F3
E4
E6
00
EC
12
23
06
1F
03
23
EF
DD
09
0B
0C
F8
14
FA
FD
14
33
2A
02
1A
F9
0A
E3
F9
F1
0B
FD
FE
ED
F7
36
FA
0F
F4
29
07
14
C9
11
0A
13
19
39
17
14
25
FD
01
ED
F2
18
1B
0F
E2
04
E7
D7
03
ED
EE
03
CF
EB
11
D7
0F
03
04
D5
FB
D8
EE
FB
16
FD
F4
1A
E9
19
F3
06
05
0A
EF
00
F5
F8
01
F3
08
0D
34
03
FB
16
C9
FC
DE
01
15
01
15
10
23
21
FA
09
F1
FC
01
FE
23
26
EE
E0
FE
E7
F3
F7
EB
17
17
05
DC
17
D5
14
22
EC
FB
17
00
10
DF
D8
13
22
35
01
09
0B
F0
08
DC
ED
12
00
1C
0C
04
13
0B
00
FE
09
F9
1A
0D
17
10
F0
19
FA
02
F8
12
FD
11
E2
02
1E
09
08
F0
F7
18
0F
E3
EE
F0
FC
02
02
0B
D3
00
08
01
FC
EC
05
1A
23
0D
F9
EA
12
0C
F7
28
13
18
0F
FC
E9
15
22
F3
F9
15
0C
F0
00
F3
0F
1B
08
13
35
0F
E8
E0
0D
F3
F1
DB
C5
19
DC
F3
18
18
F9
F3
2C
0F
0D
E3
FB
F0
F0
07
30
F3
D0
FF
15
F9
E4
10
E0
04
12
36
2E
23
F4
03
0B
E6
3B
EC
F3
F5
12
E9
FD
20
FE
13
F2
EE
2D
20
22
FD
05
FB
E6
F5
06
F2
0D
27
15
13
E7
07
F2
E2
F9
F0
F6
F4
23
1F
17
0D
F9
08
16
F1
12
D0
08
01
13
1E
1A
14
FE
0E
11
10
12
E7
01
16
04
FF
29
1D
F7
F0
CE
D5
F9
EB
55
11
BD
E3
1E
10
04
2A
EF
01
F3
F6
FF
10
E6
20
DB
FE
06
0B
21
05
24
07
1C
02
EC
F6
FC
10
27
02
FA
F0
FF
15
0A
D0
FE
07
1A
FD
EB
FC
04
07
07
02
08
17
FE
F3
F6
EB
FC
0C
FE
EB
C7
0A
EC
07
03
0D
05
F5
EF
F6
19
0E
06
0C
1D
05
EC
03
E5
0A
2F
FA
F1
1F
F6
E4
F6
EC
03
00
F8
12
02
FD
F7
0F
18
0C
DD
DF
F7
0C
04
FD
27
22
D4
F3
14
20
0F
F0
13
E2
EF
F0
20
03
F6
E2
FF
19
0C
4A
DE
14
FD
12
27
FA
08
FF
ED
17
FD
FE
E5
EF
0A
07
06
EA
EF
01
02
D3
05
E2
11
DF
11
FC
01
19
F2
10
E9
1F
F5
0B
02
29
F9
EF
CF
DD
F5
FA
D7
16
1B
17
F3
E7
F7
0A
0F
16
25
F4
DA
10
FF
F6
FF
1F
25
15
05
11
19
09
20
F6
F5
0A
F0
01
DB
E9
15
16
DF
2F
F3
25
DA
1B
04
25
0E
F7
FD
00
08
F6
FF
F5
E9
05
0A
ED
13
E2
2A
02
F6
1B
08
D4
F7
1C
E6
F4
19
38
EA
EF
28
0D
0E
C5
DA
F2
DF
F2
F9
26
E2
27
F2
03
D8
29
FF
FC
03
25
F4
F1
EB
EE
03
0F
12
F3
0F
E1
F0
F8
15
F4
E3
26
1E
F3
27
2C
EA
E0
D4
E0
E9
EC
FF
EF
1A
11
D7
F0
4B
F4
04
02
E7
16
10
EF
08
F0
E7
F3
E2
FB
06
02
E7
DB
00
06
1C
0B
09
DC
EB
2C
06
07
06
F4
EF
F0
19
0D
F9
03
FB
34
26
0B
F0
13
F1
0C
DF
EF
F7
04
F0
F5
FA
08
EB
12
E3
FF
FD
18
07
F4
39
F8
07
22
EE
32
FF
F7
F4
FD
05
04
DF
EC
F5
05
17
FD
02
1A
F9
ED
F4
EE
F9
01
12
E5
F0
FC
F5
EF
E4
1C
ED
F6
1A
07
F4
F4
E4
D8
F3
0B
DC
08
07
20
0B
20
FC
0B
2D
02
0A
07
F1
C3
EA
0D
F7
28
DD
32
1F
EB
01
E8
F4
06
F3
F4
F7
F2
DB
F3
E9
25
08
0C
F1
01
15
E5
FA
09
DF
03
11
1C
03
16
E8
25
EB
05
FC
12
1F
FD
FA
ED
F7
1F
02
05
F2
F5
0C
02
08
EA
11
0D
18
E6
FB
1B
2C
1C
FE
08
07
17
11
E3
2C
FC
DB
03
E8
02
05
F7
1B
07
22
E7
19
FA
F1
0C
09
CA
08
F1
EB
04
FB
1A
2F
07
EF
F5
F0
FB
06
FF
1B
FC
EE
19
E1
F6
17
F3
FF
EA
E3
FE
F1
FE
06
DA
F1
00
F7
04
FC
10
09
DE
04
FC
F6
0A
FA
F9
26
0B
DB
E9
EB
02
F8
FE
E9
14
FE
FD
F9
FD
E0
03
D7
08
1B
EF
00
03
0A
E8
EE
DD
17
30
EC
E4
1A
05
12
FF
F9
03
25
FD
19
FB
F6
FA
E0
27
05
01
13
F4
FC
29
EE
F7
EA
F4
E7
0A
E4
0B
F2
15
05
FC
20
14
D9
FC
D6
E4
17
20
24
13
B7
09
01
1F
F6
E8
02
1C
DA
04
30
DD
04
F5
FB
F0
0F
0E
DE
CB
F7
F9
FC
DB
D9
29
02
08
05
FC
FB
EB
12
44
CA
01
1F
19
27
01
05
EA
F9
08
0A
0E
07
E9
D6
0E
F1
0E
04
FB
1E
12
E2
03
EE
F1
F7
1B
FC
FF
F9
E2
FC
06
23
09
17
06
1D
F4
12
1F
11
F6
E2
FB
F7
05
13
FB
0A
12
FE
03
F3
05
38
24
00
DB
12
D2
14
25
A5
FD
13
F7
0D
F4
0C
FA
02
2F
25
00
EF
ED
FC
29
ED
1A
F8
F9
26
F8
E0
07
11
DE
10
FD
F4
E4
01
28
14
09
19
0D
15
F5
0C
0B
F0
0F
05
04
F7
FE
D8
FA
02
F8
F8
06
E0
D3
FD
CE
01
F0
F9
F9
12
0D
0B
0E
0A
ED
23
FB
01
FD
06
15
0C
30
37
07
02
1D
14
08
06
06
29
D5
E2
EF
F2
0D
F0
F6
04
06
D9
03
02
FA
FB
FE
F7
05
F5
12
F9
EE
02
15
F5
F3
1B
0B
04
E8
0F
F2
F7
10
FC
FF
F8
02
D7
EF
E5
EC
21
11
FA
08
1E
1D
FE
09
1E
E5
11
05
F6
26
F0
0B
FD
FE
F4
FE
10
EA
3C
01
09
03
FF
0C
20
17
04
09
E0
FD
1E
F8
24
05
DF
1B
FD
11
13
03
FA
06
FC
DB
CF
2C
ED
EF
E1
EE
21
14
F8
FE
E2
D8
05
28
FD
2D
1E
F3
0F
00
08
10
13
FD
DE
0B
1B
F4
03
E3
1C
18
23
0F
0B
F6
31
24
F8
ED
02
04
1A
22
14
02
1C
D1
E5
0A
15
EA
F7
F9
24
04
FE
1F
11
D1
0C
15
FF
F1
09
DB
0E
0F
12
EF
22
00
09
18
05
00
F2
C5
F9
15
1D
DF
19
0A
FF
E9
02
06
F9
05
2B
D1
0C
04
14
FA
F8
0B
12
24
05
FA
D5
17
03
F0
0D
27
22
00
06
F0
E1
EC
17
F9
FC
F4
06
00
04
E6
03
0B
0B
E2
19
32
FF
0E
26
0E
09
F5
DD
F7
0C
D9
F8
F3
0E
F5
00
F3
10
08
28
17
F0
00
F0
26
12
DC
DB
F6
05
2C
02
F0
3A
F6
F8
16
F3
F8
EE
FA
0C
0E
F6
F4
F6
15
1A
24
FF
D1
0E
1E
2A
2D
02
F5
06
2C
FE
FE
2B
D1
F5
F9
02
0F
E8
02
18
E8
01
FF
11
05
23
FC
DC
07
F0
08
1E
11
F6
F4
19
02
F5
FA
18
F9
0A
F3
36
F7
FF
0D
D2
16
11
F3
F5
FC
E9
E6
17
F7
F0
05
EC
ED
EB
F6
E4
EB
05
E9
08
18
05
1D
CF
0B
11
F5
E8
F8
FA
06
F4
08
1C
DE
FB
F2
03
01
11
E5
ED
F5
EA
07
12
FF
24
02
19
F6
1A
E4
04
E5
11
F7
F2
06
03
EE
EF
E6
0E
20
EE
01
1D
24
FC
23
12
03
E5
0F
E6
F5
EF
EB
F3
EA
22
09
F4
F8
D2
1E
E9
ED
19
12
E6
FE
E9
10
10
E8
CD
FB
F9
F9
07
22
13
F5
F7
25
0D
F2
F7
13
1D
FC
F7
F8
FF
2F
E6
15
0C
17
01
F8
EB
F0
FD
29
37
23
E0
15
0F
1D
EA
F6
F3
04
FD
D7
2C
10
FD
F2
08
09
2A
EF
FA
EE
07
E9
E1
EC
09
00
FD
DC
01
EE
1A
F7
08
EC
00
FA
13
FE
01
11
F1
23
0B
F6
EC
E3
FE
EB
07
0A
5C
DD
F6
FE
F2
1B
17
F2
2D
F4
1A
FC
FB
FF
13
2E
EB
E0
0B
E5
E3
F4
00
25
08
0E
0E
EA
E3
03
0A
25
FE
DD
12
03
ED
F5
DC
F6
0C
03
06
19
06
0E
30
DD
0D
F2
01
FD
25
02
2B
EF
F0
E0
EF
40
F7
FC
FB
12
25
FF
FB
0B
EC
D7
13
06
E7
DE
16
F4
E6
E3
11
03
20
1C
09
F6
23
FB
D4
17
E6
FD
0C
0A
F5
E8
16
01
11
00
12
F9
F1
EE
FA
FE
20
F7
1B
F8
EF
0D
04
EA
EF
FE
EC
04
14
11
FD
1D
12
CF
03
F5
E8
2D
20
FC
02
14
17
D9
E7
F5
0C
12
09
FF
08
E2
00
E0
1E
E7
12
11
FB
1B
0E
0B
F0
15
06
0D
0D
03
00
ED
EB
ED
1B
DE
F3
06
F6
FA
BF
EB
0E
F6
F1
F0
DE
03
06
F8
ED
2C
02
1D
0A
35
11
DC
F0
04
00
C0
DD
20
E0
27
BA
13
1D
E3
1C
EA
15
0A
0B
FE
F0
08
2B
07
08
E4
FF
D7
08
0C
EF
FB
17
0F
16
F4
D9
FC
0A
F1
10
07
FA
FB
E0
00
14
FA
08
F8
00
EB
0A
CD
FC
04
EF
1C
E7
2B
EE
E0
0B
E9
01
0F
F2
FC
06
03
FE
F9
07
04
00
14
27
EA
13
EB
30
16
26
FF
06
06
08
21
15
21
E5
D0
12
EC
0C
36
FA
C3
20
1E
F1
FB
F1
11
E3
FF
FE
17
06
FD
02
1B
1A
36
21
2F
CD
F7
2C
CF
D6
EB
ED
1B
F3
EA
1A
23
C7
EF
39
EC
15
04
0C
F6
1B
03
FE
22
11
11
1C
10
F8
24
00
FD
C6
14
06
E5
E5
09
FC
ED
0E
E9
1A
F8
07
06
F8
DF
08
F0
FA
13
E3
07
0F
17
04
04
10
F1
FD
EC
0C
03
0E
23
E7
E7
07
F6
0B
F1
F2
02
14
DB
18
02
32
09
E9
13
FE
FB
BC
00
FB
F2
FC
FD
E2
F6
12
1D
11
D9
FA
DF
FC
3C
26
F8
0F
27
EC
CE
00
ED
FF
FC
EE
F1
14
E4
CA
25
14
F6
00
E5
05
08
FA
FB
F0
EF
E7
F2
14
08
2E
FC
EF
F1
F2
0A
02
FA
13
09
FD
E9
04
29
20
E3
FC
03
E3
42
F7
07
16
FF
00
09
FE
EF
F2
0B
ED
08
0A
1F
F4
1E
21
12
1B
02
C9
05
FB
03
0F
FD
FE
01
10
00
03
E8
0A
07
12
FD
C9
EE
16
DD
D0
ED
0C
ED
EF
1B
12
00
D3
09
E8
10
08
01
1A
16
FA
0A
11
FD
E5
F6
F9
FD
2C
FF
F2
EE
00
F8
18
0A
17
00
FC
01
F2
E8
EE
EB
EF
22
F9
33
0C
E1
25
D2
00
10
2E
40
05
E0
19
33
E8
F2
0F
0A
12
F0
D5
0A
1A
22
01
17
CE
D4
FA
EB
0A
E6
0E
DB
FC
FF
F6
09
19
08
06
D5
19
F0
0C
0B
0B
F4
FF
D0
F8
FC
0F
DD
0B
DF
09
0A
F4
FA
E7
08
2E
CC
F7
F1
03
0F
DF
EA
0D
37
22
11
22
EF
09
07
15
01
16
1B
FF
F5
1A
13
19
02
01
20
05
13
FC
FC
FA
EA
0A
FD
A9
19
FE
F4
21
43
E5
06
07
0D
EA
E9
FC
01
01
E3
F7
F2
18
F7
FB
E5
41
F1
DE
23
F5
15
FC
10
FA
0D
FC
EE
12
25
EE
E4
1C
E5
FE
01
DC
F6
05
ED
DB
11
46
E9
EF
EA
0D
45
19
0D
1C
F7
CD
12
F3
1B
09
F0
F5
04
FF
09
F5
4D
DA
EC
21
F2
05
09
18
F2
FE
E6
EF
07
05
19
F1
DA
11
07
05
2A
11
D9
1A
29
EB
FA
F1
11
EB
04
E4
07
F6
25
EA
F9
30
EA
0E
12
EC
09
FE
DB
12
12
F9
18
27
1C
05
02
F8
0F
F7
06
0A
FB
F0
10
0E
31
E9
FE
F3
F9
ED
13
DF
26
FE
FE
05
F6
FF
27
0F
EE
E5
F4
0E
1E
18
39
F4
F4
1B
F8
25
F3
EC
DD
E4
DF
FA
1B
F8
FE
09
1F
C6
0F
17
F4
21
02
1B
18
D2
05
1E
C3
20
EA
21
EF
FE
FC
07
FF
17
05
EC
05
F9
07
F3
32
EF
FC
FE
0D
09
F3
F2
F3
0D
00
07
FB
ED
27
F9
06
E0
51
DB
E3
F1
00
0A
0A
04
13
DF
11
C7
C9
19
03
F5
1B
E6
F3
FD
F6
FA
F9
FF
20
04
F4
08
32
EF
23
E8
E2
29
F4
14
F9
F0
10
D5
02
F6
D9
24
31
01
1E
3F
F7
E5
1C
DB
E5
0D
22
12
F9
FF
11
E3
F8
13
14
F4
12
F2
08
0F
EF
03
13
E2
0C
EA
06
2D
F1
1A
0F
15
E8
FB
1D
07
D6
04
08
FB
04
00
FA
E9
F9
09
0A
F1
3B
F3
12
0D
E8
28
FB
E0
04
E4
0D
28
FE
F0
EF
05
FB
EB
ED
BF
DD
08
E0
09
00
D9
0C
07
ED
0F
08
FA
F8
0C
03
F3
0C
00
13
06
F6
1D
F9
31
1D
E2
DD
06
F9
EE
09
19
0D
F3
E2
FA
EA
F2
E1
E0
08
03
CB
2B
1B
F2
28
17
F2
04
21
2E
16
F2
FC
13
FE
F6
30
1B
FC
E4
1B
38
FA
10
F1
F4
FB
1B
F8
17
07
1B
F6
22
13
FC
EE
FD
FD
FD
0C
D0
E6
D0
2B
0C
ED
DA
F5
0E
F1
EB
DD
F5
09
ED
F1
06
11
03
0C
24
00
ED
1D
E7
10
0A
F8
1D
18
FD
DF
08
12
13
24
04
03
20
05
F6
15
F5
27
E3
DB
08
D8
0C
13
FB
F2
FB
FA
EA
0C
F2
1B
0E
02
EA
00
09
EE
04
EB
E0
2A
0D
F5
EC
FE
0D
F8
0E
FA
13
07
E9
2B
25
0E
ED
F0
0B
02
E4
01
20
FB
EE
E2
01
EA
2B
1F
0A
FE
09
21
27
C8
2C
16
EB
06
FA
EA
03
F1
41
0D
F4
F8
04
F4
19
09
0D
1F
3B
FE
18
02
11
00
ED
13
E4
0A
05
F4
12
D6
F0
1B
EE
23
EC
F2
21
F7
FF
1F
F4
1B
E8
E7
FA
1C
20
2B
FE
F6
F6
EB
DF
EA
00
00
DD
23
F8
F9
1B
0D
FA
06
05
F6
09
FC
E0
2C
E7
2E
FD
EB
0E
C5
CA
FF
03
09
09
ED
04
E9
09
15
EA
F3
D1
09
E0
F1
FE
E9
21
04
F1
01
06
0F
E7
F4
2B
CC
0D
1F
FF
05
21
F4
2F
08
02
F2
E6
FC
E9
EB
EC
0D
E7
F0
15
FE
1C
F5
E5
11
11
F0
FC
00
22
02
0F
F2
21
10
D7
FE
F2
20
0F
2B
EE
E8
F9
07
10
FF
EA
E0
EE
20
0D
FD
22
FC
1E
ED
C7
13
2B
09
FD
10
FC
DD
0D
FA
13
23
E4
06
DF
EA
F0
09
20
17
05
29
E7
ED
1D
DF
EE
F9
09
F1
F4
F3
E5
02
16
00
FE
12
F0
01
1A
E8
38
F2
00
D5
38
10
06
00
08
FD
15
EE
0B
0A
1E
EE
24
14
17
0C
FA
F0
0B
F3
08
F3
F4
DE
01
00
FC
00
1D
FB
FF
17
1D
D5
FC
13
0E
FC
C9
04
26
10
D8
09
1F
39
F8
D0
FC
F4
F3
0C
DC
F1
0E
DC
1E
F3
19
FB
13
03
FD
D1
F6
0B
FB
C6
E1
F5
DA
11
2A
FF
E4
ED
EF
F5
F6
3E
14
EC
15
E2
FB
20
10
E8
11
FB
09
03
EC
E7
01
0A
07
F2
12
13
FC
EE
F8
CF
EA
06
EC
F2
FE
0C
FB
F5
03
FF
EB
0E
E5
18
14
07
1E
00
06
21
E2
0B
F0
27
F8
FA
1A
33
14
E1
FB
0A
05
F3
15
08
02
03
F7
D3
04
FE
03
01
0A
2F
00
05
E3
EF
D8
FC
F5
C8
19
E2
29
F0
1E
15
FF
13
DC
E3
0B
F4
20
F8
EE
FF
2A
18
0C
00
F2
FE
F7
F4
E2
F6
14
03
0B
16
E9
0F
0E
09
15
0B
15
03
FC
07
FC
1E
10
01
FD
FF
F4
D7
29
F9
F8
ED
1B
10
2D
E7
01
FF
E3
EB
00
0A
FC
EC
1D
F9
04
DC
F0
EF
18
01
22
FF
08
F2
24
0C
05
27
ED
1D
FF
D9
17
F6
DB
ED
D0
D9
F8
0C
27
DB
09
0C
F3
11
24
E6
FD
03
FF
05
F0
0D
FE
E3
18
07
F0
04
EC
05
F7
F4
08
0F
0C
E8
F2
27
E8
03
08
27
07
FD
DD
1E
04
07
ED
D0
27
2F
17
07
1E
FD
F8
00
14
E0
DB
09
EE
D2
02
29
F0
01
E4
FD
FD
ED
FB
E6
0D
05
FC
19
0D
D3
DF
FA
EE
2B
35
11
DE
FE
FE
2B
DA
F3
FA
F3
FF
E6
F4
0F
0D
F5
D6
18
09
DE
02
0F
FF
14
11
FD
03
F0
13
13
07
01
13
E0
1A
13
00
15
FF
EC
FC
F9
E6
DE
39
11
D8
FD
EC
D0
1A
F1
D2
FA
E9
21
FB
FF
ED
23
FE
F9
11
14
FC
E0
14
21
04
DE
26
06
07
F1
02
FD
E4
FE
EE
02
D4
18
05
07
06
F8
EE
03
1B
EF
E1
16
EE
0E
F7
01
F3
E2
E8
05
0E
F2
1F
05
F0
FF
1A
F0
0C
EF
11
F1
18
06
F6
F7
0E
11
EC
21
02
23
38
F9
08
E8
FC
38
E6
0B
00
F6
E8
E7
26
06
2A
0C
EB
F3
F5
10
EC
F5
0E
15
E9
05
FB
21
F5
0A
29
F8
32
D8
EA
26
03
F4
02
15
22
05
E3
04
EF
20
E0
0F
22
33
F9
D0
11
DC
15
02
35
04
1C
FD
15
FA
F5
08
E8
0C
07
00
FF
0C
EA
E2
06
04
E7
E8
ED
F0
01
F8
F8
0E
0E
F2
07
F3
E0
14
D4
0E
FB
13
08
F4
F9
20
06
EC
1A
DB
D8
24
02
1D
00
F6
1C
E9
D0
EF
FD
11
FF
0C
39
E3
D6
05
27
04
22
FF
07
28
EB
03
16
FC
F8
1E
EA
F6
2F
FD
1F
25
1A
23
04
2E
02
E9
F7
DF
F8
03
F2
1D
FE
0D
F0
24
14
F3
0D
FE
F9
03
06
08
05
D0
F7
F8
E8
E5
E9
13
01
19
10
E5
E0
D9
F2
06
01
EA
FC
FC
06
0A
15
11
D9
07
36
DE
F2
FA
F5
13
0D
0A
04
FC
24
2B
12
EE
08
2F
0A
02
F6
12
0F
EF
28
01
21
09
FF
02
07
DE
E3
1E
FF
EF
F0
ED
15
13
00
DC
33
CB
1F
FA
13
CB
23
F2
FC
28
E9
FE
D7
1B
F3
D8
F9
0A
FC
0D
11
FC
D9
09
06
C9
10
1C
11
E3
19
F9
13
19
EF
00
09
FF
F5
21
06
F8
F1
0F
EC
F4
12
CF
20
1B
2B
F1
EA
DC
DD
02
DB
F9
07
E5
17
02
E9
0E
EE
01
EF
D6
13
29
0E
F0
1F
DF
0F
1C
12
04
E4
DB
31
00
01
18
E2
FC
FF
01
20
02
E8
0F
FB
C7
F6
FF
0A
15
14
FD
06
11
05
01
FC
EA
F8
22
26
EF
02
15
F1
09
D2
D1
E2
FB
FE
F5
0A
EF
0B
EE
FF
E6
45
FC
FE
17
EB
F3
F7
F1
F2
17
23
09
09
E1
EF
FB
D9
CB
ED
14
2A
27
D8
04
DD
BD
EE
FF
1A
E4
16
1B
15
19
14
08
EE
30
01
1E
45
11
10
FF
1A
0F
EF
0F
FC
08
02
F8
EC
06
F4
F2
03
2C
F6
21
26
0D
14
E6
1E
F6
02
EE
10
1A
1D
18
01
E9
E8
2D
E3
ED
19
01
F7
16
F5
EF
0B
FA
26
10
21
0B
0F
DA
0A
E8
EF
F2
F4
1C
F5
EA
00
FC
01
0B
F6
01
1E
F9
09
EC
1D
04
F1
D4
D5
F8
0B
13
08
00
F8
E9
0B
08
0D
F2
10
FF
03
19
F8
F7
E2
0E
F1
F9
F6
FE
E4
ED
06
08
FF
1D
15
28
0B
FC
E4
F5
EE
FD
E6
07
FE
DD
BE
CF
05
F7
17
07
F0
EA
F5
D8
06
01
15
3D
E8
08
1B
FF
E9
15
17
E9
1D
FD
16
F6
F2
1B
19
FA
0B
F2
D2
25
E3
FE
DD
F4
18
0B
00
15
12
00
EA
DF
04
E8
E4
ED
FA
2F
FB
33
16
F4
06
07
31
0C
D7
10
F3
0C
0D
04
01
E6
FD
F2
0A
10
17
1D
0E
27
FB
17
D6
EC
0E
0C
18
25
F0
05
1D
08
EB
00
08
28
0E
FC
1F
04
F8
F6
D6
0C
E3
F4
26
F4
F7
FC
20
F8
09
F1
20
1F
0C
03
DA
ED
E4
16
24
F9
24
FC
25
20
03
D5
04
07
F6
FA
0E
D8
0C
09
0E
FF
E4
D0
09
3B
FA
2F
14
FA
F0
01
FF
E9
FE
EB
F7
0E
EF
F3
E7
07
DA
E4
F6
15
FB
0C
D2
F1
20
18
EF
21
F6
F4
1D
0B
F6
14
F8
E3
E2
FF
FB
0F
FB
09
1F
1A
E6
E5
D4
ED
11
21
F6
F1
F6
F6
E7
0A
F9
07
ED
15
E1
F7
1B
17
06
D7
08
D4
FE
0F
ED
E3
34
C6
16
EF
05
32
F4
05
F1
F0
F8
03
03
CA
1F
02
1C
15
F2
0D
E5
F7
EC
10
0D
21
EF
16
06
F0
FC
EE
F8
15
F9
19
09
EE
14
02
DD
02
2B
08
EE
F9
0F
3E
EB
D2
D9
0F
F0
DF
05
E8
EB
13
04
F1
28
04
0B
12
26
B9
E8
F2
F3
03
05
FD
EE
F8
2A
1D
FC
F3
ED
09
0A
E1
FD
15
06
ED
E4
06
FA
F2
0D
E8
07
D2
21
FA
00
04
01
1C
0C
E9
E3
00
EB
E7
F3
06
EE
E4
F1
28
F6
00
F4
F4
04
FB
0E
10
07
05
2B
F6
26
F5
1B
08
02
DF
EE
EB
DB
F8
16
F8
ED
E8
CF
FF
E7
00
07
F6
CD
E6
FD
22
01
D1
F6
14
F6
F8
14
3C
E2
17
E8
E2
EE
23
EC
10
F5
10
EC
D8
E4
F8
40
F9
09
06
0E
F5
1B
33
0C
F0
E9
1D
FA
0D
FC
02
F5
EE
26
02
E9
F6
25
16
0B
0B
07
0B
FC
1B
DE
20
E2
E3
11
12
DB
E9
22
2B
FA
DE
1D
2F
EE
F8
09
35
10
04
F7
16
15
EA
12
F6
15
F2
18
00
E4
0F
1A
01
13
F2
11
07
29
33
E3
E6
F8
01
14
02
F4
F4
B4
24
CD
EB
29
FE
00
F2
DB
05
F6
0C
19
16
1C
2D
00
F6
11
01
1C
E7
09
04
1C
E9
EF
F2
E4
09
F3
2A
2A
01
F4
E0
E4
0F
12
04
30
19
0D
F8
F8
03
F7
20
DB
E1
EF
F6
14
1C
08
F7
01
09
21
09
FD
0C
FD
FC
22
17
EE
28
F3
E0
15
F6
FD
09
16
15
F2
D8
F8
FC
FD
03
F8
10
0F
DF
EC
FF
E9
EB
06
03
FA
02
12
F3
DD
ED
01
D3
03
D8
F9
0E
08
F8
1C
11
14
F7
D9
19
F7
06
FA
DD
12
EC
F1
18
01
F8
F7
15
29
D4
E5
18
FA
36
FF
18
01
11
F8
EC
01
26
09
E5
F4
12
F8
10
D6
FE
02
2E
DC
E2
0B
03
F7
2D
13
FD
15
06
E1
16
DE
09
EE
12
02
D9
0C
F4
15
E5
1F
23
C4
18
02
18
11
0F
07
03
10
EF
01
0A
03
16
10
EB
F5
E7
F6
15
FE
16
FF
4E
21
F2
2B
E1
31
09
E2
EA
E9
00
01
EA
06
0D
04
01
0E
09
F5
29
FF
15
21
24
F9
20
0F
1F
E8
14
14
FE
05
E2
17
FD
F6
24
FC
FC
F2
F9
0D
24
FC
03
17
0C
FF
13
FD
F2
05
F8
FA
FE
E4
EE
05
05
D9
0E
FC
FC
17
09
F2
27
EE
D3
0D
31
13
00
F6
FA
19
FB
F5
FA
1C
F5
1D
0E
FA
BB
08
08
E0
E8
FC
09
F0
FF
13
F5
02
21
32
18
0C
E4
F5
F7
FD
09
E6
17
22
03
FA
18
08
0B
F4
20
2E
10
04
12
0C
FB
F7
F3
E5
0F
F9
28
FB
E5
18
1C
17
07
F7
0F
08
05
BA
F1
B0
08
0E
01
EA
EC
28
04
EF
F0
C8
38
00
E1
F3
FA
06
0D
DA
F9
EF
12
FC
EF
0A
0D
ED
1C
25
10
00
0B
F9
08
E0
03
09
14
1F
0A
09
0D
09
06
09
FC
1A
1C
E0
FF
D7
DF
02
F8
10
10
F0
F0
01
07
06
F3
1A
FB
F9
10
09
01
20
09
EE
F0
0E
D9
D7
FF
FC
1A
17
F8
01
FC
0F
05
DF
09
DF
1D
0C
EC
02
22
13
05
FF
15
17
19
FA
E8
21
F0
13
15
EE
F0
26
0F
3C
FA
FF
FC
F7
FB
E2
F8
F1
1E
FF
EB
06
09
ED
EE
20
01
0E
EC
18
D3
EC
03
D4
F6
DE
F7
DF
13
04
0C
0D
10
07
15
02
08
1E
F3
12
FD
EE
07
2A
ED
18
E9
0D
ED
0A
0B
05
05
10
F1
22
EE
EF
FA
F2
ED
F4
01
EA
D0
F9
EA
04
13
FC
09
09
08
ED
0D
0E
1D
FB
D3
D6
18
15
D8
FC
23
FA
25
DA
13
07
F6
ED
EF
1B
18
FC
F3
04
07
E5
0A
E6
DA
04
15
FF
06
F5
15
F8
2B
19
F1
F6
F8
F9
09
12
F7
FE
03
EF
DF
1B
05
1F
F9
06
F9
F0
11
E0
ED
06
F9
F0
09
00
E7
D1
E2
20
11
06
F5
E5
24
D8
12
02
D9
C6
00
18
38
10
32
0B
1E
E8
1B
2F
F7
09
EB
FD
19
10
29
FA
0E
F4
16
03
00
2A
21
0E
FA
11
E1
12
01
D0
F2
F6
05
DE
0B
F9
10
F6
18
0C
19
09
FB
E8
19
0C
24
E2
E9
F7
04
04
08
EB
F9
EF
FC
15
31
FB
1B
F7
EC
00
F9
DC
DB
19
FF
EC
17
09
FF
F7
01
F0
27
FF
F5
FF
ED
0F
D7
FE
DE
E6
FB
14
04
DA
02
04
12
C7
0F
FE
FD
21
FB
0C
CD
F8
06
E3
07
1B
21
F9
E6
0A
E5
EF
06
F1
F4
18
0D
E4
14
EE
F6
F3
F3
00
F1
07
27
06
38
E0
F5
05
08
10
17
0E
DE
1C
00
E1
E9
04
01
13
F2
2F
11
04
E9
03
0B
16
18
02
FA
E9
0E
F8
02
FA
25
0E
01
0A
E7
15
DC
34
E7
FC
23
DC
03
00
F8
E3
03
F5
FA
E9
08
FB
3D
ED
0D
03
09
11
F8
2D
E3
F9
0A
0F
FF
00
DB
FD
1A
F7
13
E9
13
DA
F5
08
DF
ED
02
1D
F3
2B
13
04
00
E9
07
1D
15
29
16
0A
1B
0B
F7
05
F5
E3
18
E1
09
34
E6
ED
0B
19
08
12
E4
ED
ED
F8
13
01
C3
04
F7
1C
04
14
17
DF
E0
CD
23
F0
FB
F7
0D
05
EC
0E
CD
25
0C
FA
D3
10
21
E0
D3
F2
F9
0E
15
C7
0F
1A
01
E4
17
06
F8
1F
12
33
1B
0C
29
0C
13
14
17
F5
10
18
ED
C3
02
32
13
06
0B
CC
F4
E3
1A
13
F5
08
F0
10
FB
EB
12
E9
FC
EF
0E
C5
FF
19
F0
0B
E1
0A
E6
12
03
F7
09
FE
F8
23
09
E2
FE
F8
F1
21
01
14
12
EF
DA
E9
F7
E9
0A
08
F8
EE
FB
25
07
F8
11
D3
14
04
0D
13
EC
D7
0A
F3
DA
1F
1C
30
EB
17
C5
22
1C
08
03
0C
27
F8
1D
F2
E0
F9
09
31
0D
00
03
EB
22
F0
1C
38
16
21
FA
FB
28
EE
05
F7
FC
F2
F6
D2
D8
FF
04
F8
08
EC
FE
F2
E9
F6
F7
12
02
0D
F0
08
EA
15
10
DE
12
EA
F5
1D
E9
F0
02
1B
0A
E2
1E
15
0C
EB
E7
DA
10
E9
05
1A
ED
07
FC
E7
F9
00
08
17
17
1F
0C
FB
0B
EC
1A
E4
35
FA
F7
39
DC
EB
28
DF
0A
F7
0A
02
E9
0F
F5
08
0D
EC
E8
10
D5
20
11
2D
0D
33
C1
1A
15
0A
D1
15
F3
F9
00
1E
12
00
D8
19
16
F0
19
F0
15
09
FC
0E
2E
2D
E8
17
EA
09
D4
14
02
02
BB
28
E7
3C
FA
FB
1B
22
E2
0C
F4
04
07
28
F4
15
16
1D
F9
EA
FD
F8
FE
0A
05
0B
15
03
13
0E
12
0D
0C
E9
00
EA
02
DB
1B
18
D6
09
0C
03
11
F6
F0
DF
FF
24
01
FF
09
FA
0E
DA
F8
F3
FF
DD
F6
08
E8
1D
FD
EB
12
06
1A
07
25
F4
1D
EF
09
EA
BF
EA
F3
14
CF
0C
0F
0D
EE
1D
04
F1
FD
21
F9
12
F3
18
F7
40
FE
08
F6
0A
F8
0B
ED
1D
0D
DE
FB
24
00
FB
CE
11
07
0B
1C
04
03
F2
E9
F0
0B
F5
E9
0B
F1
0E
02
08
14
CF
10
D3
F7
03
00
24
FF
10
F1
EB
FB
09
F7
0D
E4
DD
13
E5
0A
01
FF
EF
F2
F8
FF
D7
E6
EF
08
07
3E
0A
FD
03
F3
15
F9
FF
2B
01
02
D9
F6
F0
0D
00
03
CF
01
09
E6
15
FB
01
D3
24
F2
0C
F9
03
0D
D5
26
07
27
CB
00
E6
F8
F2
1E
E9
F8
E4
14
ED
04
14
EB
FB
F2
F1
E2
E3
FF
11
3B
F9
EF
FC
D1
F9
EB
F3
03
FF
F2
ED
F3
FE
FF
E4
19
E7
F6
EB
FF
FB
DC
FF
12
16
E5
07
20
0B
08
F9
E8
24
D1
0B
EC
00
1A
40
FB
1B
03
2F
0A
17
00
F3
FE
0A
10
21
F3
19
16
F7
23
29
FE
20
29
FD
07
F3
EC
08
F8
E8
DE
EC
F3
DC
DE
01
F0
F6
F3
FC
DE
16
08
F6
17
05
17
20
03
F1
D6
0F
00
EF
1E
E9
F9
F7
1A
EC
D2
F1
05
17
03
F4
1A
25
1C
FE
E4
2C
F9
F2
CD
DE
18
CD
EA
05
1E
E1
0A
13
FD
05
08
30
FA
09
0A
EB
01
FA
E9
FE
FB
DE
DC
1A
E5
0E
31
DC
01
02
F9
D9
FB
0E
36
F3
0A
25
22
21
07
02
05
2B
E9
D2
E3
20
18
EC
15
FB
13
02
FE
FA
1C
10
1D
E8
1B
FE
F0
1B
F8
0C
0A
04
F4
F8
F4
01
11
E6
FE
F6
FF
CD
D3
C7
0D
0A
10
FD
14
0F
15
08
DC
DD
EE
E2
E6
F8
EC
FF
E2
1E
01
F7
ED
17
0B
F8
F1
F8
10
0F
11
D0
0A
E5
DA
1E
F2
FA
C4
1F
1D
21
F1
EF
0B
01
2A
27
08
FD
E7
12
E3
16
0C
0B
E0
09
F8
FB
02
FE
23
F3
F7
F9
FD
E7
09
05
06
F0
F8
17
F7
12
F5
0E
0F
DE
ED
F1
09
0F
EB
FD
E7
F0
07
F1
04
0F
16
00
02
0A
E6
EB
D7
20
07
FF
FD
37
18
09
E5
07
F4
12
14
FA
04
E8
16
08
04
00
02
E9
F2
D9
FF
1D
2B
2D
F1
FB
25
EF
F7
DE
0D
F8
05
04
21
E9
F5
04
07
10
EB
21
11
0D
02
EB
F2
1C
19
ED
F5
16
02
14
0C
F7
1C
27
D9
1A
E8
FF
FA
F6
E0
E2
F5
FE
F1
FB
10
0F
1B
F0
21
04
FC
10
0D
29
0A
0D
07
1C
04
1E
0A
03
FA
0D
03
07
F0
F1
E1
FB
DC
F3
02
F6
F7
0C
00
25
03
EF
FE
DD
27
07
D3
11
0D
F0
24
31
11
08
05
27
22
EE
F2
E6
04
0D
14
2D
14
0F
35
F0
2D
FF
D3
F2
16
E3
FB
F3
14
FD
EF
ED
16
23
06
37
D8
1D
0A
EF
04
EE
11
11
11
F7
15
1F
EA
1F
DA
E6
D5
F2
30
33
27
F9
F4
E0
F7
E0
19
09
DB
CA
E3
F6
F4
D7
F1
F4
05
0E
13
06
F2
D5
18
06
01
0E
12
04
FA
05
EC
FF
02
1B
0F
18
07
F7
F0
CF
FB
FC
11
1C
15
FB
0A
05
D0
0E
2B
F6
1E
E0
17
11
E1
F3
F7
E8
D6
19
F9
25
13
FD
0B
FF
FD
03
0A
FA
D0
39
0B
EE
15
F7
FE
FE
E8
26
1E
10
16
F4
F6
EA
FF
05
22
0A
05
1A
21
F4
20
0A
31
F4
DF
DF
04
0C
00
F4
E6
0C
D7
E0
0A
17
0D
F2
3C
0F
08
EA
05
E2
1C
09
08
CF
01
F7
08
FE
DC
0C
1E
D9
FF
DA
FC
0E
F4
19
D0
13
F8
EF
01
E8
E8
FB
D3
11
FB
F6
10
03
25
06
E0
F1
00
34
F4
09
F0
F6
F2
DE
E6
12
01
06
E5
05
0A
03
FF
20
D7
2C
FC
FD
0A
03
36
F6
F2
0B
05
15
13
13
0B
0C
CE
D3
45
0E
21
0F
04
F3
12
0A
0F
EC
F7
F1
FA
00
DE
E7
10
15
FD
1F
10
0B
FF
09
00
23
19
EE
E5
F6
04
FD
E6
24
44
13
0D
17
14
EC
D5
E8
DF
DD
F0
08
02
F6
08
F1
26
3A
EC
1B
F2
E4
0B
04
CC
FF
EE
16
09
17
18
25
34
FA
DF
E2
E7
F8
E8
35
FB
07
F2
E4
01
FE
F4
F1
FD
07
ED
00
E5
0E
D6
E6
0E
02
00
F2
ED
F0
12
E6
FA
01
DC
F2
02
EF
FE
02
24
12
E9
1D
FB
F8
D9
F6
E6
FC
EF
18
02
FC
1B
EC
30
F6
10
00
E3
17
08
E2
EB
1F
1F
D0
F1
03
F8
09
E0
0B
00
F2
02
FE
0E
3F
06
E6
F4
0E
F4
FC
EF
09
14
10
E5
14
F5
F9
1B
F7
EE
E9
16
03
F7
E3
0D
FA
E7
2A
FB
1A
DC
F3
FE
FC
04
1A
03
EE
D2
22
EF
D1
F3
EB
F1
DD
19
09
E7
F2
09
08
F0
E0
D5
3F
11
02
08
0C
40
05
FF
1C
15
08
1A
C7
00
13
15
F7
F9
F7
02
08
EE
08
F1
16
E6
14
F0
D3
03
EF
F5
F0
03
F6
15
CE
DD
E0
EA
2D
EF
20
F8
F8
FA
0F
F8
E6
F9
F7
EB
02
0A
F6
09
F9
B6
1A
01
0F
12
E5
0F
ED
F5
01
06
E7
D4
11
0C
01
12
EE
FE
2D
21
08
00
11
F5
F4
2A
DC
EF
0F
FF
1C
10
F4
FD
33
14
FE
23
F7
EC
FE
E2
E2
E2
F9
15
05
14
F4
EB
E3
05
F5
2E
17
17
0B
04
15
1E
E5
FD
F4
2D
1B
02
F1
04
D1
0D
07
25
0B
E2
00
0D
D9
19
0D
F7
1D
12
D3
01
17
0F
0B
D3
F9
F1
EC
0C
11
1F
F5
D1
F9
D8
29
F4
0E
DD
05
06
0A
03
26
EC
E5
EA
FD
F3
E2
F7
F0
23
ED
24
09
05
15
0A
DF
F4
F3
1A
06
09
20
00
11
E8
16
F9
02
E2
EB
1A
F5
14
DE
2E
E4
09
F3
DF
27
E3
E3
F7
19
0B
F4
1C
E6
0E
02
06
FC
FD
FA
0B
12
1E
13
EC
E3
DC
DC
EE
06
EB
05
FC
09
EB
19
0F
FB
FE
EC
F0
F6
29
0F
00
02
32
EF
0F
10
E7
EB
01
07
EC
00
0D
DE
11
08
08
E3
F1
11
FB
0B
02
1B
F5
0F
F2
DF
EF
15
F3
04
DE
F5
FE
F7
03
F4
04
02
B3
E2
F9
20
EE
F1
19
D0
EB
E6
08
06
03
28
FB
F3
33
07
19
F4
12
06
01
1A
04
06
18
D9
E8
EA
E5
46
10
10
F5
F1
24
04
E5
F8
E6
E5
16
EC
F1
F9
EC
F2
07
E2
D7
E7
DE
D0
EA
07
28
E5
EE
0E
24
05
EB
26
1C
DA
F2
E8
17
F5
2A
F5
23
EF
F5
06
F4
23
F5
0F
F2
FE
FB
02
DD
0F
00
01
12
21
07
F9
11
E5
2C
E2
2D
0A
EE
0C
E4
E9
03
FA
F4
FD
45
09
F9
E2
E9
FB
E3
FF
17
F3
14
F2
0F
F7
D4
D5
FD
14
EC
F1
02
29
FA
FA
F2
1A
FB
1D
FF
F0
CE
16
F2
13
0C
0E
F5
11
D1
F8
FC
F8
E9
FA
D5
FF
EB
1F
02
08
03
07
0E
E7
18
F6
13
F2
1B
09
FB
07
0E
17
18
0B
FB
DD
03
17
08
CD
F7
0A
FF
14
1B
0D
F4
0E
0D
1C
E7
22
F5
F7
2F
F0
E4
13
F9
F9
D6
1E
14
F3
E3
16
14
F1
09
DC
EF
12
0E
E1
15
F3
F5
4A
F7
E7
FD
ED
17
FD
FA
F5
11
14
E7
E2
C8
F7
FB
18
EE
F2
02
D3
FC
E6
3A
13
06
04
17
16
08
03
F8
19
DE
EE
CD
EC
FD
29
E3
EE
03
C6
15
0E
F7
31
16
F9
0F
EB
F9
23
F4
F9
18
F2
2B
F6
18
1F
08
F3
04
09
2C
FA
F2
F9
12
0C
F3
06
DD
03
0A
0C
CC
0B
0A
F8
18
EC
00
22
16
05
F9
05
30
01
09
F2
F2
07
19
F4
EB
D2
E7
16
2D
FA
F9
F1
E2
08
05
F8
04
F9
E4
C4
CE
01
F6
C5
05
17
00
D3
21
1A
0B
09
E6
DF
EF
12
11
EB
2B
E5
F4
11
EA
C9
F2
F4
0B
DB
FA
EC
1C
ED
09
23
E2
FE
D8
1B
F0
04
05
FB
F6
FC
03
17
00
00
15
00
FE
EF
E1
EA
03
00
04
0A
E8
09
E6
00
E7
EC
E6
12
00
08
20
01
06
F2
0B
F4
FE
14
DA
06
EF
0E
F4
E6
EF
1F
FD
D7
12
06
F6
F4
E6
34
1B
21
00
E2
08
21
1A
F3
FB
0F
FB
2E
F9
01
B1
1C
04
3F
15
10
F0
F2
F0
07
F7
ED
0A
0D
09
0A
09
03
FB
04
E5
F4
F2
FD
1B
E0
F3
02
F2
20
F1
DF
F4
FA
0E
DE
E9
0A
E9
01
06
1A
F1
0C
DA
FF
EF
DD
F5
FD
EE
FA
39
0F
D4
EB
F0
06
1E
0C
F9
EA
07
2B
1C
0F
FB
EC
10
24
F9
C1
23
E0
E9
06
E7
14
08
18
DC
13
F6
EF
CE
04
07
1B
F4
15
1C
E1
E5
0A
D6
1B
25
F6
14
F2
F5
FD
0B
08
25
E4
11
0A
00
FD
1E
10
F6
03
21
37
05
0D
12
F6
FF
E8
EF
F7
EF
EB
1B
D7
10
17
FE
FF
19
F4
DB
14
FB
F2
09
00
F3
E2
F4
F8
15
0A
09
FC
0A
0A
E9
14
E9
E1
03
16
21
15
F9
E9
09
F8
0F
12
11
0D
0F
F7
FE
28
FB
06
08
06
15
DC
10
DC
F9
15
F6
1E
F0
01
DB
03
02
EF
FD
EE
1A
E5
0D
10
00
DE
F4
15
F7
E3
DD
F8
FB
04
1F
CC
07
E9
F4
17
F9
10
23
30
EA
FE
08
43
0D
E9
E2
EE
16
CC
20
EA
39
0F
17
11
E6
F3
0E
F2
1B
FF
06
EB
05
05
00
F1
FA
F3
06
EB
04
E6
23
18
E6
F1
E6
B5
1E
F8
0B
0E
1F
14
BF
34
D2
14
ED
FF
09
DA
EE
FD
06
03
FD
F3
09
E5
15
FF
09
14
DE
FA
E7
E8
00
F2
FA
08
E2
18
F7
0C
ED
02
2B
F4
FE
FA
E7
FE
F7
1D
14
DC
F8
0B
0E
22
0B
20
08
0F
F3
FE
FB
0F
0A
F9
04
BB
E2
EE
16
EB
1B
FA
06
03
DB
07
04
F1
1D
F3
CD
12
EB
F3
01
15
07
F4
DE
E0
18
0E
00
E8
F1
11
F8
DD
01
11
43
0A
0A
F1
14
1B
F6
FB
FC
FA
EB
D7
FD
0B
F7
E9
14
F4
FF
F9
01
24
F6
28
0A
1A
C9
12
00
1A
E5
F1
12
09
05
15
19
1A
0B
E7
13
FA
01
0F
18
08
28
12
E0
F7
04
08
C8
07
FA
1C
04
14
FA
EC
E6
03
02
FA
06
F1
00
F6
1B
24
0C
CB
12
2B
0C
22
07
30
EC
F5
1B
F7
D6
13
13
22
FF
F4
13
17
07
0F
F5
E4
0F
10
10
18
FA
F1
F9
01
05
F5
27
4C
FC
F4
0E
FC
F2
25
EE
EF
FB
ED
07
D7
25
24
15
E7
0F
EE
00
EA
EB
11
D9
FC
09
FF
F9
25
1B
EA
03
F9
21
F5
FD
FA
07
DF
17
28
EC
E5
00
0C
E1
01
FA
10
E4
04
06
FC
01
EB
28
FF
D6
08
FE
FB
07
03
DB
FC
07
32
13
FB
F4
11
F0
02
DB
EC
18
F9
FA
1D
FF
F0
03
0F
21
F6
E3
07
0B
C9
F5
13
E5
D8
0A
0B
21
02
0D
F2
33
13
22
E7
05
EF
07
07
EF
FF
13
F9
10
15
FB
E9
03
FE
06
BD
F7
FA
13
DF
F1
15
09
F0
24
E0
F9
E3
07
14
11
EB
EF
33
D5
1B
F7
FF
03
F4
D7
09
18
EC
FC
0F
EF
0B
0F
E7
3A
09
0E
1B
EC
F8
FC
38
07
F9
D8
DF
FD
03
DA
02
10
E7
15
16
DD
10
01
23
09
10
22
19
32
E2
09
08
05
F6
06
FF
1A
EA
0D
FF
CE
DF
06
27
0B
F0
07
1E
03
11
F4
22
EC
07
FA
0D
17
04
E0
09
13
F6
14
F1
15
03
11
12
FA
E6
14
07
06
E9
F3
0B
22
11
EC
D6
E2
03
0C
F9
02
01
FE
DB
E6
08
EA
D9
0F
22
20
FF
E5
07
16
09
F7
FD
FA
0B
27
1A
2D
13
16
F4
EC
F7
00
E8
F0
0B
F3
03
05
DE
E0
07
1F
FD
11
08
F9
2A
EC
E8
F7
FC
DB
DF
0B
FC
13
EF
F8
05
1A
E8
F4
1D
EF
E5
FF
FC
FA
FE
E6
20
FE
EB
EF
12
EA
0E
E9
14
12
F9
20
02
F8
FA
08
EB
F9
E5
ED
2B
F9
0E
0B
07
03
F7
FB
16
E2
DA
36
F0
16
ED
FC
E9
D9
09
0F
DA
15
22
F3
11
F9
03
18
00
17
FC
07
F8
08
F1
02
F2
FD
1E
06
F7
10
02
15
1B
F2
ED
19
FB
EF
F2
0D
E0
FB
08
FD
BE
16
F6
28
08
0C
DF
10
D6
F5
21
0D
10
0E
09
2B
14
4D
09
F6
E0
2B
EB
F2
EB
09
20
0D
DA
E2
15
D0
05
11
F5
2B
EB
E5
F8
09
F1
18
FF
F4
DB
FE
DA
03
F6
03
08
FF
EB
2A
13
F2
FF
ED
DA
F8
E1
FC
0C
09
E8
3B
F3
10
10
18
F5
F7
20
F4
17
F8
1F
14
1D
FE
03
E8
E8
F8
D6
F8
FA
23
F4
08
EE
16
F1
D6
EE
04
EE
F3
F1
15
CE
E8
FD
16
F7
24
17
08
20
DD
F9
E3
24
02
CF
E1
33
D4
E4
FE
29
18
0A
F0
F0
FE
FD
DF
08
1A
F6
FF
FE
19
1D
0A
FF
05
E8
CE
FF
FD
1D
FB
10
F5
FF
13
F9
EC
02
17
14
30
F7
1E
E0
FA
E3
FA
2E
F2
07
05
1F
02
DD
0C
00
E5
E3
07
EC
F6
08
CC
FC
E9
ED
13
0B
EE
31
05
F4
D4
0B
28
2E
D4
D9
06
04
09
2B
FF
FB
01
F1
05
16
21
04
04
16
FB
F9
08
27
13
54
DE
16
E8
DD
1A
E6
E8
0F
07
D5
D3
07
11
EA
FB
FB
FB
DF
F7
1B
28
2F
F1
FB
FF
14
FD
F4
20
0F
E5
E3
1F
06
F9
FE
FE
FD
F2
EC
10
0F
D3
13
25
F4
01
02
E1
ED
E0
0A
EF
09
0D
19
07
1A
ED
04
07
1C
EF
0A
E2
F6
07
07
F3
CB
14
E2
F5
25
DE
ED
D5
19
F8
EE
08
00
09
22
10
F1
F5
EE
F7
F7
2B
F9
05
F3
02
15
E4
21
F3
E9
F4
35
E8
D1
F1
17
FC
FB
13
00
1B
03
F4
F2
FA
EA
04
E8
02
EE
1E
DA
18
FD
03
E5
40
0D
0E
F8
0A
EF
FE
0F
F4
D7
05
E9
D5
06
F5
F8
13
F4
06
28
F9
0B
F1
FF
F1
D4
CF
F6
E3
0F
F7
13
FC
0B
21
0D
00
EA
FD
0C
EE
21
F1
EB
06
F7
10
1A
0C
08
FB
08
E6
0B
C2
28
E0
FC
FF
04
FE
0A
1B
FE
14
EC
EB
04
F7
16
F9
F5
E4
E1
D6
1B
BF
E4
EB
08
1E
07
E8
1D
17
D1
0F
0A
FD
FA
E5
07
23
F8
EE
12
E9
15
E2
00
03
14
F6
EC
F1
F6
ED
12
F6
0C
1E
FA
27
F3
01
FB
DC
0A
06
16
FC
F7
1F
F7
17
19
DF
15
13
03
15
FD
09
FD
0B
EF
BE
2F
04
F1
1C
DD
1B
08
F0
ED
FC
16
F7
0E
ED
F7
10
EE
CC
2B
26
2D
0E
12
BC
03
F7
07
00
C0
E7
01
F4
C6
FE
EA
F6
06
ED
29
EA
FB
F5
0A
0D
FB
14
03
D3
F1
E0
0B
0B
12
FD
D2
15
F3
04
09
10
09
D0
0B
0F
FD
04
02
DE
1F
DD
1E
25
03
2A
21
FB
34
DA
EA
09
08
EC
E7
0E
0A
12
E7
EE
18
F5
F8
E9
1D
D6
F1
E0
24
33
1D
ED
06
05
05
0D
18
09
21
2E
13
17
E7
09
14
04
1F
18
E3
EB
10
14
0F
F6
0B
F3
FF
13
D7
E2
EC
2C
F4
12
0F
FE
F4
EF
F5
0D
F8
02
E2
12
C7
F2
FB
FF
E2
F6
06
03
F8
D7
0E
0A
1E
1F
F6
D5
E5
0B
1D
08
17
1B
02
FE
29
FD
1E
D8
E8
04
F0
F0
15
37
EF
FC
29
FC
0A
0D
F2
06
29
0B
F5
01
EB
CD
0A
F0
0D
2F
01
FB
09
FA
13
F5
F6
EB
FE
14
ED
03
DC
EB
FE
FA
23
FB
FB
FF
0E
03
FE
EE
1D
23
E6
FD
22
F9
F7
14
12
F7
EE
E8
04
03
EB
FF
EC
14
E7
0F
01
F5
27
24
FB
13
3D
B9
FB
05
0B
E2
27
EE
FD
12
0E
19
09
E5
D7
FD
23
E6
11
F6
E5
F6
ED
20
00
DF
EF
09
16
11
F0
FC
15
01
F5
F5
DF
FE
E6
1B
06
1F
FE
BF
2F
EC
FD
0B
EA
04
03
E7
0A
D1
07
04
0A
02
F9
FD
F2
11
ED
FE
F8
0F
1C
F8
FE
FC
F3
09
06
F2
F0
17
FB
F6
09
14
14
EB
DC
FF
08
E1
DF
DF
F4
F7
EC
21
EF
EE
F3
15
07
17
FF
11
19
0F
EE
06
0E
10
DD
EF
2C
0B
FA
29
2A
F8
0D
1A
EA
FF
06
EE
DC
CC
1B
F3
07
08
01
C9
01
F5
E8
EF
0C
0F
DD
F9
DF
EC
D2
F0
0E
FB
FC
2A
F7
20
F7
FD
0D
0D
F9
15
07
17
21
04
F2
03
F3
E1
FC
E6
FD
E8
E9
D7
F8
13
EC
16
0A
06
02
08
E8
30
F6
F4
36
E7
04
F6
F4
18
F5
E0
EB
D8
E8
0B
1B
14
09
00
EF
EB
FF
31
0E
D1
10
02
10
F0
17
FF
1F
1A
26
FB
EA
09
11
F3
17
2D
03
1B
D2
F6
23
E9
40
14
E3
EB
ED
1F
FB
02
1A
F6
D8
FF
19
03
ED
FC
34
0F
17
F0
F1
FD
DC
1D
03
E5
2F
FA
F7
E9
F0
E4
FC
17
0A
13
E9
F8
04
FF
E1
F1
EE
E8
02
F6
32
28
F6
24
EF
FC
F6
0F
FD
F2
CD
03
33
E1
14
F9
02
FB
FE
29
31
06
20
05
F6
F5
16
17
16
0F
E2
DB
01
FF
1A
F7
14
0C
19
F8
34
21
1A
0F
14
04
17
04
FB
2A
ED
DD
F9
12
EE
2D
E2
F0
F2
00
E7
FD
03
FA
01
1E
FB
FE
DC
FA
EB
0A
EE
04
07
10
18
EF
FA
08
1F
E0
06
05
39
F6
FD
EA
F7
FD
E5
F5
09
0D
FC
F9
23
F2
FA
1C
FB
F5
0E
11
EA
FE
FC
F0
E8
F4
08
31
F0
1D
00
27
00
17
F2
EB
DE
F3
EE
18
02
E6
EA
11
0C
E9
F1
24
0B
1B
DD
13
08
FB
DC
14
01
F9
1F
EE
DA
04
EA
02
F3
FD
FF
1D
06
E9
FF
09
FE
E3
1A
2C
09
1E
EB
1B
F4
0B
E5
20
F6
00
FD
14
00
23
1D
F8
10
FB
FE
07
00
0D
27
F5
15
E0
D9
00
F7
0A
EA
06
16
FE
28
0D
E2
1E
1F
18
10
FE
38
0E
04
FE
E2
E7
D5
03
FE
33
DA
F4
F1
15
10
02
F7
F7
EF
E2
17
E7
F5
25
DE
FC
1C
EE
F7
F7
FA
01
04
13
F3
09
24
10
0D
DB
FC
FB
18
04
DF
ED
FB
01
D1
03
30
08
E8
13
0F
1C
03
F8
F9
0C
F0
06
FC
06
11
EA
FD
0B
E9
00
01
0C
29
F9
D7
EF
22
DB
D0
EA
14
0D
18
09
0E
0B
13
EE
05
FF
05
07
F7
02
14
FE
F9
E8
12
25
03
FB
21
0C
0B
DE
F8
42
D9
05
F0
0A
18
0E
F5
17
FF
ED
00
15
08
CA
19
23
EC
33
FB
1C
FE
04
0A
05
22
EA
CD
12
DF
0F
F7
05
02
15
25
F7
FC
04
E2
0E
EE
D4
0B
CE
19
12
E3
0E
0D
FD
F8
15
F4
05
31
00
E4
25
1E
CF
12
E7
F0
FD
EA
06
2E
F0
F8
04
04
24
EF
0C
EC
11
0E
17
EC
04
E9
10
FE
FE
13
D6
15
06
19
0A
0D
19
11
FA
E8
28
01
F2
F9
E9
F0
0B
18
21
E5
F3
0E
F7
FC
E7
CE
FC
E8
FD
0A
FE
E1
F0
01
FF
FC
E6
02
D1
F4
FF
FC
0C
E5
ED
05
22
2C
20
0D
0B
03
00
F7
20
E9
DB
F7
DD
33
EE
0F
ED
1B
0C
1F
DD
06
12
0B
10
E9
10
00
04
06
F3
26
0B
F5
12
02
0C
DF
E4
F6
09
11
E3
2E
E8
E7
F4
F1
E5
09
1F
07
E6
06
14
08
04
0F
F8
F8
E7
19
1C
FD
07
F6
FB
02
01
01
02
FF
04
F5
1A
28
FA
E3
D1
33
EE
FD
F2
F3
EB
DF
1E
0B
15
08
DF
D5
11
EE
FF
F8
0D
FC
0C
FC
30
FC
17
04
FC
E9
ED
FE
15
F7
0B
FC
0B
FF
1F
04
1A
ED
13
F6
FB
03
21
D0
F5
4C
F9
DB
12
19
05
FC
FD
E9
FB
F7
0B
28
33
E8
23
0E
35
18
0F
D1
0C
D0
08
1E
EB
19
E8
FD
E6
FD
EE
0E
EE
0D
13
11
14
23
F9
16
0A
F5
FD
D8
08
02
2A
F9
18
D9
FF
20
F4
F8
17
DB
01
01
FC
FD
22
0E
29
2F
24
D6
F1
FB
15
E9
F4
35
04
F8
1C
F6
FC
F8
18
EA
EF
CB
F1
07
04
F2
E4
F3
00
2E
1A
D9
02
0C
0A
FF
E0
1E
E9
FF
FB
03
F0
1F
E5
FB
D7
14
15
F1
0D
FC
04
FD
09
FE
01
F2
05
18
E5
0C
03
03
17
E5
EF
14
F3
FB
10
EE
D4
D1
06
27
02
00
11
EC
00
13
E5
1A
12
12
BE
F9
0A
0E
04
EF
1E
ED
F3
2E
F9
01
F0
1F
18
0B
09
03
EF
0B
F4
FE
FD
F6
FB
15
05
11
0A
1F
1D
19
F7
E9
E0
E1
F7
07
28
F3
25
DA
03
07
09
0D
FC
06
E8
F0
F9
F9
EB
15
11
E3
07
FA
E9
09
EE
BD
FD
FE
16
12
E6
D7
EB
EF
00
EB
03
1B
1A
E8
15
16
F9
E2
FE
1B
05
D7
2F
EA
2A
D6
F1
1E
1E
11
0C
D6
0C
07
0A
28
F2
ED
06
07
EC
F4
F5
19
F7
0D
EF
F4
F6
F4
1B
13
EA
F6
2C
0F
F8
01
03
1C
20
F4
EB
08
14
D8
0B
F8
20
19
0F
F8
08
EC
0A
EE
F8
FC
0C
17
F6
2B
F1
15
FD
06
EF
0D
11
35
1B
0B
1B
17
F7
F1
05
11
02
13
FB
E9
EC
00
E5
E9
F8
E3
F5
F2
0D
FE
D9
F2
32
0B
22
D0
DA
E2
12
F5
0B
13
FC
05
12
EF
02
E3
1B
01
F9
F2
ED
2A
EB
09
F2
E6
E6
E5
EC
0B
03
21
F4
EB
04
F8
0E
FF
05
FA
04
13
F9
31
EC
EE
0B
CE
F4
EF
15
01
09
25
14
12
C2
05
FE
09
13
18
01
FF
2E
E7
00
16
16
20
26
F6
07
03
F6
F0
EC
23
05
FF
F7
16
D7
14
19
E4
01
02
0A
0C
F3
16
08
FF
18
FE
09
0F
1F
00
EF
13
F8
32
2D
2E
FB
CA
FF
25
D6
FA
F5
12
E3
0F
F5
F9
0F
28
E7
FF
FA
03
16
22
16
18
15
F7
07
F1
0E
0E
01
12
E1
14
CB
09
D0
14
38
13
09
FB
04
FB
EA
F9
F8
02
FF
01
FD
27
E6
2A
0D
0F
F4
FE
0D
00
0A
08
F5
05
0C
35
FA
0C
20
04
0B
0A
00
FE
EF
DD
E1
E1
CE
F5
FE
EE
EC
10
0D
16
2B
03
02
14
F1
F0
01
12
00
F0
F3
26
22
F4
F0
02
F2
E0
39
0F
29
12
0C
0A
F5
F1
E6
10
D0
D4
01
F3
F4
F8
F9
15
C9
F5
19
E9
1F
0D
06
FD
F1
F2
FE
27
F5
F7
04
04
02
16
F8
0F
15
14
FC
FE
04
07
09
DE
E4
1F
17
0B
19
D8
17
EA
04
07
29
04
17
19
FA
20
2E
FF
F9
ED
0D
F4
E2
21
19
F6
EA
DA
00
FB
F0
14
F9
0E
F2
E1
13
26
28
EC
0C
27
FA
F9
02
E5
FE
27
E9
FC
0E
E0
2F
09
EE
FC
EF
CD
15
F7
38
FA
F8
38
F4
F0
F9
FC
11
ED
08
F0
04
E0
0B
18
F8
1B
F9
06
DF
03
EA
D5
D8
03
EE
DC
EE
FA
F2
06
DE
18
03
FC
18
1B
C8
1E
08
15
DF
F9
EA
07
E9
F0
E9
1C
E9
27
1A
E4
FF
00
F2
FF
D0
DD
13
07
FD
F9
20
F4
3C
07
01
F0
E3
0D
F9
12
04
0C
13
10
CF
11
02
E8
FB
0D
19
D0
FB
09
D4
1E
F4
0B
29
F1
EC
E9
0F
0A
E3
F1
0E
1B
1A
F3
10
F7
E8
25
E3
0B
ED
FC
09
0C
F9
34
E0
01
FB
05
17
F2
0A
FC
0B
EE
12
F8
36
0F
F5
F9
0E
FD
DF
03
F1
11
E4
FD
10
0F
01
01
DE
0A
06
07
F4
11
FA
EC
14
25
0C
08
04
2C
E8
F6
EC
F2
C2
F3
FA
E3
03
D6
F9
16
0F
02
01
FB
11
F3
06
00
33
05
D3
E8
EE
08
ED
D0
0B
02
15
11
F9
06
0A
CC
D6
F0
29
33
0C
EF
1A
CC
F9
D0
F6
18
EE
EF
E6
F0
05
FB
F0
F0
07
F7
F3
E0
18
01
0C
12
F5
0F
0A
01
E8
F1
F2
F3
14
0A
15
E0
0C
10
11
FB
F8
12
27
02
E1
11
02
EF
FC
0E
F8
F3
DE
F9
02
0D
34
F8
0D
0F
E0
EF
E6
3A
F6
05
F9
F3
2F
F6
F2
F7
20
0C
24
31
F4
DE
06
F3
F9
11
F3
30
F2
EF
FE
F7
03
13
06
FD
FB
CA
FF
EE
0E
18
05
F1
05
ED
01
FC
DF
C0
D9
1D
FD
24
E5
14
DD
E9
FB
FB
DE
0C
21
DA
EF
33
46
28
F8
FE
E2
1E
08
2B
14
22
4A
FC
1E
F5
F5
2E
00
F3
F7
F7
05
F5
16
0B
24
10
FB
F5
19
ED
EA
F4
EB
FF
F4
ED
0C
10
FE
0F
EF
14
EC
07
FD
02
E4
E6
04
12
3C
F7
F3
FE
F4
22
E9
36
F8
ED
FA
E5
11
26
1F
F1
0F
DF
0C
EA
D4
0B
15
01
F1
E1
08
1D
F5
E7
04
E8
FC
01
F9
F6
08
F2
FA
F7
F2
0E
00
29
11
F3
1A
FE
C8
FF
1B
FF
1F
05
EA
D1
CA
EE
08
46
0D
EF
E4
01
F1
EB
10
2E
1F
F5
F4
1E
0A
09
FE
F1
14
02
FC
FF
DC
E3
FA
E0
D8
02
1E
E3
F6
1A
F9
D5
F6
08
23
18
FB
F7
01
28
07
E2
F9
E5
28
0F
09
0A
F7
13
0C
F9
1C
00
FB
15
F6
F9
F5
09
EE
F4
0A
F4
0B
03
18
04
15
05
00
EB
0E
FD
E0
29
F9
0E
04
08
10
FD
ED
0D
EE
16
EF
0C
13
37
04
ED
DC
10
CC
E7
05
FA
E4
0D
FD
29
00
02
15
31
FC
E2
E7
18
F7
21
F3
EF
18
0B
05
27
11
FF
07
F5
07
03
01
EF
F1
0A
E9
EE
EE
03
E7
02
0F
10
F6
FE
F8
00
12
17
FC
09
D2
00
FB
E5
F0
F6
0C
F3
00
1B
10
E7
F6
15
20
E5
1E
E0
08
EE
F2
F0
EA
09
0D
FF
EF
E6
F9
12
04
F9
02
FF
05
0A
FF
06
16
F7
F4
1E
09
08
F1
EF
0B
02
ED
18
CF
FA
E1
0F
06
09
F8
0C
14
DB
F4
E5
F4
F7
F4
1D
14
09
1D
1D
10
DF
04
02
0B
0B
F5
00
10
F0
F1
FA
FE
ED
E5
F4
0F
13
DF
12
1D
E3
DE
00
14
F4
22
F4
1C
F6
1D
1A
F5
E1
E5
F8
F0
0A
11
19
EE
0E
FF
F7
07
FB
E4
E1
FE
FF
12
FF
E2
EF
FA
FC
D9
FB
04
F9
F8
EB
0D
C3
0A
06
38
0A
F5
0A
17
0E
03
16
C5
E8
F4
F6
D8
F0
13
06
23
F7
04
F3
14
F6
F9
23
F0
FF
1C
06
FD
F5
05
E1
01
0C
04
D3
CE
C9
FF
DD
05
F8
FF
0B
EF
17
1B
10
C9
0D
0A
05
1C
F2
F3
20
11
00
F0
1E
14
DC
FD
2A
0F
1B
08
D8
F4
F7
17
2D
CE
11
E8
D2
F8
03
2D
DC
12
28
F3
04
05
09
0D
0F
12
18
F7
F9
F4
10
FB
FE
1C
FA
F7
0D
F8
D3
F0
09
05
F3
E7
13
11
EB
10
07
E9
E3
E6
F9
E1
E9
F0
FF
F8
00
FF
16
F1
E4
E4
18
24
EB
EF
C4
01
E0
F9
E9
38
0B
EC
F3
11
EF
FB
24
F7
0A
FF
38
08
02
07
1A
1C
02
F5
05
1A
17
E9
09
DF
F8
F0
EF
F2
DA
E2
D9
0E
06
2B
C5
1B
FD
C2
FE
E7
06
05
2D
FB
E4
F8
DF
1A
06
12
11
19
0C
E9
11
0E
EB
0D
E2
0B
DF
E8
EF
EE
10
EA
06
09
EA
FC
EF
0C
F8
FC
06
EF
01
02
1C
05
D2
27
EC
09
F4
BF
FC
EA
EB
EC
10
00
FC
0C
F5
24
EC
07
EE
3B
F5
0C
FD
13
F9
F2
06
FE
ED
F9
ED
FE
DE
F6
00
0D
2F
F9
06
00
00
00
35
0D
17
FB
FB
FC
05
0C
1C
D5
E5
E5
EB
F1
27
05
21
F4
EA
28
FE
22
F6
F1
E2
09
14
0F
F3
23
1F
17
0E
01
10
E7
04
3C
0A
F7
E2
1A
12
24
08
F2
FD
EE
00
1D
1F
01
F1
05
F5
0B
24
0C
D5
F9
F2
0C
F1
EA
03
02
2B
13
06
02
19
0D
08
0C
00
1E
F0
36
04
FF
06
E7
05
06
FA
01
F6
E8
0D
08
0B
F5
22
FB
EB
16
3A
F5
04
27
F7
08
FF
DF
EC
01
F9
0B
00
FE
FF
20
20
CD
19
20
18
FA
F5
09
1C
E5
F8
F4
11
FB
FA
00
B9
10
F2
01
F1
04
DB
09
EB
FB
0A
44
08
03
ED
EC
11
13
02
1B
E8
E6
FA
08
E8
FC
E9
FF
00
F0
0D
F2
F2
EC
19
FC
F5
0E
0E
18
01
1A
FE
E4
FE
0E
1C
05
EB
F4
E7
F8
26
ED
20
17
18
E4
E7
15
ED
0F
05
17
EC
33
00
2B
19
13
FA
F3
FF
07
E2
0E
2B
FC
07
02
07
E2
17
EE
01
2A
22
D6
0F
0A
13
1E
FB
1D
04
D6
F0
17
F4
EF
1E
33
0A
F6
F2
0F
E5
F0
FD
11
0D
DC
D5
E8
08
F6
F7
FE
00
13
15
EC
03
00
EB
FC
09
07
15
F4
13
08
F6
FE
05
0C
FC
E4
ED
D9
E8
F1
0E
D3
13
DB
EA
FB
03
05
F8
F2
1F
10
E7
DE
FF
17
02
F3
FB
ED
06
12
D1
FF
E6
E9
2E
FC
0F
01
F9
EF
FD
F2
0C
12
E6
F5
E5
16
02
05
D6
05
1B
C9
29
10
0B
EC
23
E7
05
EF
0F
0C
00
F7
0B
09
F1
01
05
D5
E8
E4
FE
D8
D9
F1
E1
14
F7
24
0A
10
18
1A
38
FE
FA
F2
F4
03
DF
ED
0B
E3
12
0B
F0
22
10
08
11
E8
1F
F1
F0
F7
23
E1
E3
EE
E3
14
05
F5
F2
EE
DD
F7
09
07
20
1B
F6
08
0B
F6
0C
FB
1B
F7
FE
09
08
09
03
0A
0D
08
20
F9
DF
E0
1F
E5
08
F4
0F
F8
08
F0
12
08
0C
D2
04
F0
22
07
DF
EF
09
F2
14
1D
16
EB
F6
08
FC
28
E7
EE
FD
10
F2
2F
0A
05
F1
D8
E8
F4
F7
E4
FA
EB
DE
13
FC
CB
24
04
14
EA
FB
13
0E
EC
FB
FD
10
02
03
EB
15
E0
ED
01
0C
18
1C
F7
16
10
0D
08
F0
01
00
F1
E5
00
E8
11
12
DF
16
D6
16
0E
FE
E7
02
F7
E7
F2
DE
3B
B6
F6
DF
E6
07
2A
21
37
F5
17
EC
E5
D3
11
01
0C
13
00
24
FF
FE
07
F1
05
D7
F2
16
22
09
12
0B
0B
BE
17
E0
FB
12
F7
F7
16
D0
EF
17
EA
15
CD
F3
EA
E9
E5
0C
0E
1B
0E
0D
DB
D3
14
06
05
F7
FE
03
E7
00
05
F2
DE
0D
FF
2B
0D
1D
11
13
07
0F
19
05
07
00
2B
06
E8
31
09
F9
FC
1A
FE
0D
0D
F7
FA
16
11
04
00
0A
0E
F9
F0
18
37
18
04
16
1B
03
F7
18
00
D3
FC
E1
0F
15
F7
FA
18
FF
10
14
ED
03
0A
F5
3C
E4
F3
F0
05
E8
01
FB
FE
E6
FB
2F
F4
11
FD
F3
23
F9
D6
F8
F0
EB
F6
E2
F8
FF
0D
FE
1F
0B
00
29
FC
15
DA
E8
FC
04
10
25
15
0B
FD
F6
21
23
0D
1E
08
D2
0E
1C
DD
F7
15
0A
F6
01
0E
F9
1A
09
1D
2F
15
29
FF
E0
E0
1C
0C
E7
F5
FD
FF
FF
07
2C
18
F8
F4
11
08
26
F2
FE
EA
09
06
12
F7
2D
DC
E8
18
11
1E
E3
D4
FB
E9
F4
E4
22
08
FA
EC
36
05
32
0E
06
F2
EC
0D
EE
0C
FB
1C
1A
1F
08
36
13
06
0E
D2
24
0D
E5
1C
E3
06
FD
23
0B
05
0A
97
EF
25
1A
14
00
F8
F6
DA
F6
00
12
02
E4
F1
D4
FC
D3
27
F6
1B
E8
FE
0F
01
F8
FC
E0
F9
0F
00
02
0A
F7
F2
0A
E2
05
08
DA
D6
F8
15
1D
06
F4
08
FB
FF
13
EB
F0
08
D6
17
0F
F5
FA
11
F9
F8
EB
0C
01
23
07
1D
1E
0E
00
2D
04
11
CD
0E
03
EB
15
FE
0B
E9
E3
FF
0B
09
07
E8
F6
FB
38
16
17
E2
10
1A
E6
15
FF
05
FF
E8
FF
01
14
22
26
F8
0F
EE
18
02
19
DC
CE
2D
09
0A
F3
DA
F4
EF
1A
DA
EA
20
F8
0C
E9
2B
10
2B
05
FA
08
FD
F8
F3
F2
04
15
08
08
0B
F9
13
FC
F9
D2
FA
16
30
06
08
9B
14
01
15
D5
03
24
FF
3A
19
FF
09
1B
DF
04
F2
E3
05
FD
F9
D6
CD
FC
25
FA
F1
0A
0A
FF
1C
13
05
F1
E3
EF
09
F2
0B
02
15
D5
0B
04
F2
F2
11
FF
FE
E0
0C
00
F5
0B
25
EE
FF
DE
01
0D
0A
13
E0
02
12
22
FE
28
2F
0B
04
CC
F4
F9
0F
0A
F2
02
1B
F5
11
FB
E1
1A
20
02
05
CF
17
04
04
00
D0
F9
EA
D5
FD
1F
F4
DD
03
02
FD
0F
14
FB
0F
0E
B7
F6
DD
F1
0A
FF
F5
F4
F8
BD
10
FD
22
EE
02
F6
ED
0D
16
EA
E9
EB
AC
F4
CC
14
11
FE
08
C9
10
F0
B8
EC
EF
05
D9
ED
F4
0F
1C
05
02
1E
D9
F7
1F
F3
EE
FD
FE
FE
F7
F8
02
10
1E
FE
F4
E0
FC
06
07
00
D9
2C
11
E8
1F
0A
F2
02
29
FE
12
F0
F0
FF
08
F9
CB
0A
F1
16
02
F7
F4
EC
05
E8
07
00
33
19
0F
22
F1
01
0C
05
00
04
1D
21
FE
0B
17
F0
22
F2
EC
17
EF
25
F7
0B
F0
09
E4
FE
D6
08
14
F8
E7
3A
0D
0E
10
FA
EF
18
10
25
FF
D1
16
00
0A
02
0C
E6
01
20
F6
D3
F2
15
11
09
20
F3
05
1E
02
23
F8
EB
06
F1
0F
0F
08
2C
12
F2
EF
FF
01
0C
E6
FF
0B
FC
F0
16
14
05
13
0A
11
0A
24
FB
F1
19
F6
D2
F8
F9
F0
1E
02
34
18
FE
10
F5
D6
EE
F7
05
11
32
12
05
0E
0C
01
FE
0B
F0
25
09
FD
0B
13
04
05
0A
02
EA
F1
EA
C7
D7
FC
02
E0
FF
FD
F7
CC
FB
FC
FC
E5
F8
0E
1D
08
D9
0B
E8
F0
20
23
2B
E5
FA
04
F0
0D
F9
E9
DC
08
EC
1D
D8
F4
F1
1D
FC
05
FD
17
2C
E3
1C
F4
04
23
E0
FB
07
EE
EC
0D
E7
F3
03
F1
DE
FC
06
EC
07
FD
00
EA
E7
1B
05
03
F8
F3
FB
F7
0A
E6
E2
00
EB
E4
E2
D8
1F
10
F9
29
0A
F7
0A
FD
F7
10
04
D8
05
E4
08
EF
14
00
F7
06
02
02
F7
08
D9
DA
FD
F8
2E
05
0F
F5
21
0D
03
ED
FD
F1
15
00
27
06
07
4C
08
F1
FF
C3
FD
33
05
F5
F9
EE
E9
F8
15
0B
FB
FD
FC
09
0C
FA
10
18
FA
02
01
00
15
BF
D4
E0
10
1B
17
F1
EE
02
19
FE
F9
F9
F5
F5
06
11
2B
07
07
F9
FE
FD
20
EA
18
EB
15
17
DF
F6
DC
FD
ED
15
11
09
FA
C7
FF
FA
2A
ED
FC
F1
F1
E9
D5
13
2B
0F
F1
EF
00
00
F4
08
28
23
04
ED
2C
EA
E6
02
13
FF
17
F0
21
F0
F8
CF
00
4A
07
FA
1B
F3
00
F0
13
FE
FA
1C
3A
FF
EA
00
06
FA
00
E9
D1
1E
0B
03
FE
F8
E1
E3
EB
EE
11
DA
F9
EA
31
E3
09
FC
28
05
DB
FB
05
FB
1A
0D
09
01
1A
E8
06
1C
F2
0C
FA
F9
EF
0A
DA
EB
E4
FA
F2
F9
EB
EF
0B
EC
16
05
07
EB
01
F2
FB
0E
FA
E7
B6
1A
FA
DF
EE
13
00
FA
F9
FE
0C
E6
07
D7
E3
17
D1
F6
09
23
26
03
09
0F
F3
0B
D7
0D
09
21
E6
08
F1
27
06
D5
11
DA
FF
EC
16
F2
09
F6
02
1B
07
EB
CF
19
0B
FB
0D
08
F7
31
34
FA
0D
FE
F9
F8
0F
08
FE
0E
03
F8
F0
0F
F6
0C
20
03
F6
0E
F0
E9
B2
26
1A
06
03
04
10
0D
F7
F4
E3
10
15
EB
F8
0A
FD
1B
E5
EC
DF
F7
16
02
FB
08
F7
0E
00
F9
F2
F4
F1
1A
E7
19
D4
F7
F6
08
0E
36
17
1C
09
21
0A
06
04
E2
FA
FC
F9
E5
FB
CD
0E
28
00
E9
04
FE
07
01
FA
EA
F6
08
0F
C7
E0
03
1A
F6
0D
F4
F3
F2
01
E3
E9
02
F0
01
15
09
21
EF
C7
F2
E7
10
00
00
EC
10
FC
FE
F4
16
01
F7
18
0C
FE
0E
04
15
E8
E3
D1
0B
F1
19
05
EB
DB
FA
C6
0F
F8
21
FA
FD
E8
EF
03
0A
04
F2
E1
FF
1A
CC
FA
E0
FC
F8
01
04
00
E2
12
14
F2
05
D9
E3
E0
D8
D3
19
D7
F4
0D
FA
C7
03
0A
21
0E
F9
E7
F4
0A
07
FA
15
EC
F0
E5
E6
C8
FF
ED
F8
FC
2E
01
FF
07
E7
DB
0B
E7
EA
19
13
12
D6
00
F7
39
E7
DF
08
1F
DF
F1
E7
EB
FA
FA
01
03
D2
F9
F2
05
07
20
F1
0F
1C
FC
E2
F9
10
E2
ED
05
D5
FD
2F
02
F0
FB
19
0E
01
F6
E3
E2
06
14
DC
1C
1A
1D
FF
DD
25
07
F1
07
F3
07
FD
FC
F9
EE
02
E1
10
16
09
02
FF
08
F7
12
04
04
FC
FE
1B
FD
CE
00
FC
02
B0
ED
EA
01
FD
D6
0B
EE
09
CE
E6
F2
13
F7
00
F7
01
D7
1B
E0
F8
F0
E7
14
0A
03
F9
DF
F7
FF
19
FC
09
B0
01
F5
0B
00
3D
08
06
FD
06
EF
DB
E0
F6
DB
0D
F8
07
FF
21
F3
19
01
EE
11
FB
D8
E9
FE
0B
09
1F
12
09
07
E8
18
CD
D0
30
F3
FE
EB
E6
14
36
1F
F2
EC
F2
DA
F4
24
00
F7
ED
12
12
05
01
0F
FE
F9
1A
01
06
EF
DE
E9
04
F5
0B
E9
1A
02
04
EB
03
EC
FF
EF
38
CF
0E
E9
E2
0F
0E
FA
FC
E2
FB
D0
0C
24
F3
F5
F1
08
FB
D0
F8
15
E6
EC
1E
16
00
16
17
15
FE
F3
18
07
00
FE
03
EE
CF
05
2D
EE
51
F2
E5
D9
FA
2A
C9
DE
D3
1B
09
07
F7
04
F8
11
04
F3
EE
CA
FC
18
F6
0E
F6
08
E5
DF
05
FF
0A
D6
F4
E9
FE
F3
0A
FE
1A
E7
1C
F4
22
E6
F5
FC
02
EF
10
12
06
1A
FC
30
F9
D4
09
1D
20
05
09
CF
0F
E8
24
FC
14
0D
F2
E1
03
F3
FF
E6
F9
18
05
EB
05
EF
FE
00
FA
EB
E7
EB
FE
FB
FC
FD
18
FD
24
F0
05
26
E1
EA
D8
F6
03
FB
0F
1C
1A
FE
03
F0
0B
1A
14
1D
FD
E5
EA
19
19
E2
EB
E8
FD
1E
E9
0D
09
EF
22
EA
E6
FF
F8
0A
FA
02
D1
F3
F9
04
FA
17
D0
1B
EB
F7
FF
29
1F
01
1E
02
C6
F9
2C
10
12
EB
E2
FD
23
08
07
FD
0F
09
D2
ED
EE
1D
13
0A
10
E4
FD
EE
EE
0E
FC
0E
FD
F5
F4
F7
0C
E7
03
E4
EC
F3
01
04
06
F2
FB
1C
05
FB
F2
EC
29
02
09
DF
20
F9
31
EF
F9
F5
EF
D6
08
08
ED
E1
08
10
FD
E6
27
FC
0A
DB
F5
E0
26
23
0A
ED
0D
EF
F0
1F
EA
20
06
1F
14
E3
F0
F5
0B
E1
02
29
01
15
05
09
20
23
25
0C
AF
DB
D9
22
D7
01
01
FA
4A
13
08
E8
0C
E6
FA
F6
0F
E0
23
02
C0
20
FE
F2
EA
10
1E
12
02
F2
F5
03
0F
FC
1B
F5
FD
11
1D
01
F3
E4
16
00
FF
DF
05
F6
25
33
03
07
24
14
ED
06
05
00
00
EC
08
08
0D
2D
F9
EE
09
F7
00
DA
EE
0F
FB
08
12
34
FE
E2
00
16
03
F1
E0
08
13
2F
FD
DD
E3
FB
17
2B
F9
0F
14
12
F5
06
00
F1
E4
03
09
F5
16
E8
ED
CF
2B
CF
F1
01
FF
FD
FD
EF
03
0A
01
15
F2
E2
11
15
EF
D5
4B
16
03
FD
33
02
23
11
FC
15
16
FC
DB
00
EC
0C
22
F3
F6
ED
06
ED
FD
F7
18
0F
00
08
06
00
04
FF
F2
09
FF
F7
25
F9
EA
03
0A
FE
CC
0D
EC
FD
E0
E8
FB
1B
E2
F9
DD
1B
EB
02
F7
F9
F8
E2
FB
10
FE
F1
EA
E3
DE
E4
0B
D7
03
05
F6
04
FD
CB
15
14
05
FA
00
F9
0D
0E
F9
F6
EC
EE
F2
0F
1C
F4
C6
F0
D6
FD
E6
F1
FF
0C
0D
28
F2
F7
12
00
06
12
F0
09
21
F7
0F
FA
02
04
F0
10
07
16
1B
04
0B
0A
DE
11
12
0E
E5
0F
FB
EF
E8
04
E0
DD
03
CF
F8
13
FD
FB
3E
1C
F8
FF
07
F7
E2
E6
FE
17
EE
FF
17
09
14
0D
18
23
2F
13
F3
09
F2
FF
02
E2
16
FA
15
30
EF
FE
20
0C
29
1A
E7
ED
1F
F3
0D
01
1D
00
F1
C5
14
FC
D2
EF
E7
F3
11
01
FE
FC
FC
E8
04
F8
DB
E2
F4
EC
BC
E5
F0
DA
F4
07
15
F0
FB
F0
09
F7
05
DF
EF
F4
E8
0C
D8
FF
F6
0E
EF
1C
FE
01
32
FE
1F
F6
16
07
10
04
02
22
DA
FE
F3
1B
EC
F0
0B
D5
1B
F7
12
FA
1C
07
EC
E6
F8
FA
F4
EA
13
F4
E2
11
1C
FF
03
EF
F4
0F
01
F4
16
0F
EA
04
02
E2
0C
0A
1D
FF
0E
EB
F1
0E
11
FB
03
FC
C0
19
F8
15
B7
E1
F8
F4
26
11
E2
1E
F3
FA
1D
26
20
CC
F0
0A
EF
EC
19
1B
05
E9
ED
1F
13
EB
EF
06
09
04
FC
03
00
12
00
E8
ED
21
EF
E5
22
FD
FF
E4
E8
05
1F
EA
E4
0A
EF
E6
D0
06
05
F0
04
14
1A
0A
FD
F3
F8
15
07
18
D7
15
DD
17
F0
1C
FB
1E
19
1F
FE
ED
EF
EA
26
11
0E
1E
EF
DE
0F
E4
19
C6
F7
18
01
06
EA
EC
DF
E6
EA
DE
09
10
EA
2A
FC
19
11
F8
08
04
D4
ED
04
E3
F7
D0
12
E3
FC
C9
3B
04
DC
05
E9
0C
31
E7
F9
F8
FC
16
FD
1F
F2
07
06
0A
F1
1D
EF
E4
02
F3
14
BB
07
1D
0F
F1
1B
F5
08
0E
E5
1E
E0
10
DF
F8
1B
1D
0A
0C
03
06
0D
19
05
13
0B
17
10
07
F2
10
EF
F8
0D
17
04
E3
13
2F
EA
09
07
05
F8
F9
08
F6
B2
F7
E2
44
13
06
F3
07
21
0B
2E
0D
FD
F5
25
02
E6
EB
03
06
1D
F2
FB
D3
0A
EE
14
F3
EE
F5
18
69
09
E9
16
02
0B
11
03
18
01
0D
E9
F0
F8
F8
15
F9
11
FA
04
F4
E1
F4
04
EE
14
0F
0B
EC
12
0B
EB
03
27
23
F6
10
02
0E
14
F4
18
04
DD
01
13
F1
D7
C6
1B
01
12
0C
03
0F
0B
0B
DD
0A
F8
4D
E3
0B
21
01
02
1A
E3
FC
22
F2
21
FB
FA
D6
F5
33
F9
FA
06
0A
14
F4
F2
13
F0
11
F9
D4
F5
FA
15
0C
E6
F1
F5
EF
E6
25
15
37
D4
ED
10
17
11
04
DE
12
DE
F5
04
F7
14
08
E1
07
F2
05
17
F8
DC
E9
FE
EC
DC
19
EF
CB
01
DE
2B
CB
08
2C
FC
ED
F1
FF
10
0D
0A
F2
F6
13
10
FA
04
FA
11
16
FB
EA
F4
07
12
0F
06
1B
01
F4
04
0A
E5
07
16
F9
0B
E2
ED
FA
1F
1E
0C
07
1D
E0
F6
E6
FD
FB
16
FE
18
FD
E5
ED
02
10
14
FE
F7
FF
F0
D4
01
03
0A
04
E9
F5
2A
DA
ED
CA
08
03
1A
E6
09
08
1A
F0
0F
03
DE
FF
D3
02
F3
E3
10
F8
31
ED
0C
EE
E5
15
0A
ED
EA
EE
0B
F6
F2
2A
06
2F
3B
05
26
04
12
C9
FC
D8
E2
D9
FB
D1
EE
1A
E5
D7
FE
DA
E6
37
1A
0C
EA
EE
24
00
0B
21
03
E1
0F
32
02
17
E3
0D
1B
17
01
00
F6
F3
38
19
FA
12
FA
FE
E6
F5
19
ED
FD
FE
E9
0E
FF
F7
FA
F5
F4
03
E4
13
F4
11
D4
F6
14
FD
0F
23
EE
2C
12
05
FE
FA
1B
29
EE
F8
09
E4
F9
F4
08
F8
D2
04
FE
FC
0B
E7
D9
08
02
EA
F9
04
10
CD
F4
1C
04
09
17
14
26
F5
13
17
18
F7
CA
F1
05
F2
18
D9
05
13
0C
18
F6
0E
12
1A
14
FE
FF
0B
3D
EF
10
EB
11
09
01
E3
0E
10
E6
02
31
F6
20
FA
00
F4
ED
F7
DB
05
F6
09
F8
1B
1E
ED
1F
F5
F2
EA
F1
11
FD
FD
F1
18
17
DE
06
0B
E2
12
0E
FC
F6
CD
DE
05
14
13
13
04
1B
E6
DF
02
35
08
0F
0F
1D
07
F8
FF
CF
F5
0D
D8
0D
10
FE
DD
0E
07
F6
11
07
FF
1B
E0
04
03
F4
ED
FE
F1
02
E2
D9
1C
EC
03
F6
0B
EF
FD
F4
FE
FE
0A
FD
FB
4A
F3
F3
07
FE
04
00
0C
02
F8
FA
E2
0A
18
F5
19
0F
17
05
FE
01
0B
E9
F2
E5
13
F7
04
08
0F
30
E9
07
10
1F
2C
EB
E8
FA
07
FE
EF
15
E4
02
0A
1E
F7
31
E7
FC
EF
FA
17
F8
DF
45
14
0F
16
01
18
04
F7
11
1B
CB
24
F1
EE
00
E1
08
E3
FC
DD
EA
10
FF
0A
01
FA
22
01
14
E1
FD
F7
0F
FE
F0
FE
14
0E
E6
FE
FA
EB
FF
15
02
09
D6
F9
F3
0C
02
06
FD
09
EE
F3
15
20
28
F5
FC
19
F6
34
F0
F1
E2
FF
F0
D0
05
E6
E7
EE
18
00
1A
00
E8
EC
F2
06
2A
23
FB
EF
1E
0A
12
1B
14
29
F6
0C
0B
EB
FF
C7
EB
16
05
F7
0A
E4
1D
E4
12
EE
2E
E5
17
FA
10
F0
FE
1B
F3
FF
04
0E
01
28
EB
14
E8
FB
EC
1E
FC
21
09
0B
EB
EA
F2
07
03
01
EA
0F
FB
C0
DD
C1
F9
D8
E2
E6
DE
EA
D2
CA
0E
07
0A
14
12
0E
F2
3C
FA
1B
0F
F2
FC
E6
F6
02
07
F8
C0
09
12
07
F3
F5
F1
CB
EA
06
F2
02
E9
0C
08
05
F1
FC
11
06
FD
F2
01
25
0D
DD
00
33
F9
18
04
D6
FD
FA
FA
FD
06
DB
FC
17
00
01
FF
FF
FC
F7
F8
03
F7
F9
FD
F0
F4
09
F0
04
14
FB
03
E1
0F
01
FD
24
1A
ED
13
07
F8
F3
FF
10
0A
05
DC
FC
EC
03
FC
1C
FF
F8
08
25
18
E1
0E
F7
13
0F
F4
F9
F4
D9
F6
FB
F8
12
FB
03
22
E4
2D
FD
15
F9
10
C5
E4
F9
36
10
E4
F3
00
DA
D8
E2
06
EC
FE
1F
06
46
14
ED
1E
03
E8
E8
F3
EE
04
20
01
EE
FC
DC
0B
3B
F0
F0
F9
25
05
D9
02
0B
0B
12
F8
0E
19
E5
E3
E3
00
12
DC
07
EA
ED
F9
F2
12
FB
EB
E1
D0
ED
01
0B
01
F6
08
12
F1
E2
E7
03
F8
04
25
FC
0A
06
D8
0E
FF
3C
EA
D5
08
F8
DE
01
12
E8
DA
00
07
17
D9
FE
02
E9
22
0E
F1
FA
F0
09
48
F8
FD
13
F3
06
D9
21
26
12
19
11
E1
0B
F8
0D
01
FF
E0
06
05
07
14
E5
FC
1B
2C
0D
0D
D5
EC
13
DE
23
F5
F3
1A
0C
01
FF
05
F8
1C
04
F1
03
FE
19
E4
F9
15
10
EF
09
1D
F3
0A
08
FC
03
EC
1A
F6
0C
0B
14
F3
1F
0A
F7
F0
FA
EA
F4
C8
EA
F5
FD
0D
EF
F0
13
D1
FC
CA
F8
19
D2
F8
F8
E9
0A
EF
17
0F
EB
ED
12
FF
F0
02
16
06
05
CD
CE
09
1C
0E
F0
02
FB
1A
36
13
D4
F2
E6
D2
03
1B
FB
E2
FB
06
1E
FC
ED
DD
11
F1
FF
FA
1A
09
25
19
0D
1C
23
16
21
04
F2
0C
DF
0C
10
00
FE
0F
FB
E8
D9
FE
FA
E8
F3
01
F6
F2
12
FD
03
12
F4
15
2F
E8
D2
0B
DD
E6
1E
01
FE
E7
EC
05
F5
0D
1C
EA
3B
24
0F
18
F2
0D
05
21
12
E3
2A
FD
F2
0B
05
E8
03
01
F4
FE
21
00
12
15
1A
F4
DA
05
29
05
E3
0E
19
19
00
FD
1C
00
2B
E4
FE
0B
F7
F9
0A
0C
F4
E2
14
E7
0D
14
FD
27
FE
EF
0B
F7
FE
DB
02
00
CC
E9
EA
2B
D4
FF
F0
F9
01
EC
C6
FF
DA
05
15
25
D9
FF
17
0A
EE
0C
02
EE
EB
0E
02
1C
54
C8
D9
13
DE
07
0E
00
0E
01
F7
10
26
F4
FC
16
EF
FA
E7
02
EE
30
F2
41
EB
FE
1A
26
1E
C6
08
05
E5
D8
13
26
1A
42
F4
F3
FD
04
02
F2
F6
0E
2F
D4
0D
09
02
31
19
29
EC
E1
F6
FB
F3
FF
DE
F2
B8
10
FA
07
CE
1C
1A
04
C6
F8
0D
F2
46
F1
04
07
03
F2
0D
03
FA
F9
04
11
E3
EC
0E
FB
EA
E6
05
E9
FF
ED
EE
37
2C
18
11
0B
FA
03
17
F4
FB
EE
25
F3
F0
EB
FF
ED
F2
F8
21
05
12
EE
FD
FE
E1
F3
08
02
03
E6
FE
0F
1B
F3
D6
DF
BC
08
13
E2
12
EC
DE
14
00
00
0C
1C
E8
F2
01
E6
FB
EF
04
13
02
19
EA
06
FC
06
D7
EF
11
E4
05
1D
43
23
04
0D
08
F2
00
E3
DF
02
02
05
0A
D2
00
0C
E9
E4
01
04
F2
F9
20
F6
16
07
F2
F9
0C
FF
11
F0
03
01
F1
2F
D6
F0
F9
30
F9
07
DE
F8
16
FD
14
EE
1D
15
EE
18
14
24
E1
09
14
15
E8
09
E3
C4
08
07
C4
0B
FE
15
05
25
18
06
E8
13
F7
F3
13
09
17
E1
ED
E7
F1
EB
18
0D
05
E3
2F
CE
E5
12
03
FD
10
F2
13
0D
1B
F3
F4
14
F6
0D
ED
29
F0
0D
EA
EF
28
F2
EC
FB
F3
E4
FE
F4
D7
05
FE
1F
FD
DF
1D
0B
F8
D7
F4
1E
08
FA
FD
E3
18
F0
00
2E
F6
FE
FF
11
E9
CE
EB
F3
0D
1D
F8
19
37
12
FD
23
2A
DD
B6
01
0B
FA
F3
FA
E9
DA
37
1E
12
1E
E5
FE
D2
00
28
F3
F5
22
0C
E6
E3
E2
06
EB
FD
12
EC
1E
28
F8
F5
F9
E7
C3
0A
F3
01
22
00
E3
02
EF
13
06
03
04
F5
08
D5
DB
2B
23
E4
FB
0C
17
00
F3
24
FF
DC
EB
09
F0
F5
FE
F5
F8
FE
EF
FA
00
1D
DA
E9
E9
1B
FD
ED
F5
09
F8
07
E2
CE
F2
10
07
FE
12
D5
F0
01
EF
E7
09
DB
15
E6
08
22
0A
FB
F0
FD
F9
13
FB
21
F3
09
E1
F3
24
04
FD
EC
17
2B
10
E7
FD
F3
F4
E5
D3
07
E6
0F
1C
F6
09
F6
1A
F8
F6
0E
03
04
07
F9
F0
F0
0A
10
1C
B9
01
03
05
F8
14
23
FE
24
F2
29
12
E3
1D
D5
F7
FD
1B
F8
01
F9
FC
F7
FB
F0
ED
17
DB
1E
F9
0F
1A
EE
EA
1A
E6
06
1F
0A
1F
24
2A
F3
1C
01
07
FF
1D
EF
02
F8
FE
1B
C6
1A
E3
EB
09
FB
E0
D1
FD
02
FF
00
FF
0B
04
11
EB
EC
06
02
13
24
EB
0C
22
FD
19
E6
1A
E2
DA
11
F1
01
F1
24
E6
13
30
08
ED
F1
FA
1E
17
0F
F6
EA
F2
F5
FB
FC
06
02
F8
02
E5
F6
ED
13
2B
02
02
E6
08
E5
2B
F5
0C
04
F2
FF
F4
1D
B9
E2
46
00
24
13
D5
06
1D
0B
07
EB
1C
1D
F6
34
25
F2
FE
0E
F9
27
E1
E4
FE
F6
F0
32
E8
F9
01
02
14
F6
D9
19
11
1A
10
1E
D0
DB
0C
02
35
23
FF
F0
32
EB
0C
F0
05
1B
23
FE
2B
F4
14
0E
CA
E0
E6
DE
07
F5
1E
10
F2
F0
E9
CB
27
E9
12
FF
0D
F8
0F
02
F5
0E
F5
ED
FA
0F
E4
ED
05
08
E5
08
2E
FA
EC
E0
0E
13
ED
1A
10
19
0A
0D
EE
0D
FD
07
14
F0
D9
13
0C
03
08
23
F1
FD
FF
10
1B
12
F4
F8
FA
08
2F
B8
E9
FA
2B
DD
0E
F2
F2
D9
F8
05
06
1E
E6
F3
0E
13
0A
F3
EB
01
0F
0F
FA
0D
0F
F2
25
D5
03
03
16
24
C4
07
10
F3
04
22
EA
F6
F9
15
FC
10
FD
03
14
F0
18
E3
01
12
1F
04
DF
F5
F7
E9
FF
08
03
16
08
1F
05
FC
00
05
03
0E
0E
0B
FD
F6
FC
E9
0A
0D
E7
04
03
17
0A
21
05
DE
E7
0F
01
00
0A
F7
E4
25
2D
07
13
E4
1B
2A
06
1A
F2
F0
E4
F4
04
E6
09
DA
01
06
FD
09
F4
F3
20
EF
F3
0D
F8
13
17
0E
FC
DD
F4
FB
1E
F9
E5
EE
11
E1
07
0A
DE
FA
15
EE
0B
09
E1
F6
FF
F1
F4
EC
E9
02
FF
08
22
F5
21
FE
17
1C
FB
1E
11
F7
E5
FD
D3
0B
1B
ED
04
1D
D6
F7
12
1E
EC
FF
21
01
05
ED
16
20
F4
15
0E
F8
0E
FD
E7
F9
F0
F4
02
19
F7
DD
EA
C9
15
00
06
06
FA
18
F4
0C
0C
E8
F5
E2
F5
F5
F4
1C
FA
F9
11
F4
ED
07
35
4A
12
F2
D3
E9
EF
D3
FB
04
16
04
07
F4
FF
EF
F2
0F
F2
2F
F6
E1
FC
F7
FE
08
D7
10
17
10
F4
FF
0A
F4
0E
03
F2
FD
F0
11
05
FA
E9
F7
F2
0B
EE
01
0A
FB
E4
05
F7
01
E8
E6
F8
28
F4
EB
14
0B
17
F9
01
D7
EA
33
FB
18
03
09
C9
FE
FE
09
E2
F2
EA
FB
30
F8
10
D8
05
FE
29
0F
FA
E7
F9
15
FF
0B
01
F4
F9
F4
02
EE
E3
1F
0D
EC
FB
24
34
29
F1
EF
27
F5
00
F8
20
0E
06
BD
00
04
34
0D
05
0B
F0
30
1A
F5
03
35
17
E5
0F
DA
1A
F1
F6
19
D8
05
DA
01
FE
0C
21
F3
05
02
E6
07
0C
0C
13
FF
F7
CE
0D
EA
FE
E2
02
05
14
F9
F5
DE
0D
FC
1F
1D
11
1C
0B
0F
EF
0B
06
0F
00
12
12
EA
13
1D
D5
2D
09
EB
16
0B
CA
F4
0B
FF
CB
C9
E1
05
DF
FE
00
FF
F4
EA
E6
06
15
F9
FD
01
0F
12
F1
E3
03
ED
EB
17
19
16
21
1C
06
16
FA
FC
2F
09
08
0E
0A
F8
09
FF
19
10
0D
01
13
D8
0C
17
EC
E5
FD
EF
0C
D4
0D
E9
0C
0A
F7
E9
48
0B
F6
09
0C
EC
11
10
E8
00
F9
F2
FA
0A
F6
05
F9
14
18
03
F3
DC
0D
FA
F5
00
06
0B
05
F6
E8
1D
F9
F6
07
0D
E6
2F
1D
08
F3
16
F8
0C
1D
04
FF
10
ED
E3
D1
E6
F9
21
D2
12
FC
FB
EC
0D
0A
09
ED
F7
EA
EE
F8
F0
01
F8
FF
08
16
E6
EE
FA
ED
E2
EF
F5
10
21
F4
F7
F9
DF
06
F1
0D
EC
E2
F5
09
FC
00
21
09
DA
15
F1
FA
03
01
04
00
FB
EA
FF
F8
FF
E7
F5
D8
F4
EC
F6
14
FA
F4
EB
F2
1D
02
0B
DA
FF
25
ED
16
FF
15
1A
0E
09
14
F3
E4
1A
FD
01
EB
F1
FA
03
08
F2
FD
EB
E2
47
DA
28
11
08
06
05
E8
F1
F3
01
F0
DB
17
02
F5
0C
0A
FA
01
FE
10
C6
05
00
1E
EB
0D
D1
D6
28
F2
01
E8
0F
EA
E9
13
09
00
FF
FF
EA
EC
E6
F7
20
DE
1E
02
02
FB
0D
08
FF
E8
E6
E9
2F
07
00
04
0A
20
06
EF
D4
01
0E
20
16
03
26
23
F9
EA
0C
EA
FC
18
09
0D
0D
02
06
EE
14
FD
E5
F3
F2
0D
D5
15
02
0D
03
D4
17
F7
0A
EC
23
03
F4
0B
F3
08
0F
13
ED
11
CF
0D
EE
F6
30
F1
2A
16
00
E9
FD
EE
0D
E4
F2
09
10
04
25
F1
16
1C
D7
34
EC
17
0E
EC
14
D5
FB
10
01
27
DB
F7
EF
08
FE
06
F6
07
0A
C4
21
1F
03
15
10
03
E1
1E
0D
F6
F3
E6
EC
0F
13
F7
1A
F4
2B
F3
0F
C6
F1
F6
F7
DA
16
F4
16
E8
F2
18
E5
13
E2
F9
F0
FA
29
F6
10
DD
FC
05
05
22
0B
F3
03
2A
23
F2
FB
01
E6
CF
FB
0F
31
1B
0D
FA
F3
DB
04
15
F2
F3
FC
F0
FC
F5
07
EC
EE
EC
0C
FB
0B
08
15
DE
F7
C8
15
FF
00
F5
05
F4
05
10
E4
05
E8
0C
15
06
FD
02
21
F9
19
1C
F3
D9
EF
18
00
0B
ED
03
DA
00
E4
FB
06
F5
F6
11
FC
0F
16
FB
02
E7
EE
FD
FE
EF
FE
EF
11
0C
27
DE
00
F8
EB
FE
14
CC
1E
0B
2D
ED
EC
10
21
08
F4
F9
10
E8
43
17
0A
07
0A
FF
2F
1A
2B
0D
0A
F8
00
F5
F6
FC
FB
13
D4
F6
0A
EB
0A
1D
07
F0
FA
10
10
01
0B
13
F9
D1
15
FD
FC
01
2B
E7
01
FF
20
07
F3
E1
FD
14
14
EE
F9
01
11
45
EC
EB
12
F7
06
FC
11
0E
0C
0B
DB
DD
F2
F7
01
26
17
FD
0E
02
20
12
0D
0D
05
10
61
0B
DA
0C
13
17
09
00
DD
DE
35
02
9E
03
0E
0D
20
DF
D4
09
F1
2F
F3
2E
E8
E8
14
00
03
F7
07
FF
15
06
FA
F1
01
FC
F4
14
21
E5
E6
06
F3
E6
FF
28
EA
00
FF
E8
24
EE
04
FF
E3
FC
D3
0E
08
E4
FA
12
E1
10
F0
EE
06
3F
EF
0D
07
E2
02
DD
04
EC
E2
0F
DF
04
2B
01
1B
04
FF
D7
F5
36
E2
FE
36
00
F9
F2
FA
C8
16
DE
FA
09
DD
07
F1
E9
05
F4
0D
0F
10
F5
11
F9
0E
F5
0F
E9
E3
13
DF
F8
FA
EC
0E
F8
0B
17
08
08
FE
F3
F6
0D
04
E6
17
05
FF
F3
D1
FB
D3
14
E0
0A
F4
14
08
FF
19
0E
2E
03
32
20
DA
0C
2F
00
21
04
1C
18
1B
D8
F8
F2
F3
38
EC
F2
33
02
EA
1F
00
08
18
27
08
10
F3
F8
FA
0B
0A
29
0C
1A
EE
D9
0A
FD
F3
25
03
DE
0D
FD
13
0B
05
42
06
10
04
03
FC
00
FF
03
03
0D
F9
16
17
D3
31
F0
07
E2
D5
F1
01
0B
E0
FF
EE
ED
23
18
F3
DF
FA
F8
F0
F1
26
FC
EA
FC
FE
E5
D4
1E
D3
08
17
22
16
D6
EF
FE
FE
E3
00
09
10
1C
E8
1A
81
08
17
0A
06
EB
1B
F9
0B
1A
E2
01
F8
12
0A
F6
06
13
05
11
02
FE
E0
E0
15
12
FA
0E
FB
F0
18
13
0C
06
FC
E5
E7
0F
F9
11
F6
ED
F7
1D
E4
EF
0F
DA
D8
FB
1A
F1
E7
0E
E4
04
04
08
FE
EB
0F
ED
03
F5
F6
F2
15
F5
DE
FC
1E
11
17
FE
DC
0B
00
01
03
1E
FA
F4
15
D2
19
F5
09
F0
F3
07
33
FF
EB
DB
0B
EB
13
FB
08
00
22
F7
12
1F
08
F2
FC
C6
EA
E8
38
12
0A
1D
F3
E9
D5
DD
F2
FB
01
04
15
1C
20
FE
EC
06
E1
38
09
06
FF
08
F5
20
0C
18
12
28
02
09
F7
20
19
1B
F8
33
19
EC
EC
F6
FD
E6
0A
1C
01
E4
E2
E9
0C
FB
1C
CB
28
F8
04
F0
FE
CA
25
F9
FE
F1
F3
F8
DC
17
FC
F8
D1
0F
05
F5
0C
0F
DE
02
0B
0B
0E
12
13
0E
08
2B
16
1B
27
E6
37
EE
0E
F2
09
E5
06
05
13
DF
1A
EF
E5
09
03
FA
1B
11
E9
08
19
33
F6
02
0D
F1
13
0D
E1
E8
FE
F8
29
E4
1E
FB
08
F0
F6
ED
FF
F4
11
11
22
EB
1B
FC
1E
05
D7
07
FD
D1
07
F3
DD
FE
11
07
DD
00
F7
06
D8
E6
08
08
F0
03
F6
18
FC
10
15
E5
1D
E5
14
FD
ED
F0
E7
0E
FB
15
ED
D6
CD
17
2B
13
10
04
18
15
FB
17
DF
19
05
DA
FC
E6
E3
E5
15
EF
FA
09
15
14
E3
FE
D5
04
29
EF
05
31
FA
20
EE
1A
0E
F4
CA
07
28
1D
EA
EC
0A
F6
0D
FD
F8
1C
FD
D3
14
FE
F8
1B
19
12
07
19
05
16
17
F8
F1
FD
0D
0A
06
03
FC
00
FA
DC
0F
1C
17
F9
F2
F9
27
0A
CE
F7
FC
D5
EB
1D
14
F7
F8
D7
12
F7
E2
39
F2
F2
05
02
17
FE
21
14
F0
E5
08
EA
FF
EA
15
23
FC
0C
E5
ED
21
29
38
01
F8
00
09
EE
EC
1F
1E
11
03
24
04
26
0A
06
0E
0A
45
F0
0F
FA
F2
F4
01
EC
16
05
23
E9
E5
FC
BF
0F
04
EE
00
FB
C7
FF
DB
06
F7
EE
2B
06
F7
08
F9
08
04
ED
E1
04
14
F1
EC
05
1D
14
FF
E9
10
19
0F
1D
DE
F9
19
F6
04
E2
2C
00
DF
D7
D8
F6
00
EF
F2
FF
EB
1D
E3
12
FA
E6
F8
1B
04
17
09
E5
13
23
14
EF
03
D9
1D
20
0E
FE
1A
22
FD
FF
33
FD
CC
19
05
F3
12
15
1E
12
02
06
E0
EB
DC
11
11
2E
03
FD
CA
10
F8
02
30
01
15
00
DA
07
F6
05
0E
FA
06
0C
F5
D3
FF
35
0D
07
E8
01
F3
03
05
FC
FC
2F
F2
1E
D3
E9
D5
08
1C
E8
0B
EA
10
F7
F2
00
E4
FC
2C
F6
34
1B
DC
11
37
E0
FA
F2
FB
0C
20
0E
EC
0A
D8
27
D5
04
01
1C
F2
E9
19
00
12
F3
53
FA
DC
02
F4
15
EE
02
1F
F8
F7
FE
0A
0B
16
F6
13
08
0E
E2
08
29
F1
16
E6
E9
15
E1
FA
09
14
23
15
DB
F6
03
06
EF
04
08
0B
10
09
12
F6
EF
D7
F4
FD
01
10
F9
FD
EE
0C
1F
FF
E7
DA
EC
11
F0
12
12
14
FD
E2
02
E7
EF
F1
20
05
EB
FA
EE
02
29
F0
10
F7
FB
FA
FB
07
05
E0
F3
E6
04
0E
E9
F6
ED
F0
ED
1F
ED
FF
00
1A
02
E4
43
EB
03
FF
FF
0E
00
DD
0C
EB
EC
12
FE
D4
2F
0E
1F
E0
D1
05
0B
FE
0D
29
E4
DD
32
FE
02
F5
2B
10
F8
15
00
FD
20
F2
E1
30
F7
02
E9
05
19
0D
EA
F4
FC
3C
01
2E
0F
1D
F7
E5
07
DD
07
FF
1A
21
0B
F5
09
FD
FF
D9
04
13
F2
04
FC
48
F7
12
EE
DB
F4
FB
0F
EC
1A
12
E8
03
F8
E7
0D
D4
EB
E5
F7
D2
E1
DF
09
0B
0A
E8
28
30
04
0F
E4
17
29
EF
11
F7
06
EA
0D
EC
1F
FA
0D
04
09
D6
0E
27
16
0B
E7
01
ED
12
1C
0B
17
F1
3C
03
15
F9
DF
EA
16
1B
E6
FE
FF
01
F9
00
E3
02
0D
28
FA
F8
F5
FF
22
17
15
1A
E8
DE
12
03
FA
C9
02
1E
0B
FF
05
10
F5
0A
2F
23
E2
04
05
DE
01
1D
E7
02
E1
01
EB
FA
24
E9
0B
E9
27
02
3A
F7
3C
D3
12
F7
EC
09
0B
F7
01
E4
F4
F1
E8
0B
F7
1E
1D
EF
F6
05
F8
0A
DB
FB
FC
07
0E
FB
E1
10
FB
09
10
09
FE
E7
03
10
09
08
EF
ED
E0
FD
02
F1
18
01
16
10
DC
21
1B
09
0D
F2
D3
13
E9
F6
2D
23
1A
F4
07
D7
EC
29
0A
FE
F6
EA
E4
E6
E1
E6
F5
04
FD
2E
0A
2B
EB
EF
F1
0F
10
E8
15
3F
DC
1B
12
28
EE
FA
E2
22
10
F1
D7
FA
03
06
F7
E4
11
0E
31
F1
0D
34
F3
16
05
FC
03
DC
FA
17
EA
07
DF
D8
06
FE
EB
1F
05
F2
0A
EF
21
03
0A
05
07
12
F8
D3
EC
18
E4
F0
F9
EB
04
04
11
23
EF
28
19
0C
17
30
F4
0A
E4
FD
13
DC
0E
00
F0
EF
DF
08
EE
F2
FF
0C
07
FC
F9
C2
C5
D7
12
ED
1B
FB
09
0F
1E
FF
19
05
D9
15
FF
0E
03
FB
ED
13
F7
FD
18
02
19
ED
DF
CE
FF
06
15
0C
F7
17
22
36
FF
24
35
1D
DF
CD
08
08
29
F8
F3
0C
21
12
31
09
FF
F1
D5
F3
06
E6
10
FF
E5
FB
F1
E4
16
F6
05
10
FB
E4
C7
0F
EF
04
E4
01
00
EE
F2
CE
E6
E3
0F
FF
EA
01
22
F0
FF
1C
E8
FF
08
09
FF
1D
02
02
0E
32
25
18
F6
E1
15
F3
10
F7
08
1A
C3
FF
0E
0C
15
12
00
0A
21
EA
E8
1A
07
F1
EE
FA
EB
F0
10
36
F5
FB
0F
0A
0B
0B
06
E6
0A
07
13
25
FE
28
FE
09
FC
DC
0C
E2
16
F2
F7
03
0D
05
07
15
2D
13
02
EC
1A
E2
1F
2D
2D
1A
F8
BD
DD
28
E6
F8
E5
0D
00
05
07
FA
01
E5
03
FF
FC
D7
F3
E8
1E
F8
F2
59
0B
32
FE
0C
EB
EC
08
FC
05
C7
0D
00
0E
ED
2D
0B
F3
11
0E
0B
28
16
04
12
17
F9
21
05
1A
DC
EA
10
ED
1F
FB
FE
ED
F4
FA
EA
1C
FC
FE
29
F7
34
05
FF
E5
16
E2
07
18
23
06
00
E7
E9
E5
FF
E6
F5
FF
11
D4
29
06
E9
06
01
FE
F9
ED
FD
2A
E9
28
03
F3
03
1F
DD
DF
D7
08
D9
E3
0A
38
E2
27
07
04
04
E7
25
C1
10
DB
EB
24
12
1E
F4
E7
EA
0C
E8
20
F7
1E
DE
F2
F7
E6
01
D9
16
F0
09
EB
FD
EE
16
05
EC
F8
F0
16
EE
0D
36
01
1E
14
F6
F9
14
23
0E
0B
F9
0C
06
25
E4
F3
2C
03
15
1C
0C
F5
07
07
FC
0F
FA
0F
D3
2E
FD
0D
0D
D8
2F
11
31
18
F4
EB
DB
ED
14
09
0D
1C
0C
01
09
EF
FD
05
E7
E6
09
E8
F9
DC
F3
02
EB
F3
02
F8
DE
E3
F7
FA
FF
39
FD
FB
06
EA
1F
D7
0E
0A
D3
D1
23
01
EF
DE
D5
16
CF
F3
0E
16
1D
F3
DC
02
0D
EF
F9
28
07
D2
14
EE
E1
11
11
06
08
04
05
E7
1A
FC
FE
EF
26
E6
0A
F5
11
2D
FC
F6
E9
CC
18
05
04
48
FC
1A
F4
09
FE
25
2A
F6
FA
0A
14
EF
0D
E8
E2
F3
0F
18
13
FF
CF
F8
EE
F0
00
FF
DC
09
FE
0C
EC
05
13
0D
26
16
EE
12
F5
F0
EB
E4
FC
FE
23
0C
E9
1D
04
F6
08
1F
16
12
1C
07
1A
0A
F7
14
F8
29
F7
02
0F
F7
EB
13
F7
07
EF
07
03
FA
FC
03
11
11
F5
04
F8
FF
16
EE
D5
0B
29
0C
1B
F5
23
FA
18
05
26
F0
11
02
01
10
D8
09
CD
FA
09
07
1A
15
2B
F7
23
E6
DD
02
F1
0C
DA
27
FC
F3
F8
24
04
F1
E2
FB
EB
F3
F3
CA
F8
07
04
04
DA
08
E6
10
B9
19
E5
28
D4
20
EF
CA
E3
EB
F9
0D
00
F6
0C
FB
DC
EF
03
0D
04
1C
EB
04
26
1B
EC
BE
12
E2
28
F5
F0
1B
E8
1D
0A
0C
17
15
FE
16
18
EC
35
07
FB
0B
FF
F3
08
10
F1
35
2B
D6
14
E5
0C
E3
DE
0F
05
0A
E9
19
F8
0B
25
15
EC
E2
E6
1B
1B
06
DA
02
02
E8
F7
DD
18
E2
D1
01
10
EA
F3
19
EA
08
FB
F7
FA
FA
09
07
25
00
07
FD
EC
1D
14
D9
1A
13
1F
DB
DC
0E
05
D2
26
21
F9
22
08
FE
07
B9
F6
2D
0C
05
0E
33
F6
E9
06
04
F9
ED
E3
0F
F5
09
ED
D8
04
18
F3
FB
DC
05
09
09
EB
FF
0B
3F
E9
EF
E5
E0
0D
28
B9
F2
03
42
02
06
1B
10
12
C7
08
E6
0F
25
1B
07
F2
F0
1E
E6
F4
0C
E3
2A
E3
DC
F9
24
FC
C5
FE
02
02
EB
0E
FB
ED
16
0A
EA
FD
D5
1E
1B
FD
04
EC
08
2E
23
1B
E9
F2
F6
F5
18
0D
20
F7
F4
08
F5
01
11
E2
03
F3
17
0F
04
12
E9
0E
F3
1B
F8
02
F3
12
FC
EA
17
EA
F9
FF
04
0B
E8
EF
1B
0D
ED
0B
FE
0D
F8
2B
14
1A
EF
0F
CE
24
16
38
EA
EC
20
B2
10
05
FB
10
0C
EF
19
E1
EE
13
FF
E8
03
16
0A
10
EB
FC
0A
15
EE
ED
E7
12
FD
F7
EA
E4
05
EC
0F
24
DA
05
03
F4
09
15
08
01
F6
01
EC
E4
1F
0B
01
07
03
D4
0C
13
22
0F
06
25
F6
0E
05
1F
08
E6
01
D3
15
FC
14
2D
12
11
3C
C7
0D
FD
09
F5
F9
20
26
E6
F5
B4
02
04
0F
EF
05
FB
F8
15
0A
0C
27
FF
10
3E
01
03
FD
FA
DD
16
16
F7
19
E9
03
E1
EF
12
F5
DA
D6
FB
2C
16
16
58
F9
E2
03
DA
D5
03
FB
00
FA
EB
E1
01
25
FB
03
F0
F6
02
00
DC
DE
E3
FB
FD
FD
01
21
DC
EE
EC
F1
10
FD
0F
16
E8
D5
10
DD
18
04
E6
DB
EA
D4
FD
13
FC
3A
0D
EC
FA
16
F5
13
0B
F5
FE
2F
15
0A
3E
0A
06
21
D7
F2
CD
D9
3B
39
07
EF
1F
08
E3
09
05
F9
10
F8
E9
07
13
05
EC
17
04
D1
00
FA
1D
E9
FF
E2
18
F6
22
ED
FC
FD
21
27
F3
04
F6
F3
F3
EA
19
05
EB
01
0E
0E
E8
10
25
FC
FD
FC
C7
06
EF
28
03
03
F9
E4
F1
D1
04
1A
04
02
FD
F9
EA
0E
EA
D7
F3
24
FA
11
EE
0F
12
08
0E
FC
F6
FC
23
DC
E6
05
F6
0D
DD
F5
03
03
0C
03
E0
26
D8
15
08
F3
01
05
08
19
1A
D9
FA
FF
F5
11
F7
06
40
1D
E9
F7
FC
EE
0F
0F
FA
FD
FF
E6
FE
F1
09
1C
27
0A
EF
F5
AD
F1
09
FD
ED
0A
B4
ED
F0
2A
EB
07
11
F7
1B
D3
D8
F7
06
FF
02
10
F4
04
34
FA
16
EC
FF
06
10
0F
10
14
F4
EE
F2
DF
E8
25
2E
FE
00
E6
FB
0A
27
D1
32
FF
26
FD
0E
EB
04
E5
1B
0D
F5
EE
04
0A
DE
0D
10
CC
09
FC
08
19
EC
37
06
FC
05
1A
20
03
28
10
23
EA
FF
14
DA
F6
FC
10
F4
E1
DE
26
FD
14
1D
0D
E5
10
09
F6
FD
02
D8
D9
14
CD
02
00
F3
0F
11
0A
09
0A
F2
15
D3
19
E1
18
13
CE
E1
01
F5
10
12
F6
12
FB
21
0D
FA
14
FC
EB
E1
D0
F0
00
EF
00
EB
08
F6
E8
15
F0
02
D4
F6
05
F0
00
F3
DC
08
09
1F
25
FA
FE
FA
1D
35
01
0E
03
F5
01
F6
F0
07
23
06
0B
11
14
0E
FF
0C
FF
1C
2A
F6
05
0F
F7
05
14
16
1B
00
2E
06
FB
F6
2E
13
F0
E7
D2
1C
0C
00
F2
EA
2E
44
2E
02
E5
CB
E5
16
1F
1F
F9
C7
15
F8
F5
2A
FA
DB
08
FC
0E
F6
ED
19
12
ED
01
16
EC
FB
08
F6
22
1C
DF
EA
F5
01
10
F6
FD
1F
FA
09
1E
00
02
05
C2
12
F3
E2
01
0F
F0
F5
F7
01
F1
C6
1A
EA
00
09
00
EA
E8
F0
05
EC
0E
EB
FA
0B
02
EF
FD
2F
1A
E5
F9
11
05
FE
DE
1B
06
CE
F5
23
EF
05
0C
17
10
0E
0A
F2
18
ED
F0
07
C6
1E
00
02
F3
F2
1B
48
11
E3
E1
CC
FF
F2
13
FC
F3
E7
02
F9
F2
11
0C
FA
F9
F9
E9
E5
E9
0F
07
39
12
DC
01
F8
20
ED
0D
03
21
11
E0
0B
26
FB
FD
EC
08
0C
EE
F7
E9
E4
DF
F1
F9
2B
F1
F7
F6
2B
14
0F
DE
06
09
F3
F1
FC
E7
F2
E2
ED
E7
0F
00
0B
13
09
FC
E0
23
1E
F4
10
FA
1F
EF
12
ED
FC
1A
F5
1B
E1
FF
14
0E
E0
3A
0E
03
F6
F6
10
EE
DD
D2
08
34
01
17
0C
05
01
DD
16
FB
08
21
EC
FA
E8
0F
0F
D3
EB
03
E4
FE
08
C2
04
20
FB
F4
C8
FE
11
17
0D
FC
04
1E
11
0B
1F
FC
1A
12
E3
02
0A
E8
13
FE
F9
18
01
1F
FF
36
FB
FB
2D
0A
E9
09
1D
03
EB
E0
FA
E4
18
1A
F1
03
F7
EB
1C
17
EA
F4
FC
28
12
09
EF
10
F2
D0
F3
F2
F0
14
E8
2E
16
00
E1
FC
F6
E6
E6
0A
06
E9
1B
F2
17
DE
1D
0E
0C
1C
06
EA
15
16
F3
01
EA
FF
05
15
1B
11
F9
0F
F8
0F
DD
FB
F5
F3
0D
E6
15
D6
F2
E9
C3
22
06
20
F8
28
FB
15
18
FC
1B
F2
28
E6
0B
1B
DD
0B
00
F3
01
F8
FD
EE
14
F0
0B
04
EF
F0
AE
20
0C
10
02
FF
FC
00
E2
07
FF
F1
F7
18
F9
FD
DE
0F
E5
DA
02
F7
D7
00
0F
04
F3
DC
0E
10
F2
FB
FE
3C
00
E9
25
0E
04
F3
02
E1
15
F5
FE
ED
00
E8
D2
0A
E6
D6
E5
F2
ED
E7
E2
22
09
12
01
00
E6
F7
0B
F2
0C
FB
F6
DF
00
2C
C8
FB
E7
1B
4C
F8
0C
EC
14
03
04
00
21
F1
08
2E
06
EC
16
17
F6
FB
14
FC
FD
FF
E4
FA
01
03
11
EF
E2
0B
08
F8
11
E2
04
E8
1F
04
E3
E0
00
EB
EE
12
10
25
1A
F4
1C
E6
04
DC
0A
29
00
FF
0A
1C
0D
E9
05
FA
01
0E
EB
F4
0A
E3
E1
DF
E8
19
D0
D6
02
FC
27
0C
33
EB
26
24
18
13
EB
FB
D7
14
D6
19
0A
07
06
ED
0D
F2
05
F2
02
F2
DF
29
FF
1E
0C
F9
F9
E0
10
F9
E3
19
F4
F4
09
06
CE
F5
01
0F
2D
06
F8
1D
17
0D
07
36
D9
FF
F1
F3
15
EE
E7
29
17
03
00
09
E2
0B
05
E4
E7
FC
03
ED
F5
F4
F1
EA
0A
E6
09
F2
D9
17
FF
18
21
F2
14
26
E9
FF
1C
13
D1
F5
03
2F
1A
FC
E7
02
11
18
02
34
FA
25
F4
0E
1A
DE
D8
F2
10
04
EC
16
F9
07
F8
25
F1
FB
FB
D6
1A
E4
FD
EC
FE
13
E2
1A
05
10
F2
16
E5
04
00
F6
0D
D9
22
17
09
FA
0F
EE
38
F7
F9
06
0A
FD
10
28
08
F5
DB
17
EC
E9
F4
F7
FF
08
EA
F3
06
DD
E9
10
04
ED
0D
F8
44
12
16
FD
F1
05
F4
21
EE
0B
FF
D9
F0
E9
FE
EF
11
FE
EF
1A
1E
10
F0
21
E9
DB
3D
1D
F8
E9
20
04
28
0A
DE
0C
E0
FF
03
0E
15
F9
08
EE
E9
FB
1F
F6
1B
E8
FD
FE
0F
16
1F
F7
E8
DA
11
0A
23
08
EA
19
F9
07
F0
DB
32
F9
F2
06
EC
E5
F2
E2
12
F9
1F
F4
19
DB
0B
D9
06
17
14
F2
FF
0E
1C
10
20
1F
21
17
EF
2B
F6
0A
09
F1
0B
F0
30
DA
12
1C
26
02
16
14
1A
02
37
14
0D
FA
FF
27
DE
10
F5
EE
08
EF
08
08
F8
FB
10
F6
0E
E9
05
ED
FA
C1
DD
F8
FD
F4
E5
D5
EA
E3
E4
0E
03
F3
20
01
E9
F2
F7
E2
DB
14
1A
EE
12
05
F5
D2
F5
F9
FB
FE
20
FC
02
00
0A
FE
F3
D5
ED
EE
F4
08
0C
DF
1C
F9
23
3C
27
F5
09
24
FF
F0
E5
ED
F2
FB
F6
10
0E
DF
E0
FF
18
0F
E9
03
22
EA
F8
E5
28
12
2D
17
F8
F2
FC
EB
37
E2
00
FD
11
4B
05
FA
F7
FB
21
DC
E4
00
01
EF
F3
E9
FD
FD
05
0F
E4
D7
F8
0B
EA
FC
01
23
F2
14
F3
D2
F0
FE
F0
FB
04
E0
03
FD
15
F9
F4
13
09
2B
0C
D9
20
EB
E1
E8
08
02
2D
FF
FF
04
EC
E2
0E
FC
EE
19
F8
FA
F2
FB
F5
F2
F1
0E
08
00
F7
F7
25
12
F6
13
02
04
EA
FD
F8
E9
2F
F8
DF
05
F4
0C
26
00
12
F2
13
F7
02
28
55
2F
0B
24
D4
ED
17
EC
0C
09
FE
2C
F1
08
FE
00
F8
EC
EB
FE
E9
D5
FC
DF
E6
2F
E9
FE
E8
13
EA
23
EB
0C
0A
11
08
2B
EC
04
1C
C5
FE
E0
20
EA
11
E9
FE
F5
13
F1
F4
0B
FE
F4
DF
07
1F
CC
F1
F2
FC
D5
01
0A
FD
F5
F3
EF
05
1F
EA
FA
FF
1E
F7
D9
E9
06
E4
2E
EC
ED
12
CA
DB
EB
00
F9
12
19
F2
F6
EE
00
04
E0
0A
AF
02
E2
09
FA
2C
DD
F9
F7
18
0E
0F
04
F7
0E
EA
F9
DC
0C
FE
F4
02
E6
15
0D
0C
F0
FB
F2
F1
15
05
19
00
15
FE
07
E7
2D
FC
07
1E
DC
0B
02
EE
DE
0D
13
EC
FB
EB
D1
EE
18
EB
14
EC
07
25
1B
2F
02
1F
E9
0B
05
E1
0A
05
1F
FC
FA
06
F6
EE
F7
12
FB
05
CF
15
12
E4
F0
E4
00
0B
CB
0B
04
00
F1
09
E0
F2
E4
0B
35
08
40
E4
FC
F4
27
07
30
09
1D
01
F2
2D
F3
02
F4
00
E5
F5
16
42
2B
30
F7
04
FB
18
04
18
F1
E6
4D
EC
25
F9
EA
07
06
1C
16
0A
23
DC
F7
EC
EC
15
13
09
F7
E8
1A
02
F3
14
26
EE
16
1B
F5
F5
0C
14
0D
06
FF
FD
06
46
05
3E
EE
06
0B
02
17
D5
FB
05
06
0A
E9
D9
09
FE
0A
05
E8
3B
1F
24
15
0D
E7
F8
E4
B7
FF
06
25
14
40
EF
E9
09
E6
2D
27
F6
E9
11
FB
10
08
02
04
05
0F
E4
0E
FC
E3
BF
E6
03
F3
F3
07
FF
1C
06
F5
E8
FC
06
FD
F2
13
FC
2D
1C
F7
FA
26
FE
08
DB
F6
04
0D
F3
10
F1
08
2C
1C
E6
C6
D2
0D
04
04
05
FA
19
FD
CA
F9
FE
00
FF
0E
0C
01
F8
F6
E2
1A
0B
0B
E3
FA
FD
FA
18
17
F8
F1
F7
0F
11
FB
08
E6
0F
2A
E0
FF
17
F2
FE
26
E7
FF
F2
2E
01
FB
F0
E7
EF
F4
FB
E8
F0
D6
04
0E
E3
F3
24
09
F7
0F
00
E1
F9
D1
FA
F4
FE
18
1B
1D
13
F2
FB
4D
E0
22
1F
FB
F6
18
1D
F4
E5
FB
FA
FF
E5
06
0F
EC
DB
E3
F1
F2
CB
01
09
1E
01
F7
F9
1D
12
30
03
3A
E6
0E
DC
E6
02
FC
06
08
07
28
CC
DA
DB
2A
0E
13
BF
12
EF
01
E0
ED
0E
FC
EA
23
12
EA
05
0E
0A
F6
10
04
02
E8
D0
17
14
11
01
05
16
E6
E2
F1
02
CF
F8
09
F8
06
08
03
D4
11
11
FC
19
02
EE
15
E8
F3
F3
15
D5
E1
35
E5
1B
E5
E9
14
F4
22
0C
EA
FC
FC
F8
FB
EC
F1
0C
0F
12
11
DC
12
F0
13
F2
06
EC
07
F9
06
E0
FB
F1
E8
EC
05
F3
EE
18
F7
FA
E2
0A
D5
FE
17
FF
FB
10
14
03
11
1A
10
FA
F2
C8
EC
EB
0D
FD
09
E6
F1
E6
E7
11
C7
D8
FC
E8
28
20
24
06
EB
10
16
0F
05
E0
0F
08
F0
14
D5
EF
F8
E5
D2
EB
09
0D
D7
FE
D8
F2
1D
0A
EE
15
D3
02
DD
3A
F0
ED
05
EC
D1
0A
06
E4
E0
F1
16
09
08
0D
0E
05
FF
0B
E1
11
06
BC
F2
20
04
20
EC
13
EF
0F
12
11
F2
01
18
14
0E
F8
0D
02
0C
FF
EB
02
05
00
E1
12
F2
E7
04
2F
EE
BE
EA
18
DA
13
E9
06
02
19
1C
F7
E1
18
F9
F2
28
F1
BC
01
FD
F9
08
F9
FB
1D
0E
05
E5
05
F7
E5
0B
EF
CF
CC
13
EF
08
06
05
2C
04
12
04
DB
03
F1
0F
F1
D9
FD
18
19
F7
05
C1
F4
E4
EA
D0
DE
01
19
F5
10
F8
FC
14
FB
13
F0
17
D4
F6
14
D1
FC
02
C8
D9
