EE
E7
F5
ED
25
F3
F1
F2
F7
08
0A
07
09
33
0A
07
05
06
ED
04
16
D4
07
2A
0E
FE
F7
FA
F0
FB
FB
F8
F9
F2
F9
F1
0B
0B
08
0C
1D
0C
08
FD
07
00
02
00
02
2B
04
02
05
05
F7
F6
F8
F4
FE
F3
F3
EF
F5
FA
14
34
F7
F2
24
E6
DA
FF
1B
26
F2
24
1D
E1
F3
DB
F4
F5
2E
F3
08
1F
06
01
E9
05
F9
07
04
F5
05
2D
FD
FC
01
0B
F9
F8
33
FB
E6
15
FE
F4
FD
0B
FF
12
3E
14
FF
0D
FE
01
15
FF
0B
34
0D
00
0C
FC
FC
F0
F8
F7
FA
F5
FA
ED
F9
F3
F4
F8
E2
10
0E
E7
19
0E
08
1D
08
02
21
03
EE
CE
EE
F2
F3
F2
F8
FD
F4
F7
F2
F5
11
11
12
FD
20
FC
EE
D4
EF
F6
03
22
F9
03
19
02
F8
F6
F8
F5
FA
E4
FF
E5
F4
F4
F6
05
09
05
10
2C
09
04
13
02
F0
DB
F4
21
07
22
12
E6
0E
00
27
25
EA
F4
00
FD
F1
F9
0B
04
0C
01
20
FD
06
0B
0A
FD
F8
FD
03
0D
04
07
16
07
F6
F9
F4
F5
F5
F4
F9
F4
F6
00
04
FF
FB
24
FC
FF
06
FF
F8
EF
F8
F2
F2
F3
F8
EF
F6
04
FC
06
0D
11
0D
07
0D
04
0F
2C
0C
01
E6
FF
FB
04
FA
F9
F3
F7
F3
F1
F3
F4
F4
F6
02
06
01
05
2E
04
FC
0A
FE
02
EE
FE
EF
CF
ED
FA
F7
FC
F5
E9
55
FC
CC
F0
04
08
F2
00
14
FE
1D
12
1F
06
F3
04
F1
15
FC
CB
3C
05
FD
0D
FF
06
20
09
01
17
FF
FA
F9
F8
04
EE
F9
F4
D9
1D
EB
25
38
FB
28
02
11
1F
0F
02
AA
FC
0F
00
FB
2C
17
F1
05
F0
03
07
1B
05
0F
FB
15
05
F7
04
FD
0A
03
05
37
05
07
04
04
F8
FC
FA
09
F6
04
12
21
10
F6
F5
F6
F6
F7
F6
F3
F3
F4
0B
0F
FF
22
F0
FF
0F
11
F9
F6
F5
F6
0A
0E
07
09
1B
09
04
12
03
0E
33
0B
02
0A
02
03
01
03
09
06
0B
01
02
01
FD
E8
F9
09
2C
11
FD
FE
00
01
08
01
0B
34
04
04
0A
01
E9
FA
0A
D3
1B
24
E4
02
04
07
0A
0A
15
0D
15
00
11
06
F2
F1
F7
F3
FA
F3
F4
F4
F4
F1
FB
F3
F6
FC
F5
F4
F6
F6
05
01
07
10
33
14
02
FF
05
04
F3
01
F5
E3
F7
0C
3E
08
F2
F9
F5
F5
F9
F4
F9
ED
F7
19
F4
E8
24
F8
DF
1E
F7
E8
07
F7
08
09
21
0A
0C
05
0A
12
02
EE
1C
08
DE
10
05
E6
13
FE
F9
1E
D0
FC
05
21
14
04
FB
04
1D
10
1A
02
F8
06
F3
FE
F2
F8
E7
FC
13
24
0F
01
FE
00
00
2D
02
05
07
03
FF
FD
FD
02
3A
FE
04
04
05
02
06
06
02
38
FF
03
0C
03
F8
FE
FC
FD
31
FC
ED
DF
ED
0A
0D
09
04
24
06
0B
05
07
FD
F0
00
10
E2
15
12
1A
13
1B
11
1D
FE
EB
07
FD
FE
F9
F6
F3
F5
EF
F3
EF
FA
F9
FA
0A
FD
35
F8
9C
F4
18
F4
3D
FC
FF
FE
F2
C4
F5
1C
23
27
F1
DB
F1
EA
34
E9
FD
1F
FB
08
42
FD
ED
F3
EF
FE
F6
04
13
1C
17
EF
F2
F8
F2
F3
F3
FF
13
02
05
27
03
06
01
03
FA
F4
0D
ED
E4
2E
FA
F0
0D
F5
EE
0C
E6
0B
20
F7
0F
11
0B
EC
0C
17
D2
11
11
D7
13
05
42
08
F7
FA
F5
FA
F9
F7
F7
EF
F7
F3
FA
F2
F3
F7
F2
EE
F9
EF
F8
F4
F9
F8
F7
FB
ED
F3
EE
F2
F0
F4
ED
F1
EE
03
08
02
07
24
05
07
10
06
EF
E7
ED
FD
3C
00
03
01
01
FE
03
FE
FB
03
FD
12
20
12
FB
F3
FC
F0
F9
EC
F6
F2
F7
00
01
00
00
06
01
00
01
01
FF
01
05
00
FA
04
00
02
07
FF
F7
FF
05
18
02
0B
1F
0E
F5
F8
F7
F7
F7
F4
F3
F8
F0
F0
EA
EE
F6
DF
02
1A
38
1D
06
05
06
F6
E8
F5
02
3E
07
E1
EF
EE
20
0C
E2
20
25
EE
FA
F3
F9
F7
F1
F7
F4
F4
F4
13
FB
ED
24
F8
DF
1A
FF
E7
18
15
16
06
DA
0A
FE
E1
FB
F6
FF
F8
07
1D
09
00
09
04
F4
F2
F5
F0
FE
EF
F7
F4
F7
F7
F0
F8
F7
F8
F5
F6
F3
F3
F5
CF
F5
0F
16
10
01
1B
01
03
09
02
0C
27
0E
03
0D
05
FB
EF
17
FB
E5
2A
F2
E8
14
09
1E
0D
12
03
11
FD
FA
FC
FE
F2
FF
0E
E1
12
11
2B
13
17
FF
02
1C
E7
07
18
0A
F9
F7
F1
0F
EB
F1
2D
F3
F6
0D
F6
F9
F6
F1
F9
F2
F7
F2
F6
F7
F2
F8
F4
E6
F4
F8
F5
F6
02
04
06
07
35
04
08
06
04
F6
F1
F5
F4
F2
F1
F6
F6
F5
F8
08
E1
1C
26
F1
04
03
05
FC
0F
FA
FE
BD
F9
08
43
0B
02
EB
03
07
0A
0B
08
20
09
FA
03
F9
03
30
02
04
02
01
04
FF
FE
03
02
FF
FD
00
FF
F6
EF
F3
E7
F9
15
EB
0F
15
EF
F3
EF
E9
01
EA
EF
FA
EE
1A
2E
13
FF
F2
FD
FC
F4
FA
F0
F5
F9
F2
D5
F7
F5
F2
F9
22
09
E4
15
D3
FF
E5
FD
1D
12
0D
F2
17
10
D0
09
03
F0
07
05
F5
27
0B
E7
0A
FD
F3
FA
1A
F5
DF
0E
E0
FB
E4
F8
FA
F6
F8
EC
BB
F0
11
5E
0E
02
EF
03
09
2D
0C
F0
E9
EF
2B
1A
27
04
B4
06
F6
02
F1
03
0D
05
0C
29
0B
00
02
02
FA
F8
FA
F1
49
ED
F6
DF
F5
D0
49
19
39
A5
2F
03
11
0E
F6
F6
F4
F3
ED
F3
F6
F6
F7
F9
F4
00
04
2B
E8
04
03
0A
0C
18
0F
0B
EE
10
06
FC
05
F7
F9
F6
F1
F6
F4
F3
F4
F3
09
F7
08
22
F5
22
07
1C
06
1D
F7
FC
14
0C
F8
F6
FB
FD
05
0A
03
05
19
07
FD
01
FE
11
1D
15
0E
E4
0B
EA
F3
E9
F8
F4
F6
F3
FC
F4
F6
EF
F3
FC
F0
F9
F6
F6
F5
F7
F1
F4
04
ED
04
03
ED
34
FA
EF
0F
0A
FF
0B
05
1F
01
09
03
0C
F7
F9
F6
F3
E2
F4
F4
F9
F4
04
13
0C
F0
F7
29
08
0F
08
FD
05
15
F2
FA
32
01
EC
E4
06
12
06
12
1E
12
0A
17
07
FB
F5
FD
EF
17
E8
F5
33
F6
02
05
03
0F
1F
0A
04
02
03
F2
F9
F6
FF
DF
FF
F2
FB
F3
04
10
0F
0E
31
F8
04
0E
0C
FE
EA
FB
00
2A
03
0F
16
0C
F5
F6
F1
F9
F5
F8
F3
F4
F5
EF
F3
EB
0C
19
0D
08
13
0D
04
08
03
08
28
05
03
0D
02
EB
E9
EA
F7
F6
F6
15
2A
16
08
FD
09
09
23
05
07
17
0A
FF
16
02
16
1A
16
06
11
09
09
08
08
10
13
14
FD
12
FC
0F
4B
0C
00
D0
FE
F9
E3
F8
FA
F0
F9
F5
D3
F7
01
F9
FD
FD
F5
FA
F6
E3
F4
FC
F4
F9
FF
FE
FF
01
05
00
00
03
00
05
09
04
07
2E
09
05
0D
04
0C
02
0A
00
35
02
F7
F4
F8
03
06
01
02
2C
05
02
0C
02
F0
DA
F5
19
06
DB
1E
17
FA
0D
04
FC
1C
EA
FF
1A
0F
F8
E8
E9
E8
00
F5
FC
13
35
15
07
0A
09
15
23
18
FE
EF
FF
49
1D
18
EC
AB
F5
E9
09
F9
E8
E2
EB
F8
EB
F5
17
22
15
FA
FD
03
FF
C7
3C
00
03
F9
FB
F4
FB
EF
EE
EF
FA
F0
F9
F9
F8
FA
F2
F9
F4
F6
F5
F3
1D
EE
FA
2D
F7
F3
FA
FF
08
F5
26
1D
E1
0D
2A
F9
E4
EC
F7
F1
F5
F6
F4
F3
F8
F9
F8
F9
F7
0D
F1
E4
28
FC
F5
17
12
FC
F4
2D
E2
F5
0C
F4
F9
F7
F3
F6
F3
F6
F7
F9
F7
F6
F2
F8
F2
F7
F8
F6
F4
F5
F7
01
0E
00
08
54
04
FC
13
FF
F3
F1
F6
F2
08
F4
F9
F4
F6
FE
F9
01
0B
F9
09
0F
1B
0E
F8
F8
F7
F3
F6
F3
F8
F5
F7
11
26
10
00
F4
FB
F4
F7
F8
FA
F3
F9
EE
F5
EA
F7
F1
F6
09
04
0A
09
43
07
01
FB
03
06
03
06
06
39
01
06
01
05
05
12
07
0D
1D
0A
F7
06
FC
08
0C
06
0E
24
0F
04
0D
01
07
0B
F4
37
03
C6
13
07
E8
F6
0A
F2
F1
31
F0
F6
19
F2
EF
F9
0F
F8
FB
51
FD
E1
05
FC
F2
FA
30
F3
FE
18
18
FD
DF
01
DF
FF
7F
FF
DE
06
DB
1A
F4
FF
3B
E0
FE
FF
EA
02
06
EB
02
3A
D6
02
14
ED
01
02
00
F9
27
06
E3
12
00
E6
F9
F0
1B
ED
DE
34
FE
FC
06
0A
18
09
01
1A
05
EF
F9
F4
F7
F2
F6
F4
F9
F3
F9
F0
F8
F8
FA
F7
F5
EE
F5
F5
F6
F4
0B
FA
FD
23
EF
FC
0F
0D
01
FD
0F
EB
EB
20
22
F5
FB
15
00
0C
01
03
39
03
00
01
FF
0C
FA
0D
0E
1A
0E
0E
F9
0E
01
3B
FF
FE
17
04
FE
D1
F7
F6
1A
15
DC
0F
21
EE
FB
F5
03
01
05
09
C8
15
0B
16
0F
FD
F4
FF
F4
EF
F7
F3
F0
F2
F5
ED
F6
F7
18
F7
F2
EB
F1
F7
FC
F1
F0
FD
F5
F9
F0
F8
ED
E8
FD
F0
E7
19
F6
1F
35
FA
F0
F6
F5
F3
F7
F7
F1
F5
E4
EB
05
09
FD
1C
01
17
07
F5
FA
F4
FC
F1
F8
F7
F7
F2
03
02
03
0B
21
08
08
0D
08
12
14
FA
25
E9
F9
FE
02
FF
F6
F8
F4
F5
FA
F6
F4
F7
F0
EA
F5
E7
F0
43
ED
E6
00
E6
F8
EA
F7
ED
F3
EC
F9
F4
FB
F4
F5
F3
F1
FE
F6
F5
F7
F3
11
FB
FA
2C
E9
E4
10
02
F2
FF
DE
01
FE
D4
FB
09
51
09
FE
F2
00
0F
D9
0B
15
1E
15
02
07
F1
22
09
F0
16
FB
F5
05
0D
08
0C
23
12
F4
F4
F2
10
23
12
F7
15
FA
FD
EF
FF
FE
DD
FF
F9
D6
FA
13
48
17
FF
FE
FF
00
03
FE
FF
05
FE
FD
F3
FE
EB
DF
E7
11
3F
14
F8
F4
F5
F4
F9
F5
F2
F3
F3
00
FF
FE
FF
FF
02
FF
03
01
F9
F1
F7
F5
F6
F7
F7
EF
F7
02
0D
02
07
28
06
04
06
01
05
F7
02
03
0E
01
09
20
06
0F
21
11
02
F0
FE
EE
E7
E8
F4
F7
F7
FB
E9
FC
17
22
16
01
EC
FE
F1
F2
F1
FB
F0
F7
F3
FA
F4
E6
17
E3
F1
04
F2
06
19
08
08
1C
06
01
E3
FC
F5
EF
FA
EF
FB
23
F0
13
1D
FB
FC
FB
14
20
F4
0E
1A
09
F7
F2
F7
F5
FD
F4
F2
F4
F2
00
FC
00
07
2F
05
05
13
09
16
3A
1B
F1
E3
F4
FC
E8
F4
15
F9
EF
2A
E7
E0
17
03
F7
FD
0C
FE
05
37
FE
FE
16
0E
FE
EF
FB
F4
F1
F3
F7
F3
F1
04
FC
04
06
E6
04
1C
12
1F
FC
F7
FC
FB
C4
FB
01
FB
02
EE
E2
EC
F3
45
F8
FF
09
FC
FF
E5
FE
04
EC
02
FA
EF
F6
E4
07
25
F6
01
1A
20
F4
DC
12
05
F9
FF
18
0D
F9
02
0E
FF
03
02
FB
F6
F8
0D
2D
0C
07
0A
0B
18
02
1E
08
16
0A
F5
F9
F6
F7
E1
F4
F6
EF
F7
11
37
0F
F1
E5
F4
E9
08
ED
F6
E8
01
18
E0
DF
19
2E
FD
05
05
04
02
20
04
07
06
06
09
34
0B
F2
E4
F1
00
F5
01
FA
FE
FB
EE
F1
EF
F5
FA
F5
05
EB
05
36
AA
37
0C
EE
0B
F0
FA
EE
F5
10
F6
F5
F0
F4
F5
F3
15
E4
E4
38
F4
F9
15
F6
F4
F8
F6
FC
F4
F3
F4
F1
F9
F5
FA
F5
F9
F3
F6
F0
F5
0F
21
0F
0E
03
11
04
FE
06
F6
F4
F3
F6
F6
F4
F4
F1
F3
01
F9
03
06
F8
02
05
27
06
F4
F0
FE
E6
F4
19
F4
0F
3C
FB
F5
FA
F9
F1
F8
F2
F4
F4
0B
08
09
13
1F
1A
08
11
0C
07
01
07
08
29
07
07
03
04
F2
00
EF
F3
FD
FA
EB
F5
E6
0B
FC
0D
01
1D
07
FE
20
FD
E8
09
08
D2
27
19
E9
05
08
04
0C
01
06
28
0A
0A
04
08
FA
F6
F6
FA
E9
F9
1A
26
1A
0A
32
0A
05
0C
09
FD
DB
F9
F6
F7
F7
F6
F4
F5
F6
F7
F3
F7
F1
F5
EE
01
EC
F1
07
F0
EE
DB
EB
27
F6
25
0B
EC
0D
0E
28
0F
F6
0D
F7
F3
E5
F2
F8
DE
FB
F8
EA
F4
0A
49
0C
F2
EE
13
F5
F2
14
F0
F0
10
07
0E
08
09
20
09
07
03
05
FB
EC
EB
1E
FF
E2
3A
0F
FA
12
04
FE
FF
E1
FB
2E
1C
F3
03
04
03
00
09
02
FA
31
FC
2F
18
E4
E8
E0
06
E8
04
20
08
FF
08
0A
0E
09
05
18
05
FB
12
F6
F2
35
E4
FC
0A
F8
05
0B
08
0B
32
0D
F8
02
F7
05
01
06
0B
16
0A
FD
0B
FF
0B
2D
07
02
FC
08
F5
FD
F2
F9
F7
F8
F6
E7
F5
F6
F7
F6
F9
F8
F9
F5
E2
F1
03
ED
00
E7
E0
E8
FD
2B
FD
01
15
03
F3
09
12
FC
FF
21
F0
F7
10
F4
FB
F4
F6
EE
FA
F3
F5
F3
EE
E6
E8
03
22
FC
0A
18
07
05
18
06
0E
2C
0B
02
06
01
F9
F3
F9
F6
FA
F7
F5
F9
F0
1C
FE
DC
3A
09
E7
05
F3
F5
1B
17
1D
09
D4
0B
F7
E9
FB
15
2A
18
FD
F8
F8
F2
E1
EF
06
0F
06
05
19
07
09
0A
0A
F9
F9
09
E5
F0
25
1A
1D
CB
F8
F3
F7
F1
F4
F2
FC
F1
F8
F6
02
F5
07
34
03
01
08
03
F6
F8
F6
F8
F7
F8
F6
F8
F6
FC
F7
FF
0E
CD
0F
1D
13
1C
F5
FF
0B
EA
EF
34
FB
03
0A
EA
E0
DE
09
1F
E4
03
09
EB
11
1E
10
0F
EF
12
F8
F4
F2
EB
E8
EB
0D
EC
0C
1B
0E
1A
FE
F0
FF
13
14
15
08
20
06
F3
F7
E4
F0
02
25
EF
13
2E
00
0B
FD
13
3D
14
00
08
FB
18
FE
EC
0B
12
0F
EE
FC
18
03
0C
03
09
23
0A
02
09
04
01
0B
04
0F
1B
0F
0F
07
0D
0D
03
08
03
1E
05
08
0B
07
F3
1A
F7
05
11
03
F6
26
FB
F6
F5
F2
F3
04
F5
F4
F5
F4
0B
15
0B
ED
08
EA
07
1C
0A
FA
FA
F2
FE
FD
2D
F4
21
1B
F5
F7
F4
F6
F1
F4
FC
EF
FB
F3
F3
F0
EE
3E
EC
EF
F6
EF
F1
F4
0C
F1
F0
31
FA
F2
12
F7
FB
F6
F4
F2
F3
F7
F2
F7
0A
33
0B
05
FE
07
04
FC
02
09
F9
FE
36
F6
D8
08
FF
F6
E1
09
DB
05
64
F8
E4
09
E1
F6
F5
F9
F4
F1
F0
FA
F7
FC
FA
F6
FA
F5
DE
F7
12
32
0D
05
F8
06
06
32
08
02
F9
00
04
3A
06
FF
E7
FF
00
E9
01
E0
E8
E8
08
18
0D
09
1E
09
0E
25
0D
0C
EB
0C
03
FC
04
15
FA
FB
26
DF
F8
12
F9
F5
0F
F8
07
24
FE
28
08
0B
07
FC
F5
FB
E4
6F
E7
F9
EF
F6
FF
07
02
FC
3B
0E
FF
0A
FD
F2
03
EF
02
3B
04
F8
03
F7
F6
F3
F7
F2
E8
F1
F9
EF
F9
07
05
09
05
1A
05
04
07
06
08
27
06
0B
0F
0A
03
F7
FF
EC
F8
FB
32
D6
FC
30
F6
FB
FC
F9
FB
F3
F4
F1
F2
EB
F1
FE
14
00
11
25
0D
FC
11
00
E5
DA
E4
02
39
03
03
07
00
0A
E4
09
1F
07
21
07
EF
08
FA
F8
F7
F6
FC
F7
ED
F3
EA
F8
D2
F5
FB
09
FD
12
25
0F
F7
F5
F5
F6
F8
F3
EE
F8
F1
09
22
0A
0B
16
09
FB
04
FC
F9
F0
F9
F1
F6
F5
F7
F3
F6
FF
F4
FF
F4
DF
EE
0B
37
08
F7
F5
F7
FA
F9
F4
F0
F6
F0
F5
DF
F9
FC
DE
FB
12
44
0F
FF
FC
0D
D6
E8
41
F9
01
0C
F4
F8
F6
F9
F1
F8
F2
F3
F2
FA
F1
FB
EF
FC
EF
F7
F6
F6
FE
FE
FE
01
06
00
FF
03
FE
19
31
1C
F2
FE
F4
F2
DC
EC
10
FC
F6
2C
F8
E0
11
00
F3
F1
F7
EE
E9
3F
25
FC
06
FB
06
0E
06
08
15
06
FC
01
FA
E9
D7
E0
ED
16
0E
F5
14
04
ED
FB
2D
EB
EE
27
0D
05
F1
F3
0B
F6
03
F7
03
15
2F
19
F9
00
F7
F5
DA
EF
13
35
16
FC
F2
FC
F3
F3
F1
F7
EE
F6
F1
FA
17
DC
EE
34
F5
FE
0D
F6
F9
F6
FB
F6
F9
F2
F1
F3
FA
EC
F2
10
06
0E
0C
19
10
02
06
01
09
31
09
04
03
05
FB
D9
FE
F8
F0
F6
0E
3A
0B
FB
F1
F3
FF
1C
05
03
2A
06
17
3F
13
EB
CF
F2
F6
F4
F8
06
0F
05
10
2B
0F
07
11
04
F4
F7
F5
EA
07
EE
F6
F5
F6
F8
F2
F8
F0
E0
F0
19
40
1B
F6
F4
F7
F1
05
F1
F5
F4
F5
F4
F6
F3
F8
F7
F6
F2
F4
F5
00
2C
01
FC
04
00
02
FC
03
EA
38
E8
D6
37
DA
FA
18
00
FB
E5
ED
E9
EE
27
FB
23
1B
05
0C
07
0A
25
06
FE
0D
03
F2
F2
F0
F1
F9
EF
F8
EC
F7
04
00
F9
F9
19
2C
F7
FD
F4
04
09
04
0B
22
0B
03
0D
04
05
EF
01
0C
07
0E
12
19
11
F4
F5
F4
F3
EE
F0
F7
F1
F7
FB
0D
F8
E8
36
E2
FC
09
F9
02
11
07
08
23
0C
03
0E
01
FA
F4
FC
E4
11
E4
F7
FB
F7
F6
F6
F4
FC
F7
FF
0E
1B
0F
04
0A
04
0C
21
0B
01
0A
04
09
0A
09
FD
22
03
07
15
08
F2
0D
01
19
1C
F1
16
01
F3
F6
04
0C
D9
E9
3E
F9
08
FF
FC
FB
0D
E7
DD
3A
F8
01
0D
07
FA
06
07
43
0A
FF
10
01
FB
FE
12
EB
19
32
02
EB
05
20
E9
FC
2D
B4
0A
40
E9
F0
05
13
02
08
24
09
06
07
02
0D
01
F7
2F
F2
DE
18
F6
ED
F4
03
F3
FF
2F
F2
F3
F2
F1
F3
F4
F5
F5
ED
F7
F4
F3
F8
F2
00
FF
F0
C1
F9
3B
03
F8
0E
44
0E
F2
E1
F3
FE
F4
F9
FD
F3
FA
F6
EF
F7
FA
F1
F8
FA
F2
F7
F0
FC
EF
F9
F0
F5
E7
E2
E1
F4
29
02
FC
0D
00
04
00
ED
0C
25
D5
08
0C
EB
06
0A
05
07
3D
05
05
06
03
FF
07
FC
06
2B
05
01
0A
01
F5
FB
F4
F7
F6
F5
F6
F2
F5
07
06
05
02
2A
01
02
0B
03
FB
EF
FD
F0
E7
EE
F5
F2
F6
08
05
08
07
23
05
04
0B
03
FB
D7
FA
E9
1B
EC
F7
E4
F9
F5
FF
F5
14
27
12
F1
FA
EF
08
0A
08
07
13
08
05
07
06
F6
F5
F6
F6
F4
F4
F7
F6
F4
F5
E7
F6
FD
14
FA
14
33
15
F6
F3
F7
FA
F2
F7
F2
F6
F4
F1
F9
F4
F2
21
EB
F2
DF
F0
F8
10
15
07
E4
23
F3
07
1F
F9
FA
FA
F8
EA
F6
F0
F8
F3
FF
0F
FE
07
22
09
04
02
06
03
0D
05
0C
55
09
03
0B
05
0D
22
F3
0E
0C
E4
FE
F3
F2
38
21
F3
15
F6
FB
01
DB
E5
F2
F8
F1
F6
F8
F8
EF
F8
F2
0F
1D
0E
02
1D
FE
E5
CC
E5
04
0C
04
0B
1E
0E
02
09
02
F4
F4
F5
F5
F3
F1
F8
F5
F7
F7
F4
F5
F2
F4
F4
F5
F6
F7
0D
22
0A
17
E1
1F
06
EA
01
F4
F4
F8
F9
FF
F5
F2
F3
F7
F1
4E
F3
E0
E8
E0
04
03
04
08
4F
09
F1
EF
F4
FD
E7
FF
FF
F1
0F
FE
E7
18
08
2F
D0
0B
43
0F
FB
E8
F5
FF
D3
FD
FE
F6
FB
0A
33
0A
01
F6
FD
FB
EB
FE
F0
EE
F2
01
E7
00
0B
19
11
07
21
10
0C
0C
04
F0
F3
F0
F5
02
F5
F5
F6
F4
F4
F4
F6
F8
F4
F9
F4
F8
F6
0D
0A
0D
05
23
00
08
02
09
F6
FB
F7
F5
F7
F5
F6
EC
F3
06
FF
08
06
21
03
05
FD
06
F6
F6
F8
F1
F8
F3
FB
F3
F7
0B
07
0B
02
17
01
0A
0B
0A
F3
F5
17
EE
F3
21
EE
F8
11
0A
14
05
0D
24
0B
00
FE
03
02
F3
02
F4
C0
F4
FF
F9
FE
F9
F7
F8
F7
FA
F2
F6
F1
F7
00
07
FD
08
19
06
FE
0C
FC
01
0C
01
0B
15
0D
04
14
05
E4
FF
E1
F4
78
EF
DC
14
DA
F5
07
F5
F8
3A
FA
F4
07
F6
F6
F5
F7
F3
F6
F5
F9
F5
F7
17
EE
FD
37
E8
E6
0A
F7
FC
F8
FF
F7
F3
F7
F1
EE
F8
ED
EB
13
0E
21
FC
D2
1B
FD
EB
0E
EB
13
02
C6
3D
09
EE
20
F3
EF
F3
F4
FE
F8
F6
FA
F4
04
04
06
03
54
02
05
06
08
F6
02
F6
F5
F6
F7
F0
F1
F1
F2
F7
F1
F7
FB
F8
F3
F5
EE
EA
ED
EE
F4
26
F1
F3
F6
F1
00
09
FD
04
26
07
02
02
01
12
37
1B
E9
C7
F8
FE
05
FA
F2
F0
00
1E
F4
E6
2F
2A
EB
F4
F8
F6
F8
F2
F5
F9
F2
FA
FB
F7
FD
F9
EA
F9
F7
F1
F8
02
03
02
03
3B
00
00
04
03
F4
F4
F3
F7
F2
F6
F5
F3
F4
F4
F4
F3
F7
01
F5
F4
F5
F2
FD
FA
FD
19
35
18
0A
00
07
05
04
04
06
28
07
04
07
03
DA
04
28
02
04
03
28
FA
D9
13
30
14
F4
FF
F3
F0
D8
ED
F8
F7
F4
F4
F9
F0
F9
F7
FB
F7
FE
F8
06
0F
07
09
0D
09
03
F8
05
0B
2C
0F
07
04
08
F7
E2
FB
E9
0F
EB
F7
EB
FA
0A
0B
09
12
0E
15
09
12
0A
FC
ED
FF
F4
F0
F1
FE
F2
FB
14
F2
FC
29
F3
07
04
0B
FE
F6
F2
F3
F6
F8
F7
F4
EE
F3
E2
F4
EC
F4
D7
FB
13
2C
08
F5
F5
F7
F4
FC
F4
F5
F7
F1
03
EE
0C
06
D0
44
06
EA
0A
FC
F5
FC
FA
E0
F9
17
20
17
03
EB
01
F0
DF
EE
01
E6
01
FC
FC
F0
FF
E3
FC
FB
F8
3E
02
FA
FE
38
0B
CE
02
03
FB
F9
F6
F8
F4
F8
F6
F2
FC
F0
13
1E
12
17
EA
17
04
F3
09
0A
E9
08
10
29
0F
FA
DC
F9
F8
F8
F8
F3
F2
F2
F1
FE
EE
F6
F5
F6
F6
F8
F4
F1
F5
F5
FF
F1
00
F3
30
EE
FB
0A
FA
F6
F2
F7
F7
F8
F6
F8
F5
F5
F8
F3
0C
DF
FE
28
F5
E8
21
FF
14
FF
05
30
08
05
05
06
F6
F8
F4
F7
FE
F7
F5
F6
F3
0D
0A
0D
10
1C
12
E2
E7
E1
F8
FE
F6
F8
DC
FD
0B
2D
13
F7
F2
F4
F6
F7
F7
F5
F5
F4
F5
F4
F6
F6
ED
F0
F5
F1
F7
EC
E1
EB
08
2C
F9
FF
FE
FB
0A
FF
08
1E
10
1C
F8
0F
FC
09
0D
0B
11
13
12
04
11
07
F4
B8
F1
0A
34
0E
06
11
06
01
06
02
0C
28
0C
07
0F
06
FD
01
FF
F9
40
EE
FD
02
FF
0F
48
10
F4
FF
F1
F0
D6
EE
01
F8
FC
30
BA
16
02
0E
FF
FB
FE
07
E8
EA
2F
F7
F5
10
0C
F7
F6
37
F9
EC
07
05
F9
EF
0D
F2
F0
05
F0
F2
E7
F3
FF
07
02
05
25
07
03
F8
01
FB
F4
FA
EB
F2
EC
F7
02
F6
00
0D
FF
12
20
15
07
14
03
06
FA
04
0B
18
0E
09
F6
07
FE
0A
FC
13
20
11
FF
14
01
F4
F8
11
D5
EF
41
F3
F9
11
F6
FE
1B
12
0F
0C
12
03
E6
F2
C2
EB
0C
31
0F
FD
17
FE
00
FF
02
09
2F
0B
FE
0D
FD
FC
F3
FD
FB
D3
FA
F8
FC
FA
15
2B
12
06
EA
08
FB
FA
FB
F9
F7
FA
F2
DD
F2
F6
F3
FC
FC
E0
05
05
C3
10
13
18
15
EC
F8
EF
F7
49
FC
F4
EB
F0
FD
08
FD
10
3F
15
F0
BD
F8
FC
FC
FB
F5
CF
F6
FD
F8
FB
03
12
03
0A
B0
0F
06
1B
05
10
F8
E9
19
14
DA
15
FE
E8
03
E6
05
F2
40
E6
FE
02
FA
04
F0
F2
1A
ED
E6
22
0F
05
FD
F7
F4
F0
D7
EA
F4
F6
FA
05
0B
01
03
26
04
FF
06
01
FF
F5
FF
04
3F
0C
FB
DC
F9
F3
FE
0A
E8
EB
2A
F9
02
04
10
0D
14
15
DB
13
12
13
10
F3
F3
F5
F9
F8
F6
F4
F8
F5
03
04
04
0F
26
0D
02
02
01
F8
E6
F9
02
F6
04
04
3A
01
00
E7
FE
0D
ED
10
19
1B
19
0C
11
0D
1A
E8
17
0E
10
12
F2
F5
F0
F5
07
F6
F5
F1
F2
F6
E4
EB
EB
FF
2E
EA
23
16
01
12
FE
0D
33
0B
05
16
03
06
31
07
FF
F9
05
FF
F4
FA
F7
F3
F9
0C
DE
F8
29
15
F7
06
0B
06
0E
25
0C
01
0B
00
F5
F8
F2
F6
F3
F4
F5
F7
F3
04
0B
03
0E
2B
0D
03
0A
05
EF
0C
07
C0
16
24
F0
11
05
03
19
05
14
1A
10
F9
11
FC
F9
F6
FA
F5
E5
F4
F8
F5
F9
0B
FE
0A
07
23
05
07
0A
06
0A
0E
07
15
1C
1A
0A
0F
0B
06
03
09
08
16
08
06
0D
09
