F6
E8
FE
FA
0A
EA
F1
07
06
10
F7
DF
FB
07
F8
E1
19
08
ED
0F
F5
FA
F8
29
13
F1
F9
02
09
FA
E8
F8
FC
05
E1
17
E3
E8
0F
00
FB
F3
01
F0
0E
FF
FD
F7
FB
E7
09
ED
1E
F3
23
F2
FE
F1
0D
14
E6
26
16
F3
FC
FE
FF
EF
29
17
F0
FD
03
F3
0C
00
14
0B
F7
02
F5
D8
FE
01
DD
FF
EF
FF
F5
F3
F4
0D
F1
F7
E8
EB
E2
05
12
12
04
0C
F6
FE
D3
FB
2E
F2
0F
05
0D
F4
DF
F5
FF
44
FC
F6
11
FC
28
1C
07
06
C7
CE
EE
DF
EF
3F
0C
1D
2C
F9
11
1C
FF
01
FF
14
00
11
BB
15
15
08
DB
F9
D8
0B
FB
F4
EA
0B
31
01
FF
0E
2A
03
FA
F7
E1
05
02
08
08
E7
1D
F8
06
06
E9
22
F8
02
20
14
FB
E3
E8
F1
E4
03
1F
11
DF
E9
F3
0B
FF
EC
EE
F7
F8
FA
22
04
FB
F9
12
09
00
15
0A
02
01
FF
F4
FF
04
F0
0B
18
07
FD
0A
FE
09
F8
FB
07
20
E7
1D
08
0D
0D
0E
EC
FE
F8
05
F9
11
16
17
05
E6
34
16
01
FF
0A
F8
02
EF
1C
04
FC
15
08
FA
02
0E
00
F4
F2
18
11
DF
00
F7
FC
02
D9
E9
04
01
0C
16
E4
03
15
EE
EE
10
F4
FE
F6
03
05
06
02
0F
09
08
FB
EE
F5
10
18
1B
F1
15
FB
E1
09
F7
0C
17
0E
DD
F7
03
F4
08
0E
FE
14
D2
F0
04
07
08
E7
0D
F3
13
FA
F9
0E
09
06
FC
FE
E7
FF
F1
F9
18
E7
F2
FA
11
09
09
04
16
1A
FE
F1
F5
09
09
EF
FC
FF
F1
0B
EF
02
04
FD
EA
F7
05
09
08
19
E5
04
FF
F5
00
00
0B
03
05
03
F0
06
FD
F2
0B
E7
12
06
0B
11
F6
F0
FD
E7
00
01
F8
04
02
0B
1F
F6
2F
E9
25
F4
FB
0A
F8
10
1D
FF
01
19
08
1F
2E
F8
F0
1D
0A
01
0F
E8
EA
E8
E4
0E
19
FB
22
FC
F4
EE
05
FA
07
F6
0C
FF
E8
0E
08
EA
DE
14
10
ED
05
FC
0F
F2
09
0D
FA
0B
11
F3
FB
E2
0B
F5
F7
FE
FD
FB
02
01
FD
04
E2
0E
F6
0E
00
02
1D
FD
06
23
07
02
F0
02
0F
DA
0D
FC
05
05
FC
04
FA
0D
FF
ED
FF
F9
F6
F5
02
0C
DF
F0
07
F9
03
11
12
11
D7
08
FA
13
FB
13
F2
00
0B
0C
19
1F
21
FF
F3
F4
F2
17
00
02
FB
DC
09
F6
00
EF
F2
10
E7
FF
F5
10
06
0E
02
FB
1A
D3
FD
0E
0D
FE
EB
0C
F5
1C
FD
02
30
06
FD
01
F2
F3
F7
08
F5
ED
0D
F7
01
EC
11
E2
14
FF
00
F3
FB
F7
10
FE
00
FE
E4
02
09
0D
0E
1F
F9
EA
07
F5
02
07
FD
12
F5
E5
04
11
F1
11
1C
05
02
12
E8
10
17
11
13
0C
FE
14
FF
F3
0F
EB
03
04
11
F7
DE
EB
FE
0E
E6
1C
22
07
E7
FC
DD
F6
09
FE
03
18
0F
FB
06
FD
00
FC
F3
00
F9
12
F9
E7
08
03
16
FF
ED
E4
DC
FC
11
F2
F8
FC
EF
FD
01
EE
FE
23
F8
E5
04
0F
08
F4
F7
F8
11
FD
FC
E6
F5
0D
05
ED
D9
02
03
E7
06
F7
E4
02
F4
03
FF
06
E1
0B
F7
14
0A
F6
EC
EE
20
1E
1A
DB
FC
FE
F5
EF
F9
20
10
DE
F7
1F
D9
0B
1C
F3
F7
F9
04
15
FE
04
06
F5
F1
F8
03
F5
0A
EB
04
0D
E6
FA
01
1F
0D
01
FF
01
EC
02
20
F4
EC
ED
F6
27
EF
01
11
F7
0A
11
F2
F0
1B
0B
EB
0C
00
1D
E4
FE
F1
FF
F4
E8
FB
26
01
17
17
F7
E1
F7
0A
16
F0
02
EB
EE
00
FF
F3
04
C5
0E
F8
FF
01
F0
DD
04
03
FD
23
00
F7
DE
06
03
E1
0E
1B
09
09
23
D9
08
12
FD
F8
FE
03
17
20
FD
F9
0C
E7
FC
03
FF
E4
F1
F9
02
E5
E1
0E
05
16
FA
F4
F7
E2
FD
00
F7
F5
FE
FF
1B
F4
00
05
17
FF
1F
FE
E9
0D
F8
DE
07
06
06
D1
F3
01
FE
04
CE
05
30
E7
E0
0F
03
18
03
EC
F1
01
E2
13
07
05
0D
04
F9
F4
04
F7
FC
20
E9
FC
0B
F5
02
DD
EB
E8
18
33
F0
F9
1D
12
F5
ED
DA
EF
F1
F8
D1
F5
0E
05
0F
07
02
F1
FB
F9
F0
08
FA
0D
EA
08
E8
1A
03
00
EC
1B
F4
FB
E8
FE
0A
F7
14
23
0A
12
02
EB
04
00
07
FC
09
13
06
DC
F7
0C
E3
26
0D
FC
F3
FD
F7
EF
09
00
32
F1
03
FD
0C
F3
E7
01
09
F9
FE
EF
F6
DE
F5
0E
2A
F2
E5
23
00
F1
12
00
EB
10
F0
02
FE
FF
11
0F
13
08
FA
E1
FF
09
03
E5
F7
0F
0D
E7
F1
EE
F5
03
E2
15
0D
F9
FD
E3
E9
06
12
F9
F7
23
1D
0D
F9
08
F9
06
F6
E2
05
E9
20
18
E6
03
F7
EC
F1
EE
0C
04
EA
07
12
0C
F3
12
08
27
F0
1C
F2
07
F8
F2
E8
0C
04
14
12
FD
0D
07
02
09
0B
0B
0A
05
FA
04
06
F9
F2
F3
FA
F1
12
22
08
F4
EE
F6
FF
05
0D
F7
0F
F2
01
F7
F2
10
06
08
EE
01
0D
FA
0E
0A
08
FF
0B
F7
F7
02
17
14
08
01
FF
FC
F8
09
09
04
F5
F8
0A
E7
F6
F9
E6
1A
02
17
FC
F6
FD
0B
E0
0E
02
05
0E
15
FC
1F
FF
1F
15
EF
0B
09
DE
03
11
FB
FB
0F
0B
FB
00
EA
0E
D2
27
17
E2
F7
32
07
06
FB
08
FA
FC
E6
14
FB
CB
0B
FF
FE
02
F8
07
F3
1B
16
F4
3F
CD
16
02
1E
FE
04
DE
1A
0E
FD
20
FF
CF
FE
0E
07
E3
C7
1B
09
2F
37
05
FC
03
FD
FC
01
E8
1B
0B
02
EF
16
36
3A
1A
13
E5
0F
06
F1
15
F8
31
FC
E8
FA
04
EC
EC
F6
FE
12
F7
03
2D
00
D8
38
01
FA
10
F3
03
FE
FB
F4
F8
16
FF
23
09
E7
0E
F5
0A
FD
1B
03
04
12
01
08
FC
01
FD
25
EC
FA
03
D2
0F
E7
02
0E
EC
26
12
0E
0F
FF
E3
00
FB
FE
DF
EC
D2
05
29
EA
EC
FA
EF
0B
11
F9
D8
F5
03
16
05
06
E4
E9
15
05
08
01
0D
0C
FE
D1
00
EE
F8
0E
DF
03
16
EB
1D
1F
E2
DC
FA
23
F6
F2
1E
10
29
FE
0E
0F
0C
F5
0A
F8
07
38
2B
EA
04
1A
23
08
F8
E7
E5
06
ED
0E
0E
09
26
FF
ED
11
05
12
12
FA
FB
FD
0A
F5
FE
0B
E6
F4
ED
F8
0E
00
F1
FE
EA
FE
0E
FA
FC
F7
FC
ED
FA
15
F6
FF
01
F1
10
FB
F2
15
0B
0B
00
F2
F5
FC
0C
F8
CF
EA
07
E4
E8
F9
FC
F9
01
10
15
FB
FE
07
00
FB
09
17
F7
0C
F2
26
F3
19
FB
FA
04
F1
05
FD
EB
0B
F5
E5
04
FA
F5
FD
00
0E
FE
F1
0D
01
07
F3
12
F5
17
0A
EF
F3
F9
07
FD
F1
06
0F
FD
F6
FE
FC
0E
F6
04
EF
DD
1F
FE
03
09
09
FF
0E
0F
E8
01
10
11
13
ED
01
05
F2
DB
1E
0C
01
18
06
02
07
00
0C
16
18
F4
02
00
0D
FC
05
05
0D
1C
FE
01
0A
F1
03
EC
F7
12
07
0C
F3
09
09
EC
0D
EB
0C
F5
FB
FE
01
08
0E
02
FC
EC
03
FD
FE
E5
F8
10
FD
FD
0E
03
19
F6
00
0C
FE
FD
F4
FE
F4
0A
FF
15
1D
02
FF
FA
01
18
DF
00
F8
1B
FC
02
E3
10
0D
F1
23
0A
03
FC
0C
F7
02
27
09
F9
1C
ED
06
DF
F8
F9
FF
DE
12
15
EC
08
08
FF
F3
F9
F5
0E
EA
F6
09
07
09
FC
05
F0
E7
13
05
16
07
FE
0B
09
05
FF
06
08
04
0B
F7
FF
FE
DF
FB
09
FD
02
F0
1A
02
18
EF
FC
EF
00
10
FF
ED
11
DA
E4
08
FA
E0
E7
02
F9
ED
E9
05
F8
FE
05
21
08
05
E2
09
06
10
FD
FE
F4
22
EC
11
FE
13
00
E5
F4
08
F8
F7
02
09
FD
15
FB
EE
FC
FD
0C
F5
01
F5
F9
1E
FC
07
FE
02
19
25
F4
F8
F5
FA
29
0B
06
10
FA
00
01
05
FB
DE
0A
0C
F2
22
05
F5
F4
12
F5
05
F1
11
EF
F7
07
FC
01
EA
06
0A
FC
F3
0F
F1
EA
F1
F0
0C
0C
EE
F4
0E
06
01
04
ED
0A
F7
F9
10
F4
10
01
FB
03
14
06
03
E9
F2
F4
0C
02
FD
F8
FF
1A
02
ED
01
F9
ED
EC
01
FF
FE
13
FF
EA
0F
EB
F7
FD
0C
CD
11
FE
EB
F7
F1
F1
00
F1
0A
01
19
07
D1
F9
FF
04
FB
0F
FB
09
07
F9
03
F0
09
FF
00
14
F8
F6
05
0C
F3
08
06
F4
02
1F
13
05
F0
EC
F7
F3
E4
F4
08
F3
14
FC
F3
E8
F2
02
EE
22
11
C7
F8
F6
06
1C
0F
18
0D
03
00
05
EF
ED
0F
FB
E7
0F
F3
2A
FD
F3
0E
F1
06
10
FF
F0
E0
F4
00
15
08
0A
18
16
08
1B
EE
ED
07
09
FD
FD
11
F8
05
F8
37
05
FD
F8
03
0F
F9
FF
00
01
F0
14
F2
FD
21
06
FB
F4
FE
00
EF
F9
FB
ED
E7
0D
00
0C
0C
0C
F1
04
04
02
0E
12
2B
01
FC
E6
EC
12
03
06
F7
02
FD
0B
F0
F9
E2
10
00
0F
09
F5
0A
03
ED
E7
01
0F
ED
2B
0A
FD
09
F0
03
16
0C
02
15
09
14
F1
FF
03
05
E2
12
06
06
FF
1C
FF
F4
07
FD
EE
17
E6
D2
09
03
01
EA
EC
07
FC
20
0C
FD
F6
F9
F8
09
01
03
FC
11
ED
D9
03
0A
12
F6
EE
0C
0C
F4
1F
00
FC
1A
08
EA
03
FA
F8
0E
F6
02
FF
06
EA
0B
E6
05
02
0C
F0
1D
21
FB
0D
DF
17
08
05
EB
F2
FA
0F
03
FF
0A
E6
0A
E5
0E
F6
18
00
0D
CD
1F
11
DC
E7
05
F2
E0
F9
DE
08
F7
F0
FD
06
04
23
09
F8
11
12
01
FA
43
1A
FD
13
DA
E6
FB
03
07
04
01
01
F2
1B
0E
1D
FB
0B
EE
E9
07
00
FE
FB
E9
F3
FB
08
09
FF
0A
12
FD
06
07
FF
10
13
F5
17
05
0E
FB
DB
0F
F9
03
01
0C
DD
FC
15
24
0A
F6
03
F8
0F
EE
0E
0C
FC
0A
2B
F6
F2
0A
E2
FB
01
FA
13
0D
F2
FC
08
06
FB
07
1E
0D
0D
18
EE
F7
F4
0F
F4
FF
0C
0A
0F
FA
0D
01
EA
F4
FA
E8
FB
E5
1D
00
E8
09
DD
0C
07
0D
FE
F2
E9
2B
0B
F2
F3
0A
02
EE
E5
08
E9
F4
02
09
00
E8
08
FC
18
0D
F5
F1
FF
1F
12
EC
F3
07
15
F1
14
04
FD
EA
FF
01
F6
EC
F9
F8
FB
0A
F1
0A
08
05
FF
FE
ED
F9
FE
1E
FA
08
0B
00
16
F9
0E
08
04
12
11
13
09
DA
FA
EB
04
FE
E1
02
FF
05
FC
E3
EF
FC
F5
F5
EA
00
F8
06
FB
09
E1
F5
14
FA
FC
F8
F6
FB
FF
0E
15
EF
03
09
ED
FF
FC
DF
05
F4
05
E7
FF
06
E3
00
05
0D
03
D9
DA
1B
0C
07
F9
10
07
11
FC
12
D1
FF
05
F4
F6
FA
08
E7
F5
18
01
F9
0B
06
06
EA
0E
0B
07
18
E4
EE
FC
11
F4
EF
16
FD
15
09
FA
0D
11
E1
04
E0
0B
E1
FD
06
11
06
F6
0E
EE
0B
E8
F1
10
F6
24
07
FC
06
23
12
F7
D8
D6
2B
2A
EE
F7
E1
F3
22
F2
1C
19
FB
1A
12
0E
07
F6
1C
0F
F8
F6
F3
E0
14
F0
F9
FC
08
EE
00
15
F6
EF
F3
07
F6
DD
F8
00
F5
10
20
15
F7
09
03
FF
18
0B
1F
08
01
0B
F3
0B
F3
F5
EE
EF
1C
FA
0E
F6
14
0D
DD
09
EB
F5
EC
F5
0A
22
FB
25
21
EB
F9
EF
F9
FB
18
E9
0F
FF
02
EC
F8
EF
F1
03
F4
E8
F7
EE
EE
1A
23
EF
01
28
EC
09
11
F6
04
04
E3
0D
10
01
CB
04
F7
00
04
E9
D8
D7
11
01
F4
F2
FB
17
09
05
0B
F2
0A
F7
FF
FC
DF
DD
F5
08
F1
FE
F9
F0
F5
FF
E0
07
0F
0C
1C
F2
04
DD
F4
F9
10
F9
04
1B
F2
06
F4
02
0E
05
05
F9
FE
05
FE
F2
08
15
E3
DF
DC
21
1E
1D
15
EA
01
08
19
F9
0E
1D
13
FB
03
0C
00
16
FC
FD
E5
09
FE
D1
0C
04
0E
F8
F8
F6
FD
08
16
FA
FC
FC
08
E7
01
F7
20
02
FF
EF
13
00
EF
04
02
15
FA
F1
F2
D2
1D
E2
11
08
0D
14
FC
F9
F8
F1
F9
06
F9
06
2C
01
EF
FF
F1
12
21
08
E8
F4
1F
FE
0D
EE
E9
1B
E6
F8
F7
02
FE
FB
2A
F8
DA
FC
15
24
FB
03
EE
28
01
04
1D
F7
F4
DF
F5
09
EB
FD
FC
0C
EA
FF
EC
06
10
2C
1E
19
F4
06
F6
1C
11
14
21
F0
01
E6
06
1D
08
FB
00
0A
14
04
0A
FE
FC
E1
14
E1
0A
F8
00
06
04
0E
05
FA
12
F8
D9
06
0B
EE
0C
06
FA
06
2C
F2
0D
F7
07
0E
08
06
14
00
05
15
03
E3
01
FF
05
01
E9
EE
02
E8
09
EF
06
EB
FB
05
ED
E4
F8
F6
FB
EA
0C
E5
0D
FE
17
DD
F6
F8
04
11
04
FE
12
0E
03
18
F5
FC
FF
F9
F8
20
05
14
1F
F0
0E
0B
01
02
0E
00
E8
17
33
06
1B
DC
1B
EE
F1
05
1F
F0
13
17
16
09
01
00
2E
01
11
0A
09
03
21
FC
36
EC
02
19
E9
F4
11
F9
EB
F3
0C
F5
11
E9
E2
FC
09
0F
05
04
0F
FC
E7
DD
FE
F6
1B
02
08
F7
03
19
0A
E7
E4
04
0C
FD
04
13
FF
EE
0B
00
F8
F5
F3
F4
19
E1
FB
16
02
18
24
08
F3
F5
10
15
0B
F1
EE
0C
FA
EF
12
12
EA
DD
F6
EE
FC
EE
02
EE
F7
03
19
01
0B
00
00
0F
F4
0B
04
F7
EC
F8
FC
F1
FC
F8
0B
E9
0C
07
FA
E9
FC
0D
04
10
02
EB
ED
01
01
0E
0C
FD
EC
FB
05
F9
1A
0E
EB
0F
0C
00
FC
08
F3
10
E5
FA
09
E0
F9
06
26
F9
FA
00
0A
06
EB
F3
29
F9
0E
05
0A
04
FD
F1
FA
F8
EF
FC
07
E5
0C
EA
00
F5
EE
01
00
02
00
0D
FA
08
0A
DD
00
F5
E1
06
F0
FB
EB
F6
F2
18
11
20
12
11
F9
F5
ED
0F
1A
02
F0
02
E7
16
F5
04
DF
06
EC
F9
F9
0F
F2
FA
D9
F7
0B
1F
EF
DE
EF
F2
E9
03
05
F6
1B
EC
F0
07
02
EE
FD
0B
F5
0C
1B
09
14
F6
1C
F9
EF
01
FC
FE
02
0D
F0
0B
F1
FB
0B
04
07
07
0F
EE
0B
0B
FA
EF
F2
EA
0D
0C
E7
F8
FD
09
17
F3
05
10
FF
06
03
1E
EC
FC
EF
E8
07
02
17
ED
F7
08
DE
1D
02
F2
07
1B
FE
E6
08
DC
F8
06
EE
E7
00
E4
12
E7
E3
F0
D5
FB
04
FE
00
1A
0E
F9
FA
E4
13
07
F6
14
EA
00
01
FF
FE
E9
1C
F4
02
F7
FB
F4
F0
0D
13
1D
14
10
F7
F1
E9
FC
0E
13
ED
EB
FA
F9
0D
FD
04
05
1C
F9
00
18
E7
0B
07
07
FF
11
E7
FC
04
09
F9
F1
F1
05
DF
F4
E9
DE
F4
10
19
01
FA
F0
EF
EB
05
D0
04
DF
21
20
FD
27
0C
12
0F
26
0B
F2
0E
06
EE
FC
0F
04
CF
F7
D2
FF
F0
EA
F5
1E
D3
FA
DA
12
14
FE
E0
07
0E
0E
DF
01
20
08
F1
EA
04
FB
0B
F2
FB
F6
F5
F7
FB
04
18
EA
EC
EA
C8
E7
F2
E2
FD
03
F8
E4
F4
15
09
0F
17
E4
09
11
18
E5
F9
21
E1
01
11
F3
EA
17
19
EA
00
10
F7
EB
0D
FC
08
F6
09
0C
CF
13
EE
10
E4
FA
FE
EE
E1
19
F5
06
03
19
14
16
0E
1A
0A
FC
D0
04
07
E5
D7
04
E9
03
DE
0B
0B
FE
05
FB
07
02
21
FE
F7
FA
14
FA
F8
E7
F2
EE
12
06
FD
14
E9
FC
0E
08
EE
FD
F7
C4
F6
FC
FC
FE
FB
0C
13
FD
E3
EA
1D
F0
EC
CC
EA
F8
16
FE
22
FD
0F
FC
E1
F8
18
16
0F
05
F6
19
E5
D5
FE
F4
FA
F9
ED
FF
EE
F1
0B
03
1C
02
1C
17
EF
17
17
12
E9
17
18
F3
11
05
1F
0D
EA
18
F1
10
00
FA
07
FF
FB
01
E4
09
1A
FC
E7
EC
F3
F4
17
06
05
09
E1
20
FD
06
FD
02
1A
F2
0A
F2
FC
10
E9
10
0A
09
FF
05
F7
F8
FB
1E
EE
E8
F6
EE
DA
FC
F9
F4
00
FC
D3
06
F0
0D
0C
F0
ED
F3
DF
07
FF
03
F6
FB
26
E7
0D
0B
14
09
FB
F3
DA
23
FF
EB
FC
07
13
0A
F3
19
03
F0
08
FD
06
02
01
05
EE
FF
0D
1E
07
FF
14
00
07
EA
0E
F8
04
F3
F8
04
10
17
FC
11
F2
03
F7
24
08
FC
FA
0C
E6
03
1A
20
02
0C
EB
13
14
FC
06
D2
07
12
08
FA
1A
18
09
08
03
0F
E5
F4
E2
02
FB
F1
1E
0D
03
04
15
F5
F3
E7
F7
F1
08
F0
09
F3
03
08
16
FE
12
06
06
F8
E2
11
10
EF
DE
15
0F
00
04
F4
FE
FE
EA
01
0A
13
F3
03
F0
F1
0D
F8
F3
EF
1B
18
13
1E
1A
E4
2C
EF
F6
04
1D
E8
F7
FC
00
1F
F8
19
05
EB
11
EF
E1
EA
1C
05
09
0A
FF
11
06
EF
FD
01
F4
09
18
F6
F0
FB
0D
FB
E8
EF
FF
F7
06
F9
02
F7
FC
06
FD
FC
09
0A
F5
0A
09
FA
EA
0A
F4
0B
10
11
09
E2
F0
0B
07
04
1B
00
00
09
1C
FF
FE
05
E8
EA
0C
EB
0C
14
28
F7
27
DE
E3
13
06
02
08
F9
F7
F4
03
E7
17
06
0F
FB
14
01
02
03
F8
FF
03
E5
F9
09
0C
16
02
18
F1
21
EF
19
19
FB
07
00
1E
D5
E6
FA
04
00
F8
04
EF
F2
09
14
31
03
25
FB
F2
06
F6
ED
0B
1B
DC
F2
2D
F5
E6
0B
25
0E
10
0B
FC
1A
D9
00
1D
F2
FA
09
DA
11
F6
FB
F9
F6
28
0F
FC
22
05
FD
F8
05
05
07
0F
F4
F8
F1
14
ED
D8
07
ED
01
F1
E5
09
E8
ED
17
EE
FA
23
F4
E9
1F
15
FF
FF
F8
FD
F7
F1
02
FB
FA
F4
0E
09
F3
1A
EE
08
F5
F6
FF
FC
FD
F4
01
F7
DE
04
02
06
F6
EE
13
07
18
26
06
07
0B
01
F0
FB
1C
00
23
12
F4
F7
00
0F
D5
00
EC
0C
06
14
1B
19
E2
0E
FB
00
18
01
EE
F9
03
DF
0E
1B
02
F1
1F
FD
F6
EA
CC
F2
04
F8
12
FC
09
EC
F2
11
FA
06
F9
06
0A
04
EE
EA
EE
F2
E3
03
1C
08
12
00
01
04
14
02
02
05
CB
0C
FC
12
F7
0D
EB
12
03
11
21
FD
F2
E7
02
F2
EE
14
1A
E7
FE
D2
06
1E
FB
10
04
04
0A
01
F8
CE
0C
08
F4
05
0D
F3
00
F3
CE
15
18
19
01
F2
EA
FC
09
0A
E7
E7
EF
1E
E8
ED
02
E8
E7
11
F6
0E
0B
FE
1E
0C
F6
02
16
06
E4
EC
03
03
08
09
10
F9
09
F2
0B
05
EC
F4
00
1F
F0
19
02
D7
FA
FB
F2
FF
0F
0D
02
20
12
E3
1B
FD
02
1A
FE
16
13
24
F7
1D
FE
ED
EF
F1
17
ED
08
E8
F6
E5
FE
E7
25
F6
FC
12
E4
1B
04
E5
05
02
DC
02
05
04
D2
01
E0
F0
E3
FF
E9
F7
03
1F
E1
04
E3
3C
F7
05
E2
1F
06
0C
FE
06
E5
4F
18
1E
E3
20
F2
DF
E0
D8
F3
EE
F9
FD
02
02
20
03
27
17
05
E6
F1
23
13
EF
F7
FF
0F
10
F1
DA
03
FA
2F
EB
F3
F0
FD
F2
09
23
05
28
2D
E5
0E
F4
04
11
E8
F1
13
F4
0C
DC
06
F2
E5
F3
07
F4
F0
00
FC
04
0D
DB
E4
0E
EE
F7
0A
EB
05
15
04
DD
F5
0F
09
F2
19
14
F8
00
FD
F2
F5
0E
01
08
E7
05
04
10
FC
0F
07
0E
0A
EF
08
0E
F2
FB
12
EA
14
FB
F0
13
ED
04
E5
01
F0
F9
06
E4
01
FA
EB
EA
12
08
0D
E3
F0
F0
00
E8
ED
E9
16
0C
EB
02
03
15
07
FB
F7
EB
F6
F0
18
F7
ED
23
0A
0C
EB
0C
FF
06
04
19
E3
13
F6
0F
E4
F8
08
FF
F5
F4
1E
F4
FE
F3
E9
FE
E8
0E
E8
09
10
0C
FA
E5
07
02
05
F2
2B
0E
F8
FC
DE
06
08
02
F6
FC
FE
03
09
0A
1C
F5
0B
FB
04
0C
F9
FB
C9
07
F1
FD
F4
06
00
F8
09
F5
EE
E1
09
E4
10
07
ED
18
EC
06
FC
FF
0F
FF
04
E3
03
E7
0F
DF
00
FC
1A
FA
F4
03
02
E9
FD
FB
F4
09
08
F8
06
F9
1E
EB
F9
FC
FB
15
E1
01
08
FF
FF
F8
07
F7
05
FA
F1
09
0B
FD
F6
1E
FF
ED
F0
FE
F1
15
FB
02
15
0B
F1
F4
FF
01
EA
01
04
02
10
18
04
06
1E
10
0C
E6
F1
EF
EE
DD
1A
F8
09
01
08
F0
05
F2
10
F2
F8
06
EC
FB
F2
EE
0A
0B
33
FA
16
E7
F1
06
ED
08
18
13
F5
F8
DE
19
FA
08
CA
0A
0B
21
FE
FF
07
F1
04
03
11
01
F3
0F
04
09
F5
06
FC
F0
F1
00
11
04
05
E8
0E
EE
FD
EE
F4
EA
DA
EE
12
EC
0D
F8
15
12
E8
FC
F6
0B
03
F6
EA
04
ED
F2
FC
F0
F8
F7
19
11
03
05
E8
0F
F5
1B
06
08
E5
CF
FF
2A
E9
F2
01
FD
F9
F4
03
F5
F4
F0
ED
FB
11
03
05
07
1A
16
FF
FC
F3
F9
0E
13
F6
06
FB
16
1D
05
F8
08
02
11
EB
FE
01
F0
F3
F9
F6
11
08
FC
F5
00
F7
F3
ED
05
D4
FA
20
FF
E6
F1
F4
03
10
E3
07
CB
F9
10
0A
E2
F5
08
FB
07
FC
06
0C
1D
F9
13
0C
14
17
0D
F9
17
14
18
1D
10
00
12
F8
01
EE
F9
DB
11
FC
1A
0E
0D
05
EC
26
31
F3
0C
0A
2D
F7
0C
DB
11
10
0C
08
DC
F4
CD
2F
AB
D2
FF
F4
22
F2
00
17
21
11
F8
E7
E2
F9
E8
EA
FB
EA
0B
06
13
13
F9
E5
13
E6
F5
02
00
F7
0A
F0
05
F3
0E
FD
DD
EA
02
21
F7
FC
3C
05
15
18
E0
18
E3
13
F1
14
10
19
FE
FA
0E
1B
06
DB
EE
FF
08
08
14
E0
1F
03
E6
01
21
28
D1
FC
12
FB
1E
0C
0F
08
09
1F
FB
EF
12
FC
DB
F0
ED
09
07
EF
E9
EF
04
02
12
14
FA
F8
08
F4
D9
F4
FE
D9
EB
F3
07
F9
1E
12
FA
12
EE
1F
39
0C
F8
02
21
01
0D
04
09
FA
05
22
0A
FC
FA
FE
06
10
04
02
EF
14
F1
12
0B
00
08
E3
E0
08
ED
06
FE
08
09
F6
01
FC
0E
10
F7
02
F8
EF
FA
F7
10
F8
08
16
E9
FE
FE
FC
E4
E7
FD
FA
10
E7
1F
FE
E8
FC
00
D4
FC
0A
07
13
EF
0E
F3
F5
F9
11
0A
08
FC
03
0C
EB
FD
05
F5
F0
07
FC
F7
FF
EC
04
10
00
FF
1B
E5
F3
FD
13
0C
08
FD
EC
0B
F4
25
F3
19
1E
0B
04
F0
FB
F7
00
11
ED
06
FA
1D
15
E7
DC
F0
0F
EA
08
ED
EC
D4
17
07
0F
EC
04
E8
FF
F3
02
F9
DC
23
F1
E5
ED
1A
FE
F5
F6
E6
F5
FB
FF
E1
12
E9
04
FA
D5
FE
F4
F9
1C
FC
FB
1F
F2
F1
0F
CC
FA
FA
E3
0B
E3
F6
08
0D
EC
1A
E8
21
FC
E4
0D
FA
09
F6
EA
EA
FA
FB
0F
F2
FE
02
E4
E8
0A
F9
DE
00
E5
E2
00
E9
E9
08
F0
00
FB
E6
EF
04
01
10
FB
08
04
F0
01
ED
0C
00
15
FD
1A
08
EF
0C
F6
08
F6
02
F7
FD
01
EB
FA
EC
09
EF
25
FE
0D
10
06
F5
14
F9
F2
F5
D7
F2
01
10
FA
0B
0C
EC
03
EA
01
19
F7
FE
EB
0F
FB
16
03
0A
0C
FB
E5
E1
E7
1B
13
FD
06
DF
FC
0B
E5
1D
00
F3
FE
F2
02
FE
FC
FF
FB
FF
12
F3
EF
F9
F4
12
EA
18
09
02
E8
27
FF
15
DB
10
F0
1C
F3
14
EC
EF
10
0D
10
04
FE
DE
33
F0
08
D9
1C
FF
0A
1E
05
0E
14
06
FE
00
00
DA
02
0D
02
21
F0
FA
0B
0F
FE
F5
EB
01
29
12
F3
0E
2F
25
05
0A
1B
17
DE
F4
EE
DB
0A
1D
E7
FA
D6
F4
07
0D
0F
1B
DD
01
03
09
0C
1E
FA
18
F3
E5
E8
FA
DD
02
1C
ED
F3
13
23
FC
FE
09
1C
E7
FE
0F
05
F9
FB
EB
1A
FE
F6
09
00
17
13
23
E8
02
F3
EE
FB
F8
18
0C
10
19
FF
F7
0D
14
E2
FE
EF
02
00
0E
F7
E8
00
04
FC
14
03
1E
F4
07
03
11
F0
E8
EF
0A
F9
FA
E5
06
FF
04
06
EF
FD
E5
08
0B
F0
09
06
0D
E9
0D
EB
E1
09
18
05
1E
F0
1B
11
0D
F4
F7
01
FA
0A
E7
F7
FF
1B
F5
0E
F2
0E
ED
04
03
25
12
DE
04
F4
18
18
05
F3
EF
0B
01
F1
03
F1
05
FF
05
06
FC
E4
02
FE
EF
04
FB
FC
FA
F3
F1
0B
08
00
0A
F7
06
07
13
EF
F8
0A
16
FB
08
0D
11
EE
02
0A
10
FE
05
14
F1
1A
0B
04
E0
E7
F5
1F
25
09
F7
FC
16
02
01
0C
E2
F2
FA
EF
19
02
02
11
EC
FC
11
ED
E8
F4
07
F5
1B
F2
11
F0
0B
FB
05
FA
1A
17
F8
08
28
F1
09
12
C4
E2
F6
DD
22
09
33
1D
2D
C8
CA
09
04
33
09
FD
E3
07
D0
07
05
FA
F5
06
F6
F0
18
18
0D
18
F8
20
FD
EF
E1
12
10
06
FF
F6
FB
50
10
E9
02
F9
09
DF
0F
10
18
F5
1A
EE
D6
D1
28
EC
26
F7
07
EF
EF
F9
09
D2
E5
E3
14
E8
E8
07
FE
E5
1B
E6
0C
07
14
F7
08
FA
03
E5
0F
0D
0E
F6
1A
0B
09
F9
DF
10
1E
F2
09
F7
06
08
02
00
0B
10
F6
03
FC
F8
FC
F8
11
13
FE
F9
F6
14
F4
17
FE
14
E4
F5
03
0A
FB
08
13
F4
14
1C
06
0B
00
0F
F3
F3
EB
11
EB
13
04
F9
0D
F1
F3
06
E7
E4
FE
ED
EE
09
E7
FA
18
0F
ED
02
0E
07
F9
08
EC
0D
F3
2E
0F
06
F4
F0
F4
FF
10
F3
00
21
EC
FF
04
EB
08
1D
F0
E9
E4
F6
04
05
2B
ED
02
12
F8
F4
0C
0E
02
E1
0F
03
FA
FA
EC
14
01
FB
1C
F1
1E
03
17
07
E8
03
05
05
0A
F8
02
00
13
F4
0B
F5
F8
09
E6
09
F8
F3
10
1A
03
F4
2A
F3
F1
04
12
F9
15
1C
0C
D8
D3
EF
20
F1
D9
03
DE
FF
0D
04
F2
0B
07
28
F3
0D
FC
15
F9
EB
FA
F4
FE
12
0F
F3
03
0A
14
10
F3
F4
FD
10
F6
01
04
1B
06
F9
F5
04
FB
E0
03
FA
F2
21
2A
FB
F0
FC
F0
0E
02
F9
F5
F7
F8
F6
FF
23
FE
FC
03
F3
FD
F9
FA
F8
FD
E1
E1
F9
15
F5
FA
F1
E4
0B
FF
07
1F
E1
FC
F1
09
EA
14
EE
FE
F3
F4
0F
FE
01
08
EA
F7
ED
FF
04
F0
02
FE
0E
16
02
00
F5
1B
FC
FA
E7
E4
13
FB
DC
DF
00
F8
F6
F8
FC
EA
0D
09
09
0D
05
03
15
F6
02
F7
01
ED
E7
E1
07
FD
F6
0E
F9
FF
EE
F3
13
15
08
07
0E
D8
EF
0D
DB
D9
FC
1F
F1
16
13
FB
FD
0E
1A
07
08
05
0F
F4
18
F2
27
09
FE
F7
F0
12
FF
F8
05
F7
17
0A
0F
18
1C
E3
EC
FA
C9
E4
FE
FB
07
0B
01
E4
ED
F1
EA
F4
2F
13
F2
0E
EB
08
0C
F1
05
0A
07
F5
D6
1A
03
EE
0F
FB
00
F4
1C
F7
DF
F4
06
DA
FF
FE
0F
0C
E8
03
20
EF
02
F9
F4
08
0E
F1
FD
FD
F6
EA
03
FA
EA
F7
12
14
FF
F7
0D
21
F7
0B
F3
01
FD
EB
0D
FB
0E
E4
04
F8
0C
0F
F8
F9
F8
F8
01
17
F5
09
01
FC
F7
F7
0A
FE
01
EA
F5
06
1C
FB
EE
FB
1C
F8
11
F8
00
00
FB
07
F4
15
FA
F0
1F
00
DA
FB
09
05
FB
06
0F
F5
FA
10
FE
FA
0A
1D
01
01
00
03
01
15
0F
20
F0
E2
EE
08
00
09
01
10
05
06
F2
FE
0F
FE
1D
11
EB
EA
DF
E9
23
FD
FF
1C
22
0E
05
1E
10
FE
E5
EE
12
09
07
08
0A
F4
05
FD
08
F9
DE
00
EA
0F
FA
F5
09
0D
23
0D
14
F6
03
FB
F5
F2
FF
15
0F
10
0D
F7
17
39
D4
2A
F1
FF
0D
10
FE
F8
F6
FD
FD
E6
10
1B
06
21
F3
E1
F4
0F
F2
D0
33
1C
0F
E6
E3
16
04
22
1C
DD
FC
F9
00
FC
F2
0A
0C
01
0F
15
EA
F4
16
FB
F8
EF
04
10
FF
06
FA
02
2C
1C
E3
02
0D
1F
22
03
28
04
F1
E4
F7
1F
ED
FE
0A
FD
03
E8
39
F8
1C
E9
06
00
FA
FA
01
0F
11
E2
2A
FB
0D
19
01
04
FE
F2
0D
FE
ED
FD
20
12
EB
EE
EF
11
0E
21
22
FD
F0
38
E3
FF
0B
F8
06
F6
07
26
E9
10
0D
19
0A
E0
02
03
08
EE
10
F9
F5
F9
FC
13
18
03
F8
0F
FE
F7
21
F5
0E
08
F7
F2
1B
F8
12
F6
F4
1B
0D
02
09
19
EA
10
E8
F5
03
FD
12
F5
FF
FB
03
F4
10
12
F2
FB
05
15
F9
FA
19
16
F5
14
FF
FD
01
06
1C
01
F2
04
0E
FF
04
0E
F7
0C
FB
06
0D
FE
02
FC
08
EB
DF
FC
F2
FB
02
0B
FB
17
02
04
19
FA
FD
01
19
00
0D
EC
F1
11
FE
F7
04
EF
10
08
0A
F1
F7
2E
F2
07
0A
0E
21
FC
DD
07
13
E6
EB
00
EF
03
1F
04
DD
F9
FB
0E
23
0B
03
FF
02
1C
01
E7
EC
FC
00
07
FD
09
F4
F1
EA
0F
02
0C
E0
F0
FB
0D
F8
0F
05
05
15
08
02
0D
0B
00
13
1E
E6
0E
19
E3
D9
F9
FC
01
1E
F3
08
18
F2
13
E4
F0
01
04
F9
F3
07
F0
F8
0A
FC
08
04
FF
06
FD
09
FA
1B
E8
F5
E8
0B
FA
09
14
10
01
ED
04
EE
10
18
FF
11
22
FF
34
0A
0D
15
FB
EE
18
2C
15
17
0F
F3
D1
14
11
0C
18
E7
0C
0F
F6
0D
FB
01
0A
1F
F5
EB
19
0C
FB
DF
04
F9
14
15
F6
F2
20
F9
0B
33
D2
D4
03
FC
30
14
14
EA
0A
FD
0A
00
00
06
FA
10
1B
09
FE
F5
0B
F0
F0
08
05
0C
0F
03
FA
05
12
0D
12
C8
11
EE
E8
F6
F5
01
E8
F8
30
EB
14
FE
FB
DE
05
09
08
ED
13
FB
F8
04
21
07
27
07
F8
17
21
1C
22
EC
F8
09
02
F2
0E
D2
18
FA
EF
E1
E9
FA
E3
E7
16
30
F9
FB
ED
02
E6
DA
14
1E
2A
F1
08
14
F8
17
F1
F1
EA
12
27
18
C5
F0
E7
D4
F1
FD
DD
12
FE
E8
0B
E3
E4
00
F8
F8
ED
0F
0D
28
FB
EB
18
10
F4
02
F2
01
F4
F9
1F
08
06
16
05
EC
FD
FE
09
01
0D
06
03
F6
03
FA
FF
E8
0C
FF
F9
09
04
FD
00
FC
F3
1F
F6
05
15
0D
0B
EC
00
F4
FD
08
10
E3
15
1C
F0
0C
04
24
04
F7
FB
F7
08
E4
F7
FE
10
FF
FC
FB
F3
E4
F7
FA
12
11
03
10
09
EB
F8
FA
F4
13
0A
F8
0B
08
F8
04
08
11
07
EF
FB
FA
15
0A
0B
F7
EE
EA
11
03
00
FA
1D
06
09
E2
F9
18
02
DE
FA
14
D5
01
00
FC
DF
16
11
15
E3
FE
E8
F6
24
00
0B
10
1F
03
21
F6
16
22
EA
27
1D
06
11
FD
F2
09
0C
F2
FF
12
DA
14
D8
1A
12
FE
EC
F5
04
FF
0C
FA
05
33
10
12
F3
09
0C
02
FC
F4
01
00
0D
E6
10
E0
E4
05
12
FD
FE
F8
1E
E3
EC
0F
2F
F0
F3
00
F7
DF
0A
EA
11
07
09
0A
FF
0C
ED
17
07
F1
06
00
F8
1B
19
F2
F9
01
E1
2A
0D
01
F9
01
F6
1C
E3
13
12
17
E8
0B
10
0B
04
0B
E0
FC
FC
FE
FA
EE
01
FD
E7
FC
FC
F3
F6
FA
FB
F0
0E
E8
02
09
0F
F2
13
0C
F3
17
FD
1B
16
18
05
0A
15
03
14
EB
0A
F8
FE
0B
01
01
0E
02
0C
13
0C
2A
04
12
0D
FD
F8
F7
F9
21
09
E9
20
00
ED
06
00
F3
EC
06
09
FD
1E
02
FF
F6
DB
17
F8
EB
00
0B
07
EE
D9
04
E5
15
0F
E0
F5
F7
13
FA
01
03
FB
FC
E8
EC
07
EC
FF
05
FE
F6
FC
F3
FB
06
FD
12
FD
04
0A
01
11
21
09
19
03
F9
0E
E8
FB
FB
DC
EE
EA
ED
FD
08
EB
09
0D
F1
20
F2
F6
04
08
1C
07
1B
04
EC
05
00
03
06
E5
F3
F3
06
0F
0E
DC
F8
FF
06
E3
22
EA
09
15
F7
EA
0B
FC
F5
FB
FE
0B
1E
EA
1B
0C
EF
FB
1B
01
F3
EC
F1
14
13
09
11
15
EB
00
F5
12
16
CC
F8
10
0C
F6
00
E6
F3
04
F5
03
19
00
00
00
17
16
01
F6
F9
03
0B
01
FC
04
F9
EF
0C
EB
E0
14
FA
12
E1
EF
FE
EF
F4
12
F8
0B
ED
0F
0C
FA
F7
FB
F1
01
F7
EA
00
02
E7
07
01
08
03
1B
F8
F0
05
19
F8
33
DB
0B
2D
F1
F5
FE
01
D0
23
18
F0
F1
09
F5
00
0A
E7
06
F3
F3
08
D2
27
E0
F4
24
E5
EC
E3
F3
FB
1C
F5
DB
D2
2E
D8
03
05
19
35
19
09
3B
EE
10
0A
1F
00
30
E5
F6
EC
E6
FB
F0
0B
EC
0C
23
F6
15
0A
DA
1E
F8
1B
04
1A
F1
FA
00
08
FD
FA
02
FF
09
F2
FC
F7
E2
14
E5
D8
FC
1F
FA
06
3A
0F
01
F7
E7
FE
F9
F9
16
02
07
11
FE
06
FB
F4
01
FF
05
E9
1B
DF
F9
F8
F4
19
F9
15
02
E0
0A
F4
03
E3
ED
FF
23
FC
DB
0D
DA
02
04
10
0A
11
18
1C
15
0C
DC
12
FD
EF
F7
05
02
EA
DB
0A
EC
D8
23
D9
F8
03
17
18
E0
07
EF
F6
EF
15
17
D3
F2
10
05
01
F7
10
01
FC
0C
F1
F1
05
F4
F2
02
F0
ED
E3
E8
FD
08
0D
17
FF
FC
00
FA
16
FE
EE
D2
E6
0A
F7
EB
03
02
DD
F3
04
D8
07
DF
F8
FB
02
F6
10
16
FA
18
F2
F5
0F
18
0F
03
EE
FC
05
F1
12
13
F7
0E
06
07
EC
FA
0D
0B
0B
F8
00
EC
EA
F1
EE
D7
04
ED
08
FB
EC
04
FA
F3
F1
F6
D7
0C
F8
EA
FA
0A
07
E6
F8
00
10
F0
19
14
05
28
0D
ED
FA
02
FF
F6
01
EF
F8
17
1F
FF
F4
F5
ED
09
F9
EF
F1
FA
09
FA
EC
02
0D
0C
00
06
03
F5
F5
F4
15
D4
06
11
F8
F7
FF
0D
F2
F2
FD
EC
04
EA
F9
07
04
E2
F2
FE
0E
FD
1E
F9
E8
EB
EA
11
0E
1B
E1
FE
F3
E7
F0
F7
FE
32
F7
0D
15
19
06
D2
08
FB
F9
02
03
F2
10
03
F8
0E
EC
F7
06
21
0D
F5
E5
01
FB
FA
EF
21
01
F8
ED
12
F3
0F
1D
14
08
F1
06
0F
E7
00
07
FA
FC
FF
F0
08
07
EE
F8
08
FE
E9
DA
16
07
00
1E
06
1A
02
03
FB
03
FC
03
F1
11
EF
FA
08
F3
09
FF
F3
F4
0C
04
EB
F0
00
FD
15
F9
EC
05
F7
09
0A
01
F7
00
E7
02
0D
05
04
E1
16
00
F9
FA
06
EF
08
01
04
00
28
F6
FB
0C
FA
04
0F
08
01
FD
1C
1E
EF
07
FD
13
F7
14
02
0B
0A
F2
F3
1F
F4
11
F6
FB
F7
16
13
09
FA
F7
09
F3
00
F9
1F
05
F2
FD
EA
0E
01
17
DC
F9
1C
16
F2
12
FE
FC
E4
0A
F7
ED
07
F7
19
24
F2
FB
F9
F6
E1
0C
FC
16
0E
15
02
F2
F0
F6
F1
D3
EE
02
07
FD
0E
04
FA
FA
0E
06
03
23
06
25
F9
F8
01
FA
0E
F4
14
E3
E4
FC
EE
28
FB
E1
DF
16
F3
05
02
22
07
1C
11
18
00
0B
ED
EB
1C
18
1B
FC
23
E9
17
07
F2
F3
F3
F5
00
07
EA
13
17
FB
F2
03
FF
08
E0
F1
FC
04
03
F5
FA
F4
E4
ED
E8
FC
F8
0E
13
08
0E
F5
FA
09
06
02
FC
EC
F2
FA
01
00
E6
FC
08
EE
11
F4
EB
00
F9
E2
F8
0E
FF
E7
00
FE
ED
12
FF
0C
F6
F7
1D
F0
1D
16
ED
FC
0F
F5
EE
F4
01
19
06
FA
F6
F4
09
09
FA
FD
F6
0E
F6
0A
F5
15
F9
FE
26
0B
05
F5
F0
13
F5
FA
03
07
FC
F4
F6
02
12
2C
FC
0E
F8
FB
E1
1A
EC
00
09
08
DF
EA
F4
1D
FE
17
12
02
F4
0D
F6
F5
03
E0
ED
EF
02
F1
EF
EF
08
F4
01
FD
EF
F2
FA
F4
FD
06
F4
F0
2C
FF
E8
07
F2
FA
04
FC
FF
10
EF
F6
12
05
01
01
FE
FB
FD
FF
0A
F9
09
0C
03
05
FF
FC
FF
FB
04
0A
0D
12
FC
E4
F2
F4
10
19
FD
FC
EC
23
07
07
F7
FF
12
FD
F1
15
FB
F2
07
FF
11
07
0B
ED
F2
03
ED
12
DF
F6
FE
FE
F3
11
01
07
FD
07
10
FF
03
FA
E1
FF
05
12
FD
F4
0A
F1
F8
FF
02
FD
FE
F2
0E
E9
1D
0A
F0
0C
FC
F3
06
0C
0B
12
0C
01
03
0C
FA
FB
FC
09
08
13
0C
F0
00
FB
0C
EC
F9
FA
FA
04
13
05
F2
0B
F6
E6
EE
02
0A
DE
0F
F2
FF
10
FB
EB
F4
04
0C
F3
04
12
F6
FF
23
FC
01
EB
01
09
FF
F5
01
F6
FA
15
F3
19
FB
04
18
10
33
0C
F7
02
0B
EC
03
ED
E8
E3
07
FB
F2
08
F0
08
1A
29
0E
04
F1
E9
22
FF
16
FA
E3
15
F1
08
04
18
20
15
F9
F9
0D
07
01
09
EF
0E
DC
EB
15
16
E6
19
07
0F
E9
0D
0A
0F
FF
02
FB
09
E6
F9
04
17
1E
20
E7
00
0B
27
FC
EB
1F
F8
13
E9
17
F9
E4
F6
12
11
11
F5
01
19
FA
15
1D
1C
FD
20
F7
FF
E7
EA
FD
FB
00
E8
13
17
06
FB
0B
FB
11
20
F9
00
FE
EF
E6
07
04
FE
0A
0F
0A
F3
0F
08
06
F1
FD
FB
F4
26
F9
FD
DE
E8
EC
04
1B
0F
FC
01
F3
0E
00
09
F6
05
F4
0F
EB
0E
05
02
06
F2
05
02
FB
09
02
2B
04
FB
0F
FD
02
0A
F1
26
F0
FF
F9
0C
E2
EF
07
11
06
FE
FB
F5
09
EE
16
EC
03
F5
19
0B
18
05
F9
FA
FC
EA
0A
FD
FF
04
F6
FF
FD
EC
01
1A
FA
0C
18
14
04
D5
09
ED
F8
FE
09
09
FF
04
F5
FC
F7
04
10
1B
05
02
DD
12
FA
06
E8
11
1B
F5
05
FD
12
F1
D1
02
07
F5
23
ED
27
04
FB
00
F8
FA
0E
07
F0
FC
F3
2D
0D
FD
FB
0D
FA
F2
19
4D
02
F9
09
09
E1
05
22
23
F8
EB
1A
1D
EA
20
FC
FF
09
F1
0C
0F
05
14
1A
15
1D
18
E3
10
F3
10
FD
E7
0B
10
04
FC
D5
17
ED
04
37
32
DA
02
08
FF
F9
07
21
F2
2B
F7
F7
FF
0F
26
04
07
D4
23
C1
05
0E
1B
F9
0D
19
FE
FA
F0
0F
F2
10
02
F3
F8
04
07
1B
EC
F5
0E
F9
E7
EF
FD
17
FA
FC
E5
FE
03
FC
F3
06
1F
FB
03
FE
F6
02
FE
23
FA
12
08
EB
FF
07
E4
ED
10
F2
FC
0A
03
17
FD
0A
F1
27
E6
FB
E9
0C
04
1C
0B
19
F9
F9
07
F1
0A
06
06
0C
0A
E1
FA
F4
0C
EF
EE
23
F0
19
03
F4
24
09
04
11
0B
03
1F
B9
ED
FD
05
E5
FD
F5
EB
01
08
FE
11
DE
F7
00
29
1D
09
04
09
FA
0C
0B
EE
09
0A
06
FF
00
FC
EB
FC
0F
EA
17
F2
F4
F5
ED
F1
FA
04
F9
0C
07
03
15
01
13
0C
F0
07
FE
FF
0A
EC
FB
F4
10
0E
F6
0D
06
FF
F5
05
0E
12
EC
0C
0C
0B
FE
F7
F2
F7
FA
00
06
FC
00
FE
F3
1C
14
17
16
10
EB
D9
FE
F0
FF
FB
01
F5
FC
ED
D3
25
ED
0B
06
F3
1C
0E
F2
03
11
00
12
09
EC
04
EE
03
09
E6
F0
15
18
E5
01
1C
F6
0C
06
F9
06
0B
02
0E
1B
F0
14
F5
F4
01
1A
06
E9
0A
04
F9
E9
01
F4
0C
F7
FA
08
19
EC
18
07
0C
ED
ED
F9
E8
32
0E
08
FC
FE
FD
EC
F6
EA
18
E3
07
03
F5
F7
0F
DD
12
08
E2
09
13
E6
FA
DC
09
0D
FE
F5
F2
17
13
01
03
01
EF
F4
E4
14
E1
12
1E
04
F2
0A
19
09
18
06
0D
04
0E
18
25
EF
D8
F9
FD
E4
06
EA
F5
02
FC
08
0C
E2
F6
1A
F0
11
F8
EF
12
22
0A
F8
09
FE
0A
23
02
FF
02
12
06
FB
E1
24
06
01
F5
FB
F7
FC
F7
F3
15
02
11
F1
23
FB
08
DE
EF
18
14
F6
EC
07
EE
F9
FC
07
0A
0B
FD
F5
FF
F6
E5
09
15
19
05
EE
FA
02
08
EE
F0
05
10
FA
01
E4
1E
08
EC
00
DD
F2
10
09
FA
E8
EB
F5
05
F7
E1
F7
08
00
F9
08
04
15
FB
02
00
01
02
02
FF
FE
02
05
FF
FD
04
FF
00
FD
FC
02
03
01
FC
01
00
FC
FE
FF
01
FE
00
FD
02
00
03
FD
FE
FF
01
01
FE
00
FF
00
FE
FF
03
FF
03
FF
04
00
02
FE
FE
01
01
02
00
06
FF
01
00
FE
FF
02
FF
04
FD
01
FF
FF
02
00
00
02
FD
FD
FF
05
00
FE
00
01
FE
FF
00
00
FF
FF
03
03
FE
FC
FF
00
FE
00
02
FE
FF
01
01
02
04
04
FD
FF
FC
01
01
FE
01
00
FE
FC
00
FC
04
01
03
03
FC
FF
FE
FA
FA
FE
01
00
04
FE
02
01
F9
00
04
F8
02
FE
FB
FB
02
FA
FD
FE
FD
07
FC
01
00
FE
01
F9
FD
FA
FC
05
01
00
02
FE
08
02
00
FD
05
01
FA
00
04
03
FC
05
03
07
03
FB
FF
00
02
00
01
FF
01
05
06
04
04
FF
00
FF
F9
05
01
F9
06
09
26
17
F6
19
DF
0D
0C
06
0A
E4
E2
14
EB
DF
E4
09
E4
E2
0D
FD
15
FA
0C
19
F2
E1
FC
F4
F1
08
06
11
1A
07
05
20
F9
0B
14
F7
FC
F5
00
01
18
02
09
ED
FF
ED
0D
EC
0D
D7
04
15
F8
F1
FE
1F
09
EE
F9
07
E7
0B
F3
F6
09
08
FB
FE
16
E9
FB
19
FE
0A
F1
04
FB
20
10
E2
F0
F2
FE
D1
ED
D3
08
F0
21
FA
F9
00
EE
05
12
F8
EA
EF
FD
19
07
06
EC
F5
03
FC
0C
09
EB
0E
04
FC
F2
0A
F1
F9
0E
01
FE
11
13
0B
0E
EB
FD
1E
00
16
F2
10
FC
05
FE
F6
EE
FC
FC
F2
02
11
0A
22
F7
0F
0A
16
FE
10
F0
10
EF
08
04
0A
FC
F1
F2
0D
F1
F7
10
0D
0E
F7
CC
0D
02
0B
C8
25
F6
05
0B
F8
FD
F7
26
F2
E5
03
F8
16
FA
1A
0D
F4
FE
D8
F6
0A
14
0F
D7
16
04
FE
1A
F1
ED
23
0C
FA
EB
05
FE
FB
17
00
05
0D
EE
E6
E3
03
FA
10
0D
1E
1C
F5
08
FD
00
F8
EC
EB
FF
E2
01
0F
F5
05
02
15
0C
04
F3
05
E6
EF
E1
00
E5
25
0B
F8
0C
09
22
F4
F1
EE
1A
CA
03
E5
FE
FF
E1
15
13
FE
24
08
E6
EE
16
F7
F6
0D
0F
01
1B
03
FD
FD
18
FF
ED
ED
E8
11
F2
F0
F5
FC
15
27
03
04
F1
0A
12
F4
EB
08
FA
F6
0A
05
F8
F4
01
10
29
13
E8
0C
18
E2
1B
22
EC
28
DF
01
14
0E
24
FD
07
03
FE
FA
F8
1C
08
00
14
FE
19
F6
0F
F6
14
D3
E9
EF
1D
0E
C2
0F
FF
03
29
F3
FE
03
0B
F8
ED
23
08
04
E5
FF
F5
F2
10
0A
09
F5
EF
E9
19
0A
03
16
EC
E8
FF
F2
E6
FB
05
F7
08
02
EB
01
17
06
0D
FF
0A
EE
10
0F
14
11
0D
00
E7
FC
0D
F8
15
1F
17
FE
FA
E4
F0
0A
0F
0F
FD
FC
F6
13
F0
E9
1E
1D
F9
1E
03
07
12
0A
FB
0B
00
FF
DF
F1
D9
F3
02
FE
18
D3
37
0E
06
FE
FC
FC
E0
F2
F3
0D
02
FF
02
E5
0C
05
E3
0B
EF
29
0C
DC
00
DB
EC
00
0D
FF
15
19
E2
EF
F9
04
0C
16
10
0B
24
F0
E4
01
F5
04
20
16
09
F5
D7
F4
EC
04
10
F0
16
0E
07
21
F4
1C
16
FE
F4
F7
03
05
17
04
F5
F6
DB
ED
F5
F0
F8
EB
11
03
F0
E3
12
13
FE
0A
FC
F7
F9
E6
10
0D
FD
19
0D
FD
12
08
F6
EE
18
0F
2A
D3
FD
0F
F4
F2
EB
F4
01
10
05
FE
17
01
01
E4
F3
FC
05
0F
0A
03
07
F7
05
F7
FE
EF
09
08
00
F9
21
05
05
11
F7
21
0C
02
0A
E3
18
04
E0
09
16
FB
0B
05
0F
FA
01
E7
07
09
0A
00
FC
EE
F6
E8
00
03
E6
FE
FA
05
08
FF
17
0C
12
0A
04
0D
FD
11
17
1C
FF
09
F8
0E
F9
F7
F9
F1
EC
FE
FF
FD
F8
08
04
FE
E2
01
E4
11
0E
EB
FA
06
FC
F5
FB
04
F3
0B
13
EE
00
08
EC
F6
23
0E
F0
F5
0A
F9
F7
0B
F2
D7
1A
FD
FB
05
16
F2
E6
E3
F9
E7
F2
07
F8
F6
01
FD
F1
0B
02
FF
04
26
03
EE
05
0E
0E
03
0C
EF
F9
FE
FA
0E
F7
F3
17
EF
0A
FB
15
FD
F8
01
03
FF
06
28
17
09
07
25
06
F6
F1
F8
15
F6
0C
17
0E
F2
1E
04
FC
F9
0A
15
FA
07
0A
15
F8
07
07
F4
0D
FE
01
08
0E
F2
13
0E
1C
FA
1E
08
FD
ED
EB
31
01
01
FD
F7
06
FE
F3
28
E7
F8
0C
E8
01
FE
08
E5
17
E7
00
DD
F8
EB
09
18
E8
0C
F7
EA
DC
EB
07
18
04
14
F1
0D
0B
EC
ED
E5
F8
0A
FA
1A
EE
FC
F0
09
0B
FC
14
EA
EF
0E
E0
F2
EF
EA
11
F9
E8
04
F4
F8
07
FD
FF
F0
18
F6
15
0A
F7
FE
20
00
EF
2E
FD
0B
EB
2F
05
F4
F6
F4
1E
10
E7
FD
F5
F4
FB
FE
DE
11
FC
FE
F7
12
10
FC
EC
12
E3
0B
FD
F9
00
FC
03
F5
E6
F8
0A
15
FD
FE
1E
00
EF
E5
FE
14
0E
FF
FF
00
E8
0F
E8
F9
10
F6
12
22
FC
26
0A
22
EB
01
FC
0A
0A
05
07
EA
FD
0B
FF
E4
E2
0F
F3
FB
FF
DF
0D
03
F3
E7
E3
2B
FF
04
F6
EC
ED
14
EE
F1
06
F0
00
07
04
EB
19
0F
F0
EC
F2
10
FA
02
FF
18
0F
F8
FC
FA
0B
0B
F0
06
04
0A
08
FB
F1
F0
04
0B
EF
0E
FE
1B
F7
FF
FF
1D
0E
03
E8
F7
F1
ED
0F
06
06
FD
24
08
FF
05
F9
22
08
0A
02
FA
04
0D
02
05
F7
10
00
0E
04
F8
FA
FB
09
F2
ED
07
F8
09
DF
D9
0D
E4
D8
E6
FB
03
07
16
03
FD
01
0D
E9
F5
F8
FD
DF
EA
03
FF
1A
E8
0A
E9
0F
F8
E9
FF
1F
F6
01
0E
E0
E3
F4
03
09
F3
E9
04
F8
F3
F3
1A
FF
F6
F0
0C
F4
EE
EF
F3
F2
FB
F9
F3
0A
F1
F8
F8
ED
EA
E0
00
F7
EC
F6
F5
FF
F0
EE
0C
E6
06
10
F7
EE
F2
FF
0A
F2
00
E7
E9
F8
03
F0
DB
FC
FE
DF
05
09
F5
F0
02
FF
F0
02
02
F2
FE
F6
06
F7
0A
EE
08
F7
EE
FD
FE
04
0F
FF
F3
E2
22
01
F5
F1
F4
12
E2
EC
12
00
E5
E0
FF
0D
02
1C
08
EB
FE
00
1A
EE
F7
03
EA
0B
05
38
03
08
F6
F7
1C
F1
F9
09
35
08
13
F1
0A
EC
24
DE
F1
0B
F2
07
12
E2
11
FA
11
12
FE
E8
D1
D5
F8
2E
19
10
0F
F7
01
02
08
05
05
22
FE
0A
EC
27
F6
F5
E5
DA
ED
0A
00
11
F0
20
F1
04
DF
14
30
00
10
FC
01
0E
F8
F5
E8
15
FE
05
0D
F1
2B
F4
DA
1A
0A
22
F4
EB
11
04
0F
FE
0B
F9
21
EE
0D
05
EC
00
FA
25
09
FB
EB
0F
F7
E9
08
F2
FB
1A
08
FD
F3
21
F6
F6
06
E4
E5
11
05
FE
FB
18
09
E7
04
E8
0E
0C
0F
F1
F7
E5
EC
00
09
FD
10
ED
F7
1E
0C
10
1C
06
F2
F8
00
0B
05
EB
10
F1
DE
06
08
06
F5
01
13
FC
F9
FC
04
00
FA
04
12
F2
02
EA
FE
FE
F6
F0
F4
FC
EF
EF
01
F6
FB
F0
12
0E
00
06
17
0A
FC
F5
E4
FA
ED
03
F2
F1
12
08
F1
06
FF
0E
1F
28
F8
12
F5
19
F9
F5
E7
10
22
01
FC
16
E8
0A
01
E0
0B
F0
0C
EF
0E
31
FE
FD
FD
10
02
25
E8
D4
FD
11
E7
1A
10
1F
F0
12
00
12
DF
F3
12
DA
1B
EE
02
18
E0
12
11
04
12
ED
09
F9
FE
EF
1A
00
DD
F6
05
E0
E4
E2
FD
FA
F5
21
14
DE
1F
E8
08
FF
07
FD
FF
E7
E0
0E
00
11
FD
FA
0C
24
0F
FA
D6
10
11
06
06
19
12
04
EB
0E
F2
0E
E9
F2
0A
F3
F7
EB
F6
0E
E4
05
00
03
1E
08
10
FC
04
FC
0B
00
EF
03
0E
EC
05
16
F3
F7
15
EA
F0
FA
F8
CF
FA
EB
19
06
07
E2
EA
0B
F6
F2
1B
F8
E7
F8
FA
02
01
0A
13
ED
F5
EC
FC
F4
1A
EA
F4
F3
0A
FD
0E
11
F8
27
14
1A
E9
08
08
FA
06
F5
01
FF
20
0C
0F
FC
04
F2
FB
F0
F7
FA
0E
0A
FB
FF
ED
16
FE
09
0C
FA
03
FF
00
FE
23
EE
00
06
E9
F9
E5
E7
10
F8
ED
FB
E5
0B
F1
09
F2
1D
F0
E4
FA
05
FD
FA
F9
E0
FD
F1
F7
07
08
16
EA
1A
16
08
1D
FE
EE
D6
ED
F2
26
F0
04
2E
0A
DB
FB
06
F3
00
11
EE
F0
0C
00
F3
07
2C
0B
F8
11
07
EF
F1
1A
EA
DA
08
0C
F2
0E
0D
FA
FC
FD
F6
E2
0F
08
FA
EC
09
1F
F9
F2
06
1B
13
00
07
09
15
F7
06
17
00
F6
03
F5
03
04
08
F9
F8
06
F5
E5
04
16
EC
E7
EE
01
F0
FC
F9
E7
FE
01
EF
02
FE
07
FF
05
FC
11
FE
F3
FA
16
03
FA
EA
06
00
0C
05
F6
07
0F
17
F7
F3
18
E9
FA
0B
04
12
0D
ED
F2
F8
F5
FB
12
0F
FF
08
0D
05
06
E9
12
0B
FD
EB
02
EC
06
08
FB
0A
EE
F5
09
0A
04
D4
05
F6
F6
1A
13
E8
EF
19
F5
F6
EB
10
EA
1F
FE
09
0F
F4
F3
F9
FF
F3
F5
F5
12
15
06
F3
06
05
F2
DA
12
17
FD
0A
05
EE
D9
FB
16
06
FD
E6
14
00
EF
01
0B
F8
0C
FE
17
F5
13
F1
00
EA
07
11
EA
0A
0C
06
06
10
F2
04
FD
0F
F2
07
0A
1C
F8
EB
F9
07
02
0E
ED
E6
D2
01
EB
13
E6
F8
EC
E1
F3
F9
E0
08
06
ED
FF
02
FD
0B
F3
09
13
13
09
08
00
F7
DA
FF
FB
FF
F3
04
E0
ED
08
FC
10
1A
22
0F
E8
10
EC
EA
F5
13
FD
08
F9
F0
06
27
07
1E
10
E5
FB
0F
F9
F3
07
FD
EF
FD
11
E8
04
FD
EC
05
16
FF
D5
0D
0C
17
11
F6
0B
0B
06
1D
F3
05
0E
DC
04
F0
09
1E
F5
FB
15
EC
10
16
26
1D
0F
EF
11
CA
F3
E8
E6
0A
F9
FE
E8
EC
F1
15
1F
12
EC
04
0B
F6
09
FB
32
E8
0C
0F
01
E5
18
0D
F5
14
E9
FE
FA
E6
11
14
16
F6
11
02
FE
02
F9
EE
10
45
F9
F0
00
09
1F
0B
01
E5
04
0F
F0
14
F4
05
08
FA
0A
F7
E8
F3
FE
EC
EB
1F
FF
27
05
02
F4
FF
F4
E9
E1
F7
FB
13
E2
DC
F9
29
15
F6
03
03
1C
14
11
F5
0E
F4
F9
EB
01
F1
F5
FA
F3
09
FB
19
E4
F8
03
00
F1
FD
04
07
03
F0
F8
FB
0D
0C
FD
1D
07
FF
FB
F6
1B
02
F7
0A
FC
E2
E7
D2
E7
F4
02
ED
F5
02
F0
02
FC
EC
06
F2
F0
F8
F2
E9
25
F3
FF
02
E4
0D
1F
FD
0E
F8
18
FC
14
14
03
EA
FE
1A
F2
1B
EC
0F
07
F8
F0
16
F3
ED
10
0F
F4
02
09
FD
FF
EC
15
DD
EF
15
F3
FE
F4
01
07
F5
1A
F7
FE
0A
F5
F9
08
E0
D0
FE
F8
FC
06
FC
F5
F6
FD
09
08
02
ED
FC
05
F7
06
11
16
02
FA
EE
F7
16
EB
17
11
00
15
FD
FD
17
F2
FD
01
F8
17
FA
FF
FF
0F
0D
FC
F8
09
05
1E
01
E4
FF
FF
15
16
EB
CB
22
FF
01
EA
0C
F9
0A
08
13
EF
09
03
E9
F7
00
F1
19
E2
E6
FE
FB
F9
F3
06
0D
FA
FE
13
05
04
0A
22
E7
0B
11
1E
05
F1
F5
03
F7
F1
02
F9
FC
02
0A
1B
03
01
FF
FD
EB
D6
F5
E3
E7
13
15
F4
13
EF
13
FE
F5
0D
09
15
28
0A
15
FA
EE
F5
10
E9
05
03
17
FB
EE
F6
F8
ED
08
FD
E9
18
07
F0
F9
EF
F1
08
E3
F2
01
ED
0E
00
FC
F8
06
F7
0C
08
ED
F4
00
1E
FB
0E
ED
F8
F9
04
E9
F5
06
06
FB
FF
F4
0E
13
EF
FA
15
0A
F9
FD
FD
F3
08
F5
E6
F4
F9
1D
ED
EC
2C
0C
FA
F4
05
06
03
FC
0A
05
08
FD
E5
F8
0F
E9
0F
F9
ED
11
17
05
F4
E7
ED
E5
F4
E0
05
06
EA
0F
05
0F
0B
10
06
01
0D
16
F1
14
EC
05
06
F8
18
17
08
EC
06
0F
10
00
0D
12
00
F7
01
EF
F7
07
F9
F2
F7
EA
FB
1C
1E
1F
10
F3
05
E2
F4
FC
17
04
14
1A
F7
E6
EE
F6
00
EF
18
22
04
21
0A
09
FE
05
08
EF
FD
F9
13
0B
F5
35
F6
26
FE
08
1C
1A
EF
DA
04
13
0E
0B
07
01
14
EE
FC
01
1B
FA
EA
11
EE
EC
38
E0
01
FB
F1
F8
EC
F8
1D
EE
F9
F0
E7
02
12
FA
E3
FE
FB
0F
EF
03
F2
E8
07
0C
0C
06
17
12
FE
F7
F9
F1
00
08
05
1C
F9
05
04
F9
EF
FA
13
06
02
03
FC
02
FD
FF
00
FF
00
00
FD
02
FF
FE
01
00
FC
FF
FD
02
FF
FF
FD
FE
00
00
FB
00
02
FF
FC
01
04
04
01
00
FF
FF
FF
01
FD
00
04
FF
03
FF
FF
FC
00
01
02
FE
02
FD
03
FE
01
FE
02
02
FF
FF
FE
03
02
01
02
00
FD
01
FB
00
FE
04
01
01
FF
03
FD
FD
FA
04
01
FE
04
01
03
06
01
03
00
FC
FE
FC
FF
FF
F3
FC
0F
F4
1C
E4
F8
01
00
0E
EE
0D
00
09
FE
EE
12
1E
DE
02
F5
FE
07
21
F0
10
FC
0E
07
02
F5
F6
1B
FB
EC
00
0D
D7
FF
03
F7
E2
0C
FE
01
12
07
02
F5
F3
0E
08
0D
02
10
10
06
08
01
F5
F6
FC
06
F0
01
00
03
01
F9
07
06
FF
FC
EA
08
10
EF
FD
02
F1
08
0C
FE
07
0A
FE
ED
F3
05
F5
FC
11
F7
FC
FB
F1
0A
0D
0A
FD
F8
0C
0D
12
DE
F6
E5
FA
EA
06
0A
15
29
0C
14
F3
FE
0B
05
14
11
0E
EF
EF
12
ED
F7
F8
E7
00
F8
F8
15
24
24
00
30
DC
D7
02
F4
0B
0D
D0
F6
23
E2
05
FC
FB
0B
F0
25
F7
DD
FB
F3
F6
F8
16
FF
17
13
0C
14
08
06
1C
14
E3
F8
E4
10
F6
12
FA
EF
D9
F5
0C
10
1D
03
10
0D
1F
04
E8
F4
14
03
E7
0F
FF
1F
FA
0B
07
0B
F4
FD
16
28
0B
DE
03
02
10
0B
F5
00
26
F3
F8
FF
28
0F
14
F4
EE
06
F7
E9
10
FE
1A
0C
0E
09
0A
01
F8
E1
F7
1C
03
E1
05
FF
01
FD
FA
00
0A
FF
03
0C
F4
E4
09
F7
09
EB
00
F9
28
FD
06
17
0F
02
E5
04
03
09
1B
FF
FB
0B
FB
E1
F8
EB
18
FB
F9
03
00
EF
F2
14
FD
E1
06
F3
10
06
0C
E2
EC
F6
F1
14
FC
1F
F2
07
01
02
07
07
FE
22
EF
1A
05
E1
EF
E1
FA
03
1B
05
FB
0D
F9
F4
0C
15
F2
EF
0B
F1
0C
FA
EE
FA
04
02
F4
09
02
F3
13
FF
D7
E1
E5
21
0D
1C
EA
10
CC
1C
ED
FD
0F
01
03
1D
2E
FF
F3
FE
F8
FA
E6
F9
F9
EC
D0
1D
1D
2B
13
21
F4
F3
E9
F0
F1
E8
FA
EA
F5
1B
1A
ED
24
30
EF
F5
DF
04
FB
EE
0B
11
EF
E4
FA
FD
14
0A
04
08
0C
02
ED
F9
FB
EF
F8
FA
0A
0C
F4
EE
EA
F4
FC
FF
06
FD
F1
26
FB
E5
17
10
08
1D
04
F6
11
0C
F9
0F
F4
07
F2
0E
FC
08
06
F6
11
FB
13
1B
04
09
0D
02
EC
EB
FD
FC
F0
18
0F
E5
FE
03
FE
FE
CE
0B
18
F7
06
E2
FB
05
08
F6
02
16
F2
09
03
FB
FB
1A
03
0C
10
01
F6
08
EC
F3
06
F3
F3
E9
ED
06
F8
02
FC
1E
07
E7
F6
02
02
FB
15
F9
20
00
15
F9
E9
F8
FB
F2
FE
0D
0C
04
FE
1A
06
17
04
EE
1E
09
FE
0F
F3
05
F6
F6
10
08
01
08
F9
F5
10
1C
00
07
15
10
13
E3
FE
03
F1
FE
1D
1B
14
FB
10
0E
E8
04
FB
12
04
E9
F2
FB
EF
12
0C
1B
05
18
F5
1C
FB
E7
FF
10
F9
15
0C
F5
EF
01
14
07
0C
20
FE
03
F4
06
F5
06
1E
EF
F7
F9
E8
EE
0B
11
16
08
05
FA
F4
00
06
01
FE
18
EE
09
E4
07
F8
FF
E7
F2
08
EB
FB
FD
0B
F8
F4
08
F5
0D
EB
07
F1
04
06
01
F4
05
03
F6
F2
07
F4
25
09
FB
0B
F6
F1
FD
13
F7
19
E3
FE
04
FA
0E
F1
0F
15
FC
02
FA
F5
EE
11
12
05
FA
1A
00
06
F9
FC
04
1A
06
01
00
FF
EF
03
F2
09
10
F3
05
FE
EA
F4
2B
F2
EC
00
04
DD
FD
F8
0A
0D
F5
F9
E4
05
1F
F8
05
FB
13
00
18
FB
25
0A
0D
F5
F5
04
F4
18
22
08
1D
EB
FC
12
22
FE
FC
07
0F
0B
01
FE
02
0D
05
FA
0C
F7
14
F8
02
08
FA
04
11
FF
FC
F4
04
FF
08
F9
F6
11
03
F5
13
0B
17
DD
06
ED
10
EE
0D
F8
F0
12
04
FD
00
F8
F4
14
06
DF
0B
0D
D5
DA
FA
F9
E7
0A
1A
E5
EB
01
1B
0F
0C
02
ED
F8
ED
04
FD
FE
FF
F9
1A
E4
05
EB
03
F6
09
EC
DC
F4
F8
FA
1D
15
DC
09
04
FF
0E
F4
00
E5
18
F9
2B
E9
D9
05
01
0E
EE
F1
EF
06
1D
05
F9
0B
02
F5
E9
49
16
EC
ED
D0
EC
1A
F8
FF
EE
02
FA
E1
F4
10
DD
0C
08
EF
DB
FA
0F
FB
1D
25
0A
E5
F3
FF
EC
04
F9
02
04
07
13
F7
DE
FA
FA
F8
F7
0B
07
F9
FD
FE
FF
01
09
0E
F6
11
18
FF
0E
0A
00
0C
03
F4
09
DC
FE
F8
10
F8
F9
FB
F0
0E
E9
EE
ED
1B
01
FC
05
E8
05
06
01
0D
E9
FE
F7
FA
01
07
FD
15
F8
00
13
00
F6
FE
0A
FD
0F
01
05
0A
0F
04
05
E7
0C
FB
FC
00
F7
25
F9
F5
03
F3
FE
09
00
F5
E8
E5
FB
FF
01
FF
03
0A
03
13
EB
29
F2
01
F7
12
F2
05
FD
03
D7
20
07
0D
09
0D
0D
F2
00
0E
EB
02
00
F5
1B
09
DD
20
12
27
E7
0C
0F
F9
EE
F4
07
1D
FE
E8
E5
E5
DB
FA
F3
0A
00
0B
18
18
F1
FA
09
01
FF
26
F7
04
D2
16
F3
FD
FA
EA
F9
1E
1F
21
17
03
FB
F5
06
F5
26
1F
19
0F
F8
12
15
00
16
10
F2
FA
06
17
01
0D
08
E0
07
00
0E
F8
09
0B
2C
15
FB
01
FD
07
05
C4
E8
15
04
02
ED
FE
F5
F8
EC
09
E6
EE
0E
E6
0B
EA
FB
DC
03
00
1A
F6
1A
FE
04
08
CF
E3
E1
2C
EE
F7
F9
FB
11
01
F8
00
F9
16
13
F9
FE
0A
19
FD
12
08
F2
0A
FD
DB
EE
06
06
02
07
F8
F0
0F
00
10
F2
1B
F7
1B
04
06
11
FC
02
13
FB
EF
04
0D
FC
1A
04
FB
F6
F4
0A
F9
F3
16
0A
F3
01
17
07
03
F1
00
F7
0A
D7
03
16
EC
05
F7
12
FA
F5
FD
0A
15
0B
08
0F
F5
EF
F4
1D
F4
EA
09
EC
F6
F0
FE
F6
F4
03
FB
00
08
0E
FB
F3
F9
02
13
17
16
F9
0A
05
DD
0F
F6
E7
F8
03
FF
DB
05
F3
FE
04
1A
E9
FB
03
FC
E9
07
02
E3
F7
00
04
08
05
0E
0E
EF
F6
05
EF
E1
E1
06
F6
14
F8
F2
D3
E4
FD
1B
07
FA
02
F2
EA
FC
E5
10
DB
1A
EA
FA
06
12
00
1D
23
F7
25
EE
0D
16
0C
F9
EF
17
FF
FC
1A
22
EB
16
0D
E5
FE
D4
D5
F3
E1
F6
00
EF
FC
E0
00
10
20
EA
0C
14
05
19
23
EB
F8
FE
E4
E7
20
F9
EC
D7
08
F8
12
02
F6
01
FE
E7
F9
20
18
FF
13
1A
30
FF
1E
36
1E
F9
EE
01
E8
EF
F3
E4
05
E8
0E
0E
F2
E5
E5
FE
04
22
E3
FE
01
FE
0B
01
0A
E7
23
FC
07
00
FE
12
12
04
FB
F5
EE
FB
15
F1
0E
E6
F5
1B
EE
FC
F2
05
09
FD
01
0C
EE
14
04
EB
04
0D
F2
30
12
F7
00
E8
13
FD
0A
F0
F5
09
F1
EF
F8
20
17
EA
1D
F3
FB
08
03
F8
12
1E
E1
E7
13
E7
11
07
FC
F4
FC
11
02
16
E9
F3
01
19
0C
F5
08
F1
03
01
00
0C
15
0B
0C
FA
1C
FD
04
02
06
FB
1F
06
13
F7
15
FF
E6
FD
24
DA
10
10
02
F4
0C
04
05
11
FF
14
FB
FF
09
F1
05
15
07
E5
08
15
E9
FF
F2
26
EE
09
E2
24
FC
1B
EF
0B
F6
F9
03
F3
F2
1F
E6
09
F7
07
F3
15
11
E7
06
06
18
12
F9
EE
FF
F3
35
F4
00
09
1B
05
0B
0B
17
0A
2F
03
EE
07
07
2A
0E
E3
0A
02
08
FC
06
F8
01
EF
DA
FC
11
FE
0C
2B
F1
E4
05
18
F8
07
F0
EC
04
0E
06
18
F9
0D
F0
FE
F8
0D
1F
0C
EF
05
02
1C
07
0F
04
FE
FD
06
E7
14
F2
E9
04
0E
FB
F4
DB
FB
00
E9
F1
03
0E
FC
07
0C
0E
02
EB
EA
12
16
EC
04
00
12
06
1C
0D
F7
F4
0A
18
EC
E4
18
FD
0D
FB
F3
E9
E9
05
1B
03
0F
F6
FC
0A
FE
15
FA
FD
11
F1
FA
F9
F3
13
00
00
F7
1D
07
E5
16
02
FF
EB
F6
07
21
F3
10
01
F5
27
17
EB
05
EA
23
FD
09
E8
FD
F7
FA
E0
04
FA
1C
27
FB
0D
01
03
F6
FE
08
33
FE
04
E7
09
0D
FF
F6
16
E3
F6
FB
E8
F5
0B
05
12
1B
0E
ED
28
12
04
F2
16
14
1C
14
ED
00
02
06
00
01
ED
F5
13
F7
EC
05
F7
F6
06
F2
FE
FA
13
0D
13
FA
0B
FD
DE
F0
07
DF
FC
F4
1D
FA
14
FB
15
FF
C9
15
02
06
EB
F1
FD
F9
FF
FD
00
F4
FE
15
04
0A
F8
06
08
EA
F6
17
FA
F9
1C
0A
08
0F
F5
E2
F0
14
F6
E5
04
08
25
12
0F
0D
18
23
EC
11
03
FC
06
1F
F9
F1
0B
03
1C
00
FD
0A
06
31
14
FD
DB
E7
DD
FD
FA
12
FD
E2
09
00
E7
12
08
0F
FD
FB
F3
02
11
22
F2
FD
E3
04
F6
FB
01
F0
FD
09
02
F4
16
17
FB
E7
F4
06
EA
06
FF
EF
F2
F2
CE
EE
0D
FE
F0
0A
18
08
F8
10
EE
03
02
F0
00
E3
02
FD
19
F4
F6
E6
18
F6
09
F5
07
F1
1D
02
1A
FD
33
21
F1
01
FE
0E
0A
F5
F1
0D
EA
F2
E8
08
FA
17
EC
0E
EB
20
EF
F2
E5
2C
F7
EC
03
F1
0A
0C
18
06
05
FF
F5
EB
EF
ED
14
F7
E6
F6
03
FC
EA
00
02
05
FC
17
F8
03
ED
DF
FC
0B
0E
17
13
1B
1D
F1
05
F3
FB
F5
F5
F0
19
05
F4
09
FD
1C
DE
F2
E9
F4
F6
FA
06
09
11
19
EC
FB
FC
05
F3
F7
15
0E
08
FE
00
FC
0A
0B
08
F0
E2
07
1C
12
05
F3
E4
E8
1D
F0
13
04
F9
02
F8
00
FA
00
F7
D7
16
0C
FD
12
F6
F0
07
FA
F6
E1
07
E4
00
0F
E5
08
ED
06
EC
FD
08
03
10
05
04
FC
F3
00
EC
0A
DE
09
0A
F8
E7
0F
01
05
EB
E0
14
E6
F1
F7
F7
02
19
F7
01
10
F3
09
E5
11
FC
15
1D
FA
11
08
F0
FC
DF
FD
0D
EC
0B
02
05
01
FE
10
12
ED
F8
FD
05
01
14
03
18
EC
12
11
16
F3
F3
F3
FE
F2
EA
1F
F4
18
F0
F4
EE
ED
F6
F1
EE
F9
F1
F5
FF
06
FC
0F
F3
F9
FA
FE
0F
11
07
04
F8
F9
F8
12
05
0D
24
08
10
05
ED
FA
F7
07
05
EF
04
E2
1D
F8
0D
E3
F2
DF
F1
01
FC
05
08
0C
FF
EE
0D
06
1D
F8
EB
0E
FB
FF
FE
0E
05
00
0E
09
FF
0D
04
09
F2
12
F6
0A
FC
11
17
03
F7
FE
04
EC
F8
F6
04
FE
EB
16
FE
EF
FF
F9
DA
EC
F0
14
F3
F4
04
01
F3
02
14
04
D3
FB
EC
EE
FC
E2
07
FC
E8
E6
FB
F2
E7
EE
F1
FA
0F
F9
FE
FB
FD
04
F9
FF
EC
E2
07
1E
FD
F9
ED
FF
03
06
07
FC
08
10
F7
F1
EE
05
03
08
EF
ED
14
FC
12
F5
FF
D1
00
E0
F5
0A
0A
02
07
F0
0D
FA
02
05
F3
EC
1C
1F
E4
0C
08
1B
08
FF
12
0F
FF
0E
EF
FB
0A
04
EF
F2
1C
FA
05
FA
FA
15
FF
F9
06
0A
F4
EB
02
0F
00
FC
0F
06
FC
08
14
17
14
FF
EE
23
F3
14
F6
E3
12
00
DE
EE
07
0B
FF
0D
11
EC
01
0B
F2
1A
F2
13
08
F7
FD
00
15
F7
10
F8
09
08
F7
00
FB
10
14
09
F8
12
E9
17
FC
EE
F6
12
04
10
F0
18
F1
18
EF
D0
12
06
E4
0B
0C
14
09
FF
09
EC
11
FE
0B
13
00
EE
E9
0B
F9
F8
19
02
07
F2
0E
EF
F0
06
19
08
02
0F
EF
06
FD
F3
F1
05
05
0D
02
07
FA
1E
EE
13
04
02
ED
13
EC
F7
00
12
FE
FA
01
EC
E4
F6
0F
1B
10
F2
0D
E4
09
C9
02
29
0C
27
0F
1D
0D
19
D8
DF
EC
09
EB
E7
0C
02
16
17
09
1C
F4
10
FE
04
1A
E1
15
EE
07
14
F4
E6
EB
F9
E9
09
E4
E6
00
F4
2D
27
13
FE
F2
04
FF
ED
F6
05
E5
E4
F4
FF
F8
DE
1D
E9
05
F0
01
0E
F3
09
F0
02
21
CA
FC
0E
EB
05
2A
08
11
FF
F2
35
F5
07
F2
E2
07
03
F8
13
EE
03
09
07
F8
EF
0E
0A
F5
0D
09
FA
F3
FE
0E
FB
02
05
14
FA
FC
DB
EA
EA
F5
0A
FA
F8
F7
09
10
0F
0B
EB
1B
F7
F8
E9
F0
25
10
F8
FA
FA
19
F4
06
02
09
E6
F2
FB
FD
E1
FA
EC
E5
F2
01
FD
FF
0F
F5
22
02
0D
FB
1B
FA
FB
F4
03
F7
FD
00
F5
F5
1C
F3
0D
19
EE
0B
DD
12
04
05
FB
05
0E
F6
01
24
FA
12
F5
F2
D6
0B
0F
EF
03
F9
13
2F
FC
02
00
FF
E4
05
01
F2
F3
FA
FE
DE
07
EA
F6
09
FA
14
10
10
F7
DF
F5
0E
F3
ED
FC
16
FC
0F
DC
F8
09
FC
17
04
FB
E6
00
FA
ED
20
EF
FA
FA
F4
06
F2
FB
04
19
F7
F3
28
0C
0D
04
28
EF
16
FB
F3
02
18
28
01
17
16
F4
E0
E0
06
27
F3
E7
08
F7
FA
07
FD
1B
EE
08
F7
EF
E3
EB
0B
15
02
15
02
09
E7
08
05
F8
EB
FD
FC
0A
FC
08
F5
FA
13
E5
E3
13
EF
FB
01
1F
F6
F4
F9
F3
EF
F0
12
FE
04
04
F2
05
01
F2
17
0A
F1
E4
F4
EB
12
E3
18
10
04
FE
EC
F6
EC
E4
FF
11
17
02
01
0A
F0
05
EE
E0
04
F4
01
FF
06
EB
0E
24
3B
E2
FD
18
1C
EF
0C
F1
F9
EC
F7
1B
1A
06
02
0B
0B
EA
0A
E2
06
13
FA
1A
10
E0
13
27
0C
F5
DD
19
BA
E7
FB
EA
F8
0F
02
18
E4
F9
1B
27
F8
FB
FE
1B
11
ED
D2
0E
C1
F4
E7
00
16
11
28
12
FE
2A
33
04
EE
EC
DC
03
EE
D7
00
0F
39
08
E7
D5
0D
18
E8
D6
00
00
1B
1F
21
03
FA
06
FD
26
D4
21
EA
12
F4
03
EB
FD
0E
FE
F0
FD
F5
07
0C
03
E9
10
05
01
FE
E3
F7
F6
FC
F1
F1
02
06
FF
FA
E9
F9
08
F6
FB
0A
E6
FD
0A
0C
16
21
0D
0A
EF
03
FF
20
00
08
07
10
15
EB
DB
20
0B
E9
EC
10
01
13
02
09
17
FA
04
0F
00
EA
FC
13
0C
1A
13
FD
11
28
DF
EB
E7
F7
12
10
07
E3
10
FA
F3
18
20
10
F6
FE
EF
F2
00
F7
06
17
01
04
14
F1
0D
0C
0B
0D
03
11
FD
1B
08
15
F7
32
FE
E3
FD
D3
07
09
F2
09
F5
2A
02
FD
06
FD
F3
1C
09
F7
EE
00
18
1A
FF
0E
0A
FD
21
FA
18
0B
E9
08
09
E8
FF
23
18
FD
E1
FD
F8
FB
F6
11
0F
EC
14
F1
E4
F8
08
F6
02
25
FC
1B
08
0E
05
16
FC
F8
EE
F8
23
0E
15
F7
0D
F9
F3
06
10
F6
03
17
0C
06
FA
05
11
00
16
0D
FB
03
07
04
23
05
0D
26
F6
15
D7
FF
0B
03
14
08
FE
EE
03
FA
F1
F8
FE
00
F3
F8
F3
11
01
0C
1C
F8
F3
0A
10
08
04
00
26
FE
0B
08
14
01
02
09
06
08
F1
CE
E1
04
05
06
EA
F3
EE
07
13
20
EC
0D
09
21
FE
F5
1B
F7
F2
E3
0C
0F
E4
01
F7
02
07
10
04
FA
FC
10
EC
E4
0B
ED
FD
F0
0F
0B
F6
09
E0
FB
EF
E1
FC
1A
0F
09
E7
1B
FF
09
1B
0A
00
27
E4
17
F4
E3
F5
DC
06
0E
01
FB
0A
F5
E8
17
E5
05
F5
01
18
03
0C
05
E0
0E
F4
ED
DF
0A
08
06
F9
07
F5
03
FF
14
0F
20
F9
1A
C8
1E
E1
15
00
F6
02
12
19
09
EE
F8
13
00
F4
D4
0B
FA
D9
1D
1F
22
20
20
EC
F1
FA
01
E5
05
14
D3
1D
2F
06
E2
25
2B
FB
FF
E7
F7
E7
06
F8
EB
D6
11
DD
19
F2
14
0D
E5
E8
03
F4
F1
26
16
DC
1C
16
EA
1B
0F
02
0C
FA
E6
15
04
00
03
12
11
00
06
E1
06
05
F9
04
20
F4
10
F1
FF
FD
16
F3
EC
11
05
06
F5
0F
E4
F9
D7
0E
05
0F
0F
1A
E6
F5
0A
01
FA
FA
FB
0B
19
18
E0
0B
EE
0B
06
FF
F8
0E
DF
F2
F6
0A
F0
01
DB
08
07
16
ED
0A
F5
07
F0
12
01
FB
FA
FF
E2
FA
0D
04
FD
21
F2
DC
2A
05
0B
10
E5
00
F0
F3
EE
F2
1A
F4
03
F4
05
D1
FC
E5
F2
F6
F7
0A
EB
F4
DD
F3
06
0B
FA
03
1F
0A
05
FD
E4
09
E2
F8
E5
23
04
04
06
0D
F1
14
1A
F8
FD
09
FF
11
00
0D
06
FA
F6
F9
0A
EB
12
E5
1B
FC
E0
FD
1F
05
F7
08
F9
08
F8
F2
1C
FB
0E
F8
EC
0B
F2
10
F9
FE
E3
04
EF
0B
04
F0
F5
09
01
06
E4
FD
08
E0
0F
0D
F3
FC
F6
01
19
EF
F3
06
F6
FE
F8
FA
04
FF
EF
10
06
1A
F0
FB
FA
02
EF
EA
12
F7
F2
FD
17
16
19
18
00
23
00
02
09
0A
FB
FB
0B
03
15
19
0B
0D
05
1A
12
E5
03
FF
20
FC
17
03
F1
02
FA
00
F6
F8
0B
01
22
0B
1D
27
EA
02
0E
02
FF
04
E3
F9
02
0C
0B
15
18
F1
F5
FF
F8
F7
FC
2C
19
FA
EC
05
0A
FD
1A
F8
FC
10
F9
F6
F2
F7
18
03
19
07
07
FE
FF
E6
1E
00
04
0B
C9
F8
05
FF
16
F4
16
E5
15
09
1D
15
F1
20
E7
E8
F1
14
ED
EA
F7
09
11
3C
17
CD
08
24
00
26
04
11
0C
DC
F7
E7
2D
E0
E3
0F
F3
01
09
F4
13
01
16
DF
04
E9
E4
0A
17
0D
FD
CD
F9
FC
FD
FF
EB
F2
01
FD
F4
11
EF
09
F6
EC
F0
FC
06
F5
02
02
18
0D
05
F4
D5
0E
E3
06
04
0A
E5
FF
DE
FA
05
06
02
05
03
F6
09
05
14
08
F5
0B
06
F0
01
1D
FA
FD
F1
05
EE
F8
FA
F8
10
FF
0A
09
F3
EA
09
F0
19
F2
F4
F2
00
08
F4
1A
F7
F4
F3
FA
1B
05
F2
F2
0B
0B
F9
EB
F6
FC
2D
F4
08
0C
F3
F7
FE
EA
FB
FC
03
08
FF
0D
10
02
FE
FF
09
16
F1
FE
25
03
E7
15
10
0C
EA
07
28
15
F6
F0
1E
02
E3
E5
D5
FB
02
E7
17
04
D5
33
18
FF
15
E7
F6
13
E6
06
FE
09
02
E3
1A
12
0F
F5
0D
1E
1C
ED
F9
0D
0D
08
ED
DC
F2
1F
F4
F7
11
F7
F8
0E
D7
0A
08
0C
04
FD
0A
18
F3
DB
F3
F7
08
DB
EA
E7
FC
FB
12
F3
FE
F9
F5
00
E9
FF
06
FE
24
E2
18
2C
08
17
12
2C
0D
09
17
04
0A
05
F2
ED
28
E6
02
2D
29
D9
05
F6
11
04
F5
F7
F0
FD
01
E5
F2
11
0A
16
FB
DB
F3
FB
1A
1D
E7
E9
EF
F4
F2
23
1B
07
1B
00
1A
D4
FD
06
F1
F5
1D
0C
06
0C
F7
1B
E6
08
FF
FA
04
F2
CD
29
2C
11
F8
E5
F1
0A
29
01
1C
F8
F4
0F
EC
F4
14
E2
19
07
ED
0C
ED
00
FE
E7
1A
FF
E9
E2
FE
07
03
0B
F6
13
FB
FE
19
FE
FE
0D
1F
14
1B
11
F1
F7
17
EE
14
FC
F5
FF
FF
04
FC
12
05
18
2B
03
01
DE
FF
FF
F0
EB
09
F4
00
F5
FB
11
0D
18
E6
22
12
F7
FF
02
FF
18
09
F8
04
FE
25
1C
20
01
0C
DB
04
05
F2
03
FF
FB
FC
0F
0D
EC
F0
21
FA
20
F5
D5
1A
0D
EF
FB
16
E7
04
12
FF
07
0B
FC
28
01
F4
08
09
2D
06
17
12
07
0B
0C
EF
15
F3
DE
E2
F5
EE
11
09
09
F1
09
FC
FC
03
FB
EB
10
FF
F9
FE
02
EC
07
0D
0A
02
F5
F5
09
07
14
EA
1D
FA
16
1E
26
09
09
ED
FC
F6
EA
1B
16
17
EA
07
01
FC
FD
07
E0
1B
FA
13
F6
F7
F7
00
FC
14
FE
EA
04
2E
F3
1B
05
06
F6
F4
03
15
CE
23
00
ED
F6
F8
14
FF
0C
07
FB
10
1A
FA
F9
DE
07
F6
02
EC
11
F6
D1
E5
E9
0E
1F
FE
11
E9
FB
EC
E3
0B
F8
00
F5
FB
FB
0C
17
0B
E2
F1
EF
03
02
FE
0E
E5
FA
E4
05
F1
07
FF
E8
EA
DF
05
FE
13
F9
0D
F4
F6
07
0A
E8
ED
DD
F4
EB
02
E9
04
E8
F9
02
27
20
03
F8
02
F4
E5
1F
02
0C
12
F2
F8
FE
F9
10
17
F5
EB
16
D1
18
EE
DC
F5
DE
ED
F0
16
FC
00
DA
0A
17
F8
04
FB
13
F4
02
0A
F3
FC
0F
14
08
13
FF
EB
18
FF
FD
05
FD
12
19
06
F0
F4
FD
0D
09
F0
EB
06
EE
11
06
DB
F1
0A
FC
01
E9
01
E1
E9
F4
0C
EB
FC
0C
FE
E2
F4
EB
FC
1E
FF
0B
E8
12
FE
0D
E8
0E
12
EC
0C
22
F4
05
F0
FA
FC
EA
F5
09
F5
FF
FA
FD
09
1D
FF
10
F8
00
09
02
E3
17
00
FF
00
04
01
FC
FF
01
02
03
FF
FD
02
FE
01
FF
02
01
07
01
FC
03
FD
FF
FF
02
01
FF
FD
03
01
04
FE
FE
00
00
01
02
00
FE
00
FE
FF
02
00
FC
FF
FD
FF
FF
FD
FD
00
FF
03
FF
01
FE
00
FD
03
04
02
FC
FF
00
00
FE
FB
FE
02
FE
00
FE
02
FF
FD
00
03
04
00
FD
00
07
FF
02
03
00
02
00
01
01
03
00
00
00
17
EC
EF
D6
0D
F6
FF
F9
06
0E
F1
EB
EA
0D
FF
11
DF
1D
02
F6
13
19
FB
FD
ED
FF
FD
19
2A
12
04
1B
04
FB
18
DF
F1
F2
E5
F7
02
F4
03
11
EE
FB
13
FC
E7
E5
03
18
FA
FC
08
E0
0A
19
FD
12
E4
02
CF
26
EE
DA
09
FD
08
E7
1F
F5
02
0D
F1
F4
07
00
EE
00
F0
ED
EC
ED
18
03
02
F3
E4
F8
FC
09
FB
09
D9
F7
0A
F3
FA
F6
E9
F1
F7
07
F3
FF
F0
F2
00
0D
0F
00
0F
13
07
0C
05
08
EC
1B
1D
FF
F7
13
FB
22
F7
10
2C
FA
FD
0F
FC
FF
02
08
EE
1D
0B
FA
FF
FE
F8
E9
E0
08
09
1B
08
02
04
FB
03
F6
FA
07
FC
F7
F5
F7
FD
DC
01
F6
02
F4
F4
D9
F9
09
F2
FD
F7
1D
01
15
FF
F4
00
26
EC
F5
0C
0E
03
F9
06
0B
FB
FA
F4
06
00
38
07
04
F5
ED
0A
F0
DC
0B
0C
05
09
16
09
1D
0E
D6
15
1F
0C
00
02
DA
19
FE
15
F6
00
DA
11
D3
22
0A
E0
08
F0
F2
10
06
ED
F2
1F
01
F0
19
00
00
E9
FA
F2
10
05
F0
02
11
E6
D6
03
17
23
14
2B
2F
F7
D6
F5
FB
EC
F1
FD
21
21
1C
F0
EC
08
F4
F9
FA
F3
F2
05
FA
29
0C
17
E8
FA
08
F6
00
E9
17
13
DE
04
11
00
06
D9
08
20
DF
FD
FA
F4
09
0B
F2
06
FF
E6
FA
01
1B
11
F2
F0
EB
11
03
01
F7
08
F5
02
FD
16
24
10
EC
EB
0C
EC
1B
06
FF
FE
03
0B
FF
FF
E8
09
03
02
F6
0B
FD
14
D9
08
F3
F5
FB
05
01
F6
FA
04
F9
0A
01
0B
09
ED
F6
08
11
17
0B
07
0A
F6
0A
ED
F4
04
0B
FD
02
17
33
EF
FA
F7
F8
F3
DE
00
18
04
E3
15
10
16
FF
F7
1B
F7
F9
FE
FE
02
06
E4
11
FD
00
05
FA
FB
FA
0C
F4
FC
FE
F0
12
F7
10
02
09
17
E6
0F
02
FB
0A
ED
24
0F
F3
FB
0D
FD
01
00
F2
02
05
04
FE
02
09
F7
26
00
01
FA
0E
0A
09
E7
09
0E
FE
0D
03
2D
F9
1D
19
0E
F4
17
01
0D
FD
F5
FC
0F
00
0D
0F
F8
DF
0E
FD
0B
06
06
0C
F2
E8
11
1B
0C
05
E1
0C
E5
01
09
EB
FC
EE
07
15
F3
00
13
11
DD
FC
F6
20
F2
02
FE
01
F4
10
0E
07
E1
0B
EF
FA
06
FE
F9
0F
02
E6
FA
13
E6
23
F6
FA
10
09
FB
F9
EB
04
E6
F0
06
03
06
05
F3
08
FE
EA
F8
E5
20
05
F6
08
FE
01
09
01
16
02
EC
07
0B
0C
01
E1
EF
00
EC
FB
05
32
08
15
FE
26
DC
F7
F5
E7
0C
0C
DC
0C
05
13
1D
FC
26
FA
13
1C
CC
F7
F4
15
E4
E9
18
02
F8
F0
D6
F8
0D
13
17
06
EF
00
E2
E6
13
14
19
FD
EA
E0
27
15
FF
ED
FB
ED
EF
C8
C8
FF
24
F4
F3
DC
11
05
DC
F8
04
23
08
02
F6
10
D2
F6
07
17
05
CD
08
E6
E8
19
F1
D5
E9
DC
2A
F8
E3
D6
FE
00
11
FA
F4
0C
18
D6
14
E5
15
0D
04
0D
00
F7
FE
13
23
0A
F8
03
FA
F2
F7
FD
DD
F9
E0
0F
E3
EE
09
ED
D2
F9
F0
00
E8
1C
F6
02
FB
20
0E
03
EE
DA
07
EA
0E
01
C4
13
E7
F4
EC
22
ED
0E
13
FF
FE
0E
03
16
39
EB
F6
E7
1E
D0
1C
EE
F1
F1
FD
00
EC
05
EE
07
0A
D0
F6
F0
00
EF
04
F4
F8
F1
FB
E6
32
FC
F6
03
F2
15
00
EF
13
EA
DB
1A
F1
FC
FE
FF
05
0C
0B
12
0C
E7
F3
05
00
FE
04
10
F5
F4
0D
16
08
F5
EE
EC
02
FE
F7
F3
22
0E
08
F9
FF
F5
E8
13
0B
FA
FA
FA
22
FC
01
0B
11
07
10
E8
F3
01
FE
06
FD
06
17
00
04
13
16
F3
0F
0D
F4
0A
0C
F3
F4
FE
06
EB
FA
0F
1B
1C
01
23
E1
13
EE
F9
08
11
09
0B
F2
DA
17
00
00
1A
19
08
F2
ED
12
03
F4
E8
02
00
F7
0F
03
22
09
F7
F6
F3
0D
EE
04
09
1E
06
F3
03
0C
F0
F1
01
0E
FD
0C
08
00
09
0E
FF
03
0A
00
F9
ED
FC
F1
08
EF
02
E5
0A
FC
FA
F1
08
06
F4
07
06
FE
07
00
FF
0C
FA
1F
F3
DC
FF
09
0C
F7
F5
F0
04
F3
FA
0C
FB
F2
02
01
F5
EA
FF
10
FC
E7
E7
E8
F9
0D
07
E9
FD
05
01
06
18
FC
01
F5
F4
DE
17
05
EE
EE
FC
F6
1A
0D
13
0D
06
09
06
09
E8
15
02
12
FF
F2
F9
F4
F3
D7
E7
F9
10
19
10
05
F1
15
FE
0D
03
FF
F5
E5
01
EE
19
FB
1E
EC
20
F0
EC
FB
0A
ED
00
0B
03
16
02
08
F5
0B
F2
05
04
31
E3
0A
19
22
FA
10
F3
F7
00
0A
11
1D
F3
02
F5
E7
07
04
F9
1E
FB
EE
DC
DD
F8
15
EA
07
DF
FD
FF
18
1C
F9
FF
E5
08
E8
DF
07
E1
12
FD
00
F9
0B
C9
07
19
FC
06
F5
FB
0C
09
06
19
0F
FE
DE
EC
FD
0F
F4
F7
1A
FA
E5
08
02
09
0B
11
11
FB
04
16
E8
F1
F6
01
FA
F4
06
03
F7
F5
10
E7
E5
07
EC
11
0F
FA
FB
09
EF
F2
FE
D9
E9
0B
0D
FC
E9
0B
FA
1B
00
1B
14
04
F4
F5
FF
EF
F0
E9
F3
F2
0F
00
18
02
03
FC
E8
06
FC
05
F7
0B
26
0A
F7
FC
03
07
00
ED
F6
06
06
E0
FC
F4
F1
10
14
12
03
08
F2
09
F8
FA
10
04
03
0D
0D
09
0C
E9
F3
E3
0F
04
0F
0E
0B
F9
E2
FB
03
07
FC
FD
FC
06
E6
FB
EF
EB
F4
0B
0B
EA
00
EC
E7
F9
07
0B
03
FA
EA
22
EB
F5
E7
EB
08
F8
15
04
E3
0E
0F
E1
F2
E7
09
11
F2
F2
EC
E9
06
31
01
04
24
F0
F4
09
0F
F3
16
E9
EF
26
F7
0D
F8
EB
F0
0B
15
FC
FF
08
FB
0E
0F
15
00
07
0A
F9
E9
11
02
00
0C
26
FE
18
E6
E3
FB
FA
03
F7
02
F1
16
F8
E9
1F
1A
FF
19
F2
EF
0D
07
FD
0A
F3
09
E4
14
EC
F8
FA
02
09
CF
24
0B
EB
07
FA
FD
E9
F6
FC
FA
02
00
0C
BE
03
00
FC
19
D4
27
07
F5
00
EE
EE
01
10
D7
01
1C
EA
EC
06
FF
09
18
0C
0C
0A
F2
E6
FE
0C
16
11
EA
04
FC
FC
27
F3
0D
EE
FE
21
EF
F7
04
0C
19
05
FF
08
12
0D
F5
E3
01
04
18
F3
F5
07
FD
0B
FA
0B
10
F4
FF
05
08
FA
FA
E1
0D
0A
02
EB
FD
03
FC
03
FC
26
F4
04
0A
DF
FD
F4
17
FB
2A
10
F6
E1
05
04
07
FC
00
0A
E0
FF
FE
DA
09
0D
EC
CD
24
F7
01
FE
06
0C
FE
0D
00
ED
FC
F5
00
FF
07
FE
FE
07
F8
FE
F5
01
02
0F
0A
FE
01
E7
1A
01
00
FD
FC
0E
ED
E1
00
0A
EE
00
FF
F8
FB
ED
1B
01
FE
02
F4
EA
F7
E2
F4
E9
F0
F5
DB
F7
08
F7
F7
FC
0F
06
FE
FE
05
E4
16
15
0C
0C
0D
08
06
F0
F2
E8
F6
EB
FB
FB
04
00
E0
03
16
E8
05
0B
FF
07
F2
03
07
F3
FD
F1
0D
D3
EE
FF
02
FB
0B
F6
0B
FB
04
E8
F6
FB
FA
0B
E9
E6
FF
FF
19
E8
F1
07
16
17
EE
09
07
FA
F8
0D
FD
FC
06
17
F3
FF
05
07
FE
EA
F2
04
F7
FE
03
18
E1
03
FE
0E
16
05
F1
05
08
07
FA
10
0F
FC
05
FA
EE
06
F4
F1
09
FD
02
F8
09
F4
19
00
E5
0A
F2
EA
F9
0A
F6
EC
F2
F2
02
06
FA
08
00
F3
10
02
10
F8
EE
09
F8
0B
10
FF
01
13
F4
FB
FE
21
0A
0B
27
F9
13
0D
12
00
08
FF
08
04
E7
00
EF
FC
F3
F0
FF
F8
F9
F0
F7
07
20
E8
F2
FA
F2
EC
FC
F8
11
FE
EB
05
FA
07
FC
19
FB
FA
E5
00
F8
14
0A
FB
DF
F9
05
F1
EF
1D
20
03
10
05
19
F6
10
01
E6
0A
16
EE
1E
F9
F3
F6
0A
F5
F8
FF
E0
03
FE
F5
FD
F4
F0
01
1C
FB
F9
15
FD
F9
04
F7
F4
E4
08
1A
03
01
11
06
01
07
EE
E4
FC
FA
FD
FB
F5
DF
1A
DC
FA
D3
0F
0D
E8
F8
ED
05
0F
07
F1
06
FA
F4
F5
0A
0D
DF
F3
06
2F
00
04
EB
F8
02
02
02
08
ED
0C
FE
F6
0D
E8
00
F3
04
03
24
D5
16
16
02
F1
FE
F2
0A
EE
FF
1A
00
ED
F7
01
F5
04
09
0F
EA
ED
F0
FD
F1
00
05
04
15
DC
0D
05
EB
FF
F2
FF
FA
F7
F4
0E
00
1E
11
F1
F9
04
02
DD
2B
45
2B
13
B4
1A
18
EF
08
F1
E7
0F
BB
F5
DD
0D
30
36
D4
0B
E2
2B
FD
D3
F5
32
DE
FC
DC
2E
25
26
E3
DF
1A
15
27
DE
F3
35
E7
16
DB
F7
13
14
03
06
FC
2D
1D
07
C2
10
E5
F8
EA
0F
0B
F1
05
F5
F4
33
2C
08
1C
B1
EB
0D
E1
1A
09
1B
2D
F6
EE
D4
F8
0D
E4
17
01
F3
7F
0D
EE
E2
0A
DF
16
15
F9
F0
1C
0C
EB
E9
00
07
15
07
DF
0B
18
0A
15
F0
ED
02
F7
FD
03
F0
E3
13
1A
FE
11
0F
F7
F6
ED
12
FC
0A
21
14
D7
03
03
02
0D
E8
F0
FA
FB
F6
0C
06
FC
0E
FE
F9
F7
FA
03
0A
EE
03
1D
0B
E9
FB
EB
F6
F1
0C
04
05
05
EC
FA
05
FB
03
0A
07
07
F5
01
09
E7
0C
E1
09
FD
20
04
F8
F1
06
0E
FB
FC
E8
07
DE
DF
F1
F6
F4
12
00
F4
09
06
F7
F6
EB
F8
0B
1D
FA
17
F6
0E
16
F9
18
F4
11
00
F3
07
0C
FC
00
03
F0
1B
17
00
1C
E6
09
00
12
0F
21
14
EE
02
0E
DF
07
26
D0
FF
F6
0B
E0
17
29
FD
D6
F2
0A
DE
DA
14
01
0E
F9
1F
04
11
DA
E0
11
E6
0B
F0
31
07
00
0E
11
EC
01
F3
00
D8
04
03
F6
EE
F2
F0
04
FD
07
EB
F0
FA
07
FB
FC
DB
07
FF
E0
E8
03
04
FE
FE
F5
01
EF
FF
FF
F0
F1
E7
F9
0C
06
F2
04
02
F3
F2
1B
04
1C
FD
FB
FF
FF
E0
EF
F2
08
00
F6
09
FD
EA
07
F9
06
FD
FE
F3
ED
EE
12
FA
F8
02
15
FD
E4
E7
F7
0B
01
0A
11
FC
0C
F2
0F
03
15
F0
0A
F8
FA
01
F2
F7
F8
11
09
08
02
15
05
0E
00
03
12
0A
03
F3
FB
DC
F7
EF
00
04
F7
05
FB
00
01
17
F6
F1
EB
FE
05
13
DF
09
F9
18
F2
EC
18
10
FA
10
04
FB
0F
EE
F3
EF
FF
00
E8
15
0B
E4
F6
03
F2
12
14
06
FC
FB
0A
0E
E4
FC
FF
07
F8
E6
FF
03
01
00
E2
02
07
F0
09
FF
D8
F3
FA
04
0E
FD
F3
E6
F5
04
FD
F7
28
13
FC
01
00
FD
F7
07
ED
FB
00
11
F4
F9
0D
0A
07
FD
10
08
E0
F2
05
E6
15
F0
F9
F2
F4
F8
08
E9
EF
E8
E7
F4
0D
FA
EC
0D
DE
09
E3
F4
E8
0C
1B
0A
FA
13
16
10
24
0E
04
EB
F2
F8
EC
F6
0F
E5
DC
ED
F1
F8
F0
FF
0C
E8
E9
FC
F7
FE
ED
0B
16
FF
00
FE
12
01
F9
FD
E1
D6
0E
01
1A
0B
00
25
04
F5
FB
09
07
0A
F5
17
20
EF
12
E0
F8
0C
EE
FD
04
09
E2
10
0D
10
F9
07
F5
0D
1F
08
FF
F1
02
EA
16
06
B0
ED
03
FC
E7
13
1C
11
11
F6
1A
0F
E5
D9
0F
EF
F0
06
C0
FA
FE
F2
03
FC
00
F5
35
26
0E
EE
20
0A
FA
E6
BA
00
0F
FA
15
EB
DF
EC
CC
FB
05
0E
F5
F8
00
E6
DC
05
00
F6
0C
14
EA
27
F2
0E
F2
DC
F3
F2
FE
F3
F8
FF
04
F0
05
F6
F2
FE
2E
24
22
25
F5
0E
FA
01
F7
E5
ED
1D
26
02
E7
03
FB
0B
13
13
05
D3
0D
D8
FE
EB
FB
FF
FC
12
EA
16
E2
FD
24
09
F9
E5
FB
18
F5
06
15
07
07
F6
F5
F1
FB
FB
FB
FC
29
FD
09
F9
F1
0E
F0
08
12
F8
DE
04
1D
21
FA
FC
FB
09
0B
E2
14
24
20
EB
00
FD
F8
17
EF
17
01
F9
1B
1D
38
FA
EE
F9
E0
01
06
FD
FD
EA
E7
E3
0E
18
03
0E
0C
0F
12
FE
F1
D9
1A
26
F9
FF
11
F6
11
02
FB
F7
FF
FD
0A
0C
D0
0B
F4
EF
EC
F0
DD
14
21
E8
3D
FF
03
32
0D
F2
05
08
19
04
04
08
EE
FD
27
E7
F3
F3
D8
23
E2
04
E6
FB
FB
09
F3
0D
15
14
D5
21
02
F3
FF
14
13
FD
EA
FB
28
FA
C4
30
E1
2B
15
EC
F3
02
01
02
E2
F3
02
24
00
D7
0D
00
05
03
03
E5
04
02
0B
28
FD
F3
09
09
07
26
F3
04
06
F0
17
1B
0E
19
D6
00
18
F7
09
1B
18
09
05
E8
04
2B
0D
F9
24
F0
22
F6
3C
EE
16
E8
E5
16
23
F4
DE
0C
FF
1C
FA
04
FB
EE
1D
09
F4
EC
08
FA
26
0F
DE
F9
0F
02
FD
D8
FD
05
0F
FF
16
05
26
11
1D
13
0A
FD
00
E3
06
23
12
E5
DB
18
E7
02
08
05
13
22
1C
EA
42
1A
DF
F6
E7
19
FA
1F
FE
10
1F
1E
EF
0A
FF
07
11
F8
08
13
16
04
FC
08
1C
06
FE
03
F9
F4
08
02
1F
03
09
EF
05
EF
07
12
04
17
1B
08
15
F7
19
E9
11
1D
DC
0E
05
09
0D
1E
05
F3
E4
2C
FA
28
F3
08
F5
0D
11
13
07
13
F6
16
FB
0E
00
E5
F6
FA
17
0A
EA
0F
F4
DC
01
DC
F4
04
FE
08
0E
CB
06
05
18
E9
02
F5
F9
F1
FF
07
18
0E
0D
E4
F4
03
FE
FE
16
0C
F9
12
07
00
0B
07
F9
FA
FB
2B
FA
08
00
FC
0B
F6
FD
FD
F0
06
01
FD
F9
F8
EF
01
1A
FC
0A
F0
02
F3
12
FD
0B
04
FF
F8
FB
06
03
FB
EC
0D
F6
0E
02
0C
09
08
FC
FF
12
21
F7
F7
04
08
11
FA
DF
F3
06
08
01
0B
E5
FA
02
05
F9
0E
FD
13
EE
EC
00
0E
F6
F3
10
07
02
F2
FF
03
11
01
F2
EA
FB
F8
11
F9
0D
02
05
F2
0B
E1
02
0A
FD
E8
11
04
FA
02
FE
F1
F3
05
06
DC
06
D0
09
FC
13
F5
FF
04
22
FC
03
16
1B
06
05
21
EA
17
13
F1
F6
05
F7
F6
F9
29
2C
1F
0E
10
ED
0C
09
F3
1A
11
F6
26
2D
FC
FD
0E
F8
F6
04
0E
14
07
E5
EB
21
15
D5
13
1A
06
0B
FC
FF
0E
F2
05
07
11
10
FD
F4
F6
F4
F5
F6
06
28
20
28
E6
F3
FC
33
10
FE
15
F9
00
FB
03
FD
19
EF
EB
F6
03
F9
F5
0A
DD
08
EF
F6
10
E8
00
F7
DE
FC
DA
09
FA
04
07
29
DB
1B
F8
F2
E8
06
FE
FF
E1
15
09
01
F8
FA
08
F7
11
05
2D
11
F4
12
10
19
DF
DB
F0
E9
02
F1
18
0C
06
00
38
15
DF
0E
11
09
E9
F8
07
02
15
0E
F2
22
F3
CE
1E
26
10
07
ED
04
07
1B
05
09
EB
F1
09
E4
08
E8
0F
D9
20
F1
0F
14
06
F1
1C
DA
E9
DF
FA
33
26
F8
24
FD
D7
E9
16
EC
F2
22
12
F6
EC
09
11
E7
0E
03
08
F8
3A
EE
03
19
0E
14
D3
00
F2
02
F1
F1
EE
D1
1B
FD
03
F4
FC
22
FB
0D
F5
F4
E8
11
F6
DC
EF
CF
0A
E8
FF
2E
08
F2
22
C4
2C
15
F9
0D
EA
01
07
FB
E8
E5
F5
06
F5
1C
F3
19
29
F6
08
E7
0B
1E
E5
1D
EC
04
13
FA
F4
04
F4
12
F6
F2
FF
F4
1E
F8
E8
FD
13
07
0C
F1
FB
06
F1
01
06
1F
20
F5
05
FA
1D
F5
17
F8
F7
0E
01
FF
07
F9
F3
F0
E2
03
F9
11
F8
F3
E4
0F
F0
FA
ED
0E
19
F2
26
F9
EB
03
0F
E7
DC
F0
F2
0A
EA
26
1B
26
25
F2
E6
09
FF
FA
02
01
0A
F0
2A
0D
02
FF
18
F6
FF
FF
E4
EB
11
F9
FF
04
F0
FB
1C
EC
08
F5
F6
F8
1E
02
F5
F1
FD
F8
0C
0D
F8
FD
0B
02
12
19
19
18
FF
00
F1
F9
EC
07
FB
07
EA
F4
0A
0E
08
26
04
10
1F
F1
0D
ED
FE
0F
15
FE
03
24
09
01
F0
ED
E9
04
04
07
F3
17
F0
0C
01
0C
07
07
E5
FD
EE
FB
F4
0F
1A
F7
FA
FD
F5
05
11
EF
F1
E1
04
06
F6
FA
0B
0E
08
04
14
03
01
ED
FB
F2
07
10
10
FA
F3
0F
F6
13
15
F1
02
F6
FD
FB
FB
13
12
05
00
01
0F
FA
FD
EE
EA
F9
04
20
FD
EA
01
15
0B
FE
05
FE
16
08
09
FD
FE
05
19
06
0D
F5
06
F5
FC
18
0A
09
0E
FD
16
EB
01
FD
0C
F0
07
F7
0E
EF
FE
E4
05
F7
EA
1F
22
F2
1D
F5
F4
25
F6
FC
08
08
07
0B
00
EC
FF
02
E7
0B
FF
FF
0D
21
23
F3
06
F3
FE
F3
14
FB
F9
E9
F7
0E
02
FD
05
EB
F4
FD
0F
F4
00
F3
FE
09
1A
FB
17
03
F5
FA
0A
F9
DD
05
F4
FE
EC
08
F8
EC
0E
F8
DC
EC
0A
F7
03
EA
0A
02
F2
0C
E3
0F
08
08
10
14
F8
E8
01
E1
E2
04
FA
0E
04
F6
F7
14
FC
F5
05
F1
E2
04
14
05
FE
F7
01
FA
ED
FB
F6
08
0D
15
14
0A
F0
12
E2
E9
FA
EB
0C
1E
0A
E4
26
09
0A
01
EB
07
20
0C
17
01
DE
FF
FC
12
0D
FF
FC
23
02
14
FD
F3
FA
E8
F0
FD
1E
12
F4
FC
F0
08
EC
1F
E7
06
EA
0A
14
F5
1B
F1
E9
0B
EE
01
FF
FD
DB
2A
04
05
07
00
19
F6
EF
F8
0A
1D
12
F6
17
1D
F2
EF
02
0B
07
F6
FF
20
F0
04
0C
04
03
F8
F0
07
05
F6
13
03
DB
FF
FE
E8
0E
E6
12
F3
FA
F2
18
08
FD
EA
F8
E7
FD
03
EB
00
26
0F
FC
1B
11
0D
17
FB
FA
F7
FE
FE
F0
0B
05
DA
F5
01
18
F8
E6
CE
01
02
EC
EB
10
F6
FA
01
05
F8
02
0E
FF
05
02
D8
F5
25
13
00
EB
FD
F3
14
15
F7
F8
08
13
0E
E5
17
00
0F
0D
FF
18
2C
0C
F4
FD
02
11
2C
06
09
FD
11
0E
20
FA
FD
04
ED
2A
FE
F9
07
FB
0D
06
EF
F6
F4
F4
F8
E9
08
F8
E9
FA
EA
FC
E5
1F
12
F6
FC
07
F6
F5
F9
0F
0E
0A
00
13
FE
EF
08
0E
13
FB
03
F1
07
06
EE
FE
F3
F0
0E
0A
1C
10
F7
08
F0
15
1C
09
0C
22
28
15
FC
FF
05
EC
0D
0D
F8
F6
D9
F7
0B
08
00
08
1F
DD
F7
0E
07
EC
FE
23
EE
07
FA
15
F9
0A
25
15
05
FF
07
02
01
04
04
15
EB
00
FB
0C
F9
FD
FF
02
EC
F7
08
01
F8
06
F7
FE
FF
03
09
13
ED
1E
16
0B
11
01
E4
EA
FB
FC
09
E9
00
07
30
16
01
0D
FB
E2
0A
0E
EE
F8
01
0F
E3
0B
F9
F5
F7
F0
13
FB
01
EF
ED
E8
F0
EF
F4
F8
02
EB
04
F5
03
11
05
10
FF
F4
ED
F8
13
ED
09
E7
FD
0A
02
E9
00
FB
FE
0B
FB
FA
18
0B
19
F7
F5
F0
17
F9
EA
14
FE
11
04
F0
F0
FC
F9
FD
0F
FF
10
ED
17
10
0A
FF
1C
09
12
15
13
F5
02
F0
F9
E8
D7
18
0E
F9
FD
FD
14
F2
1E
F4
E8
01
11
E3
0B
F7
06
FF
06
00
FD
E6
EC
E1
1C
F7
05
F9
FA
EE
F5
23
21
FC
1F
05
20
D6
0A
1B
03
05
FD
09
E9
EA
09
0D
1C
F4
F5
0B
EA
F0
E7
ED
01
02
CE
EC
0F
F8
FE
F3
12
0A
27
03
ED
14
E2
E3
11
15
02
36
E5
F9
12
11
10
F1
0D
03
E2
11
F8
E4
02
FF
17
E7
1D
FD
F6
F3
D6
05
DF
DF
EC
12
09
01
EC
06
15
EB
11
F1
F5
FA
08
FF
FC
15
FB
F8
F4
0C
E5
07
0C
1B
EA
06
0E
F9
15
01
11
FA
06
07
07
07
FA
05
03
15
12
E9
1E
07
10
FC
00
F9
16
E1
0E
ED
E8
E9
DE
10
F4
13
EE
17
19
11
27
F9
03
F1
E5
FF
F6
03
ED
F9
EC
F5
EC
F2
FA
F9
12
15
05
FE
04
0D
EB
CF
14
1A
EF
15
02
FB
25
2A
03
06
18
01
F2
FC
FE
EF
06
F2
03
D3
00
12
F9
16
F5
FC
0B
16
18
00
19
19
F2
17
F4
E7
18
FB
2E
F1
F1
03
04
16
17
F6
08
F1
0C
F5
F2
07
03
05
F7
0E
CF
DF
0A
F7
01
E6
FD
F4
F8
EB
0B
08
D0
0B
15
F6
E8
F8
F9
2E
F0
06
FF
F4
F9
F5
F8
EE
11
EC
02
FC
02
FD
DD
F9
24
EA
F8
06
F2
13
17
1C
06
11
20
D5
FF
FD
C3
13
13
DA
14
FC
01
15
02
07
FE
05
F8
ED
07
00
06
12
E8
12
0F
FD
F8
F3
0F
1C
DA
F9
F3
00
0E
00
10
FF
0D
F8
F1
FC
13
10
EE
0B
27
FF
05
1A
01
F5
F5
EF
1A
13
0E
F6
FA
01
03
14
00
E9
FA
07
F0
05
F0
F6
01
FA
F8
1C
09
E9
EC
F4
EA
09
FC
FA
E1
FE
04
12
00
F5
FC
0E
ED
04
E8
FE
FE
FC
0B
F7
F1
EE
EB
FC
19
11
06
0A
0E
F6
FE
10
E3
07
1C
E2
F9
02
22
16
06
F5
09
0C
F9
FB
02
F4
1E
E2
01
06
05
0D
E9
27
16
0D
F5
0B
E2
19
F8
FE
FE
F9
E5
13
FA
0F
13
03
0B
00
06
FD
09
06
EB
07
08
F9
E9
02
F9
00
01
E3
0A
1E
F9
FC
FC
FB
03
0C
04
15
FC
16
FE
FE
00
1A
0C
FA
FB
FE
E5
0E
16
F7
FE
FB
0C
FE
FF
FB
01
13
FB
FF
15
09
EC
F9
09
FA
00
09
FB
00
26
FB
0F
FD
DC
1A
F0
0C
F5
03
ED
FA
03
F8
FE
F5
E7
ED
07
0D
EB
15
F7
E8
FD
08
18
E0
FB
E2
FB
EF
ED
07
07
F9
F4
07
E3
FA
02
26
05
07
F9
E8
0E
FC
FC
17
E7
0E
EF
0D
F3
12
FF
16
13
FA
10
2A
FF
E6
FB
0B
ED
14
07
13
E1
E0
02
F9
0E
E7
F7
EF
F4
0B
F9
03
FA
E8
F5
07
EB
09
FB
F3
EB
FA
FA
FA
E9
D3
FC
EF
F9
F5
F1
03
ED
16
03
FC
F4
FB
FE
17
08
F0
05
00
06
E5
F5
11
F9
08
D6
E3
15
15
FA
23
1B
FD
0D
F7
02
F8
FC
09
F8
09
E4
04
12
27
0A
FE
08
ED
EC
02
04
FF
F4
EE
0A
0A
F5
EB
F9
FD
F3
FA
EF
F4
08
0B
16
FF
0D
16
ED
0F
E5
FC
04
F5
F0
13
14
F6
F7
08
F3
F5
03
1E
19
F7
E7
01
FF
F3
01
1F
DB
1C
0F
03
FA
16
F0
EC
08
0A
F5
FD
FD
12
F3
07
0D
02
04
F9
06
FC
F4
15
02
0C
17
EC
0F
F2
ED
FC
0C
23
01
1C
00
0A
0B
09
F1
01
09
0F
18
02
F5
EC
F0
08
F5
F8
F6
F0
05
EC
F9
22
F0
25
FC
02
11
EB
0E
18
13
06
F9
12
06
02
EC
F8
04
05
EA
E0
04
0F
F4
0D
00
F4
E7
03
FD
F3
04
F3
03
13
F2
FD
FE
FB
08
FF
0A
06
FD
FA
FB
08
1B
01
0C
0C
05
03
16
EE
E8
09
F6
0C
00
0F
DF
FF
FD
0F
FF
1E
00
EE
0D
09
02
07
02
07
F0
E6
11
08
EA
05
17
0C
0F
F9
0E
F6
15
EE
F7
FD
04
0B
EE
F1
F4
EA
F5
0B
06
FD
18
07
F4
0B
19
0E
FF
0A
13
F1
F4
0A
FF
F4
06
18
0F
F9
E0
F0
FD
FA
FF
0C
01
EB
1C
F2
D5
13
22
EA
1B
ED
FD
07
F8
05
1A
ED
F5
F0
0B
EB
EA
0B
F5
10
EB
26
04
01
08
10
06
E3
FC
F3
10
03
06
08
E7
0C
14
EB
09
D2
17
02
DE
F5
E0
EB
F9
01
F4
14
19
E4
F3
F3
07
0C
0E
FD
0E
10
DD
DE
03
10
05
15
09
F2
19
02
25
12
05
F1
19
04
F0
FE
04
EA
FA
15
02
03
32
08
1D
E5
08
F4
17
EF
EC
0A
FF
23
14
F7
EB
F3
09
E3
FA
EA
F2
E9
18
EF
1C
0A
FA
05
17
02
13
F8
03
0B
DE
20
FB
07
FD
D9
04
07
03
07
FE
00
05
01
F3
FD
D1
FC
F0
F8
04
E9
F0
11
09
FF
01
06
EB
06
05
F2
04
0B
26
F0
06
F5
00
02
FB
F0
DA
07
15
EC
02
F9
10
F3
0B
12
0D
02
0C
EE
11
E3
F6
0B
F0
F8
05
EE
14
FC
06
F1
EE
FB
19
14
EA
FC
0B
04
31
05
F8
00
FB
07
EF
F6
0A
0A
FD
12
F8
14
FE
F4
FA
F9
F0
0C
0C
FC
F2
2B
FD
E8
14
03
F0
F2
F4
FD
03
ED
F4
13
F6
FE
FD
02
F5
07
FA
01
F5
1B
0B
0B
04
FE
F6
F9
0F
FA
FC
FE
01
06
0F
0E
01
05
17
E9
05
09
0C
0B
E9
FA
17
FA
07
EB
0D
F8
F0
1A
00
F4
12
F6
DB
FB
04
F7
EF
0F
01
10
EF
13
10
FD
EE
FD
0A
0B
02
F1
1D
02
FB
EA
EF
15
E9
08
0A
00
0E
06
1B
17
0C
FC
17
F0
09
F7
FA
DC
24
06
ED
ED
07
FB
01
0A
FE
06
0F
FF
FB
DA
18
04
F8
EB
0F
0F
16
FA
03
18
EA
10
07
FE
0E
0E
15
FC
0D
03
FF
22
F0
0F
EF
00
EF
F5
04
FA
02
10
23
D7
19
F1
F3
03
0F
D1
12
F4
1F
FA
10
25
E7
FD
17
FF
FC
FC
E6
09
F6
09
0D
F2
00
14
F5
11
0A
DA
12
F2
06
0C
0E
03
FA
FA
FF
F5
02
1A
05
07
06
03
0F
06
17
FE
04
17
15
F5
FE
FF
1E
E4
EF
00
FC
F2
FF
0C
2D
F4
00
E1
FC
F4
03
0D
EF
07
F7
F4
08
F8
15
F6
F4
0A
10
F9
08
F9
15
12
1A
08
03
E5
F3
03
0A
0D
03
FF
F4
17
07
ED
12
DC
00
F1
FE
21
0B
13
EE
F7
0A
C8
14
E6
16
00
FD
D9
0E
FD
FE
E6
17
06
13
11
09
12
FF
14
0B
0C
05
0D
06
12
10
09
06
F6
23
F4
00
FD
FA
FF
FC
06
12
03
08
1C
08
09
FF
07
18
03
00
0C
09
01
01
F4
F2
FA
F6
00
23
07
06
FE
0C
DB
05
1F
E8
FC
18
C7
F3
0E
F7
EE
08
F8
02
F7
E3
25
01
03
08
DA
FA
16
03
01
F3
FA
0B
01
F7
06
03
F0
04
E7
EC
FD
F8
F2
0B
EA
F5
07
ED
F8
0F
06
F3
F0
FF
0B
EF
01
F4
04
E7
06
1B
00
FF
1D
06
05
F9
FD
04
F9
02
0F
0C
08
EE
F0
F9
FA
08
F8
0F
15
03
0D
D7
02
F8
02
02
12
03
F5
FA
F9
0D
02
F3
FC
E2
F9
EA
FC
0B
0E
11
FA
F7
15
C7
06
E9
06
EF
07
F9
0B
E1
FC
FB
00
F7
EF
02
F7
01
0D
FD
F1
F9
0D
F8
03
0F
12
F2
00
E0
F0
EB
FF
15
FE
EA
04
E6
EE
F5
FB
24
D4
1C
05
12
EB
09
01
EC
05
FA
11
F1
0A
00
F9
1F
F9
F7
EF
07
EA
F9
23
EB
FF
09
03
12
1C
EA
1A
EA
14
F3
ED
FE
F3
E8
F1
F6
FF
FB
E4
FC
04
FC
16
00
09
01
0D
07
F3
F8
0D
17
1C
0A
EF
E9
09
F9
0A
FB
F8
F1
09
09
16
F4
FF
ED
19
01
FB
F7
F5
DF
18
0B
EA
F5
04
0C
04
16
0C
0A
10
15
E7
F8
EA
09
10
FD
F4
1C
FD
F1
13
11
CA
ED
0A
05
1B
02
03
FE
12
E9
FB
12
E5
14
F9
08
36
FA
F3
EF
EF
0A
0A
09
F1
FF
0C
1D
F1
E9
03
00
1D
FD
F7
F4
D4
F1
04
05
17
F7
E3
F5
FE
18
F8
FF
0F
08
E7
17
EC
0B
EC
F9
FE
0E
F2
FC
23
ED
06
E2
EE
13
F5
16
11
EB
0D
01
08
F8
1B
07
EE
E3
F3
08
E9
F2
FD
15
0D
F0
EB
FF
FC
10
F5
17
E8
ED
DB
0C
EC
F5
FB
0A
1A
E7
00
1C
09
ED
E9
FB
12
F7
F3
04
00
FE
0A
E5
F2
0F
FB
F7
0E
04
16
17
06
FF
1D
07
10
F8
04
E5
F0
F5
0D
0D
0D
FC
FB
03
03
F5
02
F4
E2
EE
09
02
F7
00
FD
12
FC
09
F4
25
FB
03
00
F2
08
F4
06
15
E4
0E
08
02
02
0A
17
EB
FE
EC
E6
FB
FA
03
FD
E6
F5
F0
E0
E6
FF
E0
07
FE
E0
18
06
F2
F3
FF
F3
06
EB
0A
FF
0D
FB
01
FB
02
F7
04
F6
00
03
0B
F7
0E
F0
06
EF
06
FD
0F
16
00
F1
05
F8
FB
00
09
ED
FF
02
01
F9
F7
F9
17
FA
FF
F4
09
06
F8
E5
17
15
DF
ED
05
0A
E1
FE
2B
F8
F8
F3
E1
07
E9
F5
0C
F6
F4
FB
EC
04
FD
00
FB
F1
15
FB
0C
10
FE
0E
0B
FB
26
F4
D6
09
35
02
FA
F6
EC
F8
D2
05
0A
13
E5
EA
ED
DF
EE
E5
12
FB
1B
0E
F7
F6
07
F1
E2
F2
FB
05
06
13
F2
E2
E6
E3
18
03
E4
0D
E9
04
17
E5
F1
0C
F7
F8
EC
09
F0
17
03
1A
D8
09
F3
FD
E6
0F
03
FB
18
E5
10
F5
02
06
10
0D
10
FD
0A
05
FA
F5
F0
FB
C0
10
0A
06
F0
01
FA
00
03
0F
17
F2
F3
FA
06
FA
00
0E
09
E2
23
EE
FD
0C
09
02
F0
02
0B
02
F7
0D
0A
21
0C
DA
F1
07
F4
13
F3
01
08
F3
DF
F6
08
EC
F5
F0
1C
0C
F9
14
04
F7
F8
E1
08
FB
17
0F
0F
E7
EA
0A
01
EC
01
05
FF
06
10
10
11
05
19
08
1A
E2
09
F9
E9
11
FA
0C
03
E6
10
07
08
04
0F
EA
09
EE
FD
20
08
06
FA
FB
07
E4
0A
F1
FE
F6
0B
0F
01
FC
FB
ED
0D
F9
09
02
08
0A
0C
09
00
F0
06
F1
18
FF
12
F4
E6
FA
19
EE
08
24
F5
FD
0F
15
08
EF
FD
F3
F6
04
FB
02
21
F7
0A
ED
E7
FE
F6
F9
FA
14
CE
0C
05
FB
F9
FC
E0
04
FC
F6
19
F5
0E
0C
0D
14
04
E6
0F
16
E9
E0
03
02
F9
EE
EE
0C
D9
F9
F5
EF
02
FC
07
05
0D
F7
EF
00
26
0C
0A
F9
11
12
18
EB
05
0C
0B
F3
1D
05
FF
F4
ED
E5
1C
22
02
FD
F7
0A
09
EE
ED
05
1F
10
EB
FF
00
E5
02
10
0D
04
F5
F6
29
F6
FC
18
0F
17
1F
F0
18
02
05
F5
1A
F5
F2
F1
F4
F2
FC
0B
04
F1
F2
15
16
F3
FA
0A
FD
06
EB
FC
F0
FB
F8
F6
0F
1D
F6
FB
FA
01
F5
13
EF
F9
EC
EF
FF
E7
1F
EB
0C
10
14
01
F4
E9
FE
14
FB
FC
00
25
07
02
14
00
0E
0E
FC
07
0C
FD
0D
24
F2
EF
FA
09
FD
16
E8
07
F8
F8
DF
0E
F5
FC
18
EC
E0
FE
FB
F1
0E
F3
F9
07
F1
0E
F9
05
F0
0E
F1
E8
EF
F8
12
0B
FC
03
17
2F
0E
03
18
0E
02
F5
15
12
F3
05
FD
23
0A
FD
1F
E9
1C
02
EC
F1
FC
03
F4
EA
0B
0B
F7
EC
01
FC
01
09
F6
0A
DE
F8
DA
10
F6
ED
F1
FF
0A
CD
0F
FA
E1
EE
01
12
E2
05
F2
EB
00
0C
0D
1C
FB
F3
DA
F3
FE
F7
03
26
FD
EE
EA
F7
F6
FE
20
CE
24
E9
F8
F1
E0
FB
E5
F4
17
1A
17
00
F5
F7
12
17
0D
15
01
F6
03
06
0D
E8
F1
F5
0C
03
00
FE
FC
00
FF
FF
FF
FC
02
01
FE
00
01
01
FE
00
03
02
FF
FE
00
FE
FC
FF
02
FD
FF
00
FF
FF
FF
01
00
00
01
FD
00
00
FF
01
FB
00
00
03
04
02
02
01
00
02
FE
FE
00
03
00
FE
01
01
FF
FF
04
FC
01
02
FD
05
03
00
FB
FE
05
01
00
03
01
01
03
02
02
04
02
FD
FE
FE
01
00
01
FD
FF
FE
01
00
02
01
01
FE
E3
1C
F5
0B
02
0A
E5
EE
0D
FC
ED
FD
19
06
D9
F1
1C
EB
FF
07
F6
21
EB
EB
F9
0C
22
06
07
EC
FE
0C
08
FC
F5
EF
FE
EE
F7
0C
EB
10
FA
F7
F9
06
EF
F0
FA
E9
20
02
12
06
DB
11
FB
FA
25
EC
03
FD
0D
F0
07
16
08
F0
FA
0B
F1
F4
05
11
08
03
F5
E1
0B
E9
00
F9
08
E0
F3
ED
0D
05
13
FE
00
0F
07
EE
04
F1
E7
1F
10
F3
08
06
15
F9
04
FD
08
FC
12
20
02
09
14
E6
ED
19
F4
17
FA
04
EC
0B
FE
F6
04
ED
FC
ED
F5
F8
0D
FC
11
0C
FB
F8
00
18
EE
E2
EE
E0
F6
26
05
0A
FF
18
F7
39
EE
FE
0B
D9
F5
11
02
F9
20
09
11
F6
F0
0A
FE
E5
F7
21
F6
08
F3
03
11
FE
E2
02
03
10
EE
FE
03
F8
04
0F
03
16
FA
FB
DC
09
EC
13
00
FF
00
00
00
FE
FD
FE
00
01
01
02
00
01
FF
FE
00
FF
FF
FF
00
FF
FF
FF
00
FF
01
01
FD
01
02
00
03
FE
00
FE
03
FF
00
FE
FC
00
03
00
FE
00
00
00
FF
00
01
FF
FF
01
00
02
00
00
00
01
02
FE
00
02
FF
01
03
FE
00
FE
02
02
02
01
01
01
04
FE
02
02
02
FE
00
FF
03
00
00
FF
FF
FE
FF
FF
FF
FD
00
00
02
F3
03
0E
17
FB
00
FC
F4
FC
E6
F5
04
FF
F8
E2
0C
F7
FF
10
13
F3
0C
05
22
F7
00
0F
EE
0D
07
F7
F3
F6
F5
FE
12
09
FE
F5
EB
FB
FB
F5
F0
ED
06
02
16
0D
E7
E3
14
02
FF
0D
F6
E1
0D
E5
F8
FD
0F
0A
11
EF
FA
F9
11
14
0F
0F
0E
0F
F1
26
06
1C
1D
0B
11
15
0F
15
1D
FF
1C
F9
F5
07
0E
02
15
E8
0C
E8
02
FC
01
FC
01
0A
06
E5
07
F3
06
FC
10
EE
FB
F4
1B
1F
1B
FE
EC
FC
F3
FF
0E
F3
EC
F1
ED
F6
FF
DE
0B
16
03
FA
09
F0
0B
07
CD
DE
12
16
EE
13
F8
27
02
FF
EC
F8
F0
12
0F
EE
24
31
08
F8
11
F2
13
06
12
17
FB
F2
F2
F9
05
FD
05
F1
EB
08
E6
F9
EC
0B
F2
F9
FA
F5
F6
22
FA
EE
03
F3
EF
F8
F9
0B
FE
F8
EB
F0
16
FA
00
FA
EC
06
03
E3
04
F6
E8
1D
09
20
ED
0E
F3
12
F9
FE
04
0A
01
F9
F3
01
0C
10
FB
FE
E6
F6
13
08
08
F6
F0
24
F7
F6
02
EE
FD
DF
F1
0B
12
01
20
EB
FE
20
13
05
0D
F0
FC
E5
E1
08
F0
09
08
F7
03
03
0C
07
05
29
24
E2
EF
0E
06
08
01
ED
F5
F4
F7
F5
FB
EE
F5
FA
FA
01
08
0E
DE
EF
12
F1
FE
F7
F4
04
EF
F3
FD
15
FD
EF
E2
1F
F7
19
FA
04
F6
0B
0E
FE
F4
FB
02
0F
11
01
EB
07
F5
2C
05
02
0C
0F
EB
E9
07
F2
F1
FC
02
03
03
ED
FD
0C
F4
EC
E6
F6
02
F2
15
F6
07
08
0D
08
04
E1
F9
FC
F9
FA
02
F0
FC
0A
08
F1
04
04
13
07
08
F4
0C
04
09
00
E2
09
E7
0F
04
00
15
F8
13
0C
FC
03
F1
0C
FE
02
0D
06
F5
0E
03
F9
FC
02
F0
00
FF
13
13
F0
07
F6
D9
0E
FD
07
F5
FF
05
EB
03
01
01
0C
01
F3
FD
F8
F8
EA
00
EE
0E
EA
EA
F7
EB
FD
F2
FC
E2
0D
06
0E
DC
FB
F7
E7
FD
F0
F9
01
19
F3
09
11
EA
E0
0B
E9
09
04
06
01
17
01
F4
17
FD
04
F4
16
F6
F3
08
09
E8
0A
F0
02
0F
11
F7
0C
10
00
F8
15
E6
F1
07
FB
F9
FD
03
06
F4
17
F7
1F
10
19
E7
0E
0A
FE
F8
EC
FB
EA
FF
00
FA
12
15
29
F3
00
23
0A
09
FF
FF
09
FF
E3
26
04
0E
ED
06
1B
11
02
E9
FB
05
0B
F3
11
19
0D
11
FD
E9
FD
01
F2
0D
10
20
FB
E1
14
E9
F5
11
FB
0E
10
0B
FC
0B
F1
F4
D7
16
E4
F6
FE
0D
F6
10
FF
1C
14
FA
07
11
0E
03
E9
FC
00
0A
FF
01
FE
E5
DE
04
EC
08
00
DC
D9
FF
FA
FA
EE
28
FB
06
08
24
F3
EA
ED
F8
12
FD
26
20
06
E2
1A
F5
24
FB
00
ED
13
1A
10
F8
17
05
09
F3
EB
F8
FC
06
0B
F7
10
EC
19
FD
2A
FD
35
04
02
FE
18
02
24
F4
FE
F3
09
16
FC
11
04
05
17
E5
F7
D7
1D
02
0E
F7
1B
0B
FF
05
05
08
F4
29
DD
1A
02
F6
FE
0C
09
23
EE
05
04
07
FE
40
FD
0C
12
04
05
09
28
0F
0A
D9
E5
00
FA
E7
07
E8
21
06
F7
15
EF
0F
F4
FB
FA
F6
15
1F
F7
08
FA
F5
FF
F8
04
1C
27
F4
D5
1D
03
EC
02
15
FD
00
12
13
E3
EB
0D
04
EB
2F
06
01
15
F1
FC
09
24
EE
15
F0
18
E9
04
05
F6
FE
02
F9
15
E4
E6
1A
EA
20
FF
18
EE
1F
05
D6
D5
F7
F0
F0
0D
E0
0D
FB
0E
07
08
0F
1A
F9
F9
00
FE
07
15
0C
02
1D
09
F5
FE
02
02
07
0D
0B
F7
0E
E6
EE
08
05
00
05
F4
10
0F
16
FF
F7
0F
16
F5
02
02
0B
FE
FB
00
FF
ED
F4
E5
15
F5
00
FC
FC
08
11
20
11
07
15
20
12
D9
F2
FF
10
0A
19
F9
F4
01
0B
EE
18
06
0D
FF
E6
F6
F1
FA
10
17
E9
0E
18
F1
16
EA
06
01
17
04
EE
15
06
E9
F1
F6
00
FF
12
00
E8
18
E1
08
E2
1A
14
16
F4
F7
0F
FA
F4
14
F0
F4
15
E4
FD
01
0E
0E
1F
E3
05
EE
FA
E7
0A
08
1E
1B
FC
1A
15
04
FC
FC
07
0B
F2
F0
FC
F4
F2
22
FE
F4
F8
19
FE
05
FD
00
FF
DC
FE
04
26
0F
03
F5
0C
09
FF
09
E9
F0
0F
E7
FF
0B
EB
F3
02
0B
EE
1A
F2
08
08
F2
0E
03
03
12
08
07
12
D7
01
00
FC
12
17
03
11
E3
02
EB
16
FF
F1
0D
0A
F7
FE
04
F8
18
E8
1B
EA
FD
09
09
08
FC
F1
C9
F8
05
F5
18
0B
FD
0A
07
00
13
EB
F9
03
13
FD
1D
EA
0A
15
F3
F5
01
FE
1A
05
1F
10
00
EA
12
E8
F1
0C
F5
F4
EB
F7
05
F8
10
02
19
EB
0E
04
FF
F9
01
EF
17
ED
06
0E
F3
06
12
F6
FB
FB
F3
0B
F6
20
03
00
F9
12
13
EB
07
FB
C4
EA
23
D9
F7
EB
E1
E1
10
15
04
06
F6
F5
0A
C6
C9
2E
F1
0B
E3
DD
04
0F
05
0D
F2
08
DF
10
1A
11
2B
26
10
15
0B
02
FE
36
EF
0F
12
E5
1B
1E
F8
09
2D
02
E4
FB
ED
17
EE
F9
FA
19
06
FD
FB
11
0E
D8
F4
0C
0C
01
06
F5
ED
FC
E7
0F
07
E5
07
F7
0F
0A
16
E2
E1
F9
FB
F4
F7
0B
1E
0F
FB
EE
EE
E7
EE
F2
E9
07
E8
FC
EE
1C
F5
CD
07
22
04
03
07
10
0D
0D
01
0B
0A
16
08
F5
01
D6
07
F9
01
0D
0B
09
13
1B
05
07
09
F3
09
18
FF
F9
21
03
1E
FC
02
F4
14
F3
FF
E8
FE
02
ED
FA
00
09
15
F6
21
FF
01
01
28
F9
E3
F9
F3
F9
19
DE
FF
12
E6
0A
09
04
09
F4
21
08
0C
F2
FA
08
18
FE
06
FE
27
05
17
E5
1D
E8
DB
EC
F4
0A
00
EC
F5
FC
F9
F2
00
0F
0F
E5
0D
12
FF
14
18
FC
F8
FF
F2
0A
EE
08
FE
FC
F3
FB
F0
F4
D5
07
13
EF
0F
F1
14
1C
01
07
F5
0D
FD
FB
F2
ED
FB
FA
02
F3
0D
F3
0E
FA
0A
09
F7
F6
EE
10
00
00
1C
DD
01
16
F5
FE
FC
FA
13
EA
05
D8
0C
01
03
0C
E9
1A
0F
02
15
F5
EC
10
E0
05
17
03
0A
FB
01
29
E5
DB
FD
07
24
E8
FC
0D
F2
FE
18
18
2E
23
FF
07
E7
E6
0C
16
20
EF
0C
0E
0D
DF
1B
00
04
E6
E0
E7
2C
19
E0
05
D0
1F
F0
EF
1B
E9
FF
F3
19
05
0B
E6
17
DC
F3
13
1B
03
03
00
25
F9
E8
29
0C
12
00
D8
E9
02
E7
31
09
FA
37
C4
FE
D4
DC
05
00
2D
0D
08
F9
F4
E4
FA
AF
21
EC
18
E8
0B
D7
FC
00
11
EF
00
11
0E
0C
1C
FE
0C
F6
13
E5
13
07
23
F7
0A
FA
11
F9
20
1A
00
08
09
F3
EC
06
F7
03
F1
E1
F2
00
D6
F9
F8
0F
F3
F3
FA
07
01
19
EE
08
07
1E
07
FF
EE
F8
1A
1A
0E
F8
03
F6
0A
F8
31
05
00
03
F8
E9
F6
00
0E
13
FE
E4
01
12
E7
03
FF
02
04
FF
F5
F7
E4
1A
DF
FE
FC
F2
11
11
FF
F6
EF
FE
01
F9
02
10
00
FC
03
10
0E
E6
18
0D
03
10
0A
E6
03
FA
11
06
FE
00
F9
FF
E7
02
DA
0C
0F
07
F3
12
F7
EA
06
0C
0D
FA
F8
F3
EC
F5
ED
0E
ED
0F
E1
0F
02
FA
35
11
15
03
EB
FB
E9
0A
19
0E
03
F9
0A
FF
E5
0F
00
F3
FA
EC
F8
F6
DD
07
FE
F9
E1
03
06
FE
02
0A
2E
F9
1A
05
18
F2
EA
06
24
04
FC
1A
EA
01
24
0C
E2
19
F8
E7
EA
DC
14
E1
EE
0D
06
22
E7
F5
0A
FD
DD
18
F8
F8
E5
2C
18
06
E5
0C
1A
F3
14
F8
FF
F0
EB
FC
EA
E3
F9
16
0E
19
F4
F6
0D
14
29
0F
0D
05
C5
01
FC
FC
EB
1D
FC
18
F5
22
06
04
FD
D0
DA
DF
23
00
E3
19
E2
0E
22
E0
E9
FC
FE
21
DB
10
D6
18
EA
EF
18
C6
E1
3B
0A
22
C3
14
06
E7
1A
0B
EB
F2
EE
F9
E8
13
FC
FC
0C
FF
E7
F5
FE
F3
00
E0
05
0E
DC
12
E5
F9
1D
FB
FF
E9
FF
F4
1E
F6
F5
F2
F2
F0
0D
ED
F0
F8
D8
F8
18
02
F6
12
FF
E4
06
F3
EE
FF
06
04
00
FE
E8
FB
F0
09
0B
01
FA
17
18
0A
F4
06
13
17
ED
04
0C
EB
F9
17
10
04
F7
04
EF
0F
F6
0D
09
F1
F8
E5
08
04
05
FB
F7
09
00
02
19
02
F7
07
FC
FD
1C
FE
FA
EC
FE
03
08
F5
16
01
04
01
FB
FB
15
14
EC
FD
05
06
FB
F1
06
EE
E1
F4
F1
FC
F0
04
07
0D
EF
16
F0
20
14
FA
EE
FC
0A
EB
FC
03
16
F7
F2
12
EC
EC
05
FE
FD
F8
08
F6
F6
FD
ED
10
FC
FD
FD
F0
03
ED
11
FE
21
FF
F5
EE
0D
07
FD
F9
FC
15
FA
04
F7
E7
07
E4
1C
F9
E7
FB
F2
00
FC
EA
F6
F4
00
04
0B
07
F3
F9
FF
0E
F2
01
00
00
17
15
F7
02
01
19
EB
16
11
08
FC
F9
E2
13
11
13
02
0A
F3
FC
FC
F9
E4
02
09
F5
06
0E
04
00
12
F6
FB
01
F1
F6
F8
E8
EE
09
E8
07
1D
37
0E
0D
E9
0E
FC
E1
F0
FB
0C
16
FE
00
18
01
05
E9
FC
14
FE
F6
EC
F0
E9
07
0A
F9
13
0C
1A
EC
E8
FE
08
09
0F
F3
F3
07
01
E4
19
E8
EE
03
29
FE
F5
D4
FC
02
12
1A
FE
F8
0E
DE
09
0D
07
02
15
EE
09
04
0F
F4
F4
F9
16
F9
08
EB
1D
08
F0
04
05
E0
12
F7
F7
FA
01
F8
00
F4
F8
E1
19
0A
01
0A
FF
F2
02
1C
13
FF
0D
13
E6
0D
F9
FB
14
FC
15
1A
D8
07
E1
E9
F3
CE
1D
19
FF
FA
F5
EA
0E
06
05
E8
34
FD
F7
0B
2A
17
07
16
FF
11
F1
EB
EB
F7
EA
13
EF
EE
DD
06
F7
EC
1E
FE
E6
11
14
F1
0B
16
F9
FE
0A
FA
10
F7
03
0A
F1
03
EF
F8
FA
EC
0E
02
1C
EC
F2
02
07
03
D9
F3
06
03
15
F7
05
FC
00
10
EE
F7
07
1D
F8
F3
E6
12
13
F8
FA
FD
10
1D
06
04
FB
ED
EB
DB
1B
E1
FA
1B
EF
15
FF
00
F4
1A
11
E2
EE
07
10
14
06
FE
F7
00
04
F8
03
F6
03
EA
F7
04
F6
16
02
FA
E8
05
F0
D5
10
F9
F5
FD
F4
0F
EB
D9
00
DE
FC
11
0D
F9
F2
1A
E7
F6
FD
EB
0A
1D
E2
0B
22
19
02
DF
0D
F4
EF
F9
09
0D
DA
07
06
26
F1
0E
EF
0A
FF
1C
15
FF
11
E9
EB
22
08
E4
10
0E
F3
E7
F8
0B
02
13
CE
18
31
28
03
1D
06
03
0E
FE
09
F7
D7
DB
29
03
1E
0A
0E
0C
02
EC
FF
11
08
FB
22
ED
09
F6
21
07
03
FE
11
09
FB
08
F6
FE
E4
F0
13
01
F8
0E
FC
EB
0E
15
18
EE
10
08
F5
14
19
F9
04
0E
06
E6
12
FF
F2
04
