04
EF
F5
FF
0A
07
F6
E7
02
EF
FE
25
08
F2
0C
0E
04
F6
0C
06
04
FA
1A
02
16
07
F5
17
0E
00
33
18
F1
14
F4
15
0A
06
FE
06
2C
12
F6
15
EE
0A
03
1E
F6
F2
23
06
15
F3
D0
F6
16
EE
03
0F
FD
EC
1D
EF
F8
FA
FA
13
DC
11
0B
00
E4
E0
02
F3
18
F9
00
F8
13
FF
04
E6
E6
FA
ED
F9
FF
F8
07
F7
22
09
EA
F3
0D
01
04
07
EB
EB
1A
08
E7
FD
F4
EE
06
FF
F5
08
0E
DB
F4
0E
0B
01
0A
31
05
E0
00
F2
04
FC
01
0F
EB
EF
0C
D6
0E
03
0B
05
1F
E4
13
12
16
03
EB
0E
F4
2B
F2
05
EC
FF
FA
DD
FA
F8
0C
FE
05
F1
12
FA
14
FF
17
02
E2
0B
EE
18
F7
0A
12
F9
07
06
11
FF
00
FA
EE
1A
E5
FC
FA
07
FE
EC
0B
F1
E3
0E
0B
FF
24
F1
FF
1C
03
21
F8
FD
0E
14
F4
F3
EC
1A
15
F0
F3
0E
0A
E5
1A
0C
EF
07
E1
EB
13
01
F5
0F
E2
02
04
F3
E7
F3
0A
09
FD
02
0F
E2
0E
07
03
D3
E2
0C
F9
10
EC
F5
DB
F5
07
12
0C
0C
04
0E
E2
25
08
FB
F1
FF
F0
14
07
E6
0E
FB
F9
01
0F
DD
0E
ED
FD
FA
E2
F2
F2
26
03
0D
1E
FC
FF
04
1F
03
19
FD
06
F6
0D
00
F8
DB
EB
F5
18
D3
0C
07
CF
07
0E
10
0B
FF
19
06
EA
07
EA
13
FE
EF
22
05
E1
0D
10
07
0A
04
20
FC
10
EC
00
0A
D8
22
01
05
F0
02
FB
12
FE
17
06
03
16
1C
E0
0B
F9
0C
E6
FC
01
F2
DC
ED
EF
FC
E6
E2
09
15
14
FD
F9
05
E2
08
19
FA
00
0D
EC
06
1A
04
DE
F5
0C
DB
F4
0D
0C
FC
F9
F7
FD
F0
E6
17
FD
11
11
E7
E2
09
00
02
06
05
F5
FB
01
08
12
13
0E
02
F9
17
E0
F3
F4
05
E4
EC
EE
06
0A
F7
05
13
0B
FE
02
17
06
F1
F8
01
F2
03
E8
FD
EB
F9
12
17
08
11
F0
FE
EE
F9
13
02
F8
01
11
D6
05
24
05
F6
F1
01
0A
E6
08
09
F3
F7
00
F1
01
FC
F8
0D
21
17
02
F8
F3
DF
08
F5
09
07
FB
04
06
14
F0
12
E6
F7
ED
F0
F9
F4
02
EE
0F
1C
15
E0
10
04
1B
F8
19
FD
05
13
05
FA
F8
FE
0F
0D
07
F5
10
BF
03
EE
F7
E1
02
FE
FC
ED
07
F3
F7
E7
0B
11
00
F7
DC
0F
08
19
0D
F4
1D
16
FD
FF
19
0D
08
EF
01
F8
FF
F0
03
0B
F5
05
E7
17
18
EC
04
F6
06
F0
FA
FD
2C
E5
13
10
FD
2D
04
09
F9
12
FF
11
10
F4
0A
EF
D1
1A
07
FF
19
F4
EA
E2
EA
EA
25
F9
13
F8
F7
17
ED
06
F3
0C
12
FD
FD
1A
FA
0B
F2
05
24
0C
01
0E
01
26
FF
0B
D6
0A
15
07
07
E4
EF
22
F0
00
0D
E7
01
FA
01
EC
04
FB
F6
F9
F3
07
00
19
F8
0F
FC
FF
F7
F4
16
07
07
F1
00
1B
FF
11
DE
EA
05
0C
F6
13
F3
03
F9
FB
0E
20
F9
FC
09
09
04
25
F2
FA
FE
EE
0A
FD
F6
F6
F6
D2
F6
DE
0E
2B
FE
EA
0F
19
FC
09
0C
15
F1
16
FB
10
F4
F6
EE
DA
14
0B
14
02
ED
F4
F9
1C
F9
03
1D
EF
0C
18
07
01
EE
07
09
1E
2C
F6
10
FB
FB
F7
06
1E
1A
FB
0E
FA
EE
EC
0B
0C
0D
F8
15
10
FB
F9
0B
FB
10
F0
11
FB
0E
14
0F
22
F9
FB
F0
03
FB
ED
08
D5
40
2B
14
09
F7
ED
05
05
0B
D8
14
FB
24
04
FF
EC
01
05
FE
07
09
06
ED
FE
FA
FC
06
FC
04
FE
03
E8
EF
FB
FF
F4
08
2C
FC
02
F7
ED
11
2A
E8
02
12
E7
F8
06
F8
F0
0C
DC
E9
E9
03
FB
0B
11
DA
08
02
EB
FD
0E
F1
07
EC
04
08
F9
FB
0D
1E
FF
27
FB
1D
08
EE
08
11
F5
0C
11
1B
EA
11
11
17
F7
18
10
18
EE
18
F7
EF
E1
FD
24
20
E3
FA
11
FD
CD
00
04
13
1C
F5
FC
12
04
F3
0E
FD
FA
E8
04
FD
F8
1A
E3
11
DB
0E
EA
F2
11
06
E8
E4
F8
03
FF
EE
12
06
06
FF
E9
24
0A
02
0A
F5
0F
E1
FC
09
09
23
EB
EE
E7
18
F8
03
EA
F2
01
18
FF
0D
04
E4
0B
FB
09
EB
F2
03
03
14
FD
01
12
ED
07
F9
FF
EB
E8
FC
11
EA
0A
FD
FD
EF
E6
E3
F7
FF
19
08
EE
25
0D
1A
15
E5
F5
01
EB
07
03
14
FA
0F
E7
06
09
26
15
01
1D
EB
0C
E7
0E
06
EC
10
FE
DD
EC
F6
0F
FD
00
25
FA
FD
11
16
FB
0E
1D
05
0C
05
FA
F5
09
FE
F8
0A
E5
03
00
FC
EF
F7
02
11
F6
1A
F8
0F
E2
F9
04
F0
23
F4
ED
F1
1F
FB
0C
F9
0F
08
0B
11
02
0D
F3
02
12
EC
00
DE
0C
E0
FA
F7
FE
0D
01
02
EA
0E
1C
19
E7
10
05
EA
01
E1
06
04
05
E8
00
25
00
EF
FB
EA
F7
E0
F7
FD
0F
11
02
EE
14
0E
12
1C
E3
FB
0C
E8
05
F5
14
FA
12
FF
F9
0F
1A
10
13
F9
F2
04
04
F1
05
F0
07
1E
F0
07
0B
13
14
FB
0A
0C
E5
01
FB
08
09
02
21
10
0A
D9
0E
F7
07
F2
07
FD
08
0E
F6
F9
10
EA
F2
06
10
F9
81
F6
FD
13
0D
0E
FD
F5
E0
F9
1D
09
FF
FE
0F
F2
21
FC
FD
11
F9
1B
EB
FD
FD
2B
20
10
29
2A
10
FD
02
0B
F8
09
08
11
FE
0C
F3
0A
FA
02
21
FA
EA
16
00
09
E2
0D
FC
ED
23
0F
24
02
0B
33
22
05
08
12
EF
17
F7
FD
13
DF
F2
05
0E
14
21
24
DE
03
FE
16
16
02
E2
01
FA
F8
F3
FD
13
EE
0E
14
FD
17
F2
F6
16
06
F1
1E
EB
FC
0E
03
20
23
D4
12
11
11
E0
0D
E8
DA
F5
FD
EB
07
17
EC
04
F3
13
00
1C
EB
15
0C
F2
09
0F
12
E8
16
FE
0E
17
E8
EF
09
EA
DB
0B
03
03
FC
F5
DC
FF
12
0E
FA
FA
24
0B
03
11
0D
F4
FF
0D
DE
00
16
0E
FB
04
E0
F6
FF
F3
F9
12
1A
0A
F3
13
05
1D
EB
E7
08
DD
07
FA
01
26
0F
07
05
17
FC
1F
F8
09
0A
FE
00
FC
22
14
03
F6
F6
05
13
04
E7
0C
E6
FB
00
0D
F4
F8
23
00
FD
E5
EB
F7
0E
F3
04
04
09
04
05
F5
F5
04
04
03
21
E7
EE
F6
FA
F9
02
FE
02
20
FC
08
FC
0C
FD
0C
1C
16
F3
F6
06
07
00
15
08
FC
D6
F0
F4
02
F3
17
08
F1
0E
38
07
DA
E5
F7
01
FC
F4
F8
12
0A
05
1C
F2
07
F2
02
D3
11
F5
F3
EF
0C
EE
E1
11
FC
FE
0F
F6
00
F6
EE
07
0C
E3
1E
F1
EF
E8
FA
05
FB
12
1D
F1
11
1B
0D
15
F5
19
00
F1
11
F3
F5
03
07
F4
02
F3
FA
12
04
24
10
09
FD
E0
0D
15
FA
F3
0F
FA
FD
06
09
1F
04
02
03
01
09
E2
00
05
18
F4
05
EF
26
2C
F3
0D
04
05
17
12
0C
18
F5
0D
F1
FB
F5
05
04
22
29
09
0D
00
10
00
05
02
17
1D
0E
11
15
02
F7
EC
04
FF
0B
FE
F6
F9
F6
0A
06
10
11
DB
0B
DB
FA
08
07
05
F0
F9
D8
05
FD
F3
ED
FC
07
FF
28
E9
F2
00
F7
FD
0D
04
02
F6
EC
F7
EF
E8
F4
F8
0F
F2
10
FC
1D
17
FE
08
E0
CE
13
EB
E6
1A
05
ED
FA
F6
0D
E3
F2
09
19
FC
03
08
F3
F8
06
F6
17
07
04
F6
12
05
D1
EB
F5
F3
1E
FC
FC
FB
0E
E0
1C
01
06
01
F4
FA
EF
06
EF
FA
D7
EC
ED
08
04
F9
F3
FF
0B
E1
E9
0B
F9
FF
00
ED
0B
E8
03
FC
02
D5
EE
00
0C
00
11
00
F4
F3
F0
0E
06
F2
02
13
15
11
F0
F8
F0
00
F6
06
05
02
0B
FF
0B
F2
DF
10
02
ED
03
FE
FB
0B
08
F9
0E
19
13
EC
07
F7
FB
EC
FA
0F
FD
1B
0C
0E
F6
01
09
E9
0E
F5
0F
F0
FE
03
F9
03
04
02
12
08
FA
FE
F2
08
F9
FB
FA
0F
FF
FE
F5
F9
F5
0D
17
03
21
05
F3
F7
DB
15
0D
CE
F2
F5
F1
FA
E2
02
FB
08
13
04
06
0C
09
04
D1
E5
0D
F2
17
FB
22
FD
E6
E8
01
FB
F4
FF
02
F0
08
FF
D8
ED
F1
FE
DF
FF
FC
E8
11
0C
FC
E0
EA
FF
FB
07
06
03
FC
EC
F2
F7
E3
EE
05
1E
FA
0B
FD
F3
E7
FF
24
04
F5
EF
03
1B
0A
FA
DC
FD
F3
13
04
F8
09
25
14
22
01
0F
FC
E3
06
FE
F6
0A
F2
19
CB
F0
04
03
F0
0A
0E
E6
1C
FC
14
26
10
06
FC
EA
0C
FC
E9
0A
EB
07
08
FC
02
0A
FB
08
FC
0C
14
E0
FC
FA
06
F1
EA
05
E2
09
E8
01
F2
12
F7
E1
0E
13
EE
FD
FA
06
EB
F5
EC
EE
00
CD
12
E2
DE
E0
EA
EF
FB
09
06
1B
C7
E2
FF
06
ED
15
10
05
FA
FE
F7
F9
05
FB
15
FB
26
D3
FD
16
EB
F1
FE
F6
FA
D2
0D
09
09
05
17
E4
EE
FB
1F
FD
FC
F8
00
02
FB
02
08
05
F8
02
F7
ED
E9
F8
F5
0F
E8
0A
08
02
FA
05
02
12
08
04
EF
E5
14
0C
0B
18
05
F5
20
FD
F7
19
2E
00
13
F0
10
0F
1B
E7
EC
F3
00
F2
F3
09
F0
01
FF
02
1D
2A
19
08
EA
FE
FC
FA
33
01
00
1D
27
F0
06
E8
02
11
0A
1E
01
FE
D3
E4
06
04
07
10
FA
12
25
0D
F7
F2
FE
FD
10
16
FB
F6
FE
07
E8
FA
EB
EA
16
F3
FC
F4
FB
1D
FE
04
F0
FD
04
00
01
02
D8
02
F4
FC
FC
FE
08
EC
EB
08
FE
E4
DC
F8
1F
F7
F1
05
FA
FB
01
03
0D
FA
01
09
02
F6
F2
F8
16
F4
FF
F7
F6
F9
E4
F3
E5
10
F4
03
01
07
2C
06
FA
0B
0F
01
04
FE
FE
01
05
12
00
FE
07
F4
02
F8
16
11
0B
F2
02
F6
F4
F8
EF
E9
00
F2
02
18
FE
22
D1
00
0C
19
D0
F2
0B
F6
EE
FF
0D
F6
F4
05
E5
10
0C
06
0D
ED
F1
13
E7
0D
EB
00
03
05
F5
06
EE
14
10
FF
EF
D1
05
0F
F6
F7
1B
FE
0A
01
14
F7
00
FB
1E
EB
3D
ED
12
EC
FB
13
F1
0F
F6
0B
16
01
EE
00
FA
07
04
07
12
FA
0E
0B
EC
0E
FD
0A
FD
03
EF
0F
21
0C
F1
08
FB
03
E9
07
EC
04
05
E4
FB
08
14
00
ED
1B
FF
F1
06
DA
EF
F9
FC
09
EB
11
F1
F0
2C
F4
E9
0F
FC
10
07
FB
E9
F6
F2
06
DE
1E
13
09
FA
23
18
00
E0
3C
02
0B
F4
30
09
0B
FE
0F
04
FD
0C
02
ED
04
FE
F2
F8
ED
1B
00
E8
02
C1
FA
03
F6
27
24
FA
FB
0B
31
09
00
F2
F8
FE
03
11
21
04
0E
0C
F0
FC
EC
00
F1
15
E4
13
15
09
F1
E2
0E
F2
14
DD
E5
13
EF
D9
FD
0F
EE
E9
F7
03
E5
24
E5
00
FE
1D
04
FC
06
F2
1A
06
06
FD
08
FB
19
0D
19
14
32
F3
F8
0A
EC
EF
25
E1
09
14
0E
17
02
1A
F0
F5
E9
13
2C
F3
10
08
23
E7
01
0C
E7
1F
34
D6
E2
FD
F5
04
EA
F5
00
F0
FD
01
F8
FC
11
F1
F6
F8
12
07
29
D8
05
F4
05
03
10
F9
01
F4
0C
FF
11
01
FE
E7
04
EB
F2
09
1D
FB
0D
F6
0D
17
E3
EF
1F
F4
08
16
30
12
04
0A
F3
0C
F2
08
13
E9
11
0E
FE
FB
03
00
E4
04
F7
16
E7
03
04
22
02
F4
1E
EA
E4
F7
00
05
EF
0C
18
04
DB
31
13
11
F7
12
1C
D9
12
02
1A
06
FE
FD
19
10
05
24
FE
03
01
F0
09
0B
18
CB
FE
F2
E7
0D
02
1E
F1
0B
F9
00
18
03
00
FC
FC
0A
0B
0C
16
15
0F
28
07
F4
F4
D9
07
E6
12
06
14
F1
F9
0E
01
18
EF
F9
0B
20
0F
0C
37
0A
FC
04
EF
06
FE
23
17
0B
0B
D6
0A
04
F2
F2
05
14
0C
1A
FC
26
ED
FE
23
17
F7
F0
2B
F7
06
D8
01
03
09
F4
15
17
F5
09
EC
34
09
06
F6
0F
01
12
16
07
08
FE
18
E8
04
F2
FC
F0
F6
FB
1C
F3
09
E9
16
01
F0
0B
09
15
F8
E0
10
F6
0F
E5
E7
F2
E4
ED
02
EF
E6
03
FC
02
1B
FA
11
23
08
11
17
1A
0F
E4
FB
2D
F4
00
F1
E5
DF
04
FA
DF
0A
09
F5
01
D9
FD
F4
04
FC
E9
FB
F8
F4
E3
F8
DE
FF
ED
08
03
E7
EC
0B
09
26
FE
09
0D
02
EB
E7
F9
FC
E3
0B
FA
E9
F8
11
02
FC
E3
F8
FB
0D
0F
DB
0E
F9
F7
05
0A
F8
00
EE
14
F6
FF
02
02
0C
1F
F5
00
FE
05
04
09
14
EB
1E
0C
0E
12
12
06
18
05
F4
D8
1C
F8
E4
00
14
FF
BF
06
E1
FA
F4
02
02
0E
FA
EE
01
0C
EB
FC
02
F9
14
F0
E4
11
F8
FD
FB
0F
07
E1
10
0E
E6
04
EF
F5
DF
F3
FE
E7
09
FC
04
EB
04
22
0B
0E
FC
F9
12
DA
DE
12
0B
19
10
06
FD
05
FC
13
F4
0A
11
16
1A
0E
F6
F7
ED
F4
E8
06
03
32
E9
04
12
07
12
01
03
06
F1
F9
FA
E7
09
EA
EE
FA
F4
17
EB
F1
0A
01
07
01
EE
10
12
07
F6
E6
02
00
F3
08
0C
19
ED
E7
FD
0A
1B
ED
08
10
0D
03
1E
E9
E0
F2
18
FC
EF
12
17
FC
F8
FE
F4
FA
E4
13
F6
11
FF
DD
11
F0
FD
06
06
00
1A
0B
1D
00
FC
0B
EB
04
24
02
0D
F0
0F
F8
FB
EA
F9
0C
ED
0D
FD
09
14
F7
0B
09
F4
04
FE
F2
00
28
17
02
05
F0
EB
FD
10
0C
00
FA
FD
F6
FC
13
03
FE
FD
F8
FE
FD
07
EB
1C
00
0A
24
00
01
05
0E
F3
1F
E0
EC
F1
F8
07
20
08
EB
F7
F6
12
EF
F1
E0
02
0F
00
FA
F7
E2
E9
07
0E
F7
2B
F1
F5
06
F0
1D
1A
32
11
0D
FC
06
11
EC
13
FE
19
12
04
12
F5
06
F9
EB
19
FA
13
FA
F5
01
1C
E3
F9
16
02
ED
EC
EB
F3
08
09
FF
17
1A
E2
FF
F9
E0
05
10
13
1C
FF
FF
FB
F2
08
F0
F3
2E
F5
FA
03
E8
10
F5
03
E9
EC
29
E2
09
F0
F6
15
03
D9
FB
09
F2
04
0E
DE
0B
ED
F7
03
E6
F8
F3
1C
EA
18
1B
FA
1B
04
FB
F6
F9
DA
12
11
ED
04
FB
FE
1A
10
13
F8
F3
ED
E9
10
F1
F8
FF
03
27
ED
00
EA
E8
EF
EA
FF
03
07
E3
E0
07
22
F4
F8
0A
18
F5
F3
F3
F0
00
E3
0B
08
22
05
24
16
FA
0B
03
FE
16
00
F6
FB
FE
15
36
E9
04
D7
FF
12
FC
09
F8
F2
FD
00
01
1F
F4
FC
10
ED
09
24
F8
FD
13
E3
1E
20
02
F4
E7
F6
15
0B
FF
06
31
17
E7
0E
F1
FD
EA
05
22
F3
0A
F8
20
05
17
07
E9
0B
08
F1
07
04
0F
00
13
12
14
FE
F1
17
EC
14
06
FC
32
EF
13
EF
25
FB
12
EF
06
06
17
13
11
09
2E
F1
00
EF
09
E8
EF
F9
E8
06
F0
FF
E6
FC
02
04
F8
EC
EE
FC
00
FE
1D
EF
0F
0A
DF
2B
13
04
1B
05
00
EE
1F
0A
FD
02
1B
F5
EE
1F
0F
E8
DE
03
F2
02
10
F2
10
03
3D
19
FA
FC
0E
0B
0D
DE
03
F2
E9
FC
F4
EB
01
F9
FC
04
FB
21
FA
14
F4
01
07
10
0A
0A
F8
06
0D
F4
0C
28
03
0D
FB
F2
05
F9
30
F5
00
38
03
EC
FF
E0
34
EB
28
FB
1D
F5
F3
FA
17
20
02
04
F2
FC
FE
1F
ED
06
15
EE
E0
0A
EB
06
06
2E
F8
E6
1C
F0
EB
06
DB
FC
EB
0B
FD
F7
1E
18
07
EB
05
ED
09
1B
FD
FB
25
FD
D4
14
FE
F7
04
F6
04
F8
0F
E4
05
F3
E7
09
0A
27
E6
E5
00
FD
06
04
21
DB
C9
FD
FF
07
FC
FF
F9
F0
02
11
03
03
FF
0F
0C
F5
05
1A
12
07
02
0D
04
0E
05
FA
EE
FC
04
09
ED
11
0F
0C
DB
12
0D
04
FE
03
05
0B
1A
F1
1E
08
ED
F1
EC
F8
F6
F5
EA
F7
F6
E7
0C
FF
10
11
0B
02
CB
EE
F4
13
E7
23
10
03
EC
F1
21
00
EE
F9
21
F5
F9
FA
21
1C
03
FF
F7
F8
0F
FE
DC
02
F6
00
00
F7
F2
0D
05
F5
25
F7
F0
E3
E5
09
EA
FA
11
0D
1E
FA
13
F7
EF
D9
1B
F6
FE
F7
04
FC
F9
FC
08
06
F3
F4
0F
DE
FB
FE
FB
03
F5
FF
16
F1
E3
11
F3
FA
FB
F8
FB
E8
17
03
FF
FC
FC
F5
04
06
F5
01
FE
DC
03
EE
E6
E6
13
09
F1
0A
F8
F8
F7
EB
01
25
03
19
FB
F5
E9
0F
0B
E1
E4
F9
E5
06
02
FD
1F
E9
F4
13
F0
07
18
04
11
1F
E8
E1
0F
07
E2
1F
D7
FC
F9
E1
F7
F8
05
F4
09
02
2E
03
F9
0A
E2
16
FF
F4
F6
E4
F3
08
07
2A
FE
14
F8
07
05
15
EF
06
FE
FF
EC
FB
02
07
EB
11
EE
F7
ED
EB
EE
FD
E9
14
DC
0E
FF
14
FD
08
0C
D9
14
0E
10
15
F7
1D
F7
EE
F3
F2
F2
EF
E9
E8
02
DB
F7
05
FB
00
07
E7
08
0B
FB
12
F8
04
0B
F5
F1
F4
E2
0D
F3
F0
0B
03
04
E1
0C
04
05
D0
FF
11
1E
FD
E9
FF
FF
05
F8
FF
F5
EE
08
0A
18
15
F5
07
F4
F7
F4
02
E6
E0
02
02
FF
0B
EF
0C
0E
13
11
0E
1B
DB
ED
E5
0D
EE
13
FB
F3
14
EB
FF
03
EC
E7
FA
01
1F
EF
10
16
F7
09
F8
FF
12
0C
01
F2
F7
F4
F8
06
10
10
F7
10
0A
24
00
0A
01
FB
0F
16
F8
F8
FF
11
FD
F5
03
23
FA
18
F0
07
02
EC
0B
01
FF
01
15
FD
EC
0A
FB
ED
C2
25
EE
FB
1D
00
0D
FD
03
F2
02
09
E7
18
F5
F5
E9
F4
04
E3
F8
F3
E7
F4
16
F7
DD
D2
FC
EC
F7
F8
01
D8
F8
E8
E4
F0
0D
02
1D
FB
1E
B4
0F
08
F8
F2
01
0F
E0
13
1A
FF
08
FA
00
06
1B
16
1F
0B
0F
12
03
0B
06
FC
0A
01
09
07
15
0B
F2
FB
ED
0C
FD
13
2A
13
F8
FF
1A
03
02
F7
0E
0C
FE
25
03
00
EE
DF
E7
ED
03
13
ED
EF
FF
0E
03
DC
2F
F5
09
04
1C
F9
12
06
F3
04
20
00
F2
FC
F9
FD
E9
08
FC
13
E7
F3
DE
1A
E9
02
09
E7
F7
13
1A
17
0A
F2
10
EF
0B
1D
15
21
F2
F7
FC
02
01
32
E6
03
10
F3
00
21
DB
14
00
F9
14
0C
FB
03
FB
F1
06
04
10
F2
DF
FE
06
07
10
E0
ED
2A
01
E0
18
FE
23
E3
10
07
04
E1
05
E5
FE
EC
FA
04
0F
0C
FB
F6
F3
F4
E6
0C
EC
01
D6
1B
F6
00
F1
F5
02
06
05
0E
E6
EA
01
EA
11
F5
22
10
FA
D1
02
21
1B
FD
11
0E
FA
06
EE
04
25
0E
04
F2
02
FA
12
F9
01
F7
F8
E5
1A
F7
09
10
F9
08
0D
00
FB
1A
26
06
19
FC
F4
25
01
EC
02
0F
FC
0B
F5
FC
04
1D
0B
E0
02
0F
FD
0D
F9
ED
FA
D1
F4
18
FB
FE
02
06
0A
F1
ED
10
21
D2
F8
FA
EF
F9
F0
0F
08
0E
F6
FB
F0
FD
0E
F7
E0
17
EA
03
F4
D8
10
F0
28
05
F3
08
1D
EC
06
04
0E
01
FA
FC
04
15
E5
10
02
00
F9
02
FC
F2
EA
08
F8
FF
FB
01
F9
32
DD
2D
F5
1E
F0
1B
FE
0B
FE
FC
FE
17
F4
10
EF
05
09
26
EF
EF
DB
F4
DC
FB
10
03
E0
EC
07
F1
13
F9
EB
F3
E6
E2
F9
F5
E1
C7
EF
06
F3
FD
00
F1
01
F2
10
09
02
21
EF
FC
09
0A
FC
07
ED
E7
DB
03
02
F6
F7
0F
F8
10
02
40
1B
25
1B
F9
F8
F8
F0
2B
EB
37
46
0B
06
E6
02
07
EC
01
FF
FF
D8
07
FF
F4
11
F2
16
ED
06
1C
FA
12
09
0C
FD
05
01
D2
20
F6
00
10
D2
F6
FD
0D
F0
FF
01
08
01
FE
10
F6
0E
2B
01
EC
0C
D5
F5
EA
0E
EF
08
0D
06
ED
FE
16
F0
09
07
F5
04
CD
03
FF
FB
FC
FD
E4
EC
29
07
07
1A
1D
F2
1B
E0
17
F3
09
20
FC
24
E5
02
FC
08
FC
13
0D
06
D9
FE
F1
E5
EA
04
FD
FF
05
FA
12
F8
01
33
06
02
10
11
12
F6
1F
FD
1C
10
FC
0A
00
27
E0
15
EC
E7
11
FF
23
FD
FE
FF
02
DA
F8
0A
FD
10
0B
03
FC
0F
FF
FC
F7
03
F8
E9
17
04
01
F5
F0
15
FF
1B
07
EB
01
F8
01
1C
FE
12
08
F6
D3
F9
F4
E7
0B
FE
F9
ED
F8
0E
0F
10
14
06
ED
05
FC
ED
FC
08
F8
03
F6
F2
07
01
20
00
F1
01
F8
F0
ED
F2
0D
0B
F1
24
17
F4
04
11
03
24
02
FA
14
04
E8
0A
06
18
13
FC
15
11
15
09
00
01
E8
1B
FE
1E
F7
32
23
FF
F1
12
F6
13
21
13
FF
0F
1D
FC
11
EC
EF
1C
08
E4
03
19
02
01
22
FE
04
09
19
13
DE
07
14
E1
FE
0E
D3
1D
FF
0E
FE
00
0D
05
0E
0A
FE
0B
F9
FB
0D
FF
04
0B
08
05
0D
F3
0E
13
17
F6
0A
ED
06
FA
E3
15
EF
FA
07
08
0E
F9
FB
03
E9
08
05
11
10
01
FC
F4
FD
F6
02
F4
12
16
F4
1D
01
F4
E9
00
FD
06
EA
1B
03
F7
15
09
ED
16
FE
F6
06
FD
02
10
15
08
F5
14
12
12
15
04
FC
0D
EE
11
F1
18
0B
13
F7
10
F8
0E
E4
F5
1E
0B
18
27
0E
F9
24
13
DB
FE
FF
FC
FC
FC
0A
EE
FE
E2
27
E4
01
FF
2A
F8
12
0B
DF
F8
09
0F
FC
06
20
00
0D
02
E2
0A
FB
FA
F9
FC
06
15
18
01
FF
FE
EE
FE
FD
F2
F5
F9
12
0C
EB
FE
25
FB
09
EE
0C
F1
E9
05
0F
F7
1A
F4
0A
E6
21
05
DD
07
02
FF
EE
F8
17
F8
F8
06
F4
14
0F
09
F7
0A
EC
02
07
F5
17
1F
EE
04
FF
08
07
F9
09
FA
F7
05
FE
FF
03
03
1B
0D
0B
0C
04
0D
EE
F6
F6
0F
F8
F6
28
19
1D
F0
27
0A
EA
08
04
EF
0F
11
F3
01
22
F4
03
0B
07
17
2B
FD
FD
2F
09
DE
13
07
03
F1
19
D5
F2
FB
00
01
14
F5
0C
06
06
16
05
FA
F9
1D
3B
02
1E
F2
EE
0D
0B
02
0C
13
11
E8
FD
29
1A
F9
F0
17
20
05
EC
07
06
11
F5
04
07
12
09
F9
21
1A
EA
FA
06
F6
0B
F9
F9
E8
16
15
0C
13
19
04
13
F2
02
FA
08
14
FA
FD
FA
1B
FE
EB
F9
1C
07
0B
FA
12
F4
FF
E8
FA
1B
08
08
0C
06
1A
FF
0F
10
F2
1F
10
01
0F
26
1A
0A
ED
F1
04
0E
F4
DB
07
05
1E
1B
F0
19
23
E5
02
01
F4
0B
F5
09
07
07
01
14
E5
04
FB
E5
F5
02
F8
24
F9
F1
EF
1C
FF
01
F9
09
F4
01
FE
FB
16
06
11
0C
20
FD
21
0C
1F
F9
0B
17
13
EE
0B
06
F8
EE
0F
EE
0E
02
EE
F6
E4
FE
FE
0A
17
02
05
F8
24
0F
0E
F3
29
0B
06
0D
FA
FC
0C
09
F3
0A
15
24
FB
0B
06
FA
FC
0C
EE
F7
02
F5
FF
29
FB
EA
FC
F2
07
0B
00
EE
1A
1C
07
0F
FD
2B
05
01
24
F6
F1
02
03
03
0A
50
06
03
F2
19
EF
FB
0F
FD
18
13
0C
19
FC
0C
FD
FC
21
F7
01
2D
F0
F4
EE
F6
02
22
FB
F1
02
0A
09
F5
FE
0A
FD
10
FF
22
15
07
1C
10
24
FB
FA
EF
F3
F0
E6
05
17
F7
03
F0
EA
03
05
01
09
FF
17
0A
15
12
08
0A
FF
08
F8
F2
FE
FD
1B
FD
E8
13
07
18
0D
1D
03
37
F2
0E
17
00
FC
E0
FC
06
F8
FF
07
FE
04
0F
FB
0D
ED
FD
01
FF
FE
FC
FB
0C
FC
FB
0C
19
15
02
FE
F3
1D
FA
E0
F6
11
EE
0B
F4
00
F0
F2
F1
0D
1F
12
09
F2
F8
F1
03
01
01
19
F4
F4
01
E5
03
15
FD
FF
0F
F4
E2
07
F3
0F
FD
05
05
12
04
E7
F3
FD
13
15
F8
F8
00
FF
FE
DF
FF
1C
11
F3
F7
0A
E9
16
E9
0D
F3
EF
FD
F7
EB
E7
03
10
11
02
02
FF
06
F4
ED
0C
1B
09
FC
10
FF
FB
10
F9
FB
D6
0B
F9
FE
01
0A
FB
FC
14
F8
0C
08
F6
F9
08
24
F3
E7
E1
D8
FE
ED
F8
18
0A
09
F9
05
01
17
F5
F3
EC
19
F7
19
ED
F7
09
FF
D5
FA
FC
F2
1D
E0
FB
FE
03
FD
F6
F8
02
FB
ED
EF
E3
F9
12
F4
04
E9
0B
03
F0
19
FD
3D
F3
FD
05
F4
00
FD
06
F9
26
FE
F5
D6
FD
05
19
06
ED
07
E5
EF
01
12
F9
F9
10
10
E9
1A
0A
07
FD
16
FF
08
03
00
1B
F2
F6
09
FE
18
11
FA
18
FC
06
0F
F9
0E
12
01
F1
1A
FE
FE
03
E5
F4
E7
F1
23
01
EA
2C
15
14
F2
F5
EC
14
05
F9
1F
03
12
EF
13
0C
FA
06
ED
07
1A
12
07
F7
F1
0F
20
0D
0E
0D
08
1C
0E
1C
FB
FC
F5
F2
EA
F0
FB
00
06
F0
17
FD
FE
0A
F7
02
1A
FA
1A
12
F3
0F
E8
E3
0F
00
1D
17
05
06
13
01
10
FA
13
14
06
F9
0B
FC
E9
06
09
E9
F2
18
EF
FE
20
0F
08
00
0F
0F
E5
E2
13
1E
EC
2A
FE
19
01
0E
E0
30
FB
18
17
02
04
26
F9
FF
1A
21
1E
16
F0
10
DF
E1
1E
F9
F8
11
FF
03
F8
0E
D0
0E
F9
2F
FA
04
F7
EB
06
FE
F7
07
FB
F0
13
0D
19
15
07
EE
F8
1D
F3
E9
EB
0F
08
F9
0A
03
E7
04
07
F3
10
FA
18
FD
28
11
15
FC
D6
15
06
02
03
04
F4
E2
EA
F3
F4
F1
14
FC
F6
14
05
05
14
13
F7
F7
FB
F3
E3
FA
0D
FE
FE
F9
0A
20
F3
FA
F7
03
0B
22
11
09
EB
03
FC
FB
02
FE
F7
DF
12
FE
00
12
E6
FC
07
F6
16
F6
F7
E4
D8
1B
00
12
F0
09
18
F4
01
17
09
F8
FD
16
0C
09
0A
F5
DB
04
FD
0C
20
FE
FE
06
EC
F3
E2
FF
0F
0C
08
13
EE
FF
F0
F2
ED
06
27
FE
CF
13
FB
F6
16
1D
D8
09
F3
1D
05
13
0B
00
FA
09
0C
1D
12
E8
05
2B
F9
20
11
16
E4
0C
FD
05
0F
0E
00
1E
06
02
F8
17
06
1A
ED
ED
F2
0A
07
1F
E1
08
0E
06
11
FD
EB
01
2A
EF
16
FD
04
11
1F
19
FF
13
10
01
14
EA
F2
09
15
04
09
23
0D
07
F0
05
06
01
F9
EE
FE
FC
D9
FC
ED
ED
01
1D
23
00
0C
1B
0C
0C
FA
05
E8
24
E6
FC
09
FB
FA
08
F5
DB
07
EF
F9
EE
18
06
01
05
04
EB
F8
E4
02
08
17
FB
0C
23
1B
19
E9
10
F4
FE
E1
F5
EB
EC
EC
07
E5
EA
07
FA
F3
1F
EA
02
0B
08
1F
1E
02
04
DD
11
FA
11
02
04
07
FD
17
F1
0E
F6
F5
F8
01
00
0A
0B
08
F6
E2
16
1E
17
11
1B
10
FF
F3
F1
1A
F7
14
09
13
FB
FF
FA
03
18
05
10
13
EC
08
11
02
11
17
01
13
13
F6
13
F9
19
1E
DB
F6
F6
06
F0
09
F2
04
10
00
ED
1E
0E
12
01
0B
0F
FB
ED
0E
F5
07
19
E2
12
06
0D
FF
F0
E9
F8
0E
E7
E7
EF
09
FB
DE
18
F5
F6
14
13
FA
0F
F7
1F
F4
0F
F5
09
01
F5
14
F8
2D
FC
06
15
15
FA
F9
FF
F8
F9
2D
13
F9
1A
F5
F5
DD
04
01
FE
FB
0E
FF
EC
07
1C
F8
08
11
F5
21
F4
11
22
F8
FF
09
22
04
04
02
0C
06
04
E3
0A
0E
F1
F7
07
08
08
E6
06
04
15
05
F4
0B
2F
F9
F4
FA
06
06
0A
F6
16
EB
F9
0F
FF
F6
09
0A
09
FD
E9
E7
E8
07
02
2A
18
13
FF
00
0B
FF
12
03
07
02
FA
02
F1
FC
EA
F6
FE
0A
0E
F8
EB
25
EE
F2
F5
12
1C
02
FF
16
F3
05
FF
00
0D
18
FE
0A
07
FA
CD
FD
0D
21
F6
EB
15
10
F8
FD
0B
EA
F6
F9
F7
FD
DC
E1
12
00
1C
14
FA
00
04
1C
12
04
E6
25
20
FB
0C
EA
06
03
FE
EA
E0
FD
05
F4
09
06
03
01
F4
21
07
EC
E2
EF
FC
13
FB
FE
13
FC
F9
03
0E
13
0C
DC
06
04
F4
0B
0B
F8
02
18
0F
15
12
E7
F1
F2
17
D3
11
06
05
0F
22
FE
12
08
29
1A
0E
F9
E5
19
03
FA
00
15
CB
E4
21
15
0F
0A
FC
DB
09
07
23
F5
E7
F5
07
08
E0
0D
09
F9
0C
EC
08
E5
D3
19
F5
FE
F6
E7
02
DC
0B
EF
E9
FC
FD
F0
08
26
F7
F7
FF
10
0C
F9
04
05
25
0C
25
06
15
3A
08
05
2B
F5
01
0A
06
23
E8
0A
03
F2
FA
F3
EB
E8
08
E6
0B
07
03
F2
0B
EC
14
0E
F5
E8
08
F5
0A
03
0E
FB
EA
D5
F7
08
F8
EB
12
02
14
20
E6
26
07
0F
08
DE
0F
0A
13
1C
E2
18
DD
EC
1C
0F
02
09
0E
05
01
04
0E
10
EA
EB
19
FE
0B
0A
F2
F3
08
F0
0E
0D
01
10
EC
01
FF
EF
F4
E7
07
26
E4
FF
FB
25
24
F0
09
EF
DD
E7
05
05
01
F3
FC
03
F4
E8
F9
F0
0C
F7
E1
08
0A
00
DC
03
E7
ED
0E
FD
06
00
00
13
E6
02
EB
F8
00
10
D5
01
EE
F2
F3
10
03
FD
EF
13
06
F0
0C
06
F2
0D
EA
03
F6
05
16
04
EB
FD
E3
F8
00
02
FB
ED
F2
F3
FC
10
E0
F8
F8
2E
FE
E9
FC
FE
0D
FF
1F
01
F7
0A
17
02
02
F9
FF
1B
F5
E7
10
1A
0F
F7
1E
18
06
FF
D5
F9
FC
FB
01
00
0E
10
03
FC
01
F1
25
F0
DF
11
07
06
26
D2
E7
F8
E8
05
16
F7
FB
F1
02
FA
11
05
FD
EF
08
0B
01
08
15
D3
14
E5
15
0E
0E
FF
0A
0F
DE
12
03
04
06
FD
EF
00
0A
23
F1
F5
F6
18
FA
1B
1F
0F
0B
00
02
F0
E4
FB
0C
00
1A
F8
04
06
04
F1
0E
FF
FC
F9
08
F5
1C
00
07
18
08
1B
06
F5
F6
08
0A
FC
00
F8
D9
F7
F9
0E
17
D3
0E
FB
FB
1D
E0
FF
2A
F8
F3
0C
05
20
1B
02
04
FC
F2
0D
2F
08
02
27
EB
DF
EF
01
04
EF
08
01
05
00
02
EB
02
3F
FB
F9
0E
FD
F9
DE
0D
E1
01
E9
02
05
07
26
F2
EC
12
02
0E
FB
00
EA
19
F2
09
EC
07
F0
0F
E2
F1
0D
FB
13
1B
DA
09
F7
2A
ED
DE
02
EB
FA
E7
FE
EE
FC
F0
18
E3
02
EF
EA
EF
F6
03
EA
09
F4
FF
EE
F1
13
0A
F2
FC
E5
05
17
F4
E5
12
02
F7
18
EA
13
E6
03
08
10
1B
E3
01
F4
0B
0E
F2
EA
06
F4
06
E7
08
F1
E4
0A
F3
DF
20
FE
F1
0C
F0
06
FB
08
FF
00
0D
FE
F0
15
E8
04
10
F8
FC
F3
ED
1C
0D
07
1B
0E
11
FF
FC
00
0D
FB
13
DB
1B
1F
E1
01
F7
1B
08
F9
2E
05
07
FB
F6
F3
05
01
01
FB
FD
0E
0B
F8
FF
03
F9
0A
02
CD
10
F3
DF
FE
FD
FA
E7
00
00
09
11
16
10
2B
F0
F1
FC
F3
11
FA
01
04
FC
E2
0F
17
F5
F1
14
1A
0B
04
1F
EA
EF
08
FF
E0
F6
F1
EE
FA
25
F4
F8
F5
EF
FE
FC
02
06
16
CD
EF
0D
19
FB
08
F8
F4
EC
F8
07
E6
EA
E9
EB
F3
01
12
0F
1A
FA
D2
FA
21
F9
F4
ED
01
00
F0
00
13
14
FC
FB
00
08
F6
03
F6
F4
0D
06
F7
12
12
07
EB
FF
F9
F5
F1
F9
24
00
0F
FB
E3
CF
E2
02
EA
1F
10
F7
05
E8
FE
01
1B
F4
F1
0B
19
0B
01
EA
0F
FD
04
08
F8
06
F9
FB
2A
F9
06
08
11
F8
F9
DD
F5
E8
0F
FF
0D
0C
0F
F7
FB
E3
EB
DF
00
FF
12
F8
EF
03
EF
F7
F7
F0
07
F0
F2
F1
FB
06
0B
F8
FC
1A
12
03
1B
F8
0F
0E
02
0F
EF
1C
FB
00
07
07
F5
F3
FC
FF
10
01
15
14
FE
E4
FB
E3
00
EE
EC
10
F6
11
0B
E4
FF
00
ED
14
E5
F0
FB
FD
E9
FB
F7
07
EA
00
0E
EF
0B
F0
15
FA
FC
F2
00
0B
0A
04
15
0C
1B
11
EF
03
07
17
E7
0E
F6
0F
FF
1D
FD
F4
02
08
05
F6
10
14
0F
19
09
31
F8
00
20
01
13
2D
1E
18
03
0D
14
08
EE
07
14
01
1C
1D
DE
0A
07
09
02
0E
FB
FB
EE
0C
F1
EB
19
FF
01
FB
FC
31
11
06
29
EF
CA
FF
05
0D
21
F1
F7
18
02
DF
1C
FF
EB
E5
04
17
19
EA
0C
FD
E6
F6
F1
EB
10
F7
18
F1
16
FA
DC
EC
EA
04
08
18
00
FF
06
FC
F1
E5
E7
07
FB
E4
0D
F8
15
FB
0B
E2
ED
03
ED
ED
11
DD
F1
05
EE
09
0D
D6
1C
13
11
E5
FD
08
06
FC
E5
EE
13
EF
F6
F8
F5
EA
F6
EF
00
DE
0B
F9
FE
13
ED
09
0F
3D
F9
0A
DC
06
0D
EC
F8
FF
06
11
FC
FB
DD
0D
12
FF
09
F4
F0
13
EB
18
EC
19
F5
04
E1
14
FA
0C
21
EB
05
1B
DB
33
FB
09
E3
E5
DD
1B
FE
15
01
16
EA
E3
FE
0F
FB
0D
14
EE
F4
E7
1F
F4
FC
F6
13
F5
05
FE
21
14
17
01
00
03
04
01
F9
14
1B
04
20
FA
FA
E2
F4
F0
1D
E5
F7
1F
FD
10
03
F1
F5
FD
19
E6
04
12
0C
18
EE
05
04
02
05
F5
0F
03
12
07
0A
EC
01
F8
15
04
F5
EF
F7
F1
0E
F7
F6
0D
12
F0
E9
1B
EF
0C
F9
F9
13
D6
09
0D
04
FE
F2
10
F0
D9
F2
FB
04
FE
12
29
1C
EA
0D
05
F3
FE
EE
19
2C
16
0B
0B
02
F4
F6
07
04
E1
09
07
D2
2C
FE
E4
FA
F7
EE
2B
07
1C
F0
00
F2
E4
18
FD
02
F9
02
0B
00
F7
C4
F7
04
09
10
14
F8
EA
F1
E2
05
0D
F3
F9
09
0A
ED
FD
06
F9
E9
01
15
E5
08
08
F8
F2
16
16
FC
1E
10
02
1A
F9
08
E1
F8
FC
09
F4
00
FB
08
FE
F5
EC
04
04
EE
F5
F9
03
17
00
FB
F1
27
1E
12
0F
1C
F8
20
29
02
E5
FD
04
EF
FB
31
F1
19
20
F2
FD
E6
F7
07
0A
F9
DB
1F
F4
35
E1
D6
F6
F1
F2
20
FC
F3
E6
04
3C
F7
D4
17
F5
28
10
0B
DF
EF
0B
15
04
02
EC
07
1C
E9
03
0D
01
E5
FA
F7
FD
F1
06
F2
26
E2
24
02
E5
F3
EF
03
F4
00
DF
E5
0E
09
14
08
1F
00
E0
C8
27
0E
E7
F5
04
04
18
F6
11
15
17
01
0D
0B
FD
FE
0A
04
F3
EE
EB
F2
0D
E2
FD
F5
0A
EC
02
01
0A
06
08
F3
18
06
DD
15
F1
C2
13
01
F8
EA
FB
03
EC
F3
E6
E8
10
E9
1B
DE
F2
18
EA
F6
11
FC
0D
FB
E7
24
F4
0F
0D
12
F5
06
F7
EE
F3
01
F5
EE
10
0B
F1
0F
FF
F0
13
F7
FB
17
1C
08
F9
05
15
EE
FD
05
0D
F7
1E
02
0F
F9
04
F4
09
EA
EE
F8
29
E9
FA
D8
13
E4
F5
0E
15
D6
FD
0E
14
03
1F
FE
0B
12
03
F6
01
00
F9
14
CF
19
18
F0
0F
0B
06
F4
00
EE
06
21
FB
F6
07
E6
F7
ED
04
0D
EC
17
FF
EB
FF
FA
F7
F9
10
EC
1F
20
11
F1
0B
F5
FC
FE
02
EE
00
0D
FF
F7
07
FA
F8
0A
E9
F5
E7
09
11
E5
18
E8
02
FA
04
FC
04
FA
10
05
F2
10
09
F2
FB
F8
DE
18
F7
02
09
EF
18
F7
D6
00
0A
FB
1B
E3
F8
29
FF
0F
1F
05
F4
06
F0
F7
00
05
15
01
FD
16
ED
0B
EE
DE
0B
F8
EB
08
E9
F4
00
FE
14
06
FD
02
F7
F9
FB
00
03
14
CC
F3
1A
F5
0D
E8
0D
DD
05
0A
F9
0B
07
06
07
21
F9
D9
F2
0A
FE
ED
10
FA
E5
F8
28
10
1F
0F
0D
FE
D3
F8
09
27
04
14
04
09
03
FB
F6
FC
0B
F3
17
F8
0D
07
F8
E0
0A
D3
FD
0D
02
11
0F
F8
FC
2C
F3
FE
24
05
09
08
0E
F3
EE
FA
0A
ED
FA
01
ED
FA
F7
28
09
FD
FE
0E
E0
1A
D2
F0
10
11
04
2A
01
10
F6
EF
F8
E1
0A
16
19
F6
FE
DE
ED
03
0D
14
43
EE
13
09
01
00
08
F4
EC
1B
1C
00
FE
F4
FB
F1
03
07
FF
0F
F1
EB
13
F6
F8
F5
EE
24
08
08
16
E0
F2
1A
18
E5
09
F1
12
E2
F8
EB
0F
E7
06
16
15
28
FE
E6
0E
0A
F2
0B
DA
E7
21
F5
E6
00
00
04
0E
14
10
F2
F0
E4
F9
F0
E8
FF
E4
09
F8
06
FD
20
14
FA
00
04
F5
0A
EF
03
15
CB
FA
FD
02
E0
01
0D
EF
FE
00
07
02
11
F9
0B
E9
1D
DE
0E
F5
10
F8
FE
07
F7
0B
11
23
08
F6
F2
F0
05
01
02
E9
EF
F7
F7
01
01
F3
FC
FB
E4
04
00
18
05
DD
E3
F9
0A
11
F4
FD
FF
F4
0D
DC
0C
02
03
FC
FA
04
F1
07
1C
1A
FD
00
E2
E7
FE
03
12
EB
ED
FD
0B
F6
FC
EC
0E
01
06
EE
07
07
02
F4
E5
13
11
F8
1A
17
F8
F7
F1
15
F7
FF
F4
ED
FD
E8
1E
FF
15
14
00
22
03
02
07
13
26
09
00
1D
22
EC
F3
F3
F7
E2
F2
EF
0C
12
E0
FC
40
F6
00
ED
F1
12
E0
20
FC
05
FD
11
09
0B
F5
08
ED
F7
FA
18
03
0F
12
19
11
15
05
F1
20
ED
24
01
1B
11
18
1B
EE
26
FD
01
05
F9
FE
FF
FA
D4
0E
FF
F7
DC
F3
EA
F2
E9
F4
F6
23
22
E5
03
02
F9
06
10
ED
04
14
0C
FD
10
08
17
F0
F9
14
25
0D
02
0A
EC
FB
15
E2
18
0C
EC
0C
FB
26
EE
FC
12
FB
F4
0B
FA
F8
14
DC
F2
FE
0A
09
F3
08
DB
FF
F9
F9
04
EB
F4
FD
02
E1
20
1D
DE
F4
F5
F9
07
16
00
09
09
F8
F2
27
EE
0F
FF
04
FF
07
09
06
1E
10
07
FA
01
00
EC
24
F5
07
0D
E0
02
F8
F3
1F
E0
0A
01
19
FA
1D
0F
02
1D
F9
F3
DA
FF
F8
E1
E9
1C
FD
F4
ED
D8
EC
21
07
03
01
08
F6
06
F6
FB
E6
E7
0A
E0
0E
CE
23
F1
04
16
22
F8
F9
0F
09
EE
0F
01
17
28
1A
F2
03
0A
F7
03
09
FF
F4
EB
0A
15
E7
F0
EE
E4
E4
03
07
00
F2
07
1E
FE
05
EC
FB
FB
F0
EF
2C
0B
0E
F5
F2
0F
12
07
F9
F6
F9
06
14
00
00
00
04
FE
12
F5
DB
19
E6
04
F2
DB
01
F7
F7
FB
09
E5
01
03
F0
FD
10
F7
0A
F9
EA
E6
04
F7
F3
19
F5
F2
DA
F2
F3
11
02
F1
17
10
0D
E6
19
09
FD
01
05
E8
06
FE
EC
0D
DD
E6
24
FB
00
25
EB
E1
FB
F9
03
01
FF
F9
E7
05
12
04
F6
F6
E7
18
E9
FB
E8
14
01
FF
F6
F0
07
01
F7
05
15
10
14
02
FB
F2
F1
F7
0A
13
DC
F0
FF
FB
F7
06
FE
DE
01
15
00
FE
F2
F6
FF
0C
E0
FC
05
F3
05
0C
10
EF
0A
24
05
1F
F1
00
F5
E2
02
05
FF
E9
1D
FC
1B
F6
D2
0A
EE
F7
04
F0
DE
0A
05
EE
08
0D
EF
E6
F7
FC
1B
03
09
D7
FD
10
18
15
EF
08
14
00
EF
EC
0E
EE
EE
05
DC
02
FE
F9
E6
16
EE
24
F7
18
0F
13
08
0D
DA
26
DE
18
12
FA
00
0F
08
05
ED
FA
06
E1
25
ED
E0
FA
01
38
FD
E8
ED
D9
07
F5
04
08
ED
FE
E2
17
F2
1D
F8
0D
04
EA
F7
00
10
F6
09
F9
19
FD
FD
FD
ED
F9
DB
F7
FA
1D
E5
F2
11
1B
0C
0F
1D
F6
15
EC
F0
F9
20
E2
14
2C
ED
1D
E6
0B
F3
FE
FC
F1
11
03
07
F7
EF
FF
FA
0D
F4
0B
30
0C
FC
F0
0C
EC
F7
E6
23
20
29
EA
03
1F
08
F2
FE
F9
EC
05
FF
05
E2
E8
EC
0E
20
F5
FB
00
13
FE
FC
F8
0F
01
E3
E8
0C
07
F9
06
24
FF
E5
1F
21
F2
FD
26
F7
07
FA
11
0E
FF
FE
16
04
EE
FC
03
0C
0A
12
DC
FE
16
1C
F0
12
01
F7
FE
EC
09
10
ED
F8
FB
0C
18
12
15
07
D5
03
0A
1F
15
13
0E
F5
1A
F7
0D
FA
F8
06
F6
0B
0E
0B
0F
09
00
02
F1
17
16
00
DC
21
06
EF
F9
FF
04
FE
F3
FC
23
0E
09
14
0C
F1
18
FC
0B
01
F3
0A
08
E0
09
02
1C
18
02
F1
FA
14
EF
20
15
1C
FE
FF
0A
FA
FD
F7
D4
E2
14
E8
FB
F7
12
DD
08
FE
FC
0A
F8
07
FF
FF
0F
FF
ED
FD
11
06
09
E4
FD
FF
E6
0A
18
1B
F4
FA
09
09
ED
28
ED
FB
F9
F9
1D
FF
0C
FE
03
F3
06
24
F7
F2
EC
FA
0E
04
1E
12
FB
C8
13
13
FC
FD
18
1A
FA
16
F0
F8
E4
E5
FE
17
08
F3
1C
1E
20
13
09
0A
0D
F4
EE
FE
FB
F2
03
01
0C
FE
25
F6
2D
FD
05
18
04
04
24
14
1A
FF
EF
01
06
0B
EB
07
15
FD
1C
28
16
19
0A
10
05
EB
FD
0C
06
05
F6
F6
03
07
07
EC
07
11
09
22
F8
F8
D3
31
10
0E
F6
E4
FF
07
EE
0A
EF
03
FA
D8
02
03
15
02
0C
11
0D
09
15
DF
01
F7
09
18
12
D2
15
01
E8
FF
F9
16
21
09
F7
02
1C
16
EE
F7
F2
EF
0F
F5
22
0C
F4
D9
15
E7
11
FB
0C
00
2E
05
29
F4
EE
32
E9
0A
04
E4
F2
16
24
24
FD
0C
02
F6
33
05
19
28
02
0D
D8
E9
03
04
1B
F1
03
07
23
FB
1C
1B
0B
03
27
DB
F8
18
0D
FF
F6
37
0D
ED
EB
12
E9
E4
FD
F3
FA
FC
F4
EE
FC
07
FC
F5
FD
F3
F4
E6
F8
F0
F1
00
F0
01
FB
F6
09
20
01
06
FB
0B
10
FD
EA
FE
0A
07
F9
00
BB
FF
E8
F3
0C
10
FA
0D
EA
01
ED
FB
09
04
F9
01
F7
00
DB
0C
FD
EE
1F
47
05
32
08
FA
16
11
F9
21
F6
18
04
F5
FC
E9
01
E5
1C
E7
13
FB
0D
EC
FD
F3
ED
F9
F7
EF
F4
FF
EA
E7
F9
0A
F8
E5
E7
15
13
E1
E5
FF
EE
06
F6
DE
F2
24
FF
16
18
F4
FB
0C
F4
FC
1E
FA
FD
FC
0C
0F
05
05
DE
05
FF
E9
05
F9
EF
EC
0C
F0
07
FC
F4
F3
14
0A
F7
05
FA
28
F6
FE
F7
E8
EC
25
05
15
09
0A
06
00
04
FB
EE
CE
ED
06
F7
05
10
08
0F
01
FA
FE
06
05
FF
19
FE
06
22
E9
EE
04
F0
F6
F0
FB
FA
0C
E1
EE
FE
E3
F2
1D
0B
18
07
01
E6
0A
16
EA
F0
28
0A
07
10
0B
0A
02
E7
D7
FD
EA
21
09
07
0A
0A
05
E4
EC
FC
EC
FB
F1
F1
FD
10
FD
FE
0F
F2
23
FA
D1
FB
FC
16
EF
25
FB
EB
F1
F2
06
D4
E2
E9
EC
F7
01
FD
E9
FB
10
FB
F8
0B
02
17
26
09
09
F4
F8
FE
EE
EF
07
EE
13
05
02
19
13
FF
FE
02
07
E9
E3
D0
11
EE
15
12
F0
00
17
ED
09
FA
11
D7
FE
FA
09
02
0F
06
F3
1B
16
EE
EE
EC
14
05
0F
F3
12
0B
02
15
05
01
E4
08
FC
ED
F0
F4
05
EB
FC
0B
1F
FD
F7
0B
FD
01
0D
02
0E
0F
05
F5
08
1A
0C
E0
F9
11
0D
F9
E0
F1
FE
08
FC
0A
09
1C
18
0E
F6
F4
F3
03
F9
0F
EB
09
04
01
0A
F9
F2
FE
F5
18
E2
61
ED
11
F3
E8
31
16
EA
F7
0B
1D
EC
E6
08
FA
08
E9
F7
FE
06
05
F3
ED
0F
FF
F3
F5
FD
20
15
FE
06
E4
03
EE
02
F8
FB
FF
F9
08
F9
ED
18
01
0B
0A
D5
FE
1A
D8
22
4A
21
13
16
0C
F6
23
F7
E3
17
FB
0E
13
EC
FF
E1
FF
05
F5
E6
F0
02
F8
F9
0B
F2
FF
0C
04
FC
12
EF
FE
18
EC
E6
01
02
16
F7
10
06
0F
0E
09
04
EC
0D
D7
01
09
13
14
EA
F1
00
0C
F5
EE
F4
E6
EE
F3
05
F9
FA
F1
12
19
01
E5
F6
0F
05
0E
F3
EE
03
12
F1
EC
F3
06
0E
F4
0B
03
FA
EE
F3
09
04
FD
ED
F4
FD
EE
F1
1B
FF
EE
FA
0F
E4
16
04
F7
00
F9
0C
1C
04
EF
21
06
01
0B
F4
FF
14
04
FB
FA
E7
EE
02
14
FA
FA
1C
13
0F
1A
F2
06
F8
04
F8
FE
F2
01
0F
01
09
FF
07
08
FD
FB
07
EC
EA
F4
E4
FE
06
0C
07
F8
10
04
FA
FF
11
EB
EC
F0
00
F8
06
EF
EB
E4
10
FE
FF
10
27
08
08
EC
F0
1F
00
1C
F2
F2
F7
08
07
FF
26
F2
17
05
FA
00
FB
EF
0B
1A
10
08
E2
00
0D
2F
0E
07
0C
18
F9
04
F3
F9
EE
08
18
0B
FC
F8
F1
F1
15
07
12
1C
FA
E0
F6
FB
FD
EB
F6
08
06
03
FA
11
EB
01
04
F7
1C
0F
13
F4
04
F7
0D
07
F8
06
15
02
F9
0E
EB
05
06
05
DD
14
F4
00
21
16
FB
EA
03
02
02
F2
01
E0
FD
0F
0C
00
EC
F4
EB
08
F0
FB
0F
02
FE
F8
FE
FC
07
18
09
F7
F7
1F
F3
25
1E
18
10
ED
F9
17
0B
EE
09
E2
DF
0E
18
FF
F5
F7
EB
F4
EA
F5
F5
02
DD
00
00
F7
F9
F5
FE
21
0A
02
F4
EB
09
25
E6
33
2A
F9
F2
EC
F5
FF
0F
FA
06
EE
07
FD
FA
04
09
0C
FF
00
F6
05
00
13
00
EB
F8
01
F3
11
00
0A
E6
F4
F9
F9
FB
1C
EF
00
F4
F9
0D
03
FA
0A
F5
18
FE
1A
FC
06
01
17
03
F4
14
F5
FD
01
10
F8
E0
02
2E
0F
FA
07
F8
07
F4
07
02
04
F7
02
01
EE
13
0D
0F
FA
EC
1C
1B
E4
15
F9
07
F5
03
11
FA
F6
15
0A
1C
00
12
F7
00
0B
27
EE
FB
06
04
F1
F4
01
F8
1D
0D
0E
06
FE
FB
0F
F4
09
30
CF
EE
FA
06
FF
FD
03
05
FD
EF
17
15
03
FB
F1
1A
FB
18
E1
11
0B
07
0C
04
0C
F3
F4
F5
F1
ED
04
E7
FB
F4
E3
01
26
08
F8
30
04
EF
0F
02
F7
28
11
F2
EA
02
04
FA
F9
13
05
0A
FA
09
DD
1F
F4
01
FD
03
14
F1
00
06
01
06
07
E6
E3
06
14
FA
04
15
FB
00
F9
00
FA
22
FA
04
00
0E
F3
F3
14
01
0D
13
F7
1B
02
EC
05
08
13
E9
EB
EA
05
DD
05
11
FF
E5
F1
08
F0
16
00
1D
08
FC
0D
0A
23
29
0F
0B
0D
03
FC
14
02
16
0C
0E
02
02
01
07
F8
14
F5
15
F6
03
36
00
DA
01
20
01
EE
20
19
02
1E
D2
0D
00
EE
08
02
DB
F7
F2
EA
02
ED
00
04
EF
0A
0E
EE
F1
0A
FD
15
01
0D
FD
F8
12
D3
08
DE
F2
D2
E8
0E
0E
FE
19
16
17
12
F9
D0
06
00
F6
22
08
28
F9
EC
F4
FE
06
FE
F5
15
21
03
F7
F9
F1
E7
20
0B
E1
02
17
06
FC
1D
FC
F9
14
18
0D
FD
F1
F8
0A
E6
1F
0F
0D
03
01
E8
F4
1C
46
E5
00
17
FE
15
FD
F5
12
E9
F5
F9
FF
1A
F9
EF
0B
04
0D
D5
02
13
F6
FB
DF
EE
F1
14
FD
0B
F6
FF
01
21
F4
FA
F5
FF
26
F6
09
14
00
0C
0C
F1
EE
08
EB
F5
FA
EB
F6
07
0E
F4
FA
DD
FB
EF
00
DF
08
14
1C
EA
2A
F4
EF
05
EB
06
19
25
01
FB
F7
05
F6
1C
05
15
09
CB
EE
0E
10
11
EB
ED
02
F3
05
0A
20
04
01
F8
1A
FD
01
F2
F7
EE
01
FE
FA
F8
0C
11
F2
07
01
14
FC
EC
EB
EA
05
01
09
05
F0
E3
FE
F3
EF
0B
19
09
FA
12
13
0F
00
D6
FB
02
18
05
12
19
15
FD
E9
F1
F7
F1
0C
E8
1C
F6
0C
E4
0C
0F
07
13
ED
F7
15
FF
EF
1E
1A
1F
0A
0E
1F
10
19
E8
F7
10
16
F9
03
FA
F1
09
01
09
10
1A
11
FF
00
03
2C
09
33
08
13
FD
1E
0A
00
18
07
0B
01
EC
FC
05
0E
FE
F8
EC
FE
E7
FE
08
13
08
0A
0E
EE
03
1B
FD
F7
F5
0F
EE
17
07
FB
12
10
02
0F
10
DB
03
EC
11
19
0F
02
DB
13
1B
F0
16
E8
FC
FB
E9
16
FA
16
EE
FB
FB
12
FA
E8
F8
E3
F6
11
E9
01
08
20
FF
1C
23
0F
EF
EC
FD
ED
E7
0A
FD
EA
F3
13
F2
F5
E3
06
E9
09
EC
E5
FC
F3
10
0A
14
F7
12
04
E1
24
06
F2
03
E1
04
06
0F
48
17
FB
35
0B
FD
F9
06
F7
E5
F2
DC
05
05
F3
F4
05
0B
FA
FD
ED
1F
F7
0F
1F
E9
03
01
1D
0C
FB
FF
EC
F8
FA
FD
03
F8
1C
E6
E6
FA
ED
00
FE
04
08
F8
E3
F4
2E
10
04
E8
09
0C
09
0E
F3
09
E6
2D
FD
00
17
2D
02
0B
13
08
05
F5
0C
06
1D
FA
00
1D
12
04
F3
16
F3
14
0F
FC
0D
15
EB
0B
09
0A
03
FD
19
11
1C
EE
EB
17
FD
28
16
E0
C4
F8
D7
F6
FB
12
01
FC
ED
FC
0D
DA
06
00
FA
F2
FE
F4
16
18
04
03
F8
25
09
01
14
09
13
ED
E4
06
FF
FC
09
EE
F9
F2
0C
12
F7
27
21
15
19
10
FA
06
F4
EF
0D
FB
F7
F8
FE
11
07
0F
0A
03
00
F7
F7
12
F7
F8
0F
0B
F3
FB
02
FA
07
C6
0F
10
E2
09
0A
0B
EA
0B
E4
05
FD
05
FF
0B
0E
2C
27
08
FF
04
E3
ED
09
FA
FF
0E
05
19
01
F4
00
1B
E1
F7
0C
F8
FB
05
01
0C
F5
FE
E9
EE
F5
02
F6
F4
14
06
E9
FC
13
CB
0A
FF
07
16
E4
FC
10
04
FF
E9
EF
00
FD
FF
FC
FA
E4
02
12
FC
05
09
E9
F8
E5
FC
16
E4
00
22
EC
29
FE
D6
00
F7
FA
F7
E8
CE
F1
05
22
06
F7
07
EC
FB
E9
F2
17
EE
04
00
17
FE
E1
0F
11
F5
17
13
09
1A
1B
F2
0C
00
01
EF
09
2A
15
E7
FC
FD
F8
FE
0F
0C
04
0D
DB
E7
F6
DC
F1
06
00
0B
F2
E1
08
16
C5
DE
FB
14
12
F3
E5
E4
15
00
02
01
07
D4
04
0E
F5
0B
2E
0D
EB
F2
0E
2A
EE
21
01
10
0F
07
12
FE
0D
02
DF
FC
F9
00
FF
E2
0B
F8
0B
03
07
F7
DF
FA
FB
1D
1C
F5
04
1F
0F
02
01
02
F2
F4
FB
03
07
F2
04
0D
F0
07
18
F6
02
02
FD
1A
0F
04
1F
0E
E8
09
0A
1C
FD
08
FE
FA
07
DD
09
27
00
EC
02
EB
FF
FC
0B
09
F7
24
E1
F0
F0
0D
E7
0E
E8
2B
FD
09
13
FA
E6
F0
FB
11
01
F3
EA
F5
0F
F0
0F
F6
23
0C
13
1F
48
F5
08
04
F2
F8
FF
E2
EC
FB
27
07
11
F0
E9
F9
1A
02
F7
E8
07
18
F3
FD
07
05
11
2C
02
F0
F5
FC
00
FC
30
DC
1C
09
0C
FB
F6
F0
0A
16
0E
00
04
FC
E3
00
FA
F9
24
1C
09
13
0D
E6
02
08
FC
FC
0E
13
E2
1C
27
07
F5
13
FB
FC
E9
01
05
0C
01
0D
34
F4
12
0C
D3
01
EE
0C
FB
0D
EA
18
F3
08
1A
F4
F5
EA
FB
05
E8
05
FE
EC
00
11
18
FC
1D
10
27
06
F5
07
FC
0D
01
DA
10
13
F1
E1
FA
FE
17
EF
1D
19
E2
FF
F4
24
22
05
F6
20
09
D7
05
FC
15
0B
07
FE
E7
16
0C
DB
29
FE
CA
00
19
EF
03
F0
01
F3
21
06
F7
03
00
EF
08
FA
06
D8
04
05
21
02
FD
D9
06
E2
F7
ED
FB
EB
E3
F8
FE
2A
07
FC
01
09
F8
06
0E
F9
14
06
F3
F1
D8
D5
FE
05
07
FD
06
F0
F2
F6
F7
2D
02
FA
19
FA
08
FF
02
E5
DF
F6
0A
10
25
13
EE
07
05
ED
0F
F7
08
0A
0C
FE
F6
F3
10
F2
F3
D8
E8
FF
F3
FA
F0
15
10
FE
02
22
EC
05
19
01
ED
FC
FC
EB
F3
FF
01
D5
FC
07
FC
02
EF
F8
05
06
13
FC
14
00
FC
F8
FA
F4
F2
19
F2
DB
FB
0D
03
F3
23
F5
0A
EE
FD
FB
08
F0
F3
FD
05
08
2E
E1
39
17
1B
00
F4
DF
E1
0A
04
ED
FE
1F
03
02
0A
F0
F1
DD
2E
ED
19
E4
02
F5
EA
FB
E6
0B
1F
FD
E4
FF
F4
FE
16
03
08
10
EF
EE
19
23
F6
13
08
FE
F3
08
07
F6
0C
05
1B
09
CC
0F
E4
04
F6
0E
03
05
F0
E2
F1
20
0E
05
F8
F5
04
FE
01
F5
F5
EB
0A
05
02
F8
18
17
01
0A
27
E0
FB
0E
13
E2
0F
E4
FB
1E
FD
E4
EF
18
05
24
FE
F4
0C
FD
EB
FC
EE
1B
26
F0
0A
19
0C
E3
F9
E4
10
13
05
0C
F1
26
F3
D5
11
29
08
0D
FA
F2
16
04
F0
06
FB
FE
D3
F1
E2
F9
FC
1F
00
F8
D4
05
04
D1
11
05
0C
13
F5
13
09
F9
09
EF
0C
02
EE
00
FD
F8
09
F9
0D
17
F5
17
F8
F0
EF
19
30
EC
FD
FC
06
0C
F9
26
0A
F5
FE
F8
2D
E5
12
FA
F9
03
11
F6
E4
E6
0C
07
F8
EA
0D
03
00
BF
E6
EF
02
01
02
1F
F4
0B
EC
D7
FE
08
07
EB
E6
08
F9
F0
09
ED
07
1A
13
1C
0B
E9
15
10
E2
FE
07
12
02
E5
00
F8
E4
1D
0B
19
01
0C
F5
F3
15
13
02
07
F6
EF
00
1A
EF
FB
04
06
05
12
00
FB
F7
26
04
DF
02
1A
FB
01
FB
F6
1A
EA
1E
F9
FA
05
10
07
08
EA
01
00
F6
0F
19
0D
08
FE
29
0F
E9
16
D6
1B
F3
08
F8
FB
FD
1C
0E
E5
FC
0A
F1
0E
F7
18
F1
0C
07
00
1C
FD
0B
0E
FC
F9
10
1D
01
E6
F6
08
13
0A
F9
F6
F5
0F
05
1A
F3
F7
03
0F
DD
04
F2
0C
10
FF
25
0E
11
0C
04
08
EC
1B
F9
10
1F
05
04
03
EA
F7
1E
E3
10
20
26
05
03
1F
2F
0F
00
02
E3
F8
16
FF
06
FE
FE
EA
46
FD
E1
00
11
F7
06
FB
0E
F2
F7
17
E1
14
F9
03
02
EF
F8
05
E8
07
E5
DB
FA
D7
DF
F8
0F
09
0A
E8
04
0E
EA
FB
FD
E6
F3
01
0A
07
FF
F5
F9
FB
FC
18
EB
1B
F3
00
15
01
F7
F6
1D
FF
FF
E4
16
D7
F9
FB
01
16
F2
12
D9
FB
F5
0D
01
F2
F6
12
23
10
E2
01
33
EA
FA
DC
EE
13
F2
00
11
03
FF
01
F3
FF
01
05
FF
0C
F3
18
D8
FF
10
0D
E1
FF
16
11
05
1A
02
03
15
FF
07
F9
F7
04
E3
F2
04
07
03
EB
E6
0C
FF
ED
E5
07
12
04
04
09
1C
FD
07
00
0B
FE
08
FD
0C
02
F0
E9
F1
13
EE
FC
0C
F3
15
F9
E8
DD
F3
26
F9
06
F2
FE
E4
06
03
E5
F5
05
00
F5
FC
06
16
FD
0E
FC
14
E9
FA
04
FF
F9
09
F5
03
F3
15
FE
F9
07
1E
F2
10
04
FA
03
0E
0C
00
03
E5
F5
0A
E0
00
F3
FB
1F
FA
03
DE
E4
03
00
03
02
F1
07
1C
02
C8
ED
02
E8
00
EF
F4
18
0F
EB
0B
0A
04
EC
0D
0E
F1
0E
02
FC
F7
17
FE
13
FB
1C
0B
19
18
F5
F1
0D
E4
F4
ED
09
22
06
B0
05
F5
DF
DF
31
09
FA
0E
30
06
03
F4
03
10
17
1C
EC
ED
1B
E6
F2
E1
E3
0B
22
2E
F8
FD
09
F6
E5
EE
FD
EB
06
17
E4
D5
12
E4
03
0D
ED
07
19
F7
0A
F9
0C
12
FD
F7
14
F8
04
E9
11
FB
E9
25
FC
01
FB
FE
16
28
0E
FC
05
15
EE
1B
FB
FE
F0
1C
12
15
0E
F4
04
F7
FF
E8
EA
0D
FD
09
15
F9
E0
09
29
07
F1
12
E6
E0
16
0D
02
FE
17
06
F6
F6
EB
11
F3
2B
20
0E
0D
0C
00
F6
D5
E7
17
1A
06
08
F7
DA
F7
0F
0B
F4
F8
F9
C1
F0
17
F5
01
D5
E2
E1
F9
EF
38
E4
EF
38
1B
FD
EE
DD
EE
01
D9
F5
F6
08
09
F4
05
FD
E5
0F
E2
05
F5
09
EF
0B
1A
18
F8
2E
E9
00
F4
E7
16
0F
F0
E0
1C
E1
06
15
00
1C
E3
E2
FC
0B
EB
E4
00
FD
EC
EE
1B
FE
FF
EA
0E
F2
23
1D
05
F8
00
14
FF
1A
04
00
E3
FF
F4
FA
01
02
0F
E3
E3
20
F3
0F
31
F1
F9
DD
17
11
E6
15
13
16
10
12
1D
FF
22
0E
08
21
17
11
23
FD
05
29
FA
DA
E4
EB
11
07
EF
01
06
0F
09
FC
F3
0F
FE
E2
02
FE
FB
06
FC
01
0E
ED
FF
F6
0A
1C
13
02
0A
1B
12
F4
F2
00
06
01
13
0C
FA
FF
F5
22
0B
FD
F6
00
F7
FB
12
FC
FE
0B
FC
F5
FF
FE
FE
F7
04
03
1A
FE
1A
EC
1F
F1
02
22
EA
15
11
EC
00
E4
F0
FE
DE
FA
1F
F1
F7
16
0F
FE
07
D1
17
05
FE
F3
F8
D2
EC
0E
04
FE
12
EC
15
E8
07
D5
F7
FA
E6
F9
11
08
F3
05
FA
FB
0E
06
15
43
F3
FA
01
02
08
FF
F5
12
01
04
FE
FD
FD
08
E3
F1
FE
1E
FA
FC
07
02
FF
EA
24
1E
0F
40
3A
ED
16
08
07
FB
0A
02
22
F3
E3
FB
DE
F7
0B
0A
FB
FC
07
FF
12
18
0F
07
F7
19
0C
00
04
FB
0F
17
F9
FF
F5
0D
E5
08
02
03
06
03
27
F2
F3
06
E3
09
FD
20
FB
1F
08
EE
19
0B
F3
0A
EE
21
FE
F2
FB
12
18
FC
09
01
0B
16
E8
FD
01
0E
F7
00
0E
00
F9
0F
FA
1D
F1
0B
F2
1A
0D
28
F7
0A
EC
FA
F9
1D
D1
10
04
F4
F0
06
FC
DE
F2
0B
05
2F
F4
14
17
12
D9
0E
10
F2
EA
13
03
22
F5
19
EB
11
0B
1D
0D
F9
1D
FB
F6
F3
0A
EE
F7
00
07
01
4F
16
2B
DC
02
0A
0E
F8
FD
08
05
03
EF
26
1D
EC
21
01
03
1D
08
F5
07
E1
F7
26
16
0F
0F
01
06
25
F9
F9
FD
03
F3
16
1C
05
EB
FF
F4
1B
FA
11
18
F4
2C
0D
10
FF
21
EB
FA
02
00
F2
0A
0C
E7
F5
F4
0C
EC
0E
25
FB
0C
0F
0B
01
F4
FD
10
0F
09
0E
FC
13
FC
08
05
F1
EE
E5
09
F1
00
EE
FD
F9
1F
F5
02
01
0F
19
0E
E2
09
FA
1D
11
09
0A
09
03
FB
05
E7
F4
12
12
27
1F
10
0C
00
1A
17
FB
06
00
F8
0B
0C
02
07
1A
07
EF
04
03
E1
FE
18
0E
EA
F6
0D
18
05
10
F7
16
13
F7
13
12
F4
E0
1C
13
03
18
00
22
F4
F7
07
23
0B
0A
EC
19
07
08
FD
F4
0A
00
22
FE
FF
02
F5
F5
FB
15
E4
1A
0E
01
0E
04
FA
12
00
FE
EF
10
08
F2
22
03
F3
FC
15
03
ED
11
10
ED
F6
FA
12
0A
F5
15
06
3A
07
0E
E8
20
0C
1D
F9
ED
10
05
11
07
FE
09
F8
11
0B
ED
0B
04
15
F7
F1
0F
1E
F9
00
21
FB
F4
03
0C
03
FD
F7
1E
EA
F4
04
EF
CF
FA
08
02
14
11
01
07
FA
0B
03
1A
F8
07
EE
02
17
0D
ED
04
12
13
FE
02
12
F4
01
F5
02
0A
02
F4
EC
0D
00
10
F7
EB
08
F8
02
E5
FF
10
F1
0C
05
23
00
11
01
F9
DB
F7
E5
0B
14
08
0A
09
FC
1C
FC
06
F5
F1
FC
FA
03
E1
00
FD
0C
01
1B
05
F6
EF
07
E2
FA
F7
30
08
09
F9
04
10
E1
FC
E8
FC
02
EC
19
F3
03
11
F0
15
00
F8
05
F8
FF
04
09
00
FF
0A
F3
00
16
0D
00
0A
F7
04
FE
1A
D0
22
0E
F7
00
C1
24
0D
F7
FC
10
E5
FD
36
05
14
03
03
39
FE
F0
16
0A
02
F1
FE
03
DB
ED
11
E9
FD
04
F2
FF
F6
0D
EE
F4
08
10
F8
F3
12
2E
0D
DC
EC
E0
F3
01
05
10
0A
0B
F8
0C
0C
D6
E7
FF
0F
F8
DC
08
0E
27
E5
0F
0D
05
0C
DE
09
0C
0E
0F
0B
06
13
17
01
04
D8
06
FD
0A
14
02
F9
FC
11
F9
0E
04
E9
09
26
F9
EF
EF
0F
FA
26
00
28
14
EF
FC
FC
E5
0F
1B
02
FB
FF
FB
99
0D
E6
0A
06
EB
1F
F8
E9
FA
06
0A
09
04
09
FA
08
0E
F7
F4
2A
06
0B
0E
F8
E1
F9
11
E8
02
FE
F8
E3
0E
FF
EC
FE
0A
13
02
EE
03
F1
F2
ED
E4
F2
F2
0C
EA
12
0A
EB
F4
F3
E3
F1
E1
FE
FC
13
1E
11
F8
0C
F0
02
09
F7
10
FD
00
06
FF
FA
33
06
07
06
18
E7
15
D6
E5
04
E5
01
03
13
13
01
F4
08
12
29
09
06
11
FA
09
0F
FC
00
16
08
02
F3
00
EF
03
0A
16
FA
1D
E9
0D
F6
F6
D2
F8
0D
0D
17
FF
E5
24
E7
04
17
07
0A
0F
01
0E
01
08
ED
FF
1D
D4
0A
12
ED
04
04
F5
EA
E9
17
E5
FC
11
12
0D
07
21
E3
09
1D
D8
FD
12
FF
F0
0A
F7
E4
25
EC
F3
E9
F3
02
F6
E1
0B
F6
06
F0
F9
05
EE
FC
0B
13
F3
F3
0D
00
FF
F7
FE
0A
08
EA
01
16
EB
F5
17
F5
0A
2F
06
D6
F4
FD
04
05
05
03
E9
E9
01
FD
D1
03
12
1D
FB
24
19
11
03
19
0B
1F
F3
F1
F0
EB
F5
08
07
0A
0F
0D
DD
00
FB
F9
08
09
2A
20
E2
00
01
21
E9
D6
1B
0F
F3
ED
EB
FF
FE
11
0C
E6
16
21
14
EB
05
0B
E5
E3
ED
ED
1C
34
0A
FF
D4
1C
1D
0B
EF
EF
FE
E5
03
FC
EB
F2
01
F1
EA
EC
0C
14
06
16
03
FC
1D
FE
FE
1D
05
09
0C
C7
07
1E
0A
E9
04
1D
03
E4
F8
F3
FE
09
07
FC
04
00
D5
0D
EE
07
EC
EE
FC
FC
F5
10
D5
0C
FE
08
F3
00
FA
F6
F7
25
1C
EE
DB
11
13
0A
F6
E9
18
0D
0D
02
E3
E0
12
F9
EC
F1
FC
19
F4
10
15
09
0E
F6
DB
02
FE
16
F1
E6
FA
24
F5
E4
E3
F2
E6
DF
10
F8
0D
1B
FC
EA
E8
F7
FF
E2
FB
02
15
FB
DF
07
02
F9
EC
00
11
FC
F6
1B
05
EB
0A
0D
11
2B
EF
0A
EB
FF
0A
05
F2
1D
12
FE
01
FB
03
02
03
13
22
0D
04
EA
FE
1C
F3
15
05
EB
DF
05
1E
E5
0A
0F
F9
FB
14
EC
08
10
04
CF
DF
EC
E9
EA
0E
10
0E
FA
3E
F4
FB
03
19
07
0E
02
E3
0E
0E
ED
EF
21
FD
ED
06
E9
FE
E9
E3
FB
F0
01
06
E2
21
F7
05
02
1D
E8
02
14
03
16
0E
F2
F7
F5
04
E5
0A
1A
30
EF
03
FD
FF
04
01
1D
F4
F8
0A
FA
1F
12
00
E7
E5
08
0F
F4
1D
F0
0B
08
10
1A
FC
FA
CD
09
FF
FA
02
01
38
06
07
05
F7
E0
1F
15
E3
00
FB
0B
E4
06
03
08
02
10
0E
0E
17
F0
09
F2
F2
04
FE
FF
FA
F1
D3
1E
0B
0F
09
18
0F
FC
FC
04
E6
16
FE
F8
0A
F7
00
04
F5
F0
F3
FE
FA
F8
DF
04
F5
10
FC
0E
F2
F7
F0
0B
FF
F4
FE
0A
E4
17
0C
F4
0C
FD
04
F4
F1
01
0A
F6
DE
FF
EF
E9
CE
09
14
12
F8
11
11
0A
21
F7
FC
FA
05
FD
14
EB
F8
1A
F5
FE
00
18
E6
CB
EB
F2
E2
EF
F8
FF
1B
0D
16
F8
EA
FE
07
00
ED
D9
F8
1D
05
1E
16
F0
FB
02
E7
DD
F6
0B
03
03
EE
16
08
FA
15
10
1C
F9
11
08
14
EE
E9
FE
D8
F6
EB
1B
09
05
0F
0D
E0
17
FB
1C
EF
26
F9
F8
EC
F1
01
ED
FE
FF
FB
DB
0E
F7
1F
09
F7
FA
0A
FC
E7
FA
14
F9
01
13
07
03
1D
03
1F
0B
E0
E8
1E
FA
05
0A
FC
00
FB
07
0D
13
F8
13
03
1B
E2
10
13
E4
E8
DD
0B
05
02
0A
FB
F7
F8
11
E9
F4
FE
03
0A
FD
25
FE
0E
0B
08
1D
E8
0F
10
D8
03
F8
07
E4
F9
F5
F1
FA
F9
22
FA
1B
0D
ED
04
32
EE
E0
15
ED
F4
FF
D7
E4
05
11
0D
E8
15
0A
0E
EE
FE
F3
FA
D2
E4
FF
15
EB
05
E9
F8
09
1C
05
0D
19
07
1F
08
E2
F7
0E
E9
E8
1E
DF
01
F4
FE
F4
26
01
DA
15
F2
F9
E5
F2
FD
0E
DE
04
FC
E4
04
FB
17
D4
E8
0D
F3
F0
FA
1B
E8
23
FA
F0
FD
2F
03
FB
F2
16
F1
F6
F9
0A
0E
FA
22
F1
05
E8
F7
01
EA
11
F3
FD
0B
07
13
0E
F3
0E
FD
EE
F5
99
E6
0A
03
11
F4
05
01
0A
04
EF
FD
03
0B
00
14
E9
EF
EF
05
E7
E5
02
06
CD
E8
24
F2
E9
1C
00
10
F7
FD
C6
F5
18
02
1B
FC
1B
18
F5
F3
18
FD
FA
07
F5
2D
05
E5
2A
F3
20
EE
FF
14
EF
FB
09
FB
E8
FF
F2
03
08
0E
ED
04
F4
DD
E3
E0
FF
EC
01
DD
F1
E8
EB
F1
F4
F2
08
15
F3
01
08
0E
FA
0B
F4
EF
1E
F1
0B
21
FB
07
FC
07
ED
FC
EC
0C
E6
0B
EB
F2
E6
FF
00
02
12
D2
F3
1E
F1
0E
F9
F0
0D
E7
2B
EA
06
E9
BC
14
FB
F1
09
1C
00
F7
04
FF
06
10
FC
01
1C
07
FA
F8
01
00
FE
F9
22
26
F4
1C
18
E3
1E
E2
CD
E4
F8
F6
0A
FB
01
FD
0F
F2
12
D9
F8
16
09
F8
CB
1B
0B
F5
F9
17
F6
0B
F5
12
F2
05
FE
44
09
08
0B
08
E3
16
25
EF
16
FC
07
F4
04
FE
12
FD
04
0D
F2
10
07
01
EF
0D
FE
23
F1
06
FD
E2
FD
EE
15
E8
30
20
0F
ED
07
FF
18
FF
FD
20
F9
16
0D
13
FF
EA
F5
F8
03
0D
EC
FF
EB
05
F7
F3
F5
02
FD
ED
B8
1C
04
13
09
E3
EF
F5
EE
E2
FD
F0
12
FF
20
F8
E2
0D
08
07
E4
FF
F4
EA
10
E1
F4
01
15
EE
E9
0B
F1
0D
F1
FC
F8
22
0D
E6
F9
F8
E6
06
0E
05
05
02
00
04
0A
FA
02
13
06
E8
F4
FC
F1
FF
FC
EE
12
F3
F9
0D
0B
F4
25
FF
EC
F2
05
13
04
FD
08
08
04
17
E9
EF
F6
F9
F7
D7
EE
FB
FA
00
FF
F2
EE
1D
1E
0E
FE
EC
02
0C
0C
FD
DC
FA
E9
F9
FB
FE
F1
ED
EB
04
0D
04
EB
F5
F1
E1
04
02
13
20
E2
04
05
10
12
E7
1C
0A
FD
1F
24
EC
09
0E
E7
F8
12
F3
F1
DC
29
F5
03
04
03
06
F2
06
13
01
07
08
16
EF
E9
F7
0D
0A
FE
08
00
1C
0A
EB
02
05
FD
01
EA
F3
02
F6
F1
D5
F0
2B
1E
F8
F5
F2
08
12
FF
11
0E
0A
15
E2
12
FA
F7
03
0F
01
F3
07
FC
FA
22
06
29
EF
23
14
02
13
0D
0A
F4
F8
F5
FC
EC
01
0C
15
F2
FB
FD
FE
00
07
F8
1D
09
0F
11
0B
DE
04
FD
F7
06
14
00
10
EF
0D
F9
08
35
FD
0B
01
10
E7
05
F9
10
08
EE
FE
E9
16
15
F0
01
EA
00
0A
EA
FD
F5
06
F4
14
EC
FD
FD
19
FB
0A
08
F0
F0
EC
06
EF
06
03
FC
1D
F6
F4
02
FC
EC
09
0D
04
09
FE
FC
F8
07
17
EA
FB
05
EA
FE
F2
FD
FD
FA
10
F9
F4
F8
FC
14
11
FA
E8
07
F6
04
F6
22
DB
1C
1A
F3
FA
00
20
EC
07
0D
F9
10
F3
F6
0C
ED
EB
0A
E3
14
E2
E6
ED
F7
00
0F
EA
ED
14
E4
16
1C
15
0D
10
FF
0A
F9
EC
F7
0E
03
07
F7
0C
F9
F2
17
0D
02
0C
1D
14
E0
0C
FD
FF
F2
FF
07
E0
0A
03
9C
0A
0B
F3
18
0D
0D
0B
F2
E4
07
FC
22
FE
01
07
15
0F
06
F0
09
ED
17
15
18
F9
03
11
11
F1
FD
11
15
F2
07
ED
13
F9
14
EC
FF
F9
F0
E9
03
0F
F6
FD
F0
FE
01
0F
10
0D
FA
F4
03
FC
F6
0A
ED
EE
0B
F8
FD
07
01
FD
FC
FA
FF
16
E2
FC
0C
EB
06
ED
F5
0A
E2
F8
0A
04
F5
FC
F0
03
EF
01
FF
F6
01
0C
0F
E4
FE
F6
05
01
0B
13
F4
16
09
F4
2B
13
F7
21
0B
15
05
FE
FB
08
F9
F2
FF
F8
FA
10
E2
FD
07
F2
00
EF
02
F9
0B
E6
DB
FF
0C
CF
0C
09
0A
E7
F0
F9
05
18
DA
F9
0B
11
D8
E1
F9
0F
05
E6
F4
E9
EB
FE
F7
D0
F5
03
FF
FD
F1
07
0C
DB
EF
01
02
02
03
E8
FA
F1
F9
EB
F8
06
06
F8
13
13
FC
F5
0C
F0
FD
FD
F7
04
08
1A
FD
FB
09
F8
EB
EE
FB
F3
19
24
FC
E7
09
02
24
05
F4
1B
F2
FE
09
F6
05
FD
03
EA
F9
F8
18
F8
EA
EF
0E
04
1C
20
0D
11
0F
FB
06
F5
07
20
07
0D
23
08
F3
F2
13
E2
E1
EF
0E
F2
D8
EF
19
0D
EF
FA
E0
0D
15
0F
FD
FC
1B
FE
0E
F9
00
ED
E0
F8
15
0B
20
FB
F3
29
04
0F
FB
03
0C
E6
FB
14
07
1B
1F
EC
F3
FC
23
10
18
13
F6
2C
06
ED
18
09
F5
E9
04
22
F0
F9
F2
1A
F8
06
F7
02
E2
1A
0C
06
D7
FB
F1
11
06
15
13
F2
FA
E2
12
FE
FF
E9
0B
FF
15
FC
FC
E8
FB
12
11
F7
07
19
F9
0B
1F
CF
17
EF
F4
FA
03
F7
F6
FB
F3
03
0F
08
0D
DB
12
0B
2E
F5
ED
FD
03
05
19
F2
10
E8
F0
FA
1A
F4
06
1F
F8
15
0F
E7
F9
FF
FE
D5
02
FA
00
FC
0A
06
FE
05
0C
01
35
00
07
EE
01
01
0C
0F
00
0C
F7
03
F9
13
E3
00
FB
17
F6
EB
16
E8
F7
D8
F9
DB
14
08
FC
E8
F8
20
08
EC
01
00
E9
D7
FC
07
02
1D
C9
FB
FA
ED
02
03
08
03
1E
F6
F9
E9
03
F9
E5
09
F5
02
09
0B
10
0E
00
F9
DF
10
E6
F9
09
E3
03
2C
05
0A
E9
FB
03
04
ED
E2
EA
09
07
1A
2E
ED
F0
01
14
09
08
FF
0D
2D
E4
F9
FE
DF
00
1D
22
0E
04
EF
E7
FE
DF
F4
0D
FE
E1
17
FC
EB
F2
27
F9
2C
1C
FD
08
F3
04
04
E3
F7
01
FE
0C
F4
09
F1
EE
E4
F6
F6
0A
F6
E7
F4
FE
EB
DE
06
05
01
F6
2A
02
14
04
FB
F9
F6
1B
07
0F
FB
0C
F6
03
FC
FF
FA
F8
0A
E3
21
0B
FD
FE
ED
12
09
FB
FD
E4
E9
FC
29
F2
FE
1A
0B
FD
F6
FF
FB
FA
10
14
FE
06
0C
17
07
FE
F8
02
FB
0E
FF
06
11
F5
0B
34
F0
05
18
04
17
15
20
0B
F2
F3
15
FC
EF
14
F6
01
15
E9
09
DE
19
FA
FE
F9
EA
F0
13
07
1C
EC
1A
E8
EF
20
0C
05
F8
11
23
1B
07
F1
0D
0C
2A
0C
F5
1C
11
FC
03
E2
19
03
00
03
F2
EB
FF
31
FA
12
09
0C
19
1A
0E
00
E4
27
02
F8
F2
D2
16
FC
F8
0D
FA
F0
0C
09
F9
F7
1F
EB
1B
E4
F3
FA
F1
08
CE
0F
CC
10
10
00
FF
0A
F0
D2
18
0A
19
FC
FF
DE
1C
FE
26
01
FB
EF
EE
F9
1B
0E
17
F7
FB
F4
0D
15
F4
16
09
00
FC
04
05
1D
D3
08
0F
F9
00
16
00
17
FA
2A
04
FF
07
F1
19
FC
F5
07
12
FD
28
EF
09
03
F5
EA
21
F7
F6
E8
02
C0
16
10
FD
F3
06
FE
EC
0B
F1
14
06
08
FE
07
FB
0E
F2
25
FC
ED
D8
F3
F8
0E
FA
0C
54
F8
F1
07
F5
02
03
F2
0B
EC
FF
F0
02
DF
17
FB
0C
25
1C
FB
13
11
FA
12
F1
FB
F4
F1
ED
0D
FF
FD
0C
03
18
FF
D5
FB
29
E4
FE
F7
0C
E3
17
1E
17
0C
07
05
E6
EF
09
0E
F0
D9
FE
05
26
FE
13
24
05
00
F4
0A
DC
01
F8
E4
F2
F6
E3
08
2F
0A
E3
03
27
D6
10
13
EE
02
36
F7
1A
25
0B
EC
FA
02
FF
FF
01
16
FF
F7
D9
01
16
14
09
FD
08
E7
03
E0
17
06
F2
F2
10
EB
F1
01
F6
E3
02
05
02
0A
FD
FA
02
FD
27
FE
E1
08
EA
F9
11
16
03
00
D9
F9
10
0E
06
E8
06
0F
1A
F7
FB
DE
0E
F3
0C
FF
F7
FD
13
0A
CC
E7
00
FF
14
D5
E9
1C
0F
FD
00
00
FC
0D
08
FD
06
EA
FD
FB
ED
FE
F9
00
09
F1
F2
F9
0C
0A
0A
F5
FF
20
E7
08
04
F6
0B
F7
F1
0B
15
FA
FC
F0
FA
F8
12
14
FD
EE
05
09
17
02
F9
E5
01
02
16
04
FC
F4
15
F4
07
FF
1D
E4
0C
F1
07
03
FD
ED
11
E0
07
EF
EB
0A
0A
11
27
0B
F9
FE
F8
04
EE
F7
F9
EF
F1
07
02
FF
01
08
0D
07
08
FB
01
18
1A
07
F8
10
14
0A
2D
FE
FA
F1
05
04
F8
F1
FA
02
08
0D
16
FC
EA
FE
0D
0F
0E
FD
FF
D7
E9
0B
14
FB
FA
E5
11
36
08
E2
F9
F3
07
FE
1F
16
10
05
0A
04
00
FD
00
06
FA
08
12
11
ED
F6
EF
F8
13
DF
F8
EC
0E
FC
EF
C0
FC
F1
F9
ED
E6
F7
F7
11
F7
EF
1E
08
F9
06
00
FA
FE
E2
EB
E6
FF
F6
EE
EF
F0
EC
0A
7C
03
1A
F3
11
F7
02
00
D9
1A
0F
1B
08
FD
07
14
EA
F0
07
08
21
02
0E
FD
FE
F5
07
1A
E2
00
F5
0B
10
09
0C
04
19
F6
0C
FD
F7
18
F0
25
0A
16
18
11
DF
04
F3
1D
0C
0A
F6
0B
E1
02
FD
FF
E6
D9
03
04
F9
FD
E6
FF
DA
F8
EA
EB
07
0C
06
F3
E1
DD
0B
06
F6
F5
18
06
11
03
0B
02
F7
13
23
22
EA
07
EA
FE
E7
03
EF
F2
FE
04
11
11
07
F5
17
0C
F7
0C
F6
FE
F9
00
E7
E2
0F
D6
ED
EF
0D
FE
F7
EB
EC
FF
E3
F4
EC
04
FB
0C
F4
11
FD
FC
05
FE
05
EE
E8
00
0E
06
FB
F4
E9
FB
04
EF
DC
F5
06
03
E9
17
0E
03
D6
E4
E9
F6
01
F2
DC
3D
07
01
E5
FD
06
F6
F6
06
10
FC
10
06
EC
FF
EE
E5
FB
07
F8
E0
E4
10
E6
17
E7
04
0E
EC
FF
FB
0A
0E
F3
00
F9
DA
E8
F4
1B
00
08
08
10
E3
F8
E3
D6
22
F5
F9
D8
09
0B
ED
FA
F8
D5
E9
0C
08
EA
04
03
06
00
0C
EF
15
0C
0B
1B
E7
F0
F6
D8
01
CF
EF
EB
04
F7
EB
16
04
F2
07
0B
18
F7
08
FC
19
EB
F4
0A
EB
2C
FD
FA
CB
FC
E1
F6
08
1B
F3
10
07
EE
06
FC
F0
FB
E6
06
01
FD
FE
F9
12
1A
E8
F1
0D
F8
03
F2
DA
EA
12
F7
E7
FE
F3
FE
06
FE
1B
FA
EF
00
EB
D2
E9
F9
F0
E7
FC
F6
F5
19
0C
E0
1F
FE
F3
E0
FF
F2
F7
F7
E2
EC
0E
08
20
E3
F2
FF
E8
E8
E1
ED
FC
05
F3
22
15
F4
F7
EE
F3
E2
E2
0D
06
25
04
ED
10
E8
FB
F9
10
04
0D
12
11
0E
EF
EC
E4
04
1D
15
ED
F9
EC
F0
07
05
F1
2A
E0
1A
F4
DE
13
C8
00
07
1B
0B
0C
F7
03
10
14
04
1F
F7
03
F1
ED
11
E8
FA
E2
02
E2
1D
EF
04
FC
F9
0A
EE
04
FC
FE
E7
11
F1
08
0A
F1
FF
FF
FA
08
F4
12
FE
ED
02
05
F8
DA
07
FD
E4
F9
0B
01
08
0A
06
17
FA
05
08
F5
FF
14
F5
DF
EE
23
F1
12
11
1E
FD
21
0B
EE
FE
0B
0C
ED
05
FE
07
DE
11
0E
FA
EB
F5
0B
FE
ED
00
F0
20
FE
09
10
20
EA
F8
E1
FB
F4
E1
03
01
FE
15
FD
1F
F7
21
E6
F2
F1
09
F6
1E
E5
0F
08
04
12
DC
F6
0F
F6
FB
03
EE
FC
3B
01
16
FA
FC
D5
0C
03
F8
F3
D9
F1
10
FC
07
DF
FD
F4
FC
34
F4
08
F7
F4
15
E3
D8
0D
02
04
D9
01
05
F2
15
09
EB
F9
12
DD
E1
FF
FA
F9
08
FA
29
02
16
F1
09
EA
19
E5
11
F0
0B
DC
F0
EF
DD
FD
DE
F4
F7
13
F9
F3
20
FD
02
07
F0
FB
FD
0A
06
F8
E6
0C
F5
DE
17
F4
13
1F
02
01
FF
07
F7
20
F3
ED
EB
0A
18
F3
2A
09
04
0F
FA
1F
F6
10
02
07
12
FF
EE
F4
15
E1
06
0D
09
0E
13
F0
E2
08
0A
E4
EA
F7
CE
0F
06
18
D5
29
F5
DF
04
0E
1A
09
1C
FB
0B
0A
0D
19
FF
26
D8
EA
17
EF
FD
FC
0D
E0
2A
EF
00
08
17
0E
F7
02
EA
0B
15
1A
F8
F2
10
FD
09
FC
24
17
0A
FE
DF
FF
07
03
FF
FC
F3
17
E9
1A
14
11
FA
0F
E6
F8
F7
20
1B
DB
FF
05
0A
00
0B
EA
F5
F9
0F
E7
FE
DB
14
F6
25
DA
01
07
E7
0B
EC
D7
F0
0C
F0
05
E6
D5
DE
06
09
FF
01
E9
FE
DA
00
FC
05
00
15
EA
00
E2
E7
DC
21
06
F7
FB
F6
EB
09
E5
D3
F4
F5
0B
11
EF
07
FD
03
03
24
DD
0A
03
1B
EF
0A
FB
06
09
0C
11
DC
1A
F5
1E
ED
0A
F5
F3
07
01
0B
0B
F7
DD
05
26
FC
03
02
FA
F7
02
00
F6
F6
1A
F9
EB
FE
FC
03
11
F9
1A
19
2B
FA
DA
0B
01
09
08
00
23
04
D4
05
E5
05
E3
F0
FE
0C
FB
08
22
E8
FD
F2
09
02
F6
01
DC
03
10
08
01
F7
09
06
2B
FD
E0
E7
18
0C
01
EC
0F
E0
FF
0F
F2
0E
F2
05
FE
12
EC
F7
0E
FD
0F
0F
05
0A
11
1B
F3
EE
F6
F2
03
EE
FA
05
06
0D
08
19
14
EF
01
FD
2B
FD
15
F9
FA
06
00
06
E7
10
F7
0F
F2
0A
09
FE
E9
0C
F3
0B
00
05
08
09
04
01
01
FD
E9
18
05
1E
0E
EF
EA
F4
F8
FA
EF
13
F9
10
EB
F9
06
DF
EC
E3
05
0C
23
F1
03
14
0D
E6
03
F4
02
05
FA
0D
F4
FF
FF
FC
FB
F9
07
04
0F
DB
0D
13
14
0C
0B
E8
07
F7
1B
FF
F1
21
DC
0C
F3
09
10
F1
F8
E9
1D
0F
FC
21
10
EB
05
EE
E9
F6
02
E7
03
F8
F0
01
E3
14
0E
FB
1F
04
04
19
00
F6
FA
1D
03
0A
FF
10
12
FD
F6
EF
00
E3
0A
E3
08
19
DD
2C
0F
1A
F2
FD
FB
DC
FC
0D
FF
F2
17
FF
18
10
07
EF
1C
0E
0A
FE
1E
E4
00
EC
1A
FD
10
F8
19
EC
0F
07
ED
F6
FB
0A
14
0D
EB
09
E2
F4
FE
FA
F0
ED
09
04
05
2C
0C
EA
32
09
D8
18
12
07
F4
0D
FA
11
19
14
F1
F2
ED
ED
FE
F4
F9
F2
05
F8
D7
04
EF
23
F4
00
06
EF
F2
13
ED
13
FD
10
F9
21
29
04
EC
0F
2C
07
18
0E
0D
04
06
F4
13
08
D6
1F
14
F8
D9
FE
02
33
FE
06
F9
FC
F9
ED
C0
01
22
0E
11
E5
F8
F5
04
0F
03
EE
1A
F0
DB
00
08
05
CE
F8
14
F9
0A
1C
E7
E8
11
14
08
08
CB
F0
FA
FF
E0
05
E6
E2
FC
0B
DC
0D
22
03
ED
FD
E6
17
E9
13
E4
1D
FB
25
F2
DD
DF
00
00
15
E1
12
02
ED
00
18
F8
F1
0F
FC
0B
FD
E4
F9
19
F8
00
FF
2B
FE
F3
00
F7
F9
F1
12
E9
0B
13
F7
22
00
DD
03
F2
FF
1D
04
E5
1C
F3
F5
02
F2
23
F6
FF
FD
13
FE
07
F6
0A
F6
2A
0B
08
07
F3
EC
17
00
1A
04
0B
FB
F9
D8
07
08
06
E8
02
FA
05
09
00
F4
F2
EC
F8
00
05
06
14
1D
08
0C
13
F2
F2
14
FC
2A
06
FF
11
02
03
1B
1B
0D
02
03
E9
F2
F2
F7
07
0D
0D
FE
06
18
1A
21
02
1F
08
F0
06
F9
FF
08
19
EA
01
0E
F7
F3
F7
ED
EB
0B
F3
0C
DA
20
08
0E
08
16
0B
0E
F4
FB
0F
F3
04
FB
FF
F2
F5
09
E8
13
07
0A
EA
0F
F8
F6
07
FF
02
E2
EE
F2
07
F6
2D
00
FA
F0
EC
1B
05
07
12
EC
08
D2
FE
0B
F2
FD
0B
FF
0E
05
F9
FA
EB
0F
20
D4
DB
ED
F3
11
0C
F4
04
F1
07
1B
F4
E9
0D
E9
0E
07
E1
F8
03
E6
12
07
F9
EC
F3
1F
FF
EA
00
25
0A
11
13
F7
1B
0A
0C
1A
FE
F7
F5
C6
1B
27
FF
20
17
DD
F0
20
E3
E9
18
10
E8
F6
01
05
0D
DE
03
23
F6
05
04
01
15
F3
03
F3
FB
02
FA
0E
2F
F4
0D
07
17
06
05
0C
FE
00
0C
05
FB
0A
17
19
37
1E
00
C2
2D
F7
0F
11
DE
F2
FD
0B
F0
EF
FB
08
0A
08
03
06
0E
21
20
0A
01
E2
17
E5
01
F1
0C
09
0B
F1
D8
FE
F7
06
05
1F
01
E3
24
F6
04
FE
09
E4
F7
F7
02
09
1F
F5
FF
00
E6
0B
0F
05
F4
FA
1B
F5
23
EB
F5
0B
F8
04
13
FD
E4
1A
0E
F7
13
FB
DE
02
F2
07
FA
D5
11
F8
F7
F4
18
1A
FA
06
2A
1C
F8
23
ED
05
1B
22
E5
07
08
F6
0E
FD
F8
1A
0C
EB
FA
F6
12
E7
F7
0A
00
09
EE
DD
EA
03
F0
19
E2
F7
DA
0B
01
15
1F
EB
FB
09
1A
FD
F6
08
00
DB
F7
04
09
E2
FE
F1
1A
FA
06
08
FB
FB
0B
05
FD
F7
E6
17
FB
03
F8
FC
F3
F3
0B
FD
08
22
0C
09
0E
13
FE
07
FB
FF
03
19
DB
FA
F6
04
F5
1B
FD
0C
F8
06
05
11
1C
F3
0E
FE
03
22
17
FE
1E
10
07
F5
03
0D
1A
26
0F
0C
F8
08
01
02
F1
19
E6
E0
03
07
E8
F9
0A
0C
0B
F9
1B
E9
FC
D7
FD
24
F5
16
08
16
0B
00
0F
F9
06
E7
0C
FC
03
03
02
00
D7
24
08
06
03
FE
07
F7
02
E0
EE
0D
FC
EB
FD
05
F4
16
EB
E1
02
03
FB
12
F5
FB
02
F8
22
1C
EC
0D
EF
01
F8
E7
28
05
F5
0B
05
14
14
1A
0D
F3
E8
1E
FF
F5
F1
EE
07
1F
1B
02
08
F8
CE
12
0A
11
FD
0A
0F
F6
FD
EB
F5
00
19
FA
0F
E2
FA
18
E4
02
00
1A
ED
00
F7
04
0C
13
0E
06
F8
DF
0A
F0
13
11
F8
03
0A
F0
FA
E9
15
11
F4
06
0B
F0
14
0B
1A
E1
01
F0
03
13
F4
EC
FF
FF
06
16
15
05
1F
04
FF
11
1A
FD
0B
1A
E6
04
19
0B
FD
07
14
E7
E3
0C
E2
F7
10
F1
00
0A
08
02
13
D9
0C
F4
0C
08
02
E5
0B
CE
F9
F2
01
0C
21
EE
01
0D
11
EB
F6
E1
09
EB
E6
F8
0B
1A
FF
18
EF
10
EE
00
00
02
03
04
EF
07
F3
FA
02
0B
11
F7
04
F5
E7
F5
FB
14
EA
FA
C6
07
FD
15
F5
14
00
EE
F9
06
D6
D8
0A
02
DE
0F
04
08
FD
02
F7
F1
1C
14
1C
FA
04
09
EA
0B
14
0A
28
FB
01
37
DF
05
FA
F2
F0
F9
F9
F9
00
F3
16
13
0B
F9
FD
FF
1D
F4
E7
F9
10
EF
11
1F
DB
EF
05
EC
F2
17
13
F7
01
EC
FB
10
FC
DE
D6
F8
0E
F1
F5
EF
0C
12
F7
03
FC
1C
F6
0A
03
21
0D
04
FE
0B
23
FB
0C
01
0E
2C
04
F2
0B
03
07
F7
2D
FE
F1
0D
03
06
FD
19
05
DC
FA
1A
D6
E4
07
F9
02
0D
00
EB
0B
1D
FA
00
FF
07
FF
EE
FE
0A
07
FF
05
02
F8
02
FE
15
10
EF
0E
EF
0B
E8
04
F0
F4
1C
09
0C
03
1A
FF
E7
F1
03
08
E5
F3
04
F3
01
08
FC
02
E5
06
01
FC
10
FD
05
02
0F
01
28
FD
D7
10
04
FC
09
F8
15
FF
0B
FE
00
00
1C
F0
26
0D
0D
FD
06
FC
DC
FC
F5
2A
E4
08
EB
04
F4
06
FD
11
10
1D
FF
EF
06
E6
F5
03
15
12
F4
0E
1B
F7
08
DA
0B
12
E9
06
12
18
EB
03
E6
FB
21
F6
0E
1C
F2
0B
1C
FA
FF
0B
01
EE
33
F4
09
E5
FD
0F
13
10
F9
FB
01
19
F7
02
FF
ED
E6
DD
F2
11
10
F2
0C
F8
13
F3
13
F1
09
0C
10
05
1F
13
10
FC
E4
03
FC
06
06
1E
F7
FD
13
1F
20
09
EE
0E
07
FF
F0
2C
02
08
07
19
0F
15
F6
E8
15
EE
EE
01
01
0A
10
00
0A
00
F0
12
00
F3
0B
08
E4
E7
17
27
DE
F3
14
EC
07
10
FE
FE
F5
15
F4
1F
1F
F6
F5
2F
FE
0A
12
0E
0A
16
FA
1C
05
19
0E
0C
0F
03
24
15
F4
11
15
15
11
29
FA
14
19
0E
F4
0A
15
02
0B
08
FA
FB
F2
01
04
04
01
F0
01
FF
11
EF
0A
FC
E2
0D
02
0C
02
0D
DB
FA
F8
E5
F3
24
E0
13
D6
18
12
0B
F2
F2
F8
E8
18
0C
10
F7
F8
E1
FF
14
FD
FF
ED
E4
0A
F6
E9
ED
01
05
F6
FA
D6
0E
FC
00
F5
FA
02
02
1C
1C
EE
0A
05
06
E8
D8
F8
18
1E
0E
0C
F9
FC
F6
06
F3
19
07
0A
07
06
01
FF
E9
04
04
F4
F5
0C
08
FE
18
03
0B
E0
03
1F
09
11
03
0C
05
F6
0D
08
E6
FC
0B
25
19
1A
FA
07
01
03
0A
21
00
04
0E
1B
07
0E
04
01
0C
0F
00
15
E8
F6
08
0A
0D
1B
06
32
0E
FC
14
0B
03
1B
14
E8
F6
F9
23
F9
12
F8
FB
03
FF
F8
18
0B
01
E1
07
FA
EC
E6
FA
0E
F5
F8
11
0D
02
F6
FD
02
EC
FB
FF
07
3A
00
FC
08
17
03
19
FA
13
0C
0B
E9
F1
0B
DB
04
EC
EE
1B
FD
E7
00
19
04
0E
12
14
11
06
0B
04
11
1A
D7
22
11
E9
03
06
FD
EA
27
F4
FA
F9
ED
1F
FD
ED
11
11
1F
0B
E3
0F
18
15
19
00
FE
0A
1E
E4
FA
10
FB
E9
0A
04
0B
F0
06
02
E6
0E
10
FA
F1
EE
E0
E6
F8
07
FE
01
F5
00
01
0C
E0
2B
FE
09
26
FD
15
0C
22
02
E2
D9
02
04
01
05
07
0D
03
F5
FD
08
09
18
E3
F9
08
14
FD
FB
F2
00
14
13
EB
E8
EC
01
0F
FE
F8
D5
07
F3
03
00
FF
F8
1F
F6
20
05
12
F6
F6
FF
07
F8
FE
E9
FF
0B
F9
00
2E
0E
EF
FF
08
18
E3
FF
03
03
21
FA
EE
F3
00
EB
19
F6
F9
0C
F7
FB
0B
16
E9
11
F9
13
2C
01
F6
06
07
EC
23
E7
24
0B
EA
FE
FE
F6
EB
18
27
DA
19
1B
0B
EE
FF
F8
24
08
E8
EA
E6
0A
0D
EE
1C
07
03
F5
EE
EE
24
FE
00
F2
08
04
F7
23
03
FA
02
10
EB
FA
14
0E
21
12
20
27
FF
17
DE
FE
E5
F9
0F
EF
06
FD
0E
CF
0C
F6
0B
FF
F8
10
01
04
00
FB
07
07
FE
F6
F1
0D
02
14
01
D0
0B
EE
05
23
F6
10
F0
FD
18
DB
E6
0C
02
F1
04
2E
18
F8
F6
F7
04
18
02
0E
13
0F
11
0E
18
F7
ED
07
09
DF
FB
21
FE
1D
02
FA
00
1B
17
0B
34
F3
E1
10
26
01
05
F5
07
FF
E6
0D
FF
FA
F8
05
FF
05
24
18
0C
0B
2B
06
16
0D
E3
1A
0A
F7
F4
FD
FC
06
04
F1
03
F0
FE
30
F5
F2
F9
16
2C
25
07
03
11
05
F3
24
12
07
24
0E
16
0A
E7
E7
19
F4
D2
F8
F1
ED
14
FE
11
10
0E
E9
F5
24
10
10
F8
FB
02
F5
10
03
F2
EA
F7
F4
0D
E6
DB
FD
05
FE
22
25
09
0D
24
07
0A
01
0F
22
06
08
04
08
F5
F9
17
E7
06
05
FB
06
2D
E9
EE
EF
04
F6
08
16
EB
FB
E5
05
1D
E4
2F
E0
31
14
F0
F2
ED
17
EC
F1
03
EE
0C
19
FF
ED
18
DC
FB
E9
01
F7
15
07
01
0A
FB
19
EB
25
07
04
FC
05
13
16
FC
09
24
28
FF
02
26
ED
E9
E4
F9
CB
14
EF
FA
10
F7
FC
FF
F0
F7
0A
ED
19
FE
14
13
0B
FD
F6
10
CF
02
FD
F0
26
D6
25
11
FB
17
01
DE
0A
21
E8
0F
02
F8
EF
DF
0D
FE
02
EB
F7
FB
FF
02
FA
E8
02
ED
0E
EF
16
00
FA
0B
17
18
FD
18
F4
05
FF
04
F7
F4
1F
ED
FE
2C
E0
F3
04
FA
FD
E2
F4
0A
0E
F8
F3
FD
E9
05
F8
05
00
0C
01
FF
E1
E4
EE
03
F7
15
FA
FE
FC
F7
07
FF
0B
DE
F5
09
FF
20
EE
01
FF
08
D3
17
E5
1A
1E
04
FD
13
FE
0C
FA
DA
0D
F9
09
12
16
0B
0D
09
F2
F9
F8
F5
01
F8
0B
1A
20
02
FB
03
FB
F3
0A
17
DE
09
F5
FC
F6
03
E6
07
14
F7
05
02
15
F4
DD
F7
F8
FB
0D
F0
0B
F0
D0
FE
FD
DA
EA
08
00
05
00
01
29
F1
F9
0B
11
0C
F3
16
09
2A
12
F4
E6
04
FE
FA
E3
ED
05
D8
0E
F9
05
06
F7
ED
F5
FD
24
F9
1C
11
EA
D9
05
E7
06
1D
EF
00
EB
07
21
FB
01
08
FA
14
FE
F9
F5
07
FF
09
1D
F6
E3
FC
FF
04
02
E1
F5
F7
FC
19
07
EF
0A
0F
F6
F8
15
08
F4
0E
FE
D6
13
07
FA
1F
FD
22
F6
06
13
10
0A
0B
F7
FC
F4
0A
FC
F6
D7
0B
F4
F3
2E
06
12
E8
0A
09
FA
F9
11
02
FC
F1
FC
ED
09
EF
12
0F
D1
F9
12
1F
DE
F7
F2
07
F7
F5
06
C8
E7
F3
0A
EB
1A
09
FE
27
EA
E7
F6
EC
0A
F9
E6
FE
07
F2
21
F5
0D
EE
0A
04
FE
05
E1
E0
24
00
FE
EF
E9
01
0D
05
00
E3
0B
13
F3
02
F2
15
FC
19
0F
19
04
08
11
01
02
20
0B
06
E5
F7
FD
0A
F2
24
FF
E4
0D
FE
01
01
FC
17
F4
10
E7
F1
02
EF
F3
06
0C
EE
16
EB
26
FE
03
F4
16
17
F0
FD
00
00
0F
20
01
16
28
02
EF
F4
07
02
0C
03
1B
EE
0F
17
04
E9
E9
EB
03
26
F7
01
21
1E
F9
FD
0D
DC
12
07
06
DE
0B
18
FC
FB
FD
06
24
CD
F7
51
05
02
FE
0A
28
18
0B
05
1C
E0
E9
E3
02
F8
01
FA
16
EF
DD
F0
F8
EC
09
10
E6
00
02
E7
DD
0D
03
01
D9
FE
10
EE
EB
E9
0F
D8
ED
00
00
DF
04
0C
0F
1D
FB
28
F3
02
FF
10
10
FE
ED
02
20
DD
03
04
0A
15
14
DC
FB
11
F6
F8
EC
FB
1F
08
18
FE
15
FF
14
11
0A
07
F5
E5
04
0F
03
ED
0A
E4
FA
21
0E
20
F4
D5
E7
10
F2
05
12
13
0C
0B
02
0E
EB
02
DA
00
E4
E7
FF
E9
0C
E9
15
E6
0D
16
21
17
05
E7
0C
0A
F7
0D
11
08
09
0B
02
EE
34
F2
FD
FD
F5
15
0D
00
15
F9
04
03
26
E8
F8
FC
0A
1B
09
E4
0B
10
0B
FE
13
22
FC
02
02
00
F5
01
25
E9
03
02
0B
FF
F8
12
19
E6
FA
16
04
1C
06
FD
F9
08
EB
F4
11
00
06
E1
11
FF
F8
0B
00
13
02
E9
12
EC
01
FC
E5
10
FB
E7
01
FE
0E
06
11
EE
05
1C
E6
08
0E
0D
16
0F
F2
27
EC
0C
DB
1B
06
21
19
EB
1D
F8
0A
08
F9
FC
E0
0B
F9
0E
F8
F3
1A
16
13
E4
03
04
F0
07
10
0F
27
00
1F
F2
F9
0A
FC
02
06
FB
F2
05
F3
2B
1B
F1
08
EC
F4
06
FB
17
D6
E7
F4
20
11
1D
02
EA
FE
FF
00
29
04
0A
F1
00
0A
0C
D8
07
FE
EE
1A
F1
0B
F7
F7
F0
00
EA
1D
23
0C
E3
00
11
F9
EC
10
F6
F0
09
F9
08
F4
F2
13
EC
12
17
F7
F9
FE
EF
0D
E4
F2
19
01
F5
0D
09
1F
03
0E
11
2F
E4
03
1A
25
20
F0
0C
FC
07
17
19
F8
06
FC
00
16
0B
DA
03
FA
E4
2E
E7
F2
E3
2D
E3
05
FA
0D
0C
02
05
0A
F5
FE
DC
EB
10
16
21
0F
18
09
E1
D9
E9
12
03
19
EC
0B
08
05
2C
FB
FC
F5
EE
F0
F4
03
03
F2
03
E6
DE
22
EE
0B
E7
14
DF
1D
0F
F4
D7
F9
17
D8
01
26
17
03
28
18
06
FB
F1
09
EE
F8
F2
12
EA
FA
FC
F7
01
04
00
01
F7
22
0D
DF
18
1C
C5
FF
F8
14
FE
ED
E9
02
FD
DA
17
25
E1
FF
07
17
EC
19
0C
21
02
EA
E8
F9
34
1F
FC
DD
E9
13
1B
04
F6
F9
EC
F6
FD
01
07
1F
FE
FD
E7
FB
FD
02
1C
E9
26
F2
FD
F3
17
F4
F5
D9
E0
E2
1A
19
FD
FC
0B
0B
04
F8
0B
13
33
F5
D8
04
0D
F2
F9
26
00
ED
11
F4
0B
08
E2
05
E4
F1
FE
EC
1A
05
E9
13
F1
ED
D3
0A
02
0D
04
FB
F6
05
FB
FF
FA
0E
10
12
11
28
FE
E0
11
0A
03
E7
21
10
19
E8
13
E9
DF
06
12
F8
FF
08
FC
FE
22
F4
F6
FE
CC
FD
EB
0D
E2
07
E7
0F
F7
1D
02
10
E5
11
F3
FF
09
1B
26
1F
0C
12
E3
07
E2
18
FA
F4
17
06
FD
E3
2B
F6
0F
E4
E7
ED
EF
15
E3
1A
EB
18
FC
E9
FA
09
2E
FC
E8
EE
F7
EA
00
D4
08
08
1B
FB
19
FD
16
01
0B
38
08
F0
F5
FF
10
F0
EC
09
13
ED
17
EE
F0
18
FC
00
14
F1
0A
13
2A
F3
02
FE
0A
18
FA
0B
FF
03
02
F7
0E
02
F7
F5
E6
0E
FE
06
03
E6
03
17
04
FA
0E
F1
2A
23
DA
13
E3
00
D9
03
DD
E7
10
FD
07
0A
23
F0
09
24
F4
0C
03
FA
04
0F
12
FB
05
FC
04
FF
0A
FC
15
08
0D
FD
04
C4
F0
0D
E8
0F
E6
E6
0F
FC
18
0A
05
05
F0
DF
1A
FD
0E
F7
0F
EA
F2
05
37
F2
F2
02
2A
EC
05
F7
F7
F1
FB
E4
13
29
02
D5
F7
E2
F2
1A
F9
20
02
FE
FF
F0
FC
FD
12
E8
FE
11
06
02
04
FA
FE
13
00
F1
0E
FB
08
FA
0F
06
FF
01
F0
07
E1
F4
E0
F4
0D
04
05
FA
18
04
0E
00
0D
F9
F4
00
DF
08
FD
F2
EC
0B
F2
03
06
EC
C9
F1
09
F0
FC
EB
FC
E6
11
E7
1D
FA
F1
01
18
06
F8
FE
16
FC
1B
13
09
F0
FC
E7
FF
EC
FE
17
08
1E
13
FF
F7
1D
F5
03
20
04
0E
00
F3
F6
06
0D
EF
0C
FB
F5
11
01
F7
22
FE
08
F6
E7
E3
0F
1E
0F
0E
0E
15
FA
1D
0B
04
15
EC
19
EF
F6
ED
FB
07
05
10
0A
14
20
00
03
2B
EB
16
DE
16
FA
FF
1B
10
0D
F9
25
FF
F4
11
04
FA
04
2D
FE
E7
FF
05
02
0E
16
02
F9
FB
12
F9
0C
DF
1F
05
F5
02
0E
15
18
13
FC
0B
20
00
03
02
00
04
E5
C2
0E
FA
E6
09
09
F8
EA
02
01
FE
1F
0D
0C
01
0A
FC
08
F4
FA
03
1B
01
04
09
FF
EF
07
FB
F8
03
17
EE
E8
E8
FF
F2
1A
00
0F
FD
F0
FD
02
FF
11
D9
0B
F7
13
14
ED
0D
F5
11
EC
20
EE
0E
02
05
0A
FE
FD
00
16
D3
0A
F4
22
F5
FD
18
F2
EF
16
20
FD
F1
FB
36
F5
EC
EA
05
FA
EF
E7
F2
05
FC
F7
F2
08
21
EA
0C
F5
14
27
03
FB
04
05
11
FB
1D
F9
0B
19
0C
DA
0D
36
11
09
10
F5
07
EA
15
11
0B
DF
FB
F0
FA
0B
FD
03
08
03
09
F8
FA
FB
0B
EB
FD
11
0B
FE
09
07
08
EE
E4
0F
0C
1A
08
08
EB
FB
08
EF
03
F1
17
0B
F2
24
E1
09
E9
24
FD
DA
10
F6
F1
E2
FF
FC
09
F6
15
27
EF
2D
33
00
12
FB
26
F5
F0
F5
DC
FA
1B
EE
EC
FD
06
E5
EC
05
1E
2F
0E
EC
03
F6
02
0A
03
EF
29
13
17
05
14
19
F9
08
04
F6
F6
11
CB
1A
F8
EF
04
1E
04
1F
02
F8
F0
FE
05
FF
0B
07
02
FC
FD
03
01
2B
0B
E6
08
04
26
15
E9
07
12
ED
F4
1E
F9
0D
F0
02
0C
F5
15
04
FE
FB
DE
05
F9
DF
E2
FD
06
30
F0
12
F8
00
09
04
11
16
05
E7
EF
2A
FD
FB
D7
F0
05
FD
FA
0D
0A
F2
14
0E
19
FA
11
16
F6
00
05
08
F7
FD
FB
03
0C
0E
04
FD
DA
DC
16
19
FE
07
0A
02
1D
EF
0C
17
13
FF
1B
06
03
FC
FD
EF
0E
F1
1F
1A
09
DD
F1
FE
E1
F1
F1
0E
13
EE
FF
07
05
E9
00
E6
FE
07
04
0D
F0
E8
E1
00
FE
0B
05
DD
1D
FD
FC
F2
10
14
17
FF
E1
EB
F6
10
0D
09
EF
FC
07
1A
10
DC
07
F5
19
E1
1B
0A
00
FC
F1
F9
0D
F0
19
E5
FB
18
F7
EC
08
FE
02
0C
19
1A
05
EA
11
00
F1
23
1D
04
06
10
FA
FA
07
07
04
F1
17
03
EB
EC
18
E5
2B
E4
19
0E
DE
FC
0D
EB
17
05
EA
07
17
DE
C0
F6
FE
F6
14
FC
2E
0A
0B
F9
F3
F5
F3
00
0B
00
FD
FD
FE
1D
0A
07
12
F4
FE
32
E9
FC
F5
DA
E4
F3
06
08
FE
F2
F5
F4
05
FC
EA
09
DB
16
F9
04
15
1A
F7
E9
F2
04
0B
01
E7
05
02
0C
02
08
07
06
0A
14
0E
E4
F0
F8
0E
EA
F5
DE
08
1C
FE
06
0E
03
F6
F0
EC
F9
D3
00
0B
E5
0D
F8
02
F0
E5
1C
FF
FE
FE
0C
07
FE
10
F9
1D
F0
04
EB
08
EB
FE
09
E6
07
02
07
E8
FB
E8
00
0A
ED
E4
1D
09
F7
29
0E
FC
01
FD
F2
F2
FB
FF
FA
09
0C
FC
05
01
FC
22
0C
F9
FD
33
06
03
FD
FE
F5
25
F1
08
F9
26
1A
14
17
00
0F
11
F7
03
E5
F6
05
ED
07
F4
EF
02
FA
03
FE
FD
0B
F0
00
02
04
EE
F3
FD
E5
EA
21
F8
FC
F3
FA
EE
ED
E4
19
16
07
1A
07
DD
DB
F1
DC
0B
E2
04
0C
F0
FA
F1
D1
EA
2B
F9
F6
F3
FC
EF
D8
0A
07
FC
FA
E8
19
07
20
F4
FB
FA
FD
F5
17
30
0B
0F
08
03
F0
EB
20
F5
19
0D
07
F9
14
11
0F
DE
12
F4
0A
01
18
02
F3
08
F7
0A
FD
C6
0D
10
07
00
19
E5
FC
06
F4
D4
05
F1
F2
E0
07
02
14
12
E0
FC
D9
0D
13
0F
FA
18
E8
FF
07
06
FF
FC
EA
F5
07
0A
23
F1
1E
0D
EA
F3
0E
DF
F4
0E
00
3E
07
E9
11
F4
0C
07
F6
FF
00
26
24
0E
F3
EF
06
04
F8
EF
ED
F6
F7
F6
DC
06
FE
05
D2
FE
10
0D
03
EE
FF
F1
E6
E0
FA
0A
EB
F2
EC
FC
E7
ED
EF
EC
1D
F2
03
E3
0B
ED
E5
21
03
F7
04
EE
E5
EB
FB
F6
DD
F9
FD
03
01
F9
EC
EF
F8
02
00
E2
10
02
F6
E8
F9
FA
DD
1F
E8
29
14
07
DF
D9
F8
D9
F2
10
F5
E9
11
08
20
E3
EF
FA
FF
05
29
FC
25
FB
FC
D6
01
06
00
06
F2
12
FF
00
E8
FE
00
FE
DE
F1
F4
EA
1E
EA
FF
E8
E5
05
09
F7
09
16
04
0B
F9
E5
0D
EC
0A
05
FA
0B
E1
03
03
1A
27
ED
19
06
0F
06
14
E0
01
0A
0C
19
0B
FC
13
F7
F7
0C
EF
DC
03
EB
F5
20
F9
F3
27
0F
EE
D6
04
08
ED
E7
D8
EA
F2
08
09
EF
FA
16
1C
24
08
F9
30
FD
E1
10
16
EE
09
EC
1A
FF
F6
00
0E
0A
09
04
E3
F6
09
13
FF
FB
04
D6
1E
15
F4
FB
08
EF
FE
FB
0A
01
E3
FE
FE
EB
0A
FF
19
F3
F8
25
0E
18
F6
ED
16
F7
18
03
05
06
F1
F5
F7
00
08
F3
14
F4
02
0D
F0
06
13
19
08
10
05
0E
12
F1
F7
F8
15
00
2B
06
FB
F7
F2
F5
F2
DE
12
02
28
FC
00
0D
E0
0A
12
ED
F5
0F
FA
04
0D
EA
E8
1A
04
0E
F3
01
1B
0E
DF
07
0B
03
F3
0E
08
29
E4
19
1E
27
E0
E0
E5
01
F9
0E
FA
DF
F7
E4
0A
E2
02
00
00
F3
0D
F7
19
1A
1F
E7
12
FE
D2
02
F7
F1
26
00
FD
F4
F7
05
DA
EC
11
0B
FB
03
D4
04
0C
07
F0
CE
06
02
02
F3
15
05
0C
F6
F7
F2
FC
0C
05
07
0C
F4
FE
E9
ED
FD
F8
F2
0D
05
EB
23
F2
09
FA
F4
E7
0C
EE
F2
06
20
F4
E7
06
F1
FF
FD
E4
02
CF
F2
F1
09
F7
08
F4
E4
0B
F6
FB
03
C7
20
00
EA
06
F4
FE
FD
F4
05
F1
E3
01
0C
FE
0D
03
05
FC
11
DE
11
EB
0F
F6
FA
F9
03
09
E9
EF
22
EA
F8
0B
0F
18
00
08
F4
F5
0F
08
13
FA
09
23
FC
1F
1C
C4
FC
FC
E8
FA
21
17
FA
F6
0E
F7
FC
0C
08
1E
01
01
F1
F6
00
F7
19
14
00
0D
FA
FE
01
FF
EE
FE
F4
0A
F7
DA
F6
08
1B
00
FE
03
E3
01
15
0C
FF
D6
02
ED
F9
10
F6
22
0F
FB
FE
EF
02
F8
EF
00
04
14
F1
FB
05
15
01
E6
FE
DC
FD
EB
00
EF
09
1C
F6
13
10
FF
0C
11
12
E4
FB
FA
DE
F3
07
C7
FE
16
25
FB
0E
10
04
F9
FB
EC
FA
FC
0B
ED
EB
E9
1A
E9
09
E2
11
F9
FE
02
10
00
CF
E9
F3
0E
F2
DA
E0
08
04
FD
0F
03
E9
FA
1A
F4
16
E8
06
EE
F4
13
FD
07
ED
E5
09
02
F6
F4
19
18
EC
FC
EB
09
F5
09
0C
20
E3
FE
18
F7
15
04
20
FE
16
09
0B
F5
F5
EB
FC
10
0F
F2
13
FC
05
00
EE
F7
11
02
18
FF
1C
E1
DE
FD
F1
08
01
F0
E9
28
07
13
00
00
FD
DE
09
EE
09
FF
00
02
27
07
12
0B
DE
19
F2
19
E6
FF
FC
D0
F1
09
02
11
FC
F0
02
F9
01
14
01
FD
E4
F1
F3
FE
FB
05
F4
FF
19
05
F8
23
EB
0F
16
FA
FD
FC
DF
D6
06
12
20
14
FF
FC
08
C7
0B
F3
10
10
10
0A
F7
07
0E
ED
05
E6
0A
1B
FA
F1
ED
0D
18
EB
FF
0B
0F
17
1B
1E
F6
04
F8
07
EB
14
F3
22
11
24
FF
01
DF
DD
FF
E6
11
02
14
F0
DC
1D
16
F6
0A
23
F7
0A
F8
1B
0D
E8
02
1D
D0
0D
17
EE
08
0C
E1
F3
DE
F6
15
0C
16
0B
19
06
05
05
08
EF
E1
17
16
F1
F5
FF
F5
10
FC
02
F7
EF
EB
08
EA
01
F2
E4
18
DF
04
1E
20
D4
12
07
0B
07
02
2F
05
0C
01
0B
15
14
1F
FE
03
D8
00
11
0A
F1
EC
2E
0E
05
00
ED
35
FB
00
01
07
0C
EB
EE
F1
0E
FA
09
08
FB
F7
07
E0
DB
EC
EB
E2
0F
0E
00
0D
FD
0E
01
F4
EE
FD
F1
07
00
FD
DD
14
FB
0A
F3
07
02
FB
F5
07
00
01
0F
20
0B
0E
01
07
03
0E
04
F9
08
01
0D
F2
FC
11
04
FB
13
06
08
FE
E7
00
1B
E5
E5
FD
F7
05
1F
FE
0C
F3
14
11
EF
19
F8
04
15
09
0F
0C
06
FF
06
F7
E0
FD
0B
EC
FA
F5
25
EC
FB
05
0B
0F
0C
1C
FB
0A
F3
15
F6
1D
12
FD
F0
00
02
F6
05
04
00
E9
02
0E
FB
00
20
0D
2B
05
10
04
24
FA
03
F8
F3
0C
19
FB
0C
EB
ED
26
F7
0E
EA
F2
EF
0B
F5
0E
18
01
06
05
14
18
00
0A
FF
0A
01
F1
E9
1F
F1
12
E2
0E
F2
ED
F5
F4
17
26
12
0E
F4
E7
FF
DC
12
FF
F4
03
E5
F6
F2
EB
CC
16
FA
0D
0A
FD
1D
D5
F8
FB
EB
03
E6
13
F0
E9
F0
F6
FD
10
ED
F8
14
EF
F4
F3
EF
FD
00
10
0D
F0
F0
11
1B
F6
F9
F0
15
0D
11
0B
0C
01
00
1A
0A
24
07
F9
20
39
1A
D6
15
E3
D3
00
25
E3
13
37
F8
1E
00
F2
F4
FB
07
06
EE
24
08
25
F7
2F
E3
F5
12
19
15
FF
18
F0
05
FA
F4
09
07
F7
FB
EC
15
05
05
07
04
F0
12
FB
11
FC
11
F2
FC
F2
34
FD
12
E5
05
F0
12
19
FD
F7
06
F0
F4
16
1D
FD
E5
04
FB
F2
EB
25
F6
EF
FB
10
F1
25
00
EB
1C
EE
1D
ED
07
0F
D1
01
FE
02
1F
D0
FB
FD
25
D2
0B
18
00
0F
14
10
01
D7
FD
F7
1C
FE
26
F5
17
09
08
00
05
F8
FA
F4
10
18
07
FC
EC
EC
16
D6
F5
14
02
F2
05
EA
FF
E9
00
FD
15
1A
17
E6
02
15
11
FA
0E
FD
0C
01
1D
D0
09
12
07
FD
08
F6
E7
E6
07
03
09
FA
1F
17
F7
F7
12
F5
02
EE
0F
07
D3
07
00
EC
19
E5
0B
1F
02
11
DE
11
EA
D4
04
F4
F6
02
F8
07
18
F0
03
F0
0C
ED
00
FB
1E
05
02
05
F9
E4
02
F7
DD
13
FF
F6
FA
FB
10
0B
E9
FA
F7
09
08
FE
07
FC
EA
02
08
F3
FD
11
EF
1E
F9
E9
19
1A
F1
F3
22
02
12
E6
F1
E2
F0
F4
E8
19
1D
01
F7
EE
3C
1D
EC
31
F9
ED
10
F1
03
1A
04
F6
F3
DA
F0
0D
23
11
FC
0A
04
F9
F4
F7
FE
F3
FE
01
F1
F5
19
0B
01
EF
10
10
00
1F
01
05
20
06
17
0E
FD
05
DB
07
E4
F8
1A
17
F1
0A
05
EB
FA
F0
F7
13
02
FB
25
0F
F4
0A
04
FF
0A
1F
FD
F5
E6
E5
FB
00
15
F8
E9
00
0D
FD
05
14
08
FE
FC
1F
04
FF
E1
FA
09
09
0F
C8
01
00
14
13
06
F8
12
FB
02
11
16
00
F6
F6
1B
03
11
11
13
F7
10
01
EE
F4
0A
24
F8
01
01
F5
FF
00
0E
17
E5
FB
01
08
1D
11
ED
FC
0B
18
F6
0C
26
F0
FD
0B
07
0B
F1
06
06
F5
E7
F6
F2
F2
FA
01
08
13
F1
F8
02
10
0A
02
0C
16
1A
05
03
10
0A
F7
FD
F0
14
04
EC
17
F9
2B
0F
EF
13
0A
FF
FA
09
0D
05
06
12
20
F8
14
15
E4
EC
F2
22
F6
FD
05
E5
EA
EB
F8
02
05
29
05
FF
F4
E6
F4
F1
04
15
EA
0E
F2
F7
0B
FD
0B
F6
03
F6
1D
E3
EA
1D
07
04
0D
F3
00
FE
ED
06
0E
F2
16
28
18
1F
E4
03
22
20
0C
23
F2
F6
02
FF
09
E1
FF
F6
FB
F5
FB
1C
12
F6
0F
0E
09
21
00
14
F6
03
41
FC
10
0B
02
00
F3
02
E1
E9
D9
EE
E7
F9
F5
03
02
09
16
12
FE
F6
FE
FD
F8
00
EE
F8
F0
DB
F7
15
12
03
E0
DE
07
F1
01
FD
1F
1E
17
0D
09
1E
DD
11
F5
F8
D9
12
20
F9
F8
13
13
0F
F3
17
00
F6
03
14
13
D7
12
F6
13
D8
08
10
04
FA
F3
0E
07
1F
ED
07
14
1C
EE
01
F2
08
F4
05
0C
04
01
23
FC
E2
07
0E
13
1C
F2
14
14
E7
22
F8
95
0C
0F
F2
F9
EE
FE
FE
FC
F3
1D
0D
FE
FE
13
EA
F8
F5
01
ED
18
1A
1E
04
0E
00
06
F3
DF
E6
F6
06
12
05
DA
E7
07
F1
1E
0F
F4
F8
00
FE
00
03
F1
06
EC
0E
04
0C
E2
1A
FE
EE
20
21
06
EB
1E
E9
01
E4
FC
EC
10
FA
16
15
12
06
0B
08
2B
29
FD
1B
F6
0D
0B
FE
07
20
F5
12
16
09
F6
12
FD
08
FE
00
FF
1E
18
CE
E5
04
E3
0C
EF
F0
1C
F8
D5
07
E4
F2
03
E5
11
F6
24
23
01
F4
15
EC
10
EF
F2
F6
05
2C
17
EA
08
03
F5
F5
FD
EE
17
EF
F8
1B
23
F6
04
02
01
06
F0
13
06
0A
09
0D
12
02
1B
0C
F8
04
FE
08
12
F3
FA
13
02
04
17
F5
06
F6
13
FD
F4
04
FF
0C
FF
07
EE
03
02
FC
20
E8
12
1A
1F
E3
09
08
F6
08
F8
F0
F6
E2
EF
01
FA
0C
24
13
F1
FA
14
19
FF
EE
DE
0B
EE
1A
F9
1A
0E
12
F9
FA
04
08
0E
06
12
FE
F0
0A
F7
FF
F1
DA
05
E6
FB
E5
27
18
0A
FE
09
11
09
F7
26
0C
1E
13
FC
FF
FD
F2
00
00
14
FF
0B
EF
EF
05
07
0C
04
EC
1C
1E
08
1B
0A
11
1C
F7
3B
03
04
F6
DE
FC
F6
FD
F5
FA
E1
15
36
EF
1A
D2
01
DF
E8
F6
F7
FE
F9
FF
FD
06
FC
FD
0F
F5
F0
D8
F4
0C
F3
F8
DF
0D
18
10
FC
11
01
10
F9
F5
FB
F5
F5
13
E3
1F
FD
07
DF
FF
27
1D
1E
F5
19
FF
06
10
15
28
07
11
F0
ED
04
EB
07
1D
F5
07
18
DC
12
F7
FC
0B
FF
FB
04
E9
DE
F0
DE
0B
E4
0E
EE
32
29
FF
10
00
12
12
0D
1C
19
F9
0B
0B
E5
F3
01
F1
F1
24
01
FC
01
FD
1E
FB
F4
01
0E
DF
14
05
01
13
07
03
0D
FB
E1
08
F8
14
F2
FD
28
05
F8
0C
E6
2C
FB
00
26
03
17
11
DD
F8
E8
08
12
FD
0C
0E
1F
1C
0B
FB
EA
08
ED
01
0E
F8
07
FA
E1
F8
29
01
0E
0F
F3
22
FE
1D
13
07
E0
F3
3D
0B
17
FA
14
FD
F8
F9
00
06
F2
0B
FD
F3
08
E5
02
FF
D4
31
11
EF
05
0F
19
24
0B
EC
F1
FA
E7
F2
F4
F7
E5
FA
09
E4
19
08
05
ED
03
EF
07
00
12
EE
F6
06
0C
10
18
E8
F8
D9
E3
09
05
18
ED
FD
EF
F8
FB
27
F7
02
F1
FB
FF
06
DE
11
08
DC
F4
1C
0B
03
00
F8
FA
03
1C
FA
FD
0C
F2
FF
F5
DF
DA
11
01
E3
FE
0C
17
F3
FD
CE
38
03
01
F9
ED
19
F7
FF
FE
F3
12
EC
EF
FA
01
10
EF
2E
03
FE
E9
FE
FB
11
11
FC
F0
01
27
E8
2C
FE
2D
FD
EF
F6
E7
0E
12
FB
F9
FC
18
DE
1A
05
05
22
16
02
1F
09
FF
07
E2
00
E6
E6
19
1B
01
F7
0E
EF
02
F6
DD
F8
F3
05
09
18
09
F6
02
F5
0C
1E
11
10
04
26
F6
0A
0A
E6
1F
E5
FA
06
0F
14
D9
FB
E3
F5
02
F1
11
15
F4
F6
13
EC
FE
F7
29
0D
1C
1B
19
02
29
03
13
EC
0D
F3
13
08
04
ED
01
ED
00
FF
FB
F0
17
08
11
FD
E1
FA
FE
07
12
FF
FE
D3
04
09
FA
09
FC
0A
04
FD
03
FE
16
E8
20
DC
F2
F6
0A
FB
16
0D
05
FA
11
28
EE
03
FC
1E
04
05
0B
17
FF
E2
08
FC
F6
01
0B
02
10
F9
1B
E3
13
F8
38
0A
E9
F0
F1
05
26
1E
FD
01
24
13
E8
FC
F6
15
F1
F7
F6
F5
1E
23
F0
E9
1B
17
14
05
09
04
14
00
33
11
0E
0D
02
00
DD
EB
1B
32
18
FB
15
18
F7
18
02
E9
10
11
F9
07
27
02
F6
E7
11
EA
F7
F5
01
E1
EF
00
F0
0A
F0
FE
FC
0A
FA
E3
0E
0C
0B
2B
12
F1
16
D1
F9
E9
16
EA
10
F2
15
EB
00
1E
FC
17
02
08
EE
14
17
EB
00
0D
F5
E7
FE
ED
FA
12
06
FA
1A
0F
00
05
F3
F7
05
14
E9
EA
07
0F
18
01
F2
FA
10
FE
FF
0B
0A
1E
06
EB
FE
01
DE
10
06
F6
F4
09
E6
DF
F4
00
F1
02
F9
1A
07
FF
10
FC
10
FA
35
03
FA
1A
2A
EB
20
F8
FA
FD
12
1B
F9
1B
E1
E9
16
F7
F7
05
0F
03
0E
F3
F5
09
EF
07
F9
FE
F5
F8
0B
17
12
F9
01
EB
07
0F
12
EF
08
06
1C
06
F4
E5
EC
F6
03
04
08
EE
1C
02
00
F7
08
37
15
0C
FB
F9
11
0B
13
0D
F0
FE
EF
09
19
1C
03
11
08
F7
1B
EF
0B
0B
D0
EE
DE
F1
03
EA
10
11
20
F7
02
24
02
FB
00
00
1B
EF
0E
DD
F2
EC
FF
EE
E8
E5
DC
FA
0D
16
0D
34
D4
EE
0C
FD
0B
01
0D
F7
DB
11
F2
40
EF
EA
FA
EB
EE
FC
F7
EB
07
11
FB
F7
0A
11
1A
11
0B
FE
F8
02
22
DC
F8
19
18
E1
25
F5
20
F3
DE
02
FF
F8
FF
14
F6
E3
D4
E5
0B
05
07
F5
06
F5
F1
1E
DE
16
FA
01
0C
F7
03
0F
08
0C
EF
EB
15
F1
E8
12
2D
CF
18
FD
F5
01
03
00
05
1B
01
14
F4
F4
0A
F5
01
0D
1D
16
13
0E
05
F9
F0
09
F9
18
12
EC
D4
05
0E
FE
10
14
E9
10
03
DB
1B
15
02
F2
F0
23
FA
F5
FD
ED
0A
0B
0B
00
E4
0C
E3
F7
16
F1
D8
F0
0A
EF
14
E7
19
00
9F
21
08
FE
D6
00
14
F6
F5
E3
E4
11
FB
04
0C
06
F9
05
FE
19
0B
08
0F
F5
00
2D
F3
09
0F
0B
2E
FC
05
E8
FE
15
FC
02
F7
15
FA
00
F8
F6
03
0A
E5
1B
E1
17
10
0C
12
F9
1F
17
EE
E5
17
D9
FE
10
F8
15
06
01
F8
04
04
11
17
1A
06
F0
08
F9
DE
16
01
F8
1A
23
FE
F4
FF
0C
15
14
F8
0C
02
05
28
08
06
12
E6
0B
F9
F9
F9
0E
06
E7
EA
06
FC
E1
03
E9
0F
F6
F3
F8
04
06
E5
09
02
EB
14
05
00
08
F7
04
08
1D
F9
0B
10
06
50
F8
E4
2A
0A
01
F7
18
01
19
17
07
01
21
01
DD
FD
0D
03
02
FA
0D
03
FE
EA
FD
EB
DC
19
FA
00
16
0E
FB
0A
03
F8
03
1B
02
03
10
10
06
02
0B
E7
E9
FD
0D
FE
03
F9
05
0B
F9
03
F3
F8
25
15
00
15
FF
00
05
E4
09
08
F5
FE
F1
E9
F9
15
FD
3D
E4
08
01
03
00
01
08
EA
EB
22
05
E9
02
10
0E
F2
0C
02
FA
F4
FD
22
05
07
FB
2F
E9
FE
E7
1A
03
F6
EE
0A
FC
23
11
28
08
EA
0A
E8
FF
F2
F1
1E
ED
FB
FE
14
FE
06
00
FC
0E
0C
F9
07
15
FE
13
17
E9
EE
0F
07
F0
10
09
FB
00
0A
05
30
FF
00
07
F6
14
00
EC
DE
10
06
18
2B
0D
0A
0E
F9
04
FF
07
F4
F7
0F
F1
FE
F8
FD
FA
05
24
09
09
07
30
10
0A
0B
E2
0D
1B
06
F5
FD
27
F7
56
0D
EB
EA
26
2A
04
F6
FF
F1
00
E5
07
F0
11
12
0D
0C
FA
23
19
0E
01
E2
FD
0D
00
00
23
12
05
F7
FE
0B
09
EE
17
F9
0A
00
2B
06
FD
FB
0A
20
14
20
0A
03
1A
14
09
07
FC
F9
FA
2C
12
09
F4
F7
F2
10
EE
FD
0A
03
11
DF
02
EA
04
02
F8
20
FA
22
0E
04
13
0A
ED
E0
02
F1
FD
ED
37
FB
08
09
0A
18
10
12
0C
E9
22
37
14
02
FE
03
00
F8
EC
E1
F8
11
04
F4
E9
DF
03
EA
FE
F1
F3
15
02
E5
F6
ED
05
FA
F4
F7
E5
15
FE
EF
10
0D
FE
EE
07
FA
FF
12
1A
F3
E4
18
05
02
F4
0B
04
FA
19
16
15
15
F4
E3
EB
F2
EE
0E
F7
F1
22
00
0B
20
FB
06
0D
0C
1B
D6
21
F2
F2
F4
FF
0F
F5
0B
05
FF
00
00
E7
E1
E1
04
0C
19
E6
F8
16
0C
0F
09
FB
FE
06
F9
F7
05
D6
F2
FB
15
09
FE
15
27
25
1B
05
0A
EF
02
E0
DF
E2
00
14
F5
0C
DE
03
07
08
E0
2B
09
11
FD
14
DE
F1
11
07
13
FD
0E
0A
1D
FF
F2
0A
FA
F1
14
01
0B
F0
F5
FC
01
E8
FA
10
FC
F5
E5
1C
F1
F8
F0
FF
0B
08
08
F0
F8
E7
EB
1F
07
EC
07
F6
1C
08
0A
07
DF
07
EF
02
FD
F5
E9
F4
04
EB
F8
EC
00
F7
01
D6
FF
0D
FB
17
F0
17
08
FB
E3
00
0A
03
0F
0E
14
FD
FE
F8
EB
25
E5
DC
FF
F0
1E
F0
11
F9
01
F7
12
D7
FE
E7
08
F1
FE
18
00
E6
F9
2D
0E
EA
00
07
0C
00
F2
09
05
03
D6
0B
FF
0C
14
0C
12
06
F4
FB
F0
0C
FB
11
F0
06
0F
0A
F7
FE
02
0D
F8
04
EC
FE
FC
15
03
18
F9
FE
19
ED
F9
05
0A
0D
12
FC
FC
F2
F5
01
F6
14
0D
E4
04
0B
E9
10
D7
0F
F6
F4
19
0A
06
0B
05
09
F3
07
F8
F1
F6
DD
FF
F9
24
08
F8
F5
F3
05
14
EC
FD
ED
F1
0B
F2
E7
F3
E0
0E
FA
DF
0E
30
EA
2A
07
EC
11
04
EA
F8
0D
F2
0C
05
05
09
FC
10
16
E6
FD
EC
E1
F2
F6
06
00
14
DB
F7
FE
E7
EB
FE
02
13
0A
F5
F3
1B
D7
10
DF
02
11
1A
13
0C
F1
21
12
F1
F0
0D
0D
0B
F5
21
E8
08
D9
F8
E9
14
FC
06
05
F3
EE
D9
03
02
13
E1
F2
18
00
F3
E2
1A
09
1F
14
FE
0D
F4
F3
E4
21
05
17
FD
03
FA
09
09
F6
F6
05
E5
0D
FF
DF
0E
FD
EC
F4
05
F2
14
06
EC
12
0D
F1
FB
F8
F3
D7
F4
FF
F1
EE
09
14
22
FC
1C
F9
ED
0E
F0
F0
33
0B
F2
09
E9
F7
12
E8
EB
F6
05
FE
04
28
F6
FC
EC
E9
0A
00
F1
1D
14
DE
01
FF
24
FB
06
0C
FA
01
01
03
E1
02
F0
F1
FF
F8
FB
0A
02
10
0C
F0
F1
04
07
E6
F3
FE
03
06
02
F3
1A
1A
2B
E1
FE
E5
15
15
07
03
03
0F
EC
EA
E7
D5
05
01
F9
16
06
01
13
0D
0A
FC
FB
EF
27
0C
FA
0D
0D
F1
05
07
DF
23
12
0C
00
EB
08
0C
FF
0F
F2
00
F9
F7
05
11
E1
F4
2A
FC
D8
E1
14
0C
FE
F4
0C
F9
0E
FE
1D
30
FF
0E
FE
DA
21
10
F2
EB
EA
17
12
E6
0D
11
1C
12
F5
04
10
F6
F3
0F
F6
E6
01
1C
0E
17
F9
EE
00
0E
F9
12
1A
DF
01
F7
0D
07
13
FD
05
0C
F8
E8
F4
F1
0B
DC
FE
27
0C
F1
EF
13
FB
09
12
DA
FF
FB
FE
FE
F5
0A
04
16
D6
01
00
FD
0A
F9
FA
08
F9
F3
0D
19
06
EC
03
10
0B
F2
FF
D3
0F
02
E9
F9
02
01
0A
1E
F9
03
11
FA
ED
F4
E7
FE
1E
F4
F8
0F
25
EB
0D
17
0E
D1
05
E7
EE
08
E1
19
D3
E8
14
04
ED
D6
01
09
11
0C
F4
F8
F9
04
0F
0F
EF
D8
FD
DE
0F
09
FC
